#version: 0.2 - Trained by `huggingface/tokenizers`
e n
e r
i n
Ġ a
Ġ t
Ġ d
c h
e s
o n
Ġt h
u n
i t
i s
Ġ s
Ġ w
a t
i e
o r
a n
Ġth e
r e
Ġ b
Ġ o
a l
a r
Ġ in
Ġ f
i ch
Ġ m
t e
i on
Ġ e
Ġa n
u r
a s
l e
Ġ p
Ġ c
Ġ un
Ġ h
u s
en t
g e
Ġo f
r o
Ã ¼
Ġ n
Ġ S
Ġ v
in g
un g
Ġan d
Ġt o
Ã ¤
l l
e d
Ġd ie
o m
Ġd er
Ġun d
i g
s t
i c
Ġb e
Ġ A
Ġ is
Ġ E
Ġe in
i r
Ġ z
i m
Ġ g
e l
Ġ M
Ġ P
u t
r a
t er
Ġ B
e m
i l
t en
o l
at ion
d er
e it
e t
Ġ l
a m
d en
Ġ re
Ġ I
h r
i es
u m
Ġ F
o p
Ġ G
c t
s ch
Ġ K
u l
Ġ k
u f
Ã ¶
b er
i v
l ich
d e
Ġ R
Ġ C
Ġf or
a b
o t
Ġ T
Ã¼ r
is ch
Ġ V
Ġ H
i er
ich t
g en
Ġ D
Ġd as
Ġ on
Ġz u
Ġ W
er e
Ġd en
l y
es s
es t
Ġth at
o s
h e
an d
i d
Ġ L
c e
om m
er s
e in
Ġp ro
Ġa l
o w
Ġw h
a ch
Ġv on
Ġ r
or t
Ġ ge
u ch
Ã Ł
Ġ im
Ġs t
it h
Ġ y
Ġ U
Ġw ir
k t
i f
Ġc on
Ġis t
Ġv er
Ġ er
v er
Ġw ith
Ġa uf
Ġw e
Ġf Ã¼r
ur op
a y
i ll
Ġd es
Ġ it
v e
Ġm it
a d
Ġa re
t s
â Ģ
in d
Ġa s
c k
Ġs o
Ġd e
Ġn e
is s
Ġy o
Ġ 1
Ġ N
Ġd ies
t r
en d
a f
p p
ĠE urop
at e
m ent
i k
Ġ Z
Ġ (
Ġs e
q u
T he
t h
ung en
l a
0 0
isch en
Ġ 2
n en
m en
i b
Ġal s
ĠS t
Ġein e
a k
Ġe x
ĠV er
n e
f or
Ġd em
Ġth is
it y
ĠI n
Ġh a
an t
i en
iv e
i al
a h
is t
Ġ or
Ġ j
ar t
Ġn icht
p e
un d
Ġw er
u g
Ġc o
Ġn ot
an n
Ã¼ ber
s te
ĠU n
Ġs ich
Ġa ll
Ġ le
Ã¤ n
u b
f f
Ġwer den
te l
Ġ -
Ġ J
w e
Ġb y
Ġha ve
Ġdas s
ĠR e
ro m
a g
ĠS ie
ig en
Ġa t
ig h
us t
ĠA n
Ġ es
as s
en s
Ġa us
a in
al l
ul d
Ġyo u
u p
s p
Ġw ill
o d
Ġa b
Ġc om
Ġun s
ie l
er n
Ġ Ã¼ber
a us
u re
Ġ i
Ġs h
Ġm e
z e
ion s
a ge
Ġwh ich
omm iss
te d
Ġw as
Ġa uch
Ġ O
r an
b en
l ie
h en
D ie
ĠP r
Ġf rom
a hr
h al
ung s
d u
o ch
ĠEurop e
ar d
Ġ um
ĠS ch
o uld
Ġs ind
Ġ us
ter n
Ġ ch
Ġs ch
ommiss ion
Ġ âĢ
. .
id ent
I n
o g
Ġp r
ĠP ro
Ġ ent
f er
Ġv or
Ġwir d
us s
es ch
Ġh as
u e
Ġh ab
sch af
i p
i z
m er
f t
p ort
in e
Ġw or
T h
g r
Ã¶ n
s s
u d
Ġr es
Ġ en
an g
ĠE n
o c
ll en
o us
isch e
ic k
o k
Ġw ie
Ġd a
en n
as t
Ã¤ t
ĠB e
o ur
ĠP ar
Ġh e
ur ch
Ġc an
m e
Ġm an
is e
ab le
et z
er r
for m
Ġa m
i ge
i re
k eit
Ġh at
Ġs ein
Ġ ich
a p
o st
p r
Ġo der
er t
am ent
Ġo ur
i a
or e
ĠA r
b e
o tel
c c
er v
Ġcom p
Ġz ur
ul t
b eit
Ġals o
ation s
ĠEurope an
ĠE r
Ġhab en
Ġs ie
ation al
ct ion
h er
ic al
h eit
it ion
Ġa d
es e
lich en
ĠA us
ic e
l o
at ed
a re
o ut
der n
Ġbe i
Ġd o
Ġein er
Ġk Ã¶n
om e
ol it
s e
r it
Ġ "
r u
at en
t z
h l
th er
ar k
or d
f Ã¼
ier en
p t
e ct
Ġun ter
Ġ Ã
Ġ2 00
is h
Ã¼ n
Ġn ach
a c
Ġ qu
schaf t
Ġein en
h t
ĠG e
m s
ig n
' s
Ġp art
Ã¤ r
te t
ĠPar l
ier t
Ġyo ur
el t
igh t
Ġit s
ĠUn ion
v el
at es
ĠM it
o un
ak e
Ġt e
t ra
e ar
Ġre g
it e
Ġd urch
Ġg ro
an k
i an
a u
g er
y ste
f en
Ġs u
Ġs p
Ġb ut
ar y
em ber
Ġw ur
Ġa g
Ġg o
Ġ ro
i de
c ial
o ll
ĠkÃ¶n nen
Ġth ere
lich e
ĠB er
g t
p er
c on
Ã¤ s
W e
Ġa pp
os e
h re
Ġd is
Ã¶ r
ĠE in
an z
Ġs te
Ġd ar
ch t
Ġt ra
ĠE U
Ġw ar
u al
ĠF ra
D as
ch en
ĠC ommission
ĠV or
c l
im e
Ġw ould
Ġs pe
er en
Ġm Ã¶
Ġ 3
an ce
Ġm ore
t w
i le
a il
o v
Ġz um
ĠA b
Ġthe ir
Ġein em
Ġ1 9
omm en
Ġbe en
m p
Ġg en
ĠâĢ ĵ
Ġb es
re at
Ġcon t
g lich
im m
u te
as e
âĢ Ļ
u ÃŁ
on g
am e
a ct
ch n
ch te
ĠEurop Ã¤
Ġa r
I ch
il d
ut z
g ra
Ġk ann
Ġf in
Ã¼ ck
b le
os s
a ck
ch e
Ġdies e
Ġon e
Ã¼ ss
Ġa cc
on t
Ġn ur
on e
ug h
ĠW e
ent s
Ġco un
Ġp er
ĠT e
Ġc omm
ĠG r
st en
g es
g an
h n
Ġsh ould
Ġal le
Â ł
Ġbe t
ah l
p l
Ġp l
Ġwor k
w er
ut ion
ik e
ĠD e
Ġne w
ier ung
ge b
ein e
Ġ .
Ġ up
ĠL e
Ġ ,
ĠS p
Ġc l
o b
ĠUn ter
W ir
Th is
z u
el y
ĠC h
a uf
l and
h men
re e
hr en
kt ion
I t
Ã¤s ident
Ġo ut
t o
Ġdies er
a v
ig keit
ĠJ ahr
Ġo b
r ie
n er
ĠH otel
l d
l ic
ol le
Ġj ed
on s
re ich
Ġp re
Ġcoun tr
ing s
Ġin d
Ġver y
Ġm ust
Ġin ter
k e
Ġz w
Ġwh o
b ar
Ġo ther
ĠK ommission
Ġda ÃŁ
Ġn och
.. .
Ġpro du
ĠPr es
it ies
form ation
Ã¤ hr
Ġm a
Ġe v
Ġthe y
m it
Ġp e
in k
ĠM r
Ġne ed
Ġw eit
gra m
c es
p ro
ĠH err
w o
or s
Ġwur de
at er
ment s
te ll
D er
Ġn o
Ġb er
sch en
Ġme hr
Ġso ll
Ġin tern
Ġon ly
Ġy ear
Ġf e
Ġcon s
Ġbe c
Ġsu pp
ge l
Ġst r
Ġl ike
ĠA uf
Ġa ber
p le
ol og
o in
yste m
g lie
Ġt ime
Ġab out
Ġw enn
Ã¼ss en
Ġp olit
te il
f e
p os
ĠPr Ã¤sident
ent r
E s
ib le
Ġan y
ĠS e
ĠPres ident
i ous
D ies
ass en
c ed
u en
an ge
le ich
Ġpro v
) .
Ġg es
Ġse hr
Ġ 5
vel op
x t
Ġm Ã¼ssen
er m
l in
Ġt ran
al ly
it Ã¤t
en z
j ect
Ġuns er
al t
Ġw o
n ah
Ġe ff
c ess
Ġ 4
Ġs ow
h nen
ĠRe g
Ġb is
i ament
an s
Ġ ra
Ã¼ tz
ar beit
on der
Ġth ese
i ent
am men
ĠParl ament
r at
ĠAr beit
Ġre c
Ġs erv
Ġs ol
i o
Ġd ire
Ġof f
ul ar
for e
at z
ow n
Ġv ie
f ahr
Ġh in
ie d
le d
ib t
il ity
Ġim port
us ammen
ĠMit glie
at ive
al s
Ġdies em
st it
Ã¤ l
p h
Ġt r
ers on
i der
r ing
ir st
op le
aus e
ur es
ĠM ember
a aten
ÃŁ en
ĠM en
ig t
Ġge gen
Ġde velop
Ġ if
c y
is m
Ġs uch
hal ten
Ġl a
f ol
w end
Ġre port
f l
Ã¤n d
Ġi hre
o ok
ay s
Ġa ct
ĠEuropÃ¤ ischen
un den
w n
sch e
Ġp ol
Ġg r
ĠA l
ig er
iv en
etz t
Ġs ub
ĠT h
ate g
d ition
k s
if ic
Ġre l
Ġin s
Ġm y
Ġo ver
al e
it u
w or
ne hmen
ĠZ eit
Ġin to
Ġpe ople
Ġw ere
ĠM a
ĠF or
Ġi hr
ĠT he
fÃ¼ hr
k te
st r
Ġwe ll
ic es
c re
Ġ2 0
i den
ir t
Ġge m
Ġintern ational
Ġb est
er g
k en
ĠParl iament
Ã ©
) ,
Ġs ome
U n
b s
em ent
Ġv iel
ĠmÃ¶ chte
Ġwh at
Ġus e
l ung
o u
ach t
c il
en den
Ġin v
is ten
con om
ľ ber
en e
Ġd if
ĠSt ates
Ġh ier
Ġm ark
ar ge
Ġs a
f r
Ġh igh
A n
ich er
ĠMitglie d
Ġh er
urop Ã¤
us tr
Ġein es
am en
Ġk n
ver y
re i
ĠM ar
Ġh otel
ĠC oun
or y
Ġb ed
u ll
Ġcountr ies
Ġf irst
Ġl oc
Ġth an
Ġge w
Ġin cl
ent ion
Ġm ost
Ġv om
olit ik
z eit
Ġh el
Ġw icht
Ġde c
Ġwh en
Ġh is
at ing
it te
Ġl ie
Ġpart ic
es ent
ie t
pe ct
Ġund er
Ġv ers
a ce
Ġthe m
ĠO r
in n
ard s
ag es
l es
ĠCoun cil
Ġd am
it z
Ġj ust
et t
Ġpol ic
s icht
Ġsow ie
Ġw el
at t
ĠMen schen
on d
Ġe le
ĠEn tw
Ġn ow
Ġag ain
Ġe uropÃ¤
ab e
ĠU m
Ġsupp ort
Ã¤n der
t re
ĠK on
Ġdies es
at s
Ġg u
Ġb as
e ver
Ġimport ant
l Ã¤
igh ts
Ġm ake
Ã¤ ch
Ġa ut
we en
ĠBer icht
el s
h o
Ġp la
hal t
Ġg ibt
ĠÃ ľber
ĠL and
Ġe conom
Ġman y
u es
k l
Ġh ow
ess en
Ġro om
k ommen
Ġbet ween
st Ã¼tz
Ġas s
f in
h and
j e
ot h
Ġpro pos
Ġre qu
ĠM e
Ġm o
Ġf r
hal b
an y
f ter
Ġte chn
iss en
Ġ Q
iv es
b st
ig ung
Ġp oss
Ã¶ s
ur al
lie ÃŁ
Ġbec ause
en ce
st aaten
w are
Ġzw ischen
ĠC omm
ter s
Ġle g
d r
Ġt ake
Ġber eit
Ġf re
le gen
m al
Ã¶ glich
z ie
Ġk on
Ġwor ld
ub lic
Ġmark et
u er
Ġp os
o te
ĠEntw ick
ĠVer b
f ul
ar m
Ġc re
Ġ 6
ĠB ed
Ġm uss
Ġ '
oin t
c ted
ro ugh
ble m
Ġf o
o ff
w eit
z ial
Ġf ind
at h
m in
Ġs el
ic t
ĠF l
am p
le ar
h Ã¶r
Ġuns ere
Ġs on
Ġo p
Ġn ational
Ġp ar
oun t
d em
âĢ ľ
Ġwh ere
Ġk eine
Ġgo od
ĠN e
Ġm in
d it
al ity
om p
ĠP l
n is
A l
Ġg reat
ra g
Ġh and
Ġb ie
ver n
Ġn at
Ġa v
Ġt wo
esch Ã¤
Ġin formation
ĠS tr
ur n
ur ing
Ġe mp
ra uch
ĠU S
ach en
ĠG es
ĠI hnen
ĠIn tern
ĠEn t
Ġre m
i um
S ie
Ġe very
Ã¶ ff
Ġein z
Ġver b
Ġma de
Ġh ad
Ġyear s
ÃŁ e
Ġcon c
ĠM in
a ut
Ġand eren
st and
s el
am il
ro l
h m
Ġm ein
ĠPro du
un kt
Ġev en
Ġ end
ĠAr t
sch ie
a ir
la ub
Ġth rough
f ort
Ġw ay
ce pt
B e
Ġis s
ĠGr und
Ġs ystem
ge ben
Ġth ose
Ġprodu ct
Ġge t
is ion
isch er
ch ten
for der
Ġse e
ĠMitglied staaten
ess ion
in a
gen d
ere ich
Ġs c
Ã¤l t
g ung
Ġweit er
is ter
ste ll
Ġan ge
l ish
ur r
ow er
w s
ĠâĢ ŀ
ĠS o
ĠI hre
im mer
Ġ19 9
y s
we ise
Ġim mer
la g
gan is
ĠÃ Ħ
d ay
ĠZ usammen
Ġpolic y
Ġor der
ow s
Ġm ay
ere in
Ġt ak
ĠEurop a
uÃŁ er
l ick
Ġdis c
Ġdire ct
um ent
um an
sp r
Ġd ann
st er
h ne
Ġr ight
Ġa c
un ity
itu ation
âĢ Ŀ
r if
I f
Ġbe ing
ĠR at
ĠVor sch
iv ers
it al
Ġf act
all s
Ġbes te
Ġn um
it ed
Ġbe g
ch ts
is en
Ġr est
Ġk e
Ġ 7
1 0
00 0
er ation
I m
Ġbe lie
Ġpartic ular
Ġapp ro
Ġwie der
Ġdies en
nah men
Ġc ar
Ġdif fer
Ġdam it
c om
Ġc ent
n ung
ĠF r
g est
Ġco ur
Ġg er
ion en
i or
it t
ĠH aus
Ġtran s
Ġ1 0
Ġz we
v or
Ġincl ud
Ġwur den
Ġ 8
Ġg anz
ĠB ereich
Ġo wn
Ġg esch
p art
a ur
b al
Ġ [
Ġf Ã¼
ein s
Ġpro cess
iss e
icher heit
o ugh
r y
Ġres p
a de
in ess
el n
ad t
Ġd el
Ġkn ow
ge t
ĠW elt
Ġm on
in nen
re ad
ze ich
at ter
ous e
tra g
ĠD ie
ol d
Ã¤n dern
gram m
Ġb us
el le
stit ution
Ġare a
E in
Ġqu est
l er
Ġm ain
W enn
h in
a z
ĠâĢ ľ
o y
Ġb u
schie den
Ġp h
Ġk ein
it Ã¤
z en
Ġunser er
ĠG ro
Th ere
o ol
Ġag re
al k
Y ou
re chen
ro und
Ġre al
ĠH and
i x
Ġhel p
Ġh ere
Ġhab e
schaf ts
Ġson dern
Ġs m
ĠGe b
et h
p iel
Ġst and
ur s
Ġa fter
Ġde b
Ġcomp le
Ġsein e
le g
Ġjed och
Ġpolit ical
r es
est s
Ġfor m
in ce
g esch
te gr
ĠH e
eit e
Ġex p
ru ck
M r
Ġp ublic
Ġpla ce
el d
Ġi de
Ġin cre
Ġg ut
a x
ĠEuropÃ¤ ische
m b
Ġconc ern
Ġpro te
mit tel
Ġposs ible
ĠI hr
en de
is tr
v ed
Ġs ame
er k
Ġ 9
ĠE x
ent ly
ĠB Ã¼r
Ġs im
kt iv
Ġaus ge
Ġc lear
Ġe tw
ĠF in
ir on
Ġw Ã¼r
Ġs er
b ens
F or
at a
Ã¶glich keit
sch lieÃŁ
ier te
in es
Ġne ue
Ġco uld
er al
Ġh uman
t al
ten s
ĠIn ter
Ġw ant
Ġhe ute
Ġbe f
Ġd r
f ach
ĠB es
l ine
ĠG em
ĠIn formation
Ġnum ber
Ġcont in
la gen
Ġs ay
A s
n der
Ġof fer
Ġc urr
Ġeconom ic
v en
Ġp erson
Ġg leich
Ġdo es
Ġ est
Ġdevelop ment
Ġth en
Ġo pp
ert ain
is k
Ġwith in
Ġeff ect
us e
ĠB ar
Ġw en
ÃŁ nahmen
it i
tr Ã¤
Ġr ights
Dies e
an ts
ĠB r
e p
ost en
tell t
ra ft
ur o
ĠUnter nehmen
ĠK olle
Ġbereit s
ĠTe il
ic s
Ġav ail
Ġtran sp
Ġex am
Ġf est
y p
Ġsel bst
M it
Ġagain st
Ã¤ hl
al en
Ġo hne
h ip
a up
Ġm uch
Ġm ich
H err
Ġf und
m a
ĠIn d
an der
Ġb oth
b es
Ġus ed
Ġv al
Ġv is
la ge
ĠÃĦ nder
ĠEntwick lung
Ġpro f
ic ult
Ġthere fore
Ġl ang
W h
Ġihr er
Ġwicht ig
lich er
lo bal
ut ions
st ru
Ġs ur
Ġle vel
ĠSch l
ĠF re
Ġsoll te
o ck
Ġs ign
r Ã¤
f ern
lo y
Ġv ar
Ġh ist
ier ten
er ung
qu e
Ġreg ion
s etz
if e
Ġne uen
ĠeuropÃ¤ ischen
v iron
Ġm ed
ft ware
Ġe qu
ust om
Âł Âł
d s
ul ation
ĠS te
Ġb ring
Ġp ra
ĠF ran
Ġ ...
iv id
Ġf un
st Ã¤nd
Ġ1 5
ĠC on
Ġpl ay
af f
u x
Ġf ull
Ã¤ re
ĠJahr en
en g
s atz
Ġand ere
Ġc r
Ġprov id
e ut
Ġso cial
Ġb o
reich en
ĠR icht
ĠG erm
ĠH er
Ġcountr y
ur g
Ã¶ff ent
fahr en
ical ly
age ment
Ġzwe i
w ay
Ġe igen
n et
itte e
Ã¶ ÃŁ
Ġb re
Ġvie w
w ert
Ġcon f
Ġden n
Ġth ink
it s
eit en
Ġfin an
Ġgro up
ĠV ers
Ġwith out
Ġle tz
Ġl ast
Ġp oint
Ġst ill
w ick
viron ment
E r
Ġex per
wor k
et s
tr ib
ich te
ke hr
Ã¤n g
un der
Ġme as
Ġ ens
Ġden en
imm t
Ġ Y
ĠP re
c ur
o ver
w ir
b r
Ġsoll ten
Ġo per
iv er
Ġcons ider
S t
p ar
Ġad v
ess e
Ġdiffer ent
Ġserv ices
ĠFra u
Ġfin den
Ġl ong
at or
Ġacc ess
g ar
ĠS icherheit
Ġgem eins
ff en
nah me
Ġpr iv
ĠmÃ¶ glich
ĠN ach
Ġm od
ĠFra ge
f ra
Ġo pt
l im
m an
i ze
entr al
lich keit
E R
es en
is ts
w ort
ĠA s
Ġver schieden
o hl
Ġspe c
onder e
Ġ ers
h or
Ã¤hr end
ĠB et
n ess
Ġd own
ation en
ze ug
Ġ1 8
Ġgo vern
Ġat t
Ġf ree
oll ow
Ġpr in
ĠM on
Ġavail able
Ġc ap
Ġge l
r icht
op e
ĠW irt
H ow
ak ing
Ġrequ ire
w ar
Ġab le
Ġunter stÃ¼tz
Ġb ack
ĠBÃ¼r ger
ut ure
h ol
u de
Ġind ustr
or te
Ġ1 2
ib ility
rit t
a kt
Ġbie tet
Ġk le
read y
ĠD aten
z ahl
is ed
ur ther
p f
ab ility
i ÃŁ
Ġbus iness
Ġspe cial
al th
at ur
t ing
k un
Ġda zu
v ers
y n
ien ce
yste ms
ĠH in
ĠZ u
Ġsm all
Ġbe fore
ge m
Ġl ook
ĠP erson
Ġvie le
is piel
Ġlie gt
ĠK ont
af Ã¼r
Ġall en
Ġm achen
ĠF e
Ġc ustom
pp en
ien st
Ġwe il
Ġb en
Ġp ers
Ġal ready
l oss
ĠP art
Ġf uture
Ġg est
Ġall er
Ġbelie ve
ab en
ah men
Ġc or
Ġz e
un e
der s
in s
w ard
ĠK ommiss
O n
Ġbe k
Ġa ir
te m
ah re
S o
pr ess
il t
2 00
kt ur
as ed
ct or
con d
ĠMit tel
Ġs om
ct ions
Ġh al
Ġsein er
] ]
z ug
v es
ĠI s
A ll
Ġcour se
ĠkÃ¶n n
Ġdar auf
Ġop en
Ġto day
gram me
ann t
an te
k ten
Ġdes ign
ese ll
Ġpro ject
j or
a gen
ism us
Ġs et
w elt
Ġto o
Ġj etzt
Ã¤ h
Ġin st
ĠM Ã¶glichkeit
v ing
Ġc ann
Ã¤ ÃŁ
Ġproduct s
ĠA m
Ġserv ice
Ġe t
ah er
r on
Ġgr Ã¶ÃŁ
Ġe ing
ĠSt and
ic a
Ġen vironment
om en
ĠA ut
ĠTh em
ĠFin anz
Ġf l
it iz
Ġresp ons
h Ã¤lt
in ation
c r
Ġcann ot
Ġf ac
Ġc ertain
ĠR ahmen
n isse
ll t
z us
cur ity
c ome
m ar
r en
Ġd ata
Ġge ht
Ġge b
ten d
ot her
Ġpre v
Ã¶ l
ater ial
Ġsch on
Ġein fach
Ġm ir
ĠMa ÃŁnahmen
le ase
ol ution
ĠL age
ok rat
Ġf ollow
Ġre du
Ġf ra
Ġb ro
at ely
Ġc ase
ch ie
Ġb in
op eration
ĠT ra
Ġind ivid
2 0
l os
iv ing
Ġne g
c o
Ġin t
Ġoff ers
ĠZ iel
Ġein ige
ol id
ar s
Ġd afÃ¼r
kl Ã¤r
Ġreg ard
Ġp ut
ĠV erein
Ġe as
t ain
re d
or n
E N
abe i
Ġquest ion
Ġim pro
ĠInformation en
ĠRe chts
ra ph
af fen
Ġs eit
ĠM ed
Ġv oll
Ġ &
ent ial
Ã¤t z
ĠGem ein
in al
Th at
cc ess
Ġar t
Ġt er
i ber
Ġj e
erv ice
ual ly
e ich
Ġin tegr
is ierung
ĠHerr n
erg y
il it
if ied
fol g
at her
Ġfinan cial
Ġc ity
ĠG en
im es
Ġre as
Ġim ple
Ġch ange
ĠD em
ah n
Ġre pr
Ġpos it
ĠM an
Ġd uring
gr und
Ġ[ [
all en
ĠSt adt
ich ten
Ġre v
ĠAus sch
ut es
Ġc itiz
Ġi hren
Ã¼ h
an den
Ġzur Ã¼ck
Ġact iv
Ã¼n d
Ġf ar
le x
Ġpro m
Ġpro blem
Ġinv est
Ġd ay
o ve
uch t
ĠIntern et
Ġf ol
Ġsa id
Ġde ut
Ġalle m
c ing
in en
Ġn un
ich ter
am m
Ġg lobal
Ġl arge
uch en
Ġa chie
Ġme ans
Ġst at
Ġiss ue
Ã¤ m
ĠP ol
ĠJ ahre
Ġpropos al
Ġs af
a um
bs ite
Ġk l
Ġexam ple
ie le
R e
s o
il y
t t
Ġas k
sche id
loss en
Ġm eine
re ib
ĠR uss
is l
Ġqu ality
n ov
Ġz usammen
w ays
Ġapp lic
Ġma jor
Ġco st
ĠA mer
bes ondere
Ġm ember
Ġ200 9
Ġmo dern
hal ts
Ġf amil
heit en
Ġge f
Ġent sp
Ġme et
ill ion
p unkt
Ġs ince
ud get
Ġb esch
Ġpr esent
gr ess
Ġs ituation
Ġstr ateg
ĠT ran
Ġdeb ate
Ġbes onder
Ġroom s
i end
Ġne cess
un ter
it es
Ġ 0
et her
B ut
Ġwo llen
iz ed
Ġver fÃ¼
Ġsich er
Ġuns eren
am er
aup t
fÃ¼hr t
ĠCommission er
ant wort
u le
as h
p re
or g
o ten
a at
Ã ¡
Ġtechn olog
Ġein ge
il ities
le ist
f ts
Ġch ild
te llen
ktion en
Ġam end
Ġcomm on
ble ms
ĠwÃ¼r de
eschÃ¤ ft
Ġen g
an gen
Ġe ach
h af
Ġad op
ĠZ immer
kun ft
D es
P ro
Ġch e
etz en
Ġinclud ing
Ġp ass
lich t
ir d
or en
ĠKommiss ar
ĠP al
f ass
ĠÃ ĸ
Ġg ar
om at
o de
Ġcomp et
Ġp ower
ĠComm ittee
ach e
o h
ĠK in
imm ung
re it
Ġcitiz ens
ĠParlament s
Ġc olle
Ġre f
c ip
ĠArbeit s
v ention
ĠEn erg
ĠGe w
Ġw Ã¤hrend
N ach
Ġste hen
ĠP olitik
p or
b ed
ĠG esch
gen ommen
Ġetw as
ie der
op p
Ġth ree
aur ant
ab lish
Ġst ay
Ġsa gen
Ġfo und
Ġall ow
in ing
ge w
i pp
Ġare as
ĠEn g
Ġc ult
Ġob ject
Ġres pect
ort h
gan gen
Ġne xt
Ġmeas ures
ain s
e ll
Ġd och
ĠVorsch lag
ï ¿
ï¿ ½
Ġst ud
Ġso zial
ĠW ir
ĠB est
ĠFor m
ĠW or
Ġg ive
u ge
z w
Ġor ganis
ze pt
Ġfe w
and s
Ġ /
u gen
ord nung
How ever
Ġdem oc
Ġaut hor
Ġre ce
Ġb r
Ġens ure
lin ie
ĠB ild
Ġ3 0
Ġres ult
Ġdisc uss
Ġk omm
l ing
as ch
Ġ %
ra che
ug ht
Ġf urther
Ã¼r lich
Ġer m
Ġhist or
Ġprov ide
Ġen ergy
Ġpr es
Ġth ank
ĠE uro
schaf ten
Ġt un
Ġw issen
ĠP h
if f
Ġtak en
Ġins besondere
Ġsu ccess
Ġer st
Ġbu ild
f alls
Ġf il
un de
ĠB o
ĠU r
Ġagre ement
Ġm us
Ġc al
g leich
Ġer halten
Ġcont rol
ĠL Ã¤nder
ank en
stell ung
Ġk om
Ġad dition
stÃ¼tz ung
i ate
Ġd ra
w irt
s er
sch l
g re
Ġein mal
it or
ag t
ind et
Ġwar en
e k
ĠL Ã¶s
z iel
Ġgro w
Ġemp loy
O ur
Ġ Ã¶ffent
Ġd et
l ungs
W ith
pe cial
Ġp ay
as es
ĠVer fÃ¼
Ġa uÃŁer
Ġpos ition
Ġest ablish
ĠF all
il fe
ck en
le gt
Ġre ad
itÃ¤ ten
1 9
t schaft
Ġab s
Ġk ommen
chn olog
g ang
uf f
dit ions
ig ten
Ġla w
ĠPro blem
Ġv o
o hn
Ġbe im
Ġcom e
ro ss
ul es
Ġl ink
ĠDe ut
Ġd u
Ġopp ort
ar te
Ġp op
je kt
ĠÃĦnder ungs
Ġin de
ar n
Ġs k
ĠK unden
m m
Ġer sten
Ġim p
Ġpro blems
Ġsh all
ĠMar kt
em ents
ar en
b o
um s
Ġver w
Ġnecess ary
ut en
Ġcomp any
ĠG o
igkeit en
Ġd id
ĠI tal
Ġ Ð
E ine
ro p
Ġsch w
ĠZusammen arbeit
ar ten
A T
Ġe l
Ġt err
ĠGro up
f re
utz en
Ġl assen
Ġprin cip
p olitik
A uf
un ic
ess er
p end
ĠA ll
Ġbe gr
ot t
Ġke y
um en
ĠUnter stÃ¼tzung
ĠQ ual
Ġd rei
A N
Ġg iven
is es
le men
Ġleg isl
Ġgro ÃŁ
Ġb udget
ĠS h
F Ã¼r
f ung
ĠN amen
Ġse curity
Ġpra ct
Ġ Ã¤
b au
el f
ĠG er
Ġge ben
Ġinv ol
f ang
m ed
Ġe m
Ġ |
esell schaft
Ġhe alth
icht s
Ġwir k
g lichen
Ġh ope
Ã¶r der
Ġ Â
ct ive
T o
I N
is ing
Ġwh y
Ġhow ever
l ungen
Ġle ad
Ġent wick
H e
ĠR es
Ġse cond
or gen
Ġch ar
ass e
ĠZ ug
b urg
be wer
j oy
Ġver l
ĠSch w
iet y
it er
ĠPro ble
iv ely
is ation
ĠM us
Ġwh ile
ĠUm welt
w ards
Ġ2 5
f te
are d
Ġco operation
ur z
Ġbeste ht
Ġre t
ge ther
ĠB l
ne ll
ĠSp iel
Ġwir tschaft
a ve
Ġb l
E S
ĠRe cht
ĠM ill
sp ro
Ġ ir
fÃ¼hr ung
ĠSt ra
ĠCh ina
Ġloc ated
S ch
v on
Ġand er
Ġw ish
Ġst art
Ġg ra
ar ch
Ġl ife
Ġprote ction
ĠR o
Ġimple ment
sch ied
Ġtra dition
ĠD ienst
ur y
Ġre fer
Ġal ways
alt ung
ĠL Ã¤ndern
Ġ1 4
ĠfÃ¼ hren
Ġneed s
Ġcomple te
wend ung
E n
te xt
Ġste ht
Ġw rit
Ġse hen
Ġsein en
er b
Ġ X
zie h
rie d
ear ch
Ġv ote
Ġin form
ĠM ein
al d
k on
le ct
ĠG eschÃ¤
i que
o gen
ĠT ag
Ġst att
Ġcom b
Ġbe h
h Ã¤ng
pp e
Ġs ens
ĠDe b
Ġ1 1
Ã¶ t
Ġdif f
Ġa kt
ce ll
W ie
t ion
Ġw Ã¤re
Ġbet ter
k re
ĠI ch
Ã¤t ze
ste llen
ĠS ystem
c a
ĠFra gen
b y
Ġm ult
iv il
dr ess
ĠV ol
ĠUn ited
ett bewer
ichter st
Ġd abei
Ġt re
z ess
Ġ1 6
Ã¤ d
Ġa ction
ĠB eit
al le
sch ein
Ġinter est
g aben
ch es
A t
ĠH ouse
Ġacc ount
S e
ĠKolle gen
ial og
Ġg laub
ĠA t
i ation
Ġge hÃ¶r
z Ã¼
Ġn et
ĠT r
Ġm en
Ġh Ã¶
ĠR est
Ġn or
ĠLe bens
Ġleg al
ber eich
Ã¤ mp
Ġf iel
Ġus ing
Ġletz ten
uf t
is te
ch er
Ġf av
re chte
Ġwor den
se qu
Ġch o
ĠReg ierung
Ġm uÃŁ
l ess
ent en
ik an
ĠR ed
Ġde fin
i od
ier ungs
ĠP ort
ĠD es
ob il
r Ã¤n
Ġb le
Ġm ov
ĠS w
ĠEnerg ie
und heit
sch rif
Ġcons um
ge hen
Ġs ing
o f
ĠA d
cl us
ing ungen
Ġre ach
ĠBed eut
ĠComm unity
Ġ20 10
Ġ200 8
Ġ1 7
Ġbas ed
Ġa round
ĠK r
Ġcon ne
Ġtransp ort
Ã¶l k
Ġgro ÃŁen
F ra
ig es
g abe
ab il
Ġder en
ĠVerfÃ¼ gung
ges tellt
Ġgro ÃŁe
ĠS pe
Ġwel che
mar kt
Ġter ms
Ġwork ing
gen den
Ġcurr ent
3 0
if y
Ġad d
Ġ5 0
Ġm et
ĠBedeut ung
ĠEnt scheid
ĠUS A
erv or
Ġin ner
ge d
ass er
Ġst ru
ĠS eite
Ġprodu ction
Ġsh ort
Ġbec ome
le v
b lick
ĠK om
Ġwh ether
ra cht
um ents
ĠQ u
pp orte
Ġl ess
off e
Ġparticular ly
ĠEr geb
Ġn on
Ġc rit
ĠB el
Ġcent re
ho f
Ġl im
Ġindivid ual
Ġex tre
ĠD as
ed er
Ġto gether
Ġde f
Ġdiff icult
Ġbe l
Ġh o
ĠReg ion
Ġvis it
Ġan other
lo ad
ĠR om
Ġne ar
Ã¼n st
fer enz
Ġor ig
Ġst ate
ut er
Ġd ist
Ġres earch
Ġtra de
d ruck
Ġw ater
Ġz ahl
os ition
Ġcl os
ig ent
Ġre p
Ġh im
ĠSch utz
ustr ie
an ies
Ġc are
Ġe ar
im men
k auf
Ġchild ren
Ġb ene
ĠF amil
pecial ly
ĠS k
Ġbe ach
ro om
Ġs l
Ġnot wend
ben e
Ġcon trib
ĠC l
Ġwho le
as tr
Ġex ist
tell ung
Ð ¾
Ġiss ues
ĠVer trag
Ġto ur
ot s
Ġjed er
n ers
Ġbie ten
t y
Ġh ervor
Ġloc al
ak es
ĠRe gel
5 0
trÃ¤ ge
i ar
Ġcon ditions
Ġda von
entr um
ar ante
O N
c kt
le it
ĠThem a
Ġspec ific
Ġr icht
Ġ1 00
Ġreas on
am es
Ġdar Ã¼ber
Ġfr iend
at te
Ġent fern
Ã¼ t
ie w
Ġer forder
ĠL a
Ġen joy
ĠB esch
Ġk m
b t
ult ur
Ġc all
ort s
h ang
Ġe ben
ord ing
v est
Ġsub ject
Ġa ff
Ġsh ow
Ġste llen
Ġbe w
Ġgegen Ã¼ber
ĠWirt schafts
h Ã¶
Ġb ook
rie den
Ġan n
ad ies
k ungen
x im
Be i
Ġad dress
Ġd aher
od y
Ġs ystems
Ġall es
Ġro le
ĠKin der
ik a
Ġ200 7
ĠU N
t on
Ġt ax
Ġvar ious
ik el
our s
enn t
Ġsch nell
ĠWe ise
Wh at
uf en
ateg or
Ġb rauch
Ġra pporte
eng th
Ġeigen en
ro w
Ġr un
ĠProble me
W hen
Ġexper ience
f Ã¤h
Ġw omen
ĠM al
ĠS ervice
Ġges am
ail s
Ġ2 4
ĠT ur
wirt schaft
gem ein
Ġp age
Ġor gan
Ġcomp anies
Un d
ĠBe ispiel
Ġsow ohl
Ġindustr y
Ġste p
isch es
ĠBer ichterst
Ġse ctor
Ġo ld
is ions
s k
Ã ³
Ġ ur
Ġpolit ischen
Ã Ń
Ġbas is
sch utz
ĠG Ã¤
Ġgu arante
ĠHaus halts
Ġa im
Ġn Ã¤ch
Ġbef indet
Ġweit ere
ĠIntern ational
s en
ro ll
as ter
Ġbene f
N e
ro du
ese hen
ĠW ahl
ĠWe g
ĠMr s
ĠkÃ¶nn te
The y
Ġo cc
Ġp at
ĠFra uen
one y
Ġd ort
iti ative
Ġer reichen
ne ten
th ing
Ġbe aut
Ġcom fort
Ġprof ession
Ġp ack
Ġhat te
Ġmein er
Ġre ally
ĠIhr er
ir m
ĠEU R
ĠA ir
A us
ch an
Ġd i
Ġde al
Ġm atter
Ġwirk lich
Ġnat Ã¼rlich
ĠB us
A R
Ġcomm it
ĠS an
ge ord
lo ck
in o
Ġse ver
a i
reat y
ĠG u
ĠGerm an
Ġar beit
W as
Ġc ol
Ġt yp
Ġth ird
Ġbesonder s
Ġin nov
rit te
in ter
ab ly
Ġpr ior
ĠZ ahl
gen de
Ġb ar
ĠF ahr
ĠF ol
Ġes pecially
b ild
Ġmon th
Ġbre ak
ĠB en
ĠZu kunft
iv ed
ĠAussch uss
o ber
Ġi hnen
Ġmember s
Ġgovern ment
an ces
Ġper iod
Ġd one
am t
Ġst aff
Ġcl ose
Ġg ent
Ġverschieden en
Ġd oc
ĠSt aaten
ĠunterstÃ¼tz en
ĠL in
ĠGeschÃ¤ fts
cell ent
Ġpro ced
e an
t il
ĠSt ud
if iz
iz ation
re g
ĠEn de
ĠK l
Ġm ot
ĠD er
u ktur
Ġs he
et y
fin den
Ġentfern t
Ġfo od
Ã¼n ft
og raph
d ings
id es
Ġh och
z uf
. (
ĠF un
tre ten
Ġinner halb
iv al
Ġ1 3
Ġto p
eth ing
ĠM ark
wer k
I T
ic an
sp l
ĠH aupt
ĠFor sch
Ġneg ot
Ġperson al
Ġcre ate
Ġfe at
ĠS eiten
Ġviel en
Ġte il
ĠProdu kt
a pp
Ġt urn
Ġpriv ate
ĠF ort
k ung
Th ese
ne h
Ġloc ation
ra um
ĠS ituation
Ġs ite
Ġper form
Ġin stit
ĠR olle
Ġrepr esent
as ing
Ġp le
du c
Ġappro ach
ic ient
" ,
Ġpr ess
Ġs um
en ces
ich tet
Ġgen er
Ġbe tr
Ġent er
Ġzw ar
Ġpro p
er ien
sche iden
e c
Ġso c
ind ung
Ġre form
" .
we isen
Ġev ent
om ent
ens ion
Ġw elt
Ġinternational en
u c
f ast
Ġam ong
ĠDeut sch
ĠPro gramm
Ġj ob
Ġsing le
Ġp oin
ĠW ettbewer
im ate
Ġits elf
Ġdec ision
z ip
ord in
Ġl o
Ã¼ d
Ġsom ething
ul ts
i ol
w h
Ġst ar
Ġbest imm
Ġlang u
1 1
Ġsever al
ĠmÃ¶ chten
Ã¼ hr
ol f
land s
Ġstru ct
o or
kt or
at iven
Ġdo ub
Ġgen eral
if t
ĠPar k
Ġres our
e ign
Ġl ist
Ġfav our
ut h
Ġm aterial
ue llen
Ġinst all
ĠF est
itt le
min istr
ian s
U m
ond s
is is
ĠRicht linie
tem ber
Ġto wn
Ġauf ge
at ch
Ġdire kt
Ã¤n de
Ġm aking
' t
Ġhin aus
Ġcontin ue
Ġd Ã¼r
Ġpro gramme
I S
m os
ra el
me work
An d
Ġres olution
ĠW och
ĠVerb rauch
w Ã¤r
ĠD isk
Ġle ast
Ġen c
ĠI hren
ific ation
ĠT err
ĠG ru
an e
ĠA fr
Ġaut omat
Ġac cept
Ġgent lemen
Ġfollow ing
y l
Ġint rodu
c el
V er
sp rache
Ġm illion
g o
i ations
w Ã¤
ĠN utz
A uch
Ġpro gress
Al s
ĠE l
Ġser ious
Ġa way
ĠSo ftware
Ġpe ace
ĠStr ateg
D a
Ġrel ations
ĠT our
Ġgo ing
ĠL ie
Ġex cellent
Ġk ind
Ġof ten
Ġle t
ĠK Ã¼
A ber
neh mer
Ġop in
ĠC omp
Ġg l
Ġh ome
Ġte xt
h ens
be i
Ġman agement
at ives
if en
r im
Ġ :
C H
m iss
Ġs up
ĠGerm any
Ġers te
Ġn ame
Ġunder stand
Ġfamil y
Ġkon n
Ġm ar
Ġpartic ip
ĠAb st
Ġt ro
Ġof fen
Ġr ules
Ġdirect ive
ier e
au er
ĠN ot
le t
ĠeuropÃ¤ ische
Ġan s
ĠW er
ap s
gr icult
fe hl
Ġcr isis
str ument
ik en
Ġa part
Ð µ
ĠGe gen
or m
Ġrapporte ur
ĠR Ã¼ck
ant rag
Ġcont act
und s
ot o
Ġreg ul
Ġan al
pro du
ĠE s
ĠHotel s
Ġ200 0
ic le
Ġs ett
ier ungen
ĠU hr
ĠC hr
ks am
th ough
y pe
1 2
ĠMein ung
f ect
ic ial
we g
Ġm ach
Ġfe el
Ġm oney
Ġfor ward
H ier
Ġto wards
Ġso ftware
Ġex press
Ġon ce
Ġst ark
leist ungen
Ġin c
t he
ĠNe w
Ġpr ice
Ġeinz el
Ġr ange
Ġkl ar
th ers
Ġl ine
ull y
ach st
Ġwel come
Ġextre m
pe kt
on y
Ġon line
Ġf ast
Ġet c
ĠGes undheit
etz ung
Ġth ings
st Ã¼ck
Ġabs ol
Ġl ittle
ĠW ind
ĠK re
pr Ã¼
ĠBer lin
Ġrec og
Ġd est
z ogen
air s
teil ung
Ġb al
Ġinstit utions
ĠZusammen hang
v oll
Ð °
fer ence
Ġh Ã¤t
we is
Ġm ention
Ġcomm unic
ad am
Ġ ident
uÃŁ en
Ġp ost
Ġz us
itÃ¤ ts
Ġan t
if ft
Ġun til
D E
es ten
ĠO n
ĠAb geord
Ġs itu
w and
ist ic
Ġbei den
Ġm ilit
Ġunser em
A S
h aus
l ik
ĠF isch
A b
i j
out h
Ġkomm t
enz en
Ġst re
a den
ĠRe p
ĠWor ld
Ġd ays
ĠUn ivers
as st
ĠTran sp
Ġw alk
w w
Ġopt im
y r
Ġcustom ers
en nen
ĠD ire
g Ã¤n
ure d
b et
Ġfin anz
at ten
v ent
ies en
Ġa id
Ġstr ong
um e
ĠT reaty
O R
z immer
Ġ ess
Ġentsp rechen
Ġpl an
is on
ĠPart ner
ang es
lÃ¤ ge
ĠGÃ¤ ste
Ġincre ase
le an
tra ct
ĠH ilfe
ĠM et
ie ten
iden ce
ĠE mp
ĠFran k
Ġag ree
ĠEnt schlieÃŁ
omm end
Ġbeste hen
Ġopport unity
le icht
Ġ19 8
Ã¤ch st
ĠPerson en
fass ung
ĠJ an
Ġwelt weit
ĠK omm
Ġr ather
n a
e u
Ġke ep
ĠSp an
iden cy
re ch
Ġgrow th
Ġfun ction
Ġactiv ities
ĠZ we
ĠBerichterst atter
hal f
ĠIn vest
Ġm ind
oc us
ĠB ank
Ġh ard
lich es
Ġv e
cr ip
ĠVer antwort
Ġqu ite
st ra
ed om
ĠG ra
Ã¤ uf
we il
ĠO p
Ġste llt
iel en
Ġbring en
m Ã¤ÃŁ
Ġ200 6
ĠTe chnolog
ĠLÃ¶s ung
Ġb zw
ĠSchl uss
Ġche ck
m et
s ide
bar en
ĠN ov
Ġse em
Ġj a
lie ÃŁen
Ġ il
Ġposit ive
ĠU ms
ĠArt ikel
Ġprovid ed
ĠPrÃ¤sident in
ann ten
Ġst Ã¤r
ĠK lim
Ġbegr Ã¼
en der
ĠK o
Ġtr y
Ġresour ces
Ġele ct
an a
p ly
Ġb ig
Ġt as
ĠS u
ĠLe ben
ĠD ies
Ġs w
Ġpart ners
ĠfÃ¼ hr
Ã¤r en
Ġs ug
Ġwen iger
ue ll
Ġdar an
Ġme an
Ġde v
Ġt reat
ĠI t
Ġind em
Ġm ight
rol le
eit s
Ġbe half
Ġide al
forder ungen
ĠDem okrat
ere cht
ĠF il
in ed
Ġg ilt
Ġl and
Ġfull y
reich e
Ġp ort
Ġetw a
ĠN ational
Ġcl ass
ap an
ide o
Ã¼ck sicht
Ġgew Ã¤hr
Ġqu al
ĠMe hr
ĠOr ganis
ĠK ultur
Ã¤m lich
hn t
am b
L e
mos ph
Ġjed en
Ġges agt
fra ge
Ġincl ude
Ġf our
ab hÃ¤ng
Â ®
zeit ig
on a
ĠN atur
wo hl
Ġn Ã¤mlich
Ġl ab
ĠMin ister
ament al
Ġsign ific
if ul
ĠC ent
u h
legen heit
Ġy et
Ġum f
on ger
le tz
st adt
Ġb itte
Ã¤hl en
Ã¼ hren
ĠJ ul
Ġg ute
ĠD urch
ĠSe p
Ġval ue
Ġpers Ã¶n
it ions
Ġp ark
ein ander
Ġm ag
fer t
k omm
Ġha ving
Ġl adies
Ġp ur
s h
Ġtechnolog y
ĠI m
cept ion
pro chen
Ġent scheiden
Ġso gar
O M
setz ung
Ġgen au
rat ic
Ġfiel d
tel le
ĠR ates
Ã¤ch lich
b on
Ġpropos als
ĠSo zial
Ġb or
h under
ĠMember s
al es
re cht
op s
wend et
A m
ag er
Ġamend ments
ĠSt ate
v Ã¶lk
Ġger ade
Ġk urz
Ġal ong
Ġe duc
sel f
Ġ u
ĠS er
ĠOr t
ĠC ar
ĠProdu kte
tra gen
ill a
Ġrem ain
Ġer folg
ĠEr fahr
Ġsol ution
Ġfra mework
Ġt imes
ar f
Ġle ft
ro ffen
Ġt em
Ġne hmen
ĠEurop as
Ġbek annt
arm on
Ġl og
Ġk osten
f ully
le i
it en
Ġsaf ety
ĠG eld
Ġmin utes
pl an
at iv
Ġar ch
s ere
ĠCh ar
Ġrec ommend
Ġer war
ver b
Ġcost s
ra cy
Ġl ight
Ġab ove
Ġspe ak
Ġeconom y
in ge
ĠPro jekt
Ġeas y
op h
st ant
iber al
Ġi hn
an c
m ost
Ġo thers
Ġadop ted
ĠAus tr
an st
Ġtak ing
Ġn ie
ĠGr Ã¼n
ĠK osten
ing en
Ġess ential
ĠP unkt
al ten
le ment
ĠJahr es
ĠSep tember
Ġpolit ische
led ge
Ġunter schied
Ġeben falls
Ġwe ek
ĠPre is
Ġme isten
Ġstr ength
eth od
Ġi hm
ĠTe xt
Ġre cht
Ġf lo
hand lungen
Ġgem acht
w ahl
ĠFra ktion
Ġc reat
Ġp a
Ġsein em
ĠA ss
Ġm akes
ĠT Ã¼r
Ġ Ã¼
ĠB as
un st
z a
A L
Ġv iol
ĠZug ang
Ġcont ent
at ors
Ġent ire
Ġle d
Ġchar ac
Ġopin ion
Ġd essen
Ġto ol
Ġb esser
ĠAn ge
ĠBe zug
Ġverb unden
Ġb ank
M an
Ġcal led
ier s
Ġge hen
Ġver st
port s
Ġdar f
yste me
ĠS c
Ġf lex
Ġb ath
ĠSt a
Ġa gricult
Ġret urn
Ġan ges
ach ten
ib en
b are
Ġcon stru
at is
Ġne ver
ne te
Ġlegisl ation
Ġwe bsite
re en
ĠunterstÃ¼tz t
Ġf ocus
Ġw esent
aur ants
ĠWirt schaft
ĠG ar
re icht
tel s
Ġapplic ation
ĠAn d
w ord
Ġt erm
ig ital
Ð ¸
ile d
geb ung
Ġa k
Ġres ults
ig r
es ted
Ġw ahr
Ġ2 1
Dies es
ĠZ ust
ĠRe chte
Ġs ure
Ġbuild ing
E urop
ĠIn stitution
age d
Ã¼n f
Ġpoin ts
s weise
Ġprovid es
Ġdar in
Al le
Ġdel iver
Des halb
Ġfre edom
aus sch
Ġproject s
vern ment
ar ian
l iament
Ġatt ention
ĠP e
ĠK ap
Ġd ue
Ġbeg inn
Ġf air
Ġpolic ies
Ġpro gramm
bens o
Ġ4 0
Ġconcern ed
r ic
er st
ĠK omp
u z
ĠVer kehr
Ġhe art
Ġp ot
Ġr en
Ġstand ard
Ã¼ l
Ġco ver
ĠWe b
ĠEntwick lungs
ot ing
ir c
Ġrespons ibility
Ġglaub e
ĠÃ¶ffent lichen
ĠIs rael
Ġp ast
Ġr isk
Ġsim ply
Ġbeaut iful
uf act
E L
ĠdÃ¼r fen
Ġein igen
in er
â Ĥ
n ow
Ġder zeit
Ġappro pr
Ġre la
Ġm ass
âĤ ¬
Ġnicht s
mit ted
Ġquest ions
reib en
ish ed
ĠDeutsch land
Ġper fect
Ġsch affen
ber g
Ġgroup s
Ġte am
Ġimport ance
Ġyo ung
z entr
ĠGemein schaft
Ġto tal
Ġd om
Ã ¨
i ents
w Ã¼r
ĠF rei
ĠAn tw
ĠMill ionen
d ing
Ġeffect ive
h ing
Ġmo der
Ġb it
b our
Ġso llen
schlieÃŁ lich
Ã¤ he
Ġsoc iety
Ġab ge
ust ain
ĠB uch
amp f
ĠWe bsite
af en
ce ed
D ar
Ġ200 5
Ġcon text
ĠRe i
Ġihre m
Ġhe ad
E C
Ġbrauch en
ad a
ĠQual itÃ¤t
Ġkn own
Ġad ministr
ĠB eschÃ¤ft
Ġkein en
Ġnational en
ĠFl ug
Ġgreat er
Ġh olid
Ġse a
zus tellen
g esehen
wÃ¤r t
Ġenvironment al
Ġcontin u
Ġhand elt
ĠJan u
Ġstrateg y
sp olitik
t lich
ĠP at
arbeit en
Ġm ethod
ĠAus sprache
un kte
ĠW asser
al er
i qu
ĠA pp
ver kehr
utz t
u elle
ĠM Ã¤r
Ã¤ us
ist an
Ġzus Ã¤tz
Ġvers ion
Ġverb ess
ĠVerbrauch er
on nen
ĠS a
Ġnat ural
Ġstand ards
H otel
m at
ĠKolle g
e x
pf licht
ĠT V
le ben
em p
ĠAn geb
Ġro ad
it ive
Ġprincip le
Ñ Ĥ
Ġweiter hin
rie g
Ã¤ ter
zie hen
Ġt able
un Ã¤chst
Ġar r
' '
Ġat tra
ĠH Ã¶
Ġvers te
une hmen
Ġn a
Ġra d
Ġt alk
ĠJahr hunder
ĠF ir
Ġm iss
O S
Ġwor ds
h a
eu tet
Ġbetr ifft
Ġver sch
h ib
ring en
et te
ĠE bene
Ġs end
Ġincre asing
halt ung
Ġch allen
Ġin stitution
Ġrequire d
n ing
fr astr
ll er
A fter
Ġle a
ac y
ĠM o
Ġc entral
ĠS itz
F in
Ġvie ws
un ities
ĠFort sch
Ġher aus
ĠPr iv
ran k
ber eit
Ġsignific ant
Ġh ouse
ur f
ĠI I
zeich net
id ed
Ġman ufact
w ach
Ġwen ig
ra ch
Ġer klÃ¤r
ult ure
h an
is iert
Ġm oment
st aat
Ġres erv
use um
ĠTh is
Ġ200 4
Ġbed eutet
Ġtra ining
Ġse i
Ġdeut lich
Ġclear ly
ĠÃĦnderungs an
Un sere
ĠFr Ã¼h
Ġben Ã¶t
st off
Ġm acht
on en
Ġauthor ities
ĠN o
Ġdes halb
ter m
ĠVer w
Ġmeet ing
Ġsol che
ar i
ĠMe er
Ġun ver
Ġqu ick
Ġmus ic
ĠAbst immung
Ġin fl
b an
ĠGro ÃŁ
ĠG l
Ġbes ten
f il
Ã¤n ger
6 0
c al
Ġd on
ĠP ra
ispiel sweise
lÃ¤ ss
v o
spr uch
ic ro
Ġdem and
Ġrela x
Ġrec ent
ĠT re
Ġc la
Ġus er
at al
an ze
Ġkom ple
Ġauf grund
ĠLe ist
Ġp ub
gend a
Ġinter ess
Ġnet work
schl uss
y le
Ġcap ital
rit ten
Ġle arn
Ġbreak fast
it ing
Ġex tra
Ġachie ve
al itÃ¤t
ĠB em
ĠwÃ¼r den
zÃ¼ glich
m als
zieh ungen
Ġl ar
ĠS al
ĠN or
Ġf a
Ġas pect
Ġn ight
ag ing
Ġwicht ige
Ġso ur
Ã¤s ent
Ġsh are
er ous
f all
Ġtechn ical
ĠGes etz
pr il
ĠG esellschaft
Ġof t
P r
c ent
he b
Ġm at
U S
Ġdis trib
ges etzt
A P
uch e
Ġp ages
Ġacc ording
Ġfund amental
Ġv ia
Ġse le
ie f
A D
ĠChr ist
Ġc lean
Ġnat ure
or k
Ġapp ear
Ġintern al
hÃ¶r den
r i
on es
Ġl onger
ge legt
ĠD ok
Ġdirect ly
j en
he im
ĠKlim a
pl atz
ĠO b
Ġs ide
Ġfac ilities
Ġmonth s
Ġfind et
Ġth ough
Ġpre c
ĠUms etzung
ch ange
Ġf ish
wo hn
Ġv erein
Ġemploy ment
ĠnÃ¤ch sten
Ġpropos ed
Ġen ough
Ġob l
Ġim m
Ġsol utions
ĠMenschen rechte
Ġrespons ible
Ã¶rder ung
pt ion
el ves
ĠBe vÃ¶lk
un ch
1 3
ĠF ar
ĠSch ul
Ð ½
Ġer n
ĠK unst
ĠMit arbeit
ĠgewÃ¤hr le
ĠW ohn
k Ã¤mp
Dies er
Ġcult ural
ĠAn sicht
Ġhist ory
I C
Ġvor gesch
el bst
Ġer ne
Ġinter ests
ĠI de
gen cy
Ġsub s
Ġgu ests
ĠRicht ung
Ġt est
Ġrequire ments
ub e
Ġn utzen
ĠBet rie
Ġv ol
ĠHerr en
Ġcharac ter
Ġcurr ently
A r
Ġl ange
ff e
Ġbet re
Ġprev ent
Ġmain tain
G e
ĠPro t
ĠDemokrat ie
Ġv ier
Ġc ivil
fr ist
ĠDes ign
o od
umen te
Ġreg ions
Ġev ents
lieÃŁ lich
ith er
ĠNov ember
Ġass ist
g ent
ĠN Ã¤he
Ġterr or
u k
ĠInd ustrie
ab les
O ne
ist ischen
Ġm ount
Ġthe ms
Ġaller dings
1 5
Ġinvol ved
gr u
Ġthems elves
dr Ã¼ck
Ġs ustain
ĠJ u
mit t
ver stÃ¤nd
Ġpart ies
e le
Ġ2 3
Ġapp ly
Ġil leg
Ġs y
Ġan im
Ġwe b
e llen
ĠVerantwort ung
ste hen
ĠI ra
Ġrecog n
Ġb il
Ġneed ed
wir kungen
ĠB ro
Ġz ie
la uf
ĠB Ã¼
d am
h as
Ġl ive
Ġcompet ition
esen ted
Ġha ppen
ĠBed ingungen
ll ig
ĠJ apan
Ġfor eign
Ġh offe
v al
ĠIn sel
richt ung
ĠWind ows
Ġvo ted
Ġextrem ely
Ġge geben
ĠW achst
Ġgemeins amen
Ġfor ce
Ġimplement ation
fol gt
te ile
ĠAn wendung
ĠEntscheid ung
Ġrequ est
ĠStr uktur
en ch
ĠC as
Ġnotwend ig
mb H
Ġdemoc racy
Ġst ation
ck e
ie llen
ĠW ert
Ġeff orts
es tern
Ġcent ury
ĠGeb iet
Ġguarante e
ap er
g u
Ġbe ispielsweise
Ġup on
haf t
b ank
r up
Ġf ight
t a
ĠC o
ĠBes uch
omm od
Ġc amp
Ġlangu age
Ġje weil
Ġit em
Ã¼r z
ire d
ĠZ iele
ĠB rit
ĠR aum
g liche
Ġk ont
Ġag o
C h
yn am
ĠFe hl
en ken
pe ten
Ġd ank
ĠgehÃ¶r t
Ġbed eut
Ã¼ss el
Ġwo hl
ĠA pril
ĠInter esse
lin ien
ĠA G
Ġch anges
ob ile
Ġkle inen
E x
Ġc aus
ien en
ub lik
Ġviel leicht
ĠVorsch lÃ¤ge
an o
Ġsozial en
Ġpre p
in zip
ĠH a
ra gen
tr ie
ĠK ons
ĠBen utz
ĠB au
Ġ )
Ġdis k
lie d
ĠG mbH
Ġch arge
ĠSt at
Ġer ziel
Ġl ow
Ġex pect
Ġdem okrat
ke y
Ġc irc
Ġent halten
Ġver wendet
Ġse par
Ġdevelop ed
at ory
ĠGrund lage
Ġcont ain
Ġw ind
Ġp lease
ver t
ĠD ruck
is her
ĠP f
ig ur
Ġsp rechen
ĠPar te
Ġerm Ã¶glich
gr if
ĠT ages
ĠIhre m
ig ungs
Ġbe vor
b el
Ġcor re
Ġf arm
Ġz ust
Ġreg ulation
- ,
am ous
sch n
ĠK ar
je kte
Ġne u
Ġprote ct
im s
sicht lich
Ġso on
de ut
on str
Ġl ot
wÃ¼r d
ĠVer fahren
ĠEr folg
ĠW ort
ĠT ats
ĠC an
ĠRei he
Ġer reicht
k er
Ġ Ã¶
ch s
Ġcomfort able
ĠA uÃŁen
am a
teil t
hand lung
Ġ200 3
u ct
Ġc ases
tend ed
Ġm ess
T O
Ġp ool
and id
ĠEin satz
Ġnegot iations
pl ay
Ġma xim
cr ib
ne hm
ff ice
ĠGesch ichte
ĠN ord
Ġwer de
ens e
ip s
ĠPar is
ĠMus ik
Ġber Ã¼cksicht
imm ungen
Ġsitu ated
Ġcom es
Ġhal ten
Ġ2 2
Ġn am
Ġt arge
ĠA uss
Ġe ither
b l
Ġmarket s
Ġsaf e
Ġprev ious
ipp ed
gel n
ĠMÃ¶glichkeit en
d le
Ġer fÃ¼
Ġ19 7
ur t
ĠSt re
Ã¤t zen
Ġrest aurant
teil en
arbeit ung
Ġeing es
mer ksam
Ġregion al
ĠK rit
il der
eit er
ition en
pr ise
R O
ĠF rieden
ll ing
Ġdevelop ing
h end
in i
ĠD ate
ĠDeb atte
ĠHer aus
or ge
g ern
in ner
ĠD amen
ĠN etz
b est
um p
ĠC our
ĠÃ¼ber n
Ġmin im
Ġevery thing
Ġind ic
st all
ĠTe le
au en
Ġcre ated
ze igt
Ġaus gest
ĠJ un
ab el
Ġfin al
Ġsur round
on n
ĠW h
ĠS oc
ĠRest aurant
Ġh os
d ate
ĠB lick
ĠG leich
is tet
ĠW ar
Ġarbeit en
Ġun ique
Ġimpro ve
g ing
V or
Ġf Ã¼nf
Ġst ates
Ġam b
at tet
Fra u
ers eits
ĠHin blick
ĠhÃ¶ ch
ĠkÃ¶nn ten
ĠI r
ĠPres idency
ĠC ont
Ġl ater
Ġvorgesch lagen
Ġpr ices
Ġverschieden e
m ark
rie ben
schrif ten
ĠEr weit
Ġm er
T e
Ġeduc ation
an ten
Ġschw ier
Ġacc ommod
Ġp ict
i able
un ik
ĠA ug
ĠArbeit spl
m ut
Ġim med
Ġtr ue
I P
in t
Ġkon kre
Ġaddition al
Ġ âĤ¬
ĠSch we
ich en
Ġal tern
ĠE ur
Ġal most
ĠS ol
Ġex pl
Ġ6 0
h aps
O b
Ġinclud ed
k a
Ġdemoc ratic
ul ate
Ġgemeins ame
Ġmon itor
el ess
ip ment
Ġl iving
Ġth us
ĠSte uer
ĠverfÃ¼ gt
Ġqu e
ĠFran ce
chn ik
ĠP er
Ġc ut
Ġanal ys
Ġble iben
D urch
ĠA ktiv
Ġst or
ig te
or ted
ĠEr klÃ¤r
Ġfor t
Ġact ually
Ġcon tract
ĠM ot
spr Ã¤sident
ĠEin z
ĠermÃ¶glich t
ĠRuss ia
Ġcl imate
ib r
Ġide a
Ñ Ģ
ĠInstitution en
ĠS outh
ĠMin uten
Ġse en
omm er
pend ent
iÃŁ t
ĠAus wirkungen
re chts
Ġdoc ument
Ġtra vel
k ra
ĠDisk uss
ĠFr ench
es ter
Ġw ide
ing t
we gen
ge gen
iel le
i kt
v in
la ck
b ahn
ĠW ieder
Ġj oin
Ġenc our
Ġpro gram
ent al
Ġl ack
Ñ ģ
Ġak zept
or f
Ġrece ive
Ġhat ten
ats Ã¤chlich
Ġf ile
la den
jen igen
Ġh old
ir es
Ġvoll stÃ¤nd
m ail
i os
Ġknow ledge
ĠK raft
ĠM ont
il ar
ĠPro zess
ĠâĢ ĺ
Ġt ype
ĠA ff
c ies
ĠD r
ĠRe chn
ĠM ay
bar keit
Ġze igt
ĠStrateg ie
Ġappropr iate
Ġd ialog
ĠV iel
ra chten
Ġerforder lich
Ġfund s
hin der
Ġwirtschaft lichen
Ġv ill
ĠPl atz
Ġbis her
Ġsch ein
Ġoff icial
ĠfÃ¼hr t
Ġhel d
d es
us st
f rei
Ġen l
og ra
ĠAus druck
ĠDienst leistungen
Ġproced ure
Ġe uro
ĠW issen
ĠForsch ung
ĠL is
setz en
ĠSicherheit s
ĠTran s
Ġall gemein
Ġha pp
Ġgesam ten
tern al
Ġout side
ĠLand es
Ġass oc
ad urch
ĠM od
Ã¤hl t
ĠReg ionen
fol gen
ĠIn tegr
au ber
ĠE C
ĠAbgeord neten
es te
P lease
ian ce
Ġth ing
Ġer wÃ¤
ct ors
ĠH och
an ced
f eld
Ġan geb
ĠPl an
Ġdesign ed
Ġsch ool
Ð¾ Ð
Ġwork ers
Ġeinzel nen
ĠErgeb nis
Ġe benso
l le
am s
Ġdar um
Ġsug gest
atis f
Ġprop ert
D aher
ĠK ir
ĠZ us
Ġfun ktion
Ġr ate
op er
ĠS ub
1 8
fra gen
ĠWe bs
ste ad
Ġmajor ity
Ġfeat ures
ĠS port
Ã¶ glichen
ie ÃŁen
Ġprofession al
Ġd anken
Ġf amous
c ure
ie ws
ĠVer tre
P l
f s
Ġre lev
Ġsp Ã¤ter
Ġentwick elt
ĠKolleg innen
cl ud
Ġh on
V on
ond on
f el
ce p
Ġthrough out
ĠD ank
j Ã¤hr
E T
ĠSch ritt
Ġear ly
Ġcommunic ation
ot os
us h
Ġdra w
Ġden ke
ien s
Ġf ive
Ġans wer
Ã¤n den
v a
Ġc op
Ġlook ing
Ġan genommen
igr ation
ĠÃĦnderungs antrag
ĠB innen
Ġex clus
uÃŁer dem
l Ã¤ndern
mittel n
is ieren
o x
or re
ĠTats ache
ĠÃĸ ff
o id
Ġimp act
Ġcustom er
ĠFun ktion
ind est
o und
ver fahren
Ã¤s st
Ġbe tra
Ġbe hand
ĠFamil ien
Ã¤nder t
Ġemp has
Ġsp ace
Ġtrans l
ĠH ers
Ġdown load
Ġtak es
Ġh ours
Ġdo ing
F rom
fÃ¤h igkeit
Ġwork s
ĠPort ug
Ġac ross
ĠK le
Ġpot ential
kÃ¤mp fung
im me
Ġw ider
ĠI ran
Ġstrength en
ĠAr ch
ĠBereich en
Ġnor mal
arbeit et
Ġen able
Ġjed em
Ġinternational e
Ġcertain ly
Ã¼l t
Ġlink s
Ġ 000
sch lag
ĠVer handlungen
Ġe ver
ĠÃĦnderungsan trÃ¤ge
pr ession
Ġun ivers
Ġd ate
Ġcon sequ
Ġpar ts
Ġpro per
ĠFrÃ¼h stÃ¼ck
. ,
ĠMitglie der
Ġ2 7
ra d
ĠGemein schafts
Ġwe iÃŁ
ĠAmer ican
A C
Ã¤ che
ĠhÃ¤t te
Ġsol id
A M
Ġkonn te
Ġgemeins am
lie gen
Ġa ud
Z u
iel t
k n
Ġbe finden
Ġcolle ag
ĠÃ¤ uÃŁer
k r
ĠR is
ur en
ĠVerein igten
z if
ĠW Ã¤hr
Ġus ers
Ġgu est
on om
Ġvor h
ĠW est
Ġs etzen
ĠVers ion
Ġtradition al
Ã¶s en
ĠR ad
ar a
Ġinvest ment
il le
ĠSta ats
Ġgleich zeitig
Ġto ok
Ġne ues
Ġme chan
Ã¤ llen
ĠF und
ĠP osition
Ġweit eren
b ru
Ġrec ord
h ab
1 7
Ġorig inal
k o
ĠAntw ort
Ġd ivers
ĠBe ziehungen
ch sel
bild ung
st re
Ġer hÃ¶
Ġumf assen
Ġc a
Ġexist ing
Ġconcern s
ĠL uft
ĠD ialog
Ġe th
ere i
ĠBevÃ¶lk erung
Ġam ount
Ġres ol
z er
Ġcomple x
ĠHand els
Ġe igent
Ã¼ gen
Ġhin ter
c en
ĠZ entrum
i as
S h
Ġprogramm es
Ġhe iÃŁt
Ġpub lish
ĠGen eral
te id
Ġconne ction
u ted
h ung
ok ing
ke i
Ġc ross
Ã¤ ss
ĠN orth
Ġz uf
hal te
av a
gr iff
Ġl at
Ġse arch
ĠW erk
al ter
Ġrel ig
ĠPro f
Ġ200 2
ĠAb kommen
Ġ8 0
Ġne ben
Ġmention ed
se hen
om s
Ġconcern ing
l Ã¤nder
Ġmod el
l ang
an de
ĠInter essen
ĠF Ã¼hr
fort un
b all
Un ser
ĠL ondon
Ġpr im
Ġte le
Ġal though
Ġpar liament
Ġjed e
Ġwrit ing
Ġreas ons
Ġhel fen
. "
Ġl ux
g l
Ġabsol ute
Un ter
ĠAug ust
ĠB re
Ġv Ã¶
ĠPro gramme
ĠPro z
aff ung
Ġa ktiv
Ġdem onstr
ĠK Ã¶n
ĠCour t
ĠK os
al y
Ġc ard
richt ungen
ĠBeit rag
ĠH os
Ġdec isions
o le
Ġlead ing
f ace
B ook
Ġa ware
D och
hl en
Ġcomplete ly
I D
ĠP ak
ĠVer tra
ĠAn t
E D
M y
ay er
at ure
Ġbu ilt
ip l
Ġrel ated
Ġnot hing
ran ge
Ġgegen wÃ¤rt
ĠTÃ¼r kei
te mp
Ġj oint
Ġg ame
Ġgel ten
Ġbe it
ess erung
ĠHand el
es h
Ġex tens
Ġges tellt
ĠF Ã¶rderung
ar ing
ĠSchluss el
ĠKont rolle
ĠVer pflicht
Ġcomm unity
z Ã¶s
ĠGo vernment
Ġ200 1
Ġhal f
G en
ĠAuf gabe
Ġemp f
ar ity
ĠM il
Ġr und
ĠS Ã¼d
Ġin tens
Ġwicht igen
id dle
Ã¼ss e
Ġconf lic
for men
Ġfriend ly
Ġkle ine
ĠN icht
Ġmein en
ĠFl ugh
t es
Ġunser es
Ġbas ic
amer a
Ġenl arge
Ġass ess
m ore
Ġcomm ittee
S E
ĠL iste
Ġpra kt
un a
ĠTerr or
or ten
ĠThem en
ode ll
Ġcult ure
Ġpract ice
olog ical
Ġfr ont
ĠBe g
Ġholid ay
qu is
Ġpop ulation
uf fer
fÃ¼ hren
ĠSt abil
ĠVerb indung
Ġmilit ary
Ġagre ements
Ġinclud es
Ġsch wer
1 4
ĠWettbewer bs
ĠF uÃŁ
Ġd igital
gr at
l ies
ahr en
Ġintern et
M ore
Ġver d
Ġs pr
M ail
ĠErweit erung
s pe
al ien
ĠP C
ĠK ampf
.. ..
it able
fl uss
Ġcons ult
in den
ter min
gangen en
Ġbec om
w ie
Ġg ab
Ġlie gen
Ġmed ia
ol z
ĠC D
Ġall ows
Ġobl ig
Ġgest immt
ĠDe c
n issen
ĠEng lish
Ġspe zie
ĠJ ust
Ġer inn
ĠC or
st att
bed ingungen
Ġcomm er
ill s
y ing
Ġjed es
ĠAusschuss es
l ant
Ġadv ant
Ġobject ives
z unehmen
g n
ĠAmer ica
F irst
S eit
Ġble ibt
Ġcon clus
Ġb ody
lick en
end ing
ze ugen
Ġcho ice
C on
Ġer r
Ġ- ,
Ġbe kommen
B y
ag n
Ġw a
iter ran
it ness
Ġrece ived
Ġwe gen
ĠTur key
Ġjob s
Ã¤l le
Ġw Ã¼n
Ġval ues
en k
Ġsim ple
ĠVer ordnung
i ated
ann te
ov o
ra chen
Ġe mer
ĠM or
er y
Ġtrans fer
Ġorig in
a ul
am it
D e
ĠEntschlieÃŁ ung
ra b
v ement
str uments
as on
Ġs atisf
Ġf ail
Ġna he
ĠS y
Ġwar m
Ġestablish ed
ĠOn line
ĠKon ferenz
Ġ $
ĠRe form
Ġb ess
Ġp oor
Ġange m
ĠVol k
ĠBar cel
Ġapplic ations
u ck
i h
Ġpl ann
o o
Ġcomp uter
Ġequ ipment
ĠNutz ung
mb ol
our n
gesch lossen
Ã¶r dern
min ister
Ġricht ig
ĠStr and
Ġregard ing
Ġperform ance
Ġcap ac
Ġpack age
Ã³ n
Ġs ag
Ġmo ve
ĠBe hÃ¶rden
ĠIn form
Ġcent er
p ite
ikan ischen
Ġh armon
Ġl ok
ab on
l en
Ã¶ st
p ass
Ġw under
Ġ199 9
ĠEinz el
D o
enn ung
Ġger ne
Ġj ud
ĠLis bon
Ġwichtig sten
Ġatt ack
Ġdurch ge
v ious
Ġer laub
1 6
Ġin iti
Ġver antwort
pe cted
Ġagricult ural
Ġple as
at ic
Ġfil es
Ġp urch
Ġim age
s itz
er ve
ĠA ugen
ess our
uc lear
Ġbro ad
ĠFe bru
Ġun abhÃ¤ng
Ġs un
Ġobject ive
ĠL iss
Ġquick ly
om b
ĠF ern
os en
ic les
Ġcre dit
d ie
in ne
Ġmehr ere
Ġhin sichtlich
ĠAuf ent
ĠVol ks
ĠKr ise
Ġreport s
Ġc ru
Ġst op
er c
Ġf ace
Ġh err
os ed
Ġgood s
Ġkey word
Ġbel ow
Ġso und
Ġw onder
ĠFor der
ges amt
S p
ĠNot wend
im ension
ĠAff airs
ro s
s eit
Ã¶ hn
Ġganz en
Ġg anze
ge f
ĠMitarbeit er
Ġf ran
stell ungen
em b
Ġeing er
Ġindustr ial
Ġnach halt
ĠI S
ĠVerb esserung
w ide
Ġpart y
h em
und es
ĠK op
Ġwo bei
ch ter
f ten
Ġsel f
Ġso uth
ĠRe ise
ĠGru ppe
Ġerm Ã¶glichen
Ġlea ders
Ġexper ien
er nen
Ã ľber
br igen
Ġbenef it
p s
. -
ĠUr laub
m ann
Ġno te
Ġtro tz
Ġtreat ment
Ġsens e
Ġh uge
ĠLiss abon
Ġpop ular
Ġent hÃ¤lt
4 0
av ing
Ġachie ved
tell er
ĠAus wahl
A uÃŁerdem
ot ion
Ġsch Ã¶n
ĠWoch en
l am
Ġco de
Ġseem s
Ġcont ains
l assen
ent wick
Ġopt ion
it ect
Ġin itiative
ein er
Ġinde ed
schlieÃŁ end
er weise
Ġp assen
d om
iven ess
ster reich
Ġgar ant
ll a
opp ing
w ander
Ġra il
Ġbe ein
B er
ĠI T
Ġze igen
Ġle ben
Ġrec ently
ĠBinnen markt
ut t
Ã¤ um
ĠVer anst
ed en
ĠO ber
ĠP ass
Ġgr und
ĠSch affung
m Ã¶glichkeit
ist ische
Ġ ill
ĠWachst um
ĠGe legenheit
L et
ĠW ill
Ġl os
Ġsp ac
Ġcorre ct
Ġeng ine
Ġcar ry
R E
m or
Ġv ict
ĠDok ument
Ġdoub le
B es
ĠFrank reich
p ut
Ġcon grat
V D
ĠE ast
Ġve h
Ġbeginn ing
âĢ ĵ
ĠU kra
ĠL ux
ken nen
f on
Ġdialog ue
S ince
ien ste
Ġhigh ly
it el
opp el
r ig
Ġr uh
st ens
l ass
Ġlevel s
an ia
j ahr
Ġser ies
f onds
Ġsp ielen
Ġo il
Ġfr Ã¼
Ġflo or
ĠGeb Ã¤
h aupt
p id
Ġpr esented
Ġeff icient
wert ungen
c er
ĠB ad
s uch
ĠS ant
Z um
Ġhe ut
w ill
ÃŁ t
ĠPr ior
Ġevery one
ĠH ome
Ġn ice
ĠM acht
ĠC ity
Ġsc ient
st ances
Ġequ ipped
ĠvÃ¶ llig
Ġgovern ments
Ġsuccess ful
n ern
ĠG ree
Ġgar den
M adam
Ġintegr ation
ic ien
Ã¤t igkeit
vor schriften
t liche
um b
on se
le y
Ġact ive
Ġverbess ern
ut ter
Ġcomp rom
Ġcl ick
la ce
ĠVer wendung
ĠNotwend igkeit
fortun ately
ink s
Ġex change
Ġeinz ig
forder t
P E
Ġre d
ff iz
Ġk ulture
Ġincre ased
Ġl Ã¤sst
O L
I M
ĠF ach
Ġ !
Ġgrund legen
er ing
ĠAngeb ot
Ġ +
me hr
Ġcar ried
or ganis
Ġp ain
anz en
ĠErgeb nisse
Ġf urn
Fin ally
ĠBe f
Ġwh ose
Ġf rei
is ted
Ġst age
Ġconsum ers
a pe
auf en
A d
ab or
j ust
ĠGew alt
ĠCl ub
Ã¶r per
Ġprincip les
Ġt w
ik o
sch w
Ġa ge
l ier
Ã¼tz en
ĠT age
Ġb lock
ĠBarcel ona
Ġagre ed
I L
ate ll
Ġhigh er
Ġgut en
Ġse x
ĠMan agement
Ġgef Ã¤hr
Ġsozial e
ĠS up
ĠAm ster
Ġeigen e
a ction
Ġd re
ĠgroÃŁ er
Ġverw enden
imm ing
ho ben
ĠD is
ĠWoch e
p ose
ĠverfÃ¼ gen
Ġs ent
ĠAn zahl
Ġd ang
ĠI mm
2 5
ĠKÃ¶n ig
Ġst ra
o z
Ġrev iews
ĠK ern
ĠZ e
Ġamend ment
ĠA part
Ġoff ice
Ġbath room
Ġco ll
w ise
Ġdire ction
Ġr at
Ġprof it
end s
j a
ann er
Ġver g
Ġask ed
ĠZeit punkt
Ġh Ã¤uf
icher ung
b uch
ĠS erv
un t
Ġsubs id
Ġex c
loy ment
Ġm al
asch inen
Ġcommer cial
Ġcho ose
Ġsupp ly
. )
Ġsee k
ĠJ une
Ġcommit ment
Ġtra ff
grif fen
Ġsim ilar
Ġmein em
ĠverfÃ¼ g
Ġs ix
Ġf Ã¶rdern
ĠM aterial
ĠTe am
ap t
us ion
Ġob tain
at ast
Ġsch Ã¶
Ġdisk ut
x is
ic o
Ġan zu
Ġper haps
b ie
Ġk Ã¼nft
Ġte ll
ĠLie fer
Ġgesam te
verstÃ¤nd lich
Ġz unÃ¤chst
Ġsh ows
il es
Ġr ates
ĠM y
ĠCh in
Ġinfl uen
Ġmat ters
ĠProdu ktion
sch t
Ġaspect s
Ġav oid
Ġnew s
Ġob s
ĠgehÃ¶r en
ig lich
ĠLÃ¶s ungen
Ġstr ess
Ġadd ed
Ġsh own
Ġat mosph
Ġ5 00
Ã¤n gt
Ġgleich en
Ġn uclear
kl us
ĠSoc ial
uff icient
Ġb i
Ġre in
Ġinnov ative
h es
st anden
Ġfor mer
ĠT at
Ġprom ote
Ġd ynam
f Ã¤lt
b a
Ã¤ st
ĠJu gend
Ġ You
ĠM iss
Ġconsider ed
Ġc ame
pf lich
Ġvorh anden
al u
Ġt atsÃ¤chlich
ĠBer g
Ġp an
Ġthank s
ĠBeschÃ¤ft igung
gre ifen
en cy
ck s
Ġ2 8
ĠVor aus
Ġspe ed
Ã¤nd ig
Ġge legen
ir it
ĠB ud
Ġs orgen
fahr t
e hr
ĠH igh
ing er
Ġeffect s
ĠM Ã¤n
ĠIntegr ation
Ġhotel s
ak ter
Ġl ik
ĠK rieg
Ġver Ã¶ffent
Ġlat est
essour cen
ĠC entral
Ġposs ibility
ĠAn fang
art ige
l Ã¶s
Ġopport unities
ĠMa ÃŁ
Ġein deut
Ã¶ff net
2 4
ĠStand ard
Ġverst Ã¤r
ĠL eit
Ġge fÃ¼hrt
k i
ous ly
ĠHer zen
Ġmaterial s
ieren den
ĠT od
ĠIn itiative
l i
or ed
crip t
ow ers
ĠMehr heit
Ġbeh ind
ĠD u
ast ic
aus ch
ĠErfahr ung
Ġpro t
wh ere
ĠB alk
olog y
Ġcon dition
Ġde pend
ot es
z ub
Ã¤ cht
Ġer k
il en
R o
Ġentwick eln
aussch uss
Ġern st
ĠS tellung
Ġso fort
ĠY ork
ic y
H ere
ĠW ein
D enn
Ġd raft
ok oll
ĠP an
Ġph ys
Ġa f
ĠSe e
Ġresp onse
ĠÃĦnder ungen
ar ent
Ġsett ing
Ġreach ed
ĠS olid
Ġprovid ing
itt ing
Ã¼ hm
Ġcre ation
Ġrev iew
b re
Ġeas ily
ĠgrÃ¶ÃŁ ten
ĠPerson al
ĠReg ierungen
ĠÃ¤uÃŁer st
Ġaccommod ation
Ġverste hen
Ġex ternal
ĠN ieder
ĠBesch l
alt ungs
gen e
Ġle icht
Th ank
Ġatmosph ere
un sch
ĠEin fÃ¼hrung
ĠRep ublic
Ġsum mer
9 9
Ġprep ared
ĠP ost
ĠPro gram
Ġrelev ant
ĠOrganis ation
Ġde ath
ict ion
zeug t
I s
Ġredu ce
rif ten
ĠE igen
ĠR u
N o
ĠH am
Ġs ize
Ġh off
ar ily
r id
ĠRuss land
Ġcrit er
Ġsom it
ĠLe g
Ġex hib
ĠL es
Ġdet a
Ġsch le
Ġ9 0
Ġd ring
id el
Ġsustain able
k raft
ĠgewÃ¤hrle isten
he ben
le b
Ġled iglich
ĠJun i
Ġpress ure
ent lich
Ġdec ided
Ġho hen
u el
uff et
ĠIn nov
ĠL auf
Ġgesch lossen
rech end
ĠÃ ł
ĠR el
ĠG lobal
ne y
Ġpre par
ĠDe z
ist ics
re c
Ġver pflich
qu are
Ġcon du
Ġcapac ity
Ġele kt
ĠRat sprÃ¤sident
um mer
ĠM ac
ĠUm gebung
Ġgeb racht
ĠS elbst
u ern
Dar Ã¼ber
ĠI mp
Ġter ra
Ġcom ing
ĠKon fl
Ġbe teil
ĠCon vention
Ġpro b
oun ts
Ġsub mitted
Ġerfolg reich
Ġact ions
ib ilities
stell t
Ġst yle
ier ter
ĠSp ain
ĠB ra
Ġv ideo
ĠG olf
Ġwirtschaft liche
Ġg ives
es tens
Ġpla ces
Ġander er
Ã© s
Ġdet ails
ĠHÃ¶ he
Ġne igh
Ġcon cept
ĠM adam
itz en
ĠA gr
Ġt en
ĠAmster dam
cre en
Ġreg ular
Ġrem ains
Ġs ites
ĠVerein bar
v olle
Ġarch itect
Ġgro ss
Ġver n
ĠM ag
Ġ19 6
Ġde p
Ġ7 0
ul gar
i ately
Ġpropert y
ĠA kt
Ġemploy e
ĠA ktion
ĠSp rache
ĠH o
s y
ĠFamil ie
ma ÃŁnahmen
ĠBus iness
Ġenlarge ment
ĠStand punkt
komm ens
Ġs uffer
Ġbestimm te
W er
2 3
Ġc ause
Ġclos ed
ĠL at
ind ustrie
Ġprior ity
il os
re hens
ĠE rachten
P L
Ġreg istr
res p
ĠMa i
ro at
ĠErachten s
Ġer schein
Ġmein es
D amit
Ġausgest attet
o der
ĠInform ations
Ġzw eite
ĠS icht
ĠKomm unik
ĠKomp rom
it ure
rim in
S ome
Ġdis play
Ġbal ance
ze uge
ĠItal y
Ġle ave
ĠBe kÃ¤mpfung
N ow
ĠL og
ĠWettbewer b
Ġf al
Ġis land
ad em
Ġann oun
Ġtra in
et ing
ien te
Ġbestimm ten
rie f
Ġ =
ĠD inge
la v
ĠW ahr
ĠN et
em in
al a
ĠKommissar in
ĠVertrag s
ĠTransp ort
ĠA ud
There fore
ĠR ot
Ġzahl reiche
Ġa mer
zieh ung
Ġfund ing
Ġreg ister
Ġpart ner
Ġun e
ĠAm end
men ted
Ġconsum er
Ġdes crib
Ġob wohl
Ġlim ited
Ã¼nd et
Ġvor gesehen
Ġ3 00
F urther
ĠF erien
ĠPart y
ĠAs pe
s on
Ġassist ance
at o
Ġ ut
Ġmov ement
ĠDeb ian
ĠW TO
Ġde cl
setz ungen
ug s
ĠFrei heit
Ġfor ms
Ġar g
Ġne uer
ĠKos ovo
ĠSt ad
ter ne
ie g
atast rop
Ġdisc over
P ar
spr Ã¼n
Ġer hÃ¤lt
Ġel se
legen heiten
iterran ean
ĠP ers
Ġtra gen
velop ment
Ġhigh l
ĠAfr ica
Ġschein t
s ystem
sel ves
ĠVerkehr s
Ġtransp aren
Ġs port
Ġw oll
schn itt
u ert
Ġsupp orted
ct ober
ĠHin ter
ategor ies
Ġgro und
Ġ' '
itz er
ĠÃ¤ hn
ĠM useum
ĠArt icle
Ġbro ught
mÃ¤ÃŁ ig
Ġsag te
Ġent de
ĠÃľber ein
a der
ĠE ing
ĠM ich
ĠC he
ĠC ol
g han
Ġg reen
miss ion
ĠAktiv itÃ¤ten
wert ung
icien cy
c le
Ġregul ations
ran g
Ġvor lie
Ġn orth
Ġinde pendent
' .
Ġr ule
ĠIn strument
Ġer weit
ĠauÃŁer dem
ĠFortsch ritte
Ġalle in
Ġge wor
Ġ2 6
Ġv irt
Ġfo ot
Ġvers uchen
ĠG ed
stit ute
ourn al
ĠKont akt
el ten
ĠF ed
g esellschaft
ĠD ar
ĠFehl er
Ġh or
ĠDec ember
ĠBrit ish
hin dern
Ġeff e
N G
Ġlim it
reib ung
Ġsol chen
Ġbest Ã¤t
et imes
ste in
ge ber
Ġcreat ing
Ġqu iet
Ġw ww
ĠUkra ine
ĠSp a
ĠBest immungen
Fra ktion
ĠT o
Ġunter st
Ġple ased
Ġeff iz
Ġd adurch
ĠM ad
Ġconstru ction
Ġer ster
Ġf ig
Ġor d
Ġpur pose
Ġ x
ĠA dr
Ġrest aurants
Ġvar iety
a w
ĠGe fahr
Ġgem Ã¤ÃŁ
u is
Ġre gel
Ġzw eiten
e hen
ber t
ĠRe v
ĠItal ien
ĠS telle
Ġl ic
Ġre pe
ĠÃĸff ent
Ã¼tz t
Ġdiscuss ion
Ġapart ment
p age
Ġeinz ige
ĠMed ien
Ġfriend s
Ġfran zÃ¶s
ĠV is
ĠW ohl
an ischen
Ġm obile
Ġho he
Ġins gesamt
Ġf ix
Ġexp la
P res
merksam keit
d ra
Ġh y
Ġmess age
Ġde ep
Ġcon tr
ĠW estern
Ġbec ame
Ġer heb
ĠIn stall
Ġauf genommen
Ġprodu ced
ategor ien
Ġlar gest
Ġb illion
ĠSt unden
ag s
ĠI N
ĠMar ch
Ġin stead
Ġs us
Ġw id
mÃ¶glichkeit en
Ġex ec
Ġf isher
t ent
unter nehmen
âĢ ¦
ĠItal ian
ĠO kt
* *
ĠFol gen
end es
Ġren ov
is ters
g y
er o
en a
Ġver gangenen
Ġth ous
ig ungen
Ġrelations hip
F R
ĠAuf merksamkeit
ĠP unkte
Ġair port
is p
Ġstud y
Ġst ability
Ġcon ference
ĠJahrhunder t
Ġch em
ĠM icro
Ġw ays
Ġal ten
Ġsch lieÃŁlich
O r
Ġob vious
ar enz
Ġh ost
Ġreg ards
Ġacc ord
Ġinterest ing
ĠS il
ĠUnter k
b us
Ã¼r f
Ġeff ort
be wertungen
Book ing
ĠDez ember
af t
ĠUn d
la re
rit ts
le gung
Ġbo ard
Ġmeas ure
b esch
y ond
ĠErklÃ¤r ung
Ġstep s
k ont
rÃ¤ fte
com ing
ĠPre ise
Ġein schlieÃŁlich
Ġstar ted
por ate
Ġallow ed
ĠEntscheid ungen
Ġde termin
8 0
Ġ Ã¤ndern
Ġfish ing
Ġproced ures
Ġactiv ity
conom ic
Ġr ich
Ġgen ieÃŁen
f alt
S T
ad es
ĠPriv at
Ġ199 8
Ġtas k
Ġj Ã¼n
ĠSt aat
Ġprodu ce
Ġmed ium
Ã¤ gt
Ġver treten
Ġh ous
ĠBild ung
Ġin strument
W Ã¤hrend
ĠA f
et ary
Ġd iv
ĠBenutz er
ron ic
Ġstat us
E P
ang t
Ġkon zentr
an lage
Ġkein er
ĠBericht s
ĠAn forderungen
Ġhervor ra
Ġoper ation
ĠK ing
pr ises
al tet
Ġp urs
Ġac cep
Ġlegisl ative
z one
ĠR ights
Ġsour ce
Ġcomprom ise
Ġf all
ĠBas is
se e
Ġl iberal
n o
Ġm orgen
Ġcontrib ution
b or
ĠKÃ¼ che
Ġprov isions
Ġd ut
Ġrel ation
Ġdam age
over ty
s icherheit
ĠÃĸffent lichkeit
Ġt Ã¤
Ġbet roffen
Ġm or
ĠD i
Ġex act
so ft
ĠAl t
âĢľ ,
g round
l Ã¤nd
Ġb eschÃ¤ft
ĠC ons
ĠGÃ¤ste bewertungen
ĠDiskuss ion
itu de
Ġdis p
ĠSchwe iz
an nen
ĠVorsch riften
ĠFil m
ib il
ĠSer ver
p olit
u ed
Ġs an
ĠD om
ĠO ctober
Ġwrit ten
Ġin struments
wend ungen
iv ity
B itte
Pres ident
Ġwor d
ĠAb end
glie d
Ġlab our
k osten
Ġvill age
ĠZ eich
Ġd ise
Ġle isten
Ġfor der
ĠGru ppen
lin es
ĠGr enzen
ĠBereich e
Ġcomp on
Ġapp e
ĠUnternehmen s
ĠG ip
ĠSt Ã¤d
Ġerwar ten
ennt nis
Ġfe hl
it ial
ient en
Ġkonn ten
ug g
ĠO per
Ġg iving
ĠEr zeug
d ienst
Ġeinges etzt
Ã¼h ungen
Ġdist ance
ĠhÃ¤uf ig
ĠÃ¼ber w
Ġk it
ck er
E M
for d
ĠP ap
T od
Ġour selves
ok er
Ġle ider
Ġeigent lich
id ge
Ġg ain
Ġcriter ia
ĠLand wirtschaft
Ġhistor ical
Ġl oss
im inal
ĠO pt
ĠFlugh afen
ĠArbeit nehmer
rat s
ir a
Ġcon ven
il fen
if ik
ĠAn satz
Ġg ot
Ġmin or
U R
ĠH ar
Ġwen ige
ĠB undes
Ġdoc uments
w esen
Ġgen ommen
wor ks
ĠW ider
ĠGesundheit s
Ġkle in
Ġgewor den
ĠT er
Ġpre fer
ĠPrÃ¤sident en
ĠMÃ¤r z
le kt
O ffice
Ġp en
Ġstat ement
ater al
ĠN ationen
Ġviol ence
Ġev alu
Re g
fre und
Ġmount ain
ĠJanu ary
Ġd at
Ġver m
ĠK an
Ġcomp rehens
Ġele g
Ġdurchge fÃ¼hrt
ĠSpan ish
Ġw on
ĠPr Ã¼
ĠSt Ã¤r
ĠS ystems
cre t
Ġla unch
ie te
ĠOkt ober
ĠTransp arenz
Ġstruct ure
Ġfin ally
ĠS ite
Ġb ase
Ġf irm
Ġbenef its
Ġinter pre
un k
Ġg ran
forder ung
Ã ±
Ġz entr
... "
Ġfe ll
or gt
Ġtyp es
h ere
y a
ĠOr gan
Ġun mittel
lichkeit en
Ġde part
or gung
ĠE re
ĠPr inzip
Ġm em
Ġber Ã¼hm
ogra f
ĠbenÃ¶t igen
Ġn ied
ĠS inne
Ġb rit
Ġfil m
he ad
ĠTages ordnung
ieren de
o ught
Ġp ath
oc ated
O f
ĠC amp
te uer
ter prise
Ġimmed iately
Ġsuch en
letz t
Se cond
Ġse ction
Ġakt uellen
ĠD on
Ġw orth
Ġcon stant
Ġe dit
Ġw est
O T
ĠGrÃ¼n den
ĠhÃ¶ her
Ġb ra
Ġw ine
ĠC om
Ġele ments
Ġhigh est
z we
Ġihr es
ĠeuropÃ¤ ischer
Ġdistrib ution
Ġanges ichts
! !
drÃ¼ck lich
w ind
e ks
ĠBel g
Ġobs erv
Ġ2 9
Ġth reat
Ġtransparen cy
ĠAuf trag
ĠB ilder
frastr uct
Ġfre und
Ġg as
for dern
ene w
Ġwicht iger
Ġkann st
crip tion
an ted
Ġper fe
ĠTe x
ur ance
Ġg rat
Ġl ower
leit et
Ġk ennen
Ġemploye es
ĠSchw ier
ĠIn n
ĠInvest itionen
ĠS ommer
p en
Ġgef unden
zeich nung
Ġsup er
ĠH ung
Ġintegr ated
ĠGem eins
Ġw eder
h ouse
y er
ie ht
Ġuse ful
ĠS l
Ġbe zÃ¼glich
Ġequ al
Ġc y
Ġst ock
ĠEmp fehl
st ag
ĠMet ho
T ra
Ġ ult
Ġge le
zus ch
a ign
ul s
ĠVer Ã¤nder
Ġa genda
Ġg re
Ġnum erous
ĠAuf fassung
Ġaltern ative
ĠVor sitz
Ġgesch affen
orn ing
Ġaff ect
Ġl ate
Ġvor ge
ĠJul i
Ġread ing
Ġur sprÃ¼n
ĠRed e
ĠM art
Ġz eit
Ġapp lied
ĠDe velopment
amm lung
Ġpark ing
Ġchallen ges
ĠE d
Ġele ctions
Ã¤n gen
ern er
ĠDem oc
mosph Ã¤re
ĠPortug al
ĠS ache
Ġhal te
v iew
Ġre ality
Ġe mb
Ġdr ive
ĠUnter such
Ġm is
Ġhelp ful
ĠInd ustr
- -
ĠAufent halt
l ose
ik er
Ġson st
r Ã¼
ĠFir ma
r al
be zogen
Ġcons ist
ĠServ ices
ĠN r
Ġco ast
ĠPro jekte
ĠSt ar
Ã¼ck en
Ã¤ te
Ġapart ments
ĠCent re
Ġprocess es
Ġp overty
ĠIra q
wor tern
Ġpay ment
Z ur
Ġro und
ĠUnivers ity
Ã¼n de
Ġtool s
fr ont
ze hn
ĠK ur
Ġconsequ ences
Ġem iss
Ġe her
Ġda ily
ĠLin ux
9 8
W el
acht ung
Ġsk i
ĠÃ¼ brigen
leg ation
ĠT ro
af e
ĠPrÃ¤sident schaft
Ġun emp
Ġte ach
ĠLebens mittel
P S
ĠAf ghan
ĠComp uter
Ġsay ing
m Ã¶
Ġerne ut
Ġh om
Ġsie ht
ph one
Ġoffer ing
ĠIn nen
ĠbegrÃ¼ ÃŁe
Ġocc as
Ġcru cial
Ġdie jenigen
ĠJul y
Ġsolid arity
Ġtre ffen
I I
Ġbe m
Ġm ut
ĠÃ¼ber prÃ¼
Ġbring t
ol a
Ġt im
Ġanalys is
own load
zuf Ã¼hren
spro zess
Ġbe yond
r ichten
p ark
ilos oph
ĠRegel n
Ġb ad
Ã¼nst ler
Ġentsprechen den
a ktion
Ġleg it
Ġper man
en gen
ĠB ulgar
Ġ ign
ĠEre ign
iz in
og le
spr Ã¼
Ġph ot
Ġzie hen
Ġdis tr
Ġund ert
Ã¶r en
Ġpers ons
ĠS um
Ġpa id
ĠSolid ar
Ã §
ĠE m
ar es
Ġpl ant
fol ge
Ġbeit ragen
ion e
Tod ay
gel t
Ġwissen schaft
Ġk rit
y e
Ġer fahren
ĠÃ¶ffent liche
d ed
Ġhuman it
Ġoffer ed
ĠBe teil
ĠG al
e g
ĠK oh
Ġcolleag ues
Ġconflic t
ĠC ap
ĠC O
Ġsp irit
Ġth ought
Ġgo es
spr icht
Ġp al
Ġ199 7
ĠStra ÃŁen
schein lich
ĠEn ts
ĠSchlussel wortern
ĠB ahn
ĠÃĦnder ung
ĠM ann
ĠM obil
ĠJ ava
Ġhin zu
ĠG ott
ĠAuf gaben
Ġpract ical
sp iel
ĠJanu ar
Ġilleg al
ĠF Ã¤llen
Ġentsp rechend
b ack
ĠD VD
Ġhapp y
uf e
im ent
ĠC ost
ĠZ w
ien z
ĠBem Ã¼hungen
Ġlang frist
Ġ3 5
Ġl as
ĠD an
Ġverg essen
los en
ĠFl or
Al so
Ġs ufficient
Ġide as
v ors
ĠG ast
Ġmit t
Ġv an
Ġze hn
ĠLin ie
Ġk ur
ws er
sch lieÃŁen
ĠMon aten
I A
ĠBed Ã¼rf
leist ung
ĠAgr ar
ĠfrÃ¼ her
ot he
ĠAr mut
Ġrequ ires
ĠU p
Q u
Ġver hindern
fÃ¼ hl
i ability
ĠMed iterranean
ĠFol ge
D abei
Ġh ar
ob by
ive au
w art
Ġh il
Ġfor ces
Ġex ception
Ã¼r ger
c ement
an geb
Ġk il
Ð »
f o
z y
Ġin frastruct
Ġausge zeich
ĠNach bar
J ed
ĠBÃ¼r gern
Ġgen annten
sy ch
v ere
Ã¼ cht
Ġget an
Ġun be
Ġwe ak
ĠT erm
S S
b ased
oc ol
at Ã¼rlich
ang ing
Ġorganis ations
est ic
str umente
ĠVertre ter
{ {
ĠRep ublik
ĠSitz ung
Ġspe e
h old
D F
Ġbehand elt
ĠhÃ¤t ten
Ġminim um
ĠW unsch
Ġp ie
Ġwe eks
Ġdoub t
Ġadvant age
ur b
Ġto mor
Ġ3 1
Ã ł
tell ten
Ġfre qu
ca pe
Ġb an
ĠR essourcen
a is
Ġer folgt
c raft
Ġcongrat ulate
Ġtomor row
ĠD et
ĠV Ã¶lk
ĠD ritt
Ġvor her
Ġpr Ã¤sent
Ġmod ified
if el
ir l
ĠjÃ¼n g
Ġhistor ic
Ġander em
ĠKre dit
ĠO st
Ã¶ ÃŁe
Ġwas te
ĠT agen
Ġimple mented
ĠM os
pro gramm
re t
Ġhe ar
Ġpartners hip
2 2
Ġse cure
E very
ord ination
Ġs ales
ĠDire ctive
Ġn immt
Ġsh opping
Ġcl ients
Ġrel ating
ĠBe handlung
ĠT a
Ã¼ ge
Ġr enew
isch em
Ġl ines
gew iesen
Ġrefer ence
v is
ib e
ĠSpe zial
Ġstart ing
esell schaften
0 3
ĠAut o
Ġpublish ed
ic it
Ġre ich
Ġbed room
Ġpa ar
Ġmonitor ing
Ġsch l
Ġvers ucht
4 5
Ġrest r
Ġm orning
ĠBeg inn
ĠG as
w Ã¼n
Ã¤n ge
Ġbes ondere
Ġs yn
ĠRest aurants
Ġsim pl
Ġo l
Ġgrow ing
Ġl ives
ĠAn str
ain t
Ġcaus ed
ĠPal est
Z weit
Ġcomprehens ive
ĠD o
) :
ĠVer l
ick en
Ġredu ction
Ġeff iciency
Ġmaxim um
ul a
Ġoper ating
frastr uktur
ĠK or
ĠV en
Ġcirc um
pect ive
Ġj en
Ġw r
Ġaus reich
o on
sch reit
Ġus w
z t
Ġfor dern
ĠBÃ¼rger innen
Ġread y
re m
ĠS ign
ateg ie
Ġmach ine
th eless
C O
b in
ĠTechnolog ie
stitution al
Ġaccord ance
ĠAt mosphÃ¤re
Ġmean ing
haf te
ziel le
A pp
ĠW inter
ĠDies e
Ġser ver
D uring
sch Ã¶
Ġse lect
ĠNe u
n ungen
Ġf ul
Ġcamp aign
M any
Ġm Ã¼
ĠGer ichts
Ġant i
Ġre con
Å ¡
ungs ver
Al though
ĠBetrie b
gru ppe
ĠÃ¼ber haupt
Ġgew esen
Ġse chs
ĠGebÃ¤ ude
Ġun bed
p ack
Ġs ports
P h
ĠFinanz ierung
N ur
Ġopt ions
ĠV al
Further more
Ġin itial
ul ated
alt ungen
Ġstre et
Ġany thing
ĠErfahr ungen
i us
ĠerfÃ¼ llen
Ã ´
p ool
b ook
ich ert
ad o
Ġd ed
stand ing
schrif tlich
ĠerklÃ¤r t
c ia
Ġfol gen
Ġ urg
Ġbe ant
Ġzahl reichen
ĠZ entral
ĠM ult
Ġsom etimes
Ġwar um
L A
Ġbeg in
ĠberÃ¼cksicht igt
ĠB ot
ĠN acht
ĠVer gangen
Â Ń
ĠMin der
ĠV illa
Ġra pid
m us
it ch
Ġk o
Ġtechnolog ies
ĠOp en
ĠForsch ungs
Ġbor der
Ġplay ers
Ġcrit ic
Ġmen sch
ĠgrÃ¶ÃŁ er
at form
ĠProt okoll
Ġs Ã¤m
Ġoff iz
Ġpict ures
Ġg Ã¼nst
Ġex tent
Ġbetre ff
Ġg erecht
Ġch arm
as ten
Ġad vert
Ġprob ably
Ġch ance
Ġon es
Ġlangu ages
ĠWer te
Ġbe gan
Ġterror ism
aly se
} }
fl Ã¤che
Ġsw imming
Ġex port
Ġrem ov
Ġfarm ers
Ġst immen
bo ard
Ġworld wide
S tr
ĠAustr ia
Ġricht ige
ĠVer teid
A cc
ĠVergangen heit
Ġst aat
h otel
Ġun er
trÃ¤ gen
ĠAspe kte
Ġein geb
ĠPra xis
' ,
ut ive
Ġs av
ich ern
ĠB a
it ation
Ġmethod s
Ġcoun ter
S P
ie ll
Ġwel ches
ĠCent er
Ġdec or
ĠSe curity
I V
w a
Ġjeweil igen
Ġb ur
Ġinter ested
leg ten
ĠO l
Ġv oting
ĠgrÃ¶ÃŁ te
Ã¤ llt
Ġchallen ge
if ically
ĠIn halt
ffiz ienz
Ġverpflich tet
ĠK e
Ġem ail
Ġl ands
ĠF Ã¤h
gr enz
Ġtransp arent
Ġse ctors
ok e
it ten
id ing
Ġresp ond
ĠIn iti
Ġein heit
Ġste ts
Ġtour ist
ĠTerror ismus
ĠEr d
Ġadop t
Ġs al
iz es
iz ing
Ġc ast
kt ive
9 7
Ġconc entr
ĠCon ference
Ġsein es
Ġmot or
ĠW eit
ĠMenschen rechts
Ġhistor ischen
s am
Ġscient ific
Ġw anted
Ġsy mbol
ĠV ideo
Ġar range
Ġb ill
ĠR ats
Ã¤ chen
Ġe hem
ĠRe al
w enden
re land
ig ation
vo llen
Ġb ald
Ġw Ã¤hlen
Ġc andid
zeit en
Ġval id
Ġbe in
ĠGr and
Ġw ach
Ġc ert
Ġl es
ĠA gent
ĠauÃŁer halb
n ungs
Ġg ames
ĠM c
ĠSt ock
Ġaccep ted
en ze
Ġsele ction
Ġre lease
ĠTra dition
ĠBer uf
ĠT est
ĠA k
Ġex erc
k arte
ĠSch ritte
rÃ¤n kt
Ġbe trÃ¤
icht lich
Ġbusiness es
s c
Ġre le
Ġapp rec
Ġmoder nen
Ġbef Ã¼r
ĠAn frage
ab kommen
ĠT ier
ĠAir port
ĠOp fer
ĠGe f
f igur
Ġin e
ĠG reen
b as
fen ce
Ġverantwort lich
ĠH el
Ġzum indest
pos es
los igkeit
in ary
Ġp owers
â Ħ
Ġdes pite
me er
f Ã¼r
tem pt
Ġup d
âĢĿ .
Ġfol gt
Ġb lo
Ġk am
ĠRechts vorschriften
ĠZ ivil
i ant
ĠC al
Ġt Ã¤t
ĠT H
Ġgem ein
f urt
Ġf ine
Ġl ay
k om
Ġvisit ors
Ġwalk ing
ĠSpan ien
ĠAnge legenheit
en h
z ul
Ġinfluen ce
Ġver ab
ĠvollstÃ¤nd ig
Ġgen u
Ġexp ert
Ġheut igen
ver age
ĠM er
Ġl ies
Ġgen ug
ĠD at
Ġsch Ã¼tzen
Ġen orm
Ã¤mp fen
Ġim ages
Ġver kauf
Ġrem ember
Ġtry ing
Ġra ised
w el
er dings
atal og
ĠWe ll
Zweit ens
M eine
Ġg lo
ĠpersÃ¶n lichen
im b
um m
Ġsepar ate
Ġl ost
Ġcompet it
AT O
Ġco up
ĠM ass
ĠG el
r aten
Ġabsolute ly
ĠAnge legenheiten
Ġr is
bar er
af fe
Ġf ant
ĠBer at
ĠHeraus forderungen
ak te
Ġref lect
ĠW enn
ĠstÃ¤r ker
Ġeleg ant
ĠG et
ĠW aren
ĠSchwier igkeiten
ĠG arten
tr itt
M S
ĠM and
Ġtechn ischen
Ġk omp
Ġsub stant
kon om
erk ennung
ĠParte ien
id s
ĠFir men
Ġco hes
Ġhe av
Ġfol genden
im ed
and a
M L
ĠCh ance
Ġerinn ern
ĠK n
Ġand ers
Ġpr Ã¼
wer te
Ġaus schlieÃŁlich
ĠVer gleich
Ġdem ands
qu em
Ġbess ere
âĦ ¢
olog ie
t ag
Ġdeut schen
ĠReg ierungs
hand el
hÃ¤lt nis
s Ã¤tze
ĠD oppel
ges etz
ĠAn nahme
ick et
ĠH y
l ast
Ġzu k
ĠP et
zus etzen
N atÃ¼rlich
ĠHin sicht
Ġbor ders
ĠI d
ĠEx per
Ġim pl
Ġerlaub t
ter e
ĠEin wander
Ġaff e
Ġun ten
Ġspe zif
Ġcl ub
Ġangem essen
ĠE igent
Ġ199 6
Ġin sp
Ġs il
I F
ĠEntschlieÃŁ ungs
Ġhon our
Ġnam ely
st ar
ch tet
ĠâĢ Ķ
Ġerwar tet
Ġmanufact ur
Ġfiel ds
ĠVertra uen
Ġsl ow
I ON
Ġinnov ation
Ġl isten
Ġan erk
Â ´
am in
ĠChin ese
ge hend
Ġchange d
E ven
Ġv ital
att le
âĢ ŀ
Ġstrateg ic
g Ã¼lt
ab r
Ġge k
Ġget roffen
7 0
Ġver urs
zu legen
lemen te
Ġ ).
ĠE ss
re ise
ĠIhr es
h ilfe
Ġj Ã¤hr
Ġover all
/ /
rup tion
b it
Ã¶r t
kr ise
a e
ĠH al
ĠU K
Ġmen u
Ġann ual
ul y
ĠÃ¼ber nehmen
Ġallgemein en
Ġkit chen
E G
un ge
Ġit alien
Ġzuk Ã¼nft
Ġrepresent atives
us es
ĠT or
Ġc alls
ĠProz ent
Ġf ire
ind ungen
Ã¤tz lich
Ġpro ceed
ĠÂ »
igh ted
iar den
ĠGes pr
ro gen
eng ungen
Ġse ason
ĠEn d
He ute
ĠEin richtung
Ġges etz
ĠI reland
Ġwork ed
at ers
Ġiniti atives
Ġg esehen
as c
oll ar
ĠG ran
it ts
Ġyour self
ĠM odell
Ġpriv aten
Ġtr ip
T ro
z iert
us ed
Ġwieder hol
ĠKap ital
pp ort
sp rechen
ĠOr d
ar ies
Ġwr ong
Ġprocess ing
Ġplay er
gru ppen
ĠS m
Ġin tended
vors itz
ĠH uman
Ġbit ten
h ers
Ġneg ative
ĠGen eration
ĠbegrÃ¼ ÃŁen
Ġhe ard
Ġexpress ed
imm ern
Wh ile
Second ly
ul ations
ĠProdukt ions
ĠMicro soft
Ġoff ens
is ely
m and
Ġeven ing
ĠSpiel er
d i
Ġdar stellt
Â ²
Ġbeg innen
a cc
ĠP H
Ġehem al
ly mp
Ġver tra
ĠL iberal
ĠIs lam
Ġtra ck
Ġacc ession
Ġangeb oten
in ens
Ġzu dem
ĠM ess
Ġpl ans
eign et
ĠArbeitspl Ã¤tze
Ġa ward
um in
Ã¶rder t
Ġs etzt
ĠVer fassung
Ġocc up
Q L
Ġbank s
G leich
Ġcommit ted
ĠB al
au ern
Europ ean
Ġnat Ã¼r
Ġend lich
ĠVerw altung
Ġautomat isch
ĠRuss ian
A G
In de
Ġab ility
Ġc ities
Ġc ell
Ġb ir
i Ã³n
ho od
Ġan gene
Ġflex ible
Ġeindeut ig
ild et
Ġbest immt
n el
st offe
Ġl Ã¤nd
Ġd ipl
yste men
r as
ĠS en
Ġtalk ing
zeich en
Ġrestr ict
Ġtraff ic
ru it
Ġf alls
Ġl ove
Ġletz te
ĠS Ã¼
ĠT em
g ere
ifiz ierung
Ġgo al
Ġtarge t
Ġent gegen
ĠJ ohn
ĠSolidar itÃ¤t
Ġfr esh
Ġd eine
ĠPr Ã¤
ĠEin fluss
s et
T V
9 0
ĠH ause
or ies
ĠS onder
Ġpla ced
Ġph oto
Ġdat ab
clud ed
w es
Ġs inn
Ġal one
ust ausch
ĠBerichterstatter in
Ġt al
N ot
Ġrun ning
ĠA gre
ĠPre m
Ġ rom
Ġdring end
z lich
Ġmain ly
ĠF alle
Ġspe ct
b ringen
Ġj em
Ġbem Ã¼
Ġh ot
ĠAmend ment
Ġbei de
ĠKon zept
Ġfamil ies
idel ines
et ten
Ġl Ã¤nger
ĠK rank
Ġaut om
w an
ĠG ene
Ġplann ing
ĠÃĸ sterreich
Ġterra ce
Ġele ment
Ġcohes ion
ĠA mb
Ġbr and
Ġf ear
ĠAn trag
ĠAfghan istan
ĠE ind
gra ms
9 6
ĠSw iss
ag raph
Ġbe ge
Ġt it
Ġver me
pl es
b um
Ġopen ing
Ġimpro ved
Ġrem ind
ĠHos tels
geb iet
ĠD el
ĠHe im
Ġjust ice
Ġappro ved
Ġeth n
C D
ĠFre iz
Ġan c
Ġ19 5
ĠZust immung
or es
Ġk aum
Ã¼ b
ĠAnstr engungen
g ers
ib ly
kauf s
More over
ĠT al
ĠVerpflicht ungen
Ġconf irm
ĠgrÃ¶ÃŁ ere
il s
Ġreform s
Ġre ag
Ġincreasing ly
ĠAussch uÃŁ
Ġbu y
Ġwh om
ĠN ATO
Ġstud ents
ĠG old
ĠT Ã¤tigkeit
Ġconclus ion
ĠLe ute
ĠVer halten
d o
Ġcurr ency
Ġcomm ents
Ġaffe cted
Ġat tempt
Ġfeat ure
ĠKomprom iss
Ð º
Ġben utzt
Ġdec ide
Ġgen annt
Ġir gend
ĠM Ã¼n
Ġum fang
Ġadministr ative
it ory
rie b
Ġcircum stances
Ã¼ ckt
ze igen
Ġgen utzt
bour g
Ġto t
qu ate
Ġla ws
Ġkom fort
Ġbil den
Ġunbed ingt
Ġsu itable
m el
ify ing
Ġreg ime
ĠzusÃ¤tz liche
Ġcolle ction
ĠMit te
ĠOrganis ationen
Ġin n
ĠC y
Ġprov ision
ar ia
Ġbe zahl
Ġemiss ions
ĠGes amt
an ach
ĠV oll
ĠAus gang
ĠAn erkennung
asch ine
Ġto uch
as te
Ġeinge hen
Ġredu ced
Ġautomat ically
itz t
Ã¤nd igen
st a
Ġbelie b
ĠN ations
Ġc ele
ĠRom a
Ġbo x
L assen
Ġ15 0
ĠIde e
Â »
Ġdeliver y
it a
Ġprior ities
Ġph one
Ġmoder ne
ĠÃ¼ber zeugt
Ġent spricht
ang s
ĠJ e
D en
K on
ĠB ade
Ġm ill
Ġo ben
ent y
ĠP la
ĠGe org
enden ce
ĠG od
Ġent stehen
Ġvor gelegt
h ow
ĠS am
Ġfe ed
Ġent schieden
Ġp o
Ġcontrib ute
b Ã¼
Ġselbst verstÃ¤ndlich
Ġer kennen
ĠT her
Ġconf idence
Ġadministr ation
Ġunemp loyment
s es
f un
ĠS lo
lich ung
ag o
al led
ĠÃľber wach
L a
Ġst abil
Ġstruct ural
Ġin tell
Ġk Ã¼rz
ĠÂ «
Ġc os
Ġsupport s
Ġg ere
Ġex tend
Ġextens ive
ĠA c
la ufen
ig ran
ĠA C
Ġge gr
rei ber
ĠAn g
ra y
ĠF ree
Ġs ays
Ġges etzt
Ġinfrastruct ure
b rit
Ġens uring
Ġer sch
Ġunter b
ĠF lex
ĠGo ogle
âĢĿ ,
oc ation
Ġh ol
el te
ĠQual itÃ¤ts
stru ktur
ĠP ublic
ĠNe ws
ĠWissen schaft
a el
ze ch
ĠH off
Ne ben
ĠK auf
Ġmilit Ã¤r
ĠberÃ¼cksicht igen
Ġzuf rieden
Ġco ordin
Ġelekt ron
ver lÃ¤ss
ian o
end et
ĠWahl en
Ġc e
Ġr ise
Ġaus zu
Ġparticip ation
Ġunterschied lichen
f Ã¤lle
ĠD ub
âĢľ .
Ġwesent lich
2 6
: //
art igen
ĠÃĸ l
IN G
Ġsc ope
ĠVereinbar ung
Ġencour age
ĠMe x
ĠDurch fÃ¼hrung
Ġpower ful
ĠSch wer
Ã¤ her
Ġvict ims
Ġan z
t ime
fol ger
ĠC op
m on
P T
Ġm anner
iz enz
Ġspec ifically
ĠB ur
Ã¤st inens
is c
am ing
entwick lung
Ġmed ic
ium s
Ġplay ed
re l
ly ing
