#version: 0.2 - Trained by `huggingface/tokenizers`
e n
e r
i n
Ġ a
Ġ t
Ġ d
c h
e s
o n
Ġt h
u n
i t
i s
Ġ s
Ġ w
a t
i e
o r
a n
Ġth e
r e
Ġ b
Ġ o
a l
a r
Ġ in
Ġ f
i ch
Ġ m
t e
i on
Ġ e
Ġa n
u r
a s
l e
Ġ p
Ġ c
Ġ un
Ġ h
u s
en t
g e
Ġo f
r o
Ã ¼
Ġ n
Ġ S
Ġ v
in g
un g
Ġan d
Ġt o
Ã ¤
l l
e d
Ġd ie
o m
Ġd er
Ġun d
i g
s t
i c
Ġb e
Ġ A
Ġ is
Ġ E
Ġe in
i r
Ġ z
i m
Ġ g
e l
Ġ M
Ġ P
u t
r a
t er
Ġ B
e m
i l
t en
o l
at ion
d er
e it
e t
Ġ l
a m
d en
Ġ re
Ġ I
h r
i es
u m
Ġ F
o p
Ġ G
c t
s ch
Ġ K
u l
Ġ k
u f
Ã ¶
b er
i v
l ich
d e
Ġ R
Ġ C
Ġf or
a b
o t
Ġ T
Ã¼ r
is ch
Ġ V
Ġ H
i er
ich t
g en
Ġ D
Ġd as
Ġ on
Ġz u
Ġ W
er e
Ġd en
l y
es s
es t
Ġth at
o s
h e
an d
i d
Ġ L
c e
om m
er s
e in
Ġp ro
Ġa l
o w
Ġw h
a ch
Ġv on
Ġ r
or t
Ġ ge
u ch
Ã Ł
Ġ im
Ġs t
it h
Ġ y
Ġ U
Ġw ir
k t
i f
Ġc on
Ġis t
Ġv er
Ġ er
v er
Ġw ith
Ġa uf
Ġw e
Ġf Ã¼r
ur op
a y
i ll
Ġd es
Ġ it
v e
Ġm it
a d
Ġa re
t s
â Ģ
in d
Ġa s
c k
Ġs o
Ġd e
Ġn e
is s
Ġy o
Ġ 1
Ġ N
Ġd ies
t r
en d
a f
p p
ĠE urop
at e
m ent
i k
Ġ Z
Ġ (
Ġs e
q u
T he
t h
ung en
l a
0 0
isch en
Ġ 2
n en
m en
i b
Ġal s
ĠS t
Ġein e
a k
Ġe x
ĠV er
n e
f or
Ġd em
Ġth is
it y
ĠI n
Ġh a
an t
i en
iv e
i al
a h
is t
Ġ or
Ġ j
ar t
Ġn icht
p e
un d
Ġw er
u g
Ġc o
Ġn ot
an n
Ã¼ ber
s te
ĠU n
Ġs ich
Ġa ll
Ġ le
Ã¤ n
u b
f f
Ġwer den
te l
Ġ -
Ġ J
w e
Ġb y
Ġha ve
Ġdas s
ĠR e
ro m
a g
ĠS ie
ig en
Ġa t
ig h
us t
ĠA n
Ġ es
as s
en s
Ġa us
a in
al l
ul d
Ġyo u
u p
s p
Ġw ill
o d
Ġa b
Ġc om
Ġun s
ie l
er n
Ġ Ã¼ber
a us
u re
Ġ i
Ġs h
Ġm e
z e
ion s
a ge
Ġwh ich
omm iss
te d
Ġw as
Ġa uch
Ġ O
r an
b en
l ie
h en
D ie
ĠP r
Ġf rom
a hr
h al
ung s
d u
o ch
ĠEurop e
ar d
Ġ um
ĠS ch
o uld
Ġs ind
Ġ us
ter n
Ġ ch
Ġs ch
ommiss ion
Ġ âĢ
. .
id ent
I n
o g
Ġp r
ĠP ro
Ġ ent
f er
Ġv or
Ġwir d
us s
es ch
Ġh as
u e
Ġh ab
sch af
i p
i z
m er
f t
p ort
in e
Ġw or
T h
g r
Ã¶ n
s s
u d
Ġr es
Ġ en
an g
ĠE n
o c
ll en
o us
isch e
ic k
o k
Ġw ie
Ġd a
en n
as t
Ã¤ t
ĠB e
o ur
ĠP ar
Ġh e
ur ch
Ġc an
m e
Ġm an
is e
ab le
et z
er r
for m
Ġa m
i ge
i re
k eit
Ġh at
Ġs ein
Ġ ich
a p
o st
p r
Ġo der
er t
am ent
Ġo ur
i a
or e
ĠA r
b e
o tel
c c
er v
Ġcom p
Ġz ur
ul t
b eit
Ġals o
ation s
ĠEurope an
ĠE r
Ġhab en
Ġs ie
ation al
ct ion
h er
ic al
h eit
it ion
Ġa d
es e
lich en
ĠA us
ic e
l o
at ed
a re
o ut
der n
Ġbe i
Ġd o
Ġein er
Ġk Ã¶n
om e
ol it
s e
r it
Ġ "
r u
at en
t z
h l
th er
ar k
or d
f Ã¼
ier en
p t
e ct
Ġun ter
Ġ Ã
Ġ2 00
is h
Ã¼ n
Ġn ach
a c
Ġ qu
schaf t
Ġein en
h t
ĠG e
m s
ig n
' s
Ġp art
Ã¤ r
te t
ĠPar l
ier t
Ġyo ur
el t
igh t
Ġit s
ĠUn ion
v el
at es
ĠM it
o un
ak e
Ġt e
t ra
e ar
Ġre g
it e
Ġd urch
Ġg ro
an k
i an
a u
g er
y ste
f en
Ġs u
Ġs p
Ġb ut
ar y
em ber
Ġw ur
Ġa g
Ġg o
Ġ ro
i de
c ial
o ll
ĠkÃ¶n nen
Ġth ere
lich e
ĠB er
g t
p er
c on
Ã¤ s
W e
Ġa pp
os e
h re
Ġd is
Ã¶ r
ĠE in
an z
Ġs te
Ġd ar
ch t
Ġt ra
ĠE U
Ġw ar
u al
ĠF ra
D as
ch en
ĠC ommission
ĠV or
c l
im e
Ġw ould
Ġs pe
er en
Ġm Ã¶
Ġ 3
an ce
Ġm ore
t w
i le
a il
o v
Ġz um
ĠA b
Ġthe ir
Ġein em
Ġ1 9
omm en
Ġbe en
m p
Ġg en
ĠâĢ ĵ
Ġb es
re at
Ġcon t
g lich
im m
u te
as e
âĢ Ļ
u ÃŁ
on g
am e
a ct
ch n
ch te
ĠEurop Ã¤
Ġa r
I ch
il d
ut z
g ra
Ġk ann
Ġf in
Ã¼ ck
b le
os s
a ck
ch e
Ġdies e
Ġon e
Ã¼ ss
Ġa cc
on t
Ġn ur
on e
ug h
ĠW e
ent s
Ġco un
Ġp er
ĠT e
Ġc omm
ĠG r
st en
g es
g an
h n
Ġsh ould
Ġal le
Â ł
Ġbe t
ah l
p l
Ġp l
Ġwor k
w er
ut ion
ik e
ĠD e
Ġne w
ier ung
ge b
ein e
Ġ .
Ġ up
ĠL e
Ġ ,
ĠS p
Ġc l
o b
ĠUn ter
W ir
Th is
z u
el y
ĠC h
a uf
l and
h men
re e
hr en
kt ion
I t
Ã¤s ident
Ġo ut
t o
Ġdies er
a v
ig keit
ĠJ ahr
Ġo b
r ie
n er
ĠH otel
l d
l ic
ol le
Ġj ed
on s
re ich
Ġp re
Ġcoun tr
ing s
Ġin d
Ġver y
Ġm ust
Ġin ter
k e
Ġz w
Ġwh o
b ar
Ġo ther
ĠK ommission
Ġda ÃŁ
Ġn och
.. .
Ġpro du
ĠPr es
it ies
form ation
Ã¤ hr
Ġm a
Ġe v
Ġthe y
m it
Ġp e
in k
ĠM r
Ġne ed
Ġw eit
gra m
c es
p ro
ĠH err
w o
or s
Ġwur de
at er
ment s
te ll
D er
Ġn o
Ġb er
sch en
Ġme hr
Ġso ll
Ġin tern
Ġon ly
Ġy ear
Ġf e
Ġcon s
Ġbe c
Ġsu pp
ge l
Ġst r
Ġl ike
ĠA uf
Ġa ber
p le
ol og
o in
yste m
g lie
Ġt ime
Ġab out
Ġw enn
Ã¼ss en
Ġp olit
te il
f e
p os
ĠPr Ã¤sident
ent r
E s
ib le
Ġan y
ĠS e
ĠPres ident
i ous
D ies
ass en
c ed
u en
an ge
le ich
Ġpro v
) .
Ġg es
Ġse hr
Ġ 5
vel op
x t
Ġm Ã¼ssen
er m
l in
Ġt ran
al ly
it Ã¤t
en z
j ect
Ġuns er
al t
Ġw o
n ah
Ġe ff
c ess
Ġ 4
Ġs ow
h nen
ĠRe g
Ġb is
i ament
an s
Ġ ra
Ã¼ tz
ar beit
on der
Ġth ese
i ent
am men
ĠParl ament
r at
ĠAr beit
Ġre c
Ġs erv
Ġs ol
i o
Ġd ire
Ġof f
ul ar
for e
at z
ow n
Ġv ie
f ahr
Ġh in
ie d
le d
ib t
il ity
Ġim port
us ammen
ĠMit glie
at ive
al s
Ġdies em
st it
Ã¤ l
p h
Ġt r
ers on
i der
r ing
ir st
op le
aus e
ur es
ĠM ember
a aten
ÃŁ en
ĠM en
ig t
Ġge gen
Ġde velop
Ġ if
c y
is m
Ġs uch
hal ten
Ġl a
f ol
w end
Ġre port
f l
Ã¤n d
Ġi hre
o ok
ay s
Ġa ct
ĠEuropÃ¤ ischen
un den
w n
sch e
Ġp ol
Ġg r
ĠA l
ig er
iv en
etz t
Ġs ub
ĠT h
ate g
d ition
k s
if ic
Ġre l
Ġin s
Ġm y
Ġo ver
al e
it u
w or
ne hmen
ĠZ eit
Ġin to
Ġpe ople
Ġw ere
ĠM a
ĠF or
Ġi hr
ĠT he
fÃ¼ hr
k te
st r
Ġwe ll
ic es
c re
Ġ2 0
i den
ir t
Ġge m
Ġintern ational
Ġb est
er g
k en
ĠParl iament
Ã ©
) ,
Ġs ome
U n
b s
em ent
Ġv iel
ĠmÃ¶ chte
Ġwh at
Ġus e
l ung
o u
ach t
c il
en den
Ġin v
is ten
con om
ľ ber
en e
Ġd if
ĠSt ates
Ġh ier
Ġm ark
ar ge
Ġs a
f r
Ġh igh
A n
ich er
ĠMitglie d
Ġh er
urop Ã¤
us tr
Ġein es
am en
Ġk n
ver y
re i
ĠM ar
Ġh otel
ĠC oun
or y
Ġb ed
u ll
Ġcountr ies
Ġf irst
Ġl oc
Ġth an
Ġge w
Ġin cl
ent ion
Ġm ost
Ġv om
olit ik
z eit
Ġh el
Ġw icht
Ġde c
Ġwh en
Ġh is
at ing
it te
Ġl ie
Ġpart ic
es ent
ie t
pe ct
Ġund er
Ġv ers
a ce
Ġthe m
ĠO r
in n
ard s
ag es
l es
ĠCoun cil
Ġd am
it z
Ġj ust
et t
Ġpol ic
s icht
Ġsow ie
Ġw el
at t
ĠMen schen
on d
Ġe le
ĠEn tw
Ġn ow
Ġag ain
Ġe uropÃ¤
ab e
ĠU m
Ġsupp ort
Ã¤n der
t re
ĠK on
Ġdies es
at s
Ġg u
Ġb as
e ver
Ġimport ant
l Ã¤
igh ts
Ġm ake
Ã¤ ch
Ġa ut
we en
ĠBer icht
el s
h o
Ġp la
hal t
Ġg ibt
ĠÃ ľber
ĠL and
Ġe conom
Ġman y
u es
k l
Ġh ow
ess en
Ġro om
k ommen
Ġbet ween
st Ã¼tz
Ġas s
f in
h and
j e
ot h
Ġpro pos
Ġre qu
ĠM e
Ġm o
Ġf r
hal b
an y
f ter
Ġte chn
iss en
Ġ Q
iv es
b st
ig ung
Ġp oss
Ã¶ s
ur al
lie ÃŁ
Ġbec ause
en ce
st aaten
w are
Ġzw ischen
ĠC omm
ter s
Ġle g
d r
Ġt ake
Ġber eit
Ġf re
le gen
m al
Ã¶ glich
z ie
Ġk on
Ġwor ld
ub lic
Ġmark et
u er
Ġp os
o te
ĠEntw ick
ĠVer b
f ul
ar m
Ġc re
Ġ 6
ĠB ed
Ġm uss
Ġ '
oin t
c ted
ro ugh
ble m
Ġf o
o ff
w eit
z ial
Ġf ind
at h
m in
Ġs el
ic t
ĠF l
am p
le ar
h Ã¶r
Ġuns ere
Ġs on
Ġo p
Ġn ational
Ġp ar
oun t
d em
âĢ ľ
Ġwh ere
Ġk eine
Ġgo od
ĠN e
Ġm in
d it
al ity
om p
ĠP l
n is
A l
Ġg reat
ra g
Ġh and
Ġb ie
ver n
Ġn at
Ġa v
Ġt wo
esch Ã¤
Ġin formation
ĠS tr
ur n
ur ing
Ġe mp
ra uch
ĠU S
ach en
ĠG es
ĠI hnen
ĠIn tern
ĠEn t
Ġre m
i um
S ie
Ġe very
Ã¶ ff
Ġein z
Ġver b
Ġma de
Ġh ad
Ġyear s
ÃŁ e
Ġcon c
ĠM in
a ut
Ġand eren
st and
s el
am il
ro l
h m
Ġm ein
ĠPro du
un kt
Ġev en
Ġ end
ĠAr t
sch ie
a ir
la ub
Ġth rough
f ort
Ġw ay
ce pt
B e
Ġis s
ĠGr und
Ġs ystem
ge ben
Ġth ose
Ġprodu ct
Ġge t
is ion
isch er
ch ten
for der
Ġse e
ĠMitglied staaten
ess ion
in a
gen d
ere ich
Ġs c
Ã¤l t
g ung
Ġweit er
is ter
ste ll
Ġan ge
l ish
ur r
ow er
w s
ĠâĢ ŀ
ĠS o
ĠI hre
im mer
Ġ19 9
y s
we ise
Ġim mer
la g
gan is
ĠÃ Ħ
d ay
ĠZ usammen
Ġpolic y
Ġor der
ow s
Ġm ay
ere in
Ġt ak
ĠEurop a
uÃŁ er
l ick
Ġdis c
Ġdire ct
um ent
um an
sp r
Ġd ann
st er
h ne
Ġr ight
Ġa c
un ity
itu ation
âĢ Ŀ
r if
I f
Ġbe ing
ĠR at
ĠVor sch
iv ers
it al
Ġf act
all s
Ġbes te
Ġn um
it ed
Ġbe g
ch ts
is en
Ġr est
Ġk e
Ġ 7
1 0
00 0
er ation
I m
Ġbe lie
Ġpartic ular
Ġapp ro
Ġwie der
Ġdies en
nah men
Ġc ar
Ġdif fer
Ġdam it
c om
Ġc ent
n ung
ĠF r
g est
Ġco ur
Ġg er
ion en
i or
it t
ĠH aus
Ġtran s
Ġ1 0
Ġz we
v or
Ġincl ud
Ġwur den
Ġ 8
Ġg anz
ĠB ereich
Ġo wn
Ġg esch
p art
a ur
b al
Ġ [
Ġf Ã¼
ein s
Ġpro cess
iss e
icher heit
o ugh
r y
Ġres p
a de
in ess
el n
ad t
Ġd el
Ġkn ow
ge t
ĠW elt
Ġm on
in nen
re ad
ze ich
at ter
ous e
tra g
ĠD ie
ol d
Ã¤n dern
gram m
Ġb us
el le
stit ution
Ġare a
E in
Ġqu est
l er
Ġm ain
W enn
h in
a z
ĠâĢ ľ
o y
Ġb u
schie den
Ġp h
Ġk ein
it Ã¤
z en
Ġunser er
ĠG ro
Th ere
o ol
Ġag re
al k
Y ou
re chen
ro und
Ġre al
ĠH and
i x
Ġhel p
Ġh ere
Ġhab e
schaf ts
Ġson dern
Ġs m
ĠGe b
et h
p iel
Ġst and
ur s
Ġa fter
Ġde b
Ġcomp le
Ġsein e
le g
Ġjed och
Ġpolit ical
r es
est s
Ġfor m
in ce
g esch
te gr
ĠH e
eit e
Ġex p
ru ck
M r
Ġp ublic
Ġpla ce
el d
Ġi de
Ġin cre
Ġg ut
a x
ĠEuropÃ¤ ische
m b
Ġconc ern
Ġpro te
mit tel
Ġposs ible
ĠI hr
en de
is tr
v ed
Ġs ame
er k
Ġ 9
ĠE x
ent ly
ĠB Ã¼r
Ġs im
kt iv
Ġaus ge
Ġc lear
Ġe tw
ĠF in
ir on
Ġw Ã¼r
Ġs er
b ens
F or
at a
Ã¶glich keit
sch lieÃŁ
ier te
in es
Ġne ue
Ġco uld
er al
Ġh uman
t al
ten s
ĠIn ter
Ġw ant
Ġhe ute
Ġbe f
Ġd r
f ach
ĠB es
l ine
ĠG em
ĠIn formation
Ġnum ber
Ġcont in
la gen
Ġs ay
A s
n der
Ġof fer
Ġc urr
Ġeconom ic
v en
Ġp erson
Ġg leich
Ġdo es
Ġ est
Ġdevelop ment
Ġth en
Ġo pp
ert ain
is k
Ġwith in
Ġeff ect
us e
ĠB ar
Ġw en
ÃŁ nahmen
it i
tr Ã¤
Ġr ights
Dies e
an ts
ĠB r
e p
ost en
tell t
ra ft
ur o
ĠUnter nehmen
ĠK olle
Ġbereit s
ĠTe il
ic s
Ġav ail
Ġtran sp
Ġex am
Ġf est
y p
Ġsel bst
M it
Ġagain st
Ã¤ hl
al en
Ġo hne
h ip
a up
Ġm uch
Ġm ich
H err
Ġf und
m a
ĠIn d
an der
Ġb oth
b es
Ġus ed
Ġv al
Ġv is
la ge
ĠÃĦ nder
ĠEntwick lung
Ġpro f
ic ult
Ġthere fore
Ġl ang
W h
Ġihr er
Ġwicht ig
lich er
lo bal
ut ions
st ru
Ġs ur
Ġle vel
ĠSch l
ĠF re
Ġsoll te
o ck
Ġs ign
r Ã¤
f ern
lo y
Ġv ar
Ġh ist
ier ten
er ung
qu e
Ġreg ion
s etz
if e
Ġne uen
ĠeuropÃ¤ ischen
v iron
Ġm ed
ft ware
Ġe qu
ust om
Âł Âł
d s
ul ation
ĠS te
Ġb ring
Ġp ra
ĠF ran
Ġ ...
iv id
Ġf un
st Ã¤nd
Ġ1 5
ĠC on
Ġpl ay
af f
u x
Ġf ull
Ã¤ re
ĠJahr en
en g
s atz
Ġand ere
Ġc r
Ġprov id
e ut
Ġso cial
Ġb o
reich en
ĠR icht
ĠG erm
ĠH er
Ġcountr y
ur g
Ã¶ff ent
fahr en
ical ly
age ment
Ġzwe i
w ay
Ġe igen
n et
itte e
Ã¶ ÃŁ
Ġb re
Ġvie w
w ert
Ġcon f
Ġden n
Ġth ink
it s
eit en
Ġfin an
Ġgro up
ĠV ers
Ġwith out
Ġle tz
Ġl ast
Ġp oint
Ġst ill
w ick
viron ment
E r
Ġex per
wor k
et s
tr ib
ich te
ke hr
Ã¤n g
un der
Ġme as
Ġ ens
Ġden en
imm t
Ġ Y
ĠP re
c ur
o ver
w ir
b r
Ġsoll ten
Ġo per
iv er
Ġcons ider
S t
p ar
Ġad v
ess e
Ġdiffer ent
Ġserv ices
ĠFra u
Ġfin den
Ġl ong
at or
Ġacc ess
g ar
ĠS icherheit
Ġgem eins
ff en
nah me
Ġpr iv
ĠmÃ¶ glich
ĠN ach
Ġm od
ĠFra ge
f ra
Ġo pt
l im
m an
i ze
entr al
lich keit
E R
es en
is ts
w ort
ĠA s
Ġver schieden
o hl
Ġspe c
onder e
Ġ ers
h or
Ã¤hr end
ĠB et
n ess
Ġd own
ation en
ze ug
Ġ1 8
Ġgo vern
Ġat t
Ġf ree
oll ow
Ġpr in
ĠM on
Ġavail able
Ġc ap
Ġge l
r icht
op e
ĠW irt
H ow
ak ing
Ġrequ ire
w ar
Ġab le
Ġunter stÃ¼tz
Ġb ack
ĠBÃ¼r ger
ut ure
h ol
u de
Ġind ustr
or te
Ġ1 2
ib ility
rit t
a kt
Ġbie tet
Ġk le
read y
ĠD aten
z ahl
is ed
ur ther
p f
ab ility
i ÃŁ
Ġbus iness
Ġspe cial
al th
at ur
t ing
k un
Ġda zu
v ers
y n
ien ce
yste ms
ĠH in
ĠZ u
Ġsm all
Ġbe fore
ge m
Ġl ook
ĠP erson
Ġvie le
is piel
Ġlie gt
ĠK ont
af Ã¼r
Ġall en
Ġm achen
ĠF e
Ġc ustom
pp en
ien st
Ġwe il
Ġb en
Ġp ers
Ġal ready
l oss
ĠP art
Ġf uture
Ġg est
Ġall er
Ġbelie ve
ab en
ah men
Ġc or
Ġz e
un e
der s
in s
w ard
ĠK ommiss
O n
Ġbe k
Ġa ir
te m
ah re
S o
pr ess
il t
2 00
kt ur
as ed
ct or
con d
ĠMit tel
Ġs om
ct ions
Ġh al
Ġsein er
] ]
z ug
v es
ĠI s
A ll
Ġcour se
ĠkÃ¶n n
Ġdar auf
Ġop en
Ġto day
gram me
ann t
an te
k ten
Ġdes ign
ese ll
Ġpro ject
j or
a gen
ism us
Ġs et
w elt
Ġto o
Ġj etzt
Ã¤ h
Ġin st
ĠM Ã¶glichkeit
v ing
Ġc ann
Ã¤ ÃŁ
Ġproduct s
ĠA m
Ġserv ice
Ġe t
ah er
r on
Ġgr Ã¶ÃŁ
Ġe ing
ĠSt and
ic a
Ġen vironment
om en
ĠA ut
ĠTh em
ĠFin anz
Ġf l
it iz
Ġresp ons
h Ã¤lt
in ation
c r
Ġcann ot
Ġf ac
Ġc ertain
ĠR ahmen
n isse
ll t
z us
cur ity
c ome
m ar
r en
Ġd ata
Ġge ht
Ġge b
ten d
ot her
Ġpre v
Ã¶ l
ater ial
Ġsch on
Ġein fach
Ġm ir
ĠMa ÃŁnahmen
le ase
ol ution
ĠL age
ok rat
Ġf ollow
Ġre du
Ġf ra
Ġb ro
at ely
Ġc ase
ch ie
Ġb in
op eration
ĠT ra
Ġind ivid
2 0
l os
iv ing
Ġne g
c o
Ġin t
Ġoff ers
ĠZ iel
Ġein ige
ol id
ar s
Ġd afÃ¼r
kl Ã¤r
Ġreg ard
Ġp ut
ĠV erein
Ġe as
t ain
re d
or n
E N
abe i
Ġquest ion
Ġim pro
ĠInformation en
ĠRe chts
ra ph
af fen
Ġs eit
ĠM ed
Ġv oll
Ġ &
ent ial
Ã¤t z
ĠGem ein
in al
Th at
cc ess
Ġar t
Ġt er
i ber
Ġj e
erv ice
ual ly
e ich
Ġin tegr
is ierung
ĠHerr n
erg y
il it
if ied
fol g
at her
Ġfinan cial
Ġc ity
ĠG en
im es
Ġre as
Ġim ple
Ġch ange
ĠD em
ah n
Ġre pr
Ġpos it
ĠM an
Ġd uring
gr und
Ġ[ [
all en
ĠSt adt
ich ten
Ġre v
ĠAus sch
ut es
Ġc itiz
Ġi hren
Ã¼ h
an den
Ġzur Ã¼ck
Ġact iv
Ã¼n d
Ġf ar
le x
Ġpro m
Ġpro blem
Ġinv est
Ġd ay
o ve
uch t
ĠIntern et
Ġf ol
Ġsa id
Ġde ut
Ġalle m
c ing
in en
Ġn un
ich ter
am m
Ġg lobal
Ġl arge
uch en
Ġa chie
Ġme ans
Ġst at
Ġiss ue
Ã¤ m
ĠP ol
ĠJ ahre
Ġpropos al
Ġs af
a um
bs ite
Ġk l
Ġexam ple
ie le
R e
s o
il y
t t
Ġas k
sche id
loss en
Ġm eine
re ib
ĠR uss
is l
Ġqu ality
n ov
Ġz usammen
w ays
Ġapp lic
Ġma jor
Ġco st
ĠA mer
bes ondere
Ġm ember
Ġ200 9
Ġmo dern
hal ts
Ġf amil
heit en
Ġge f
Ġent sp
Ġme et
ill ion
p unkt
Ġs ince
ud get
Ġb esch
Ġpr esent
gr ess
Ġs ituation
Ġstr ateg
ĠT ran
Ġdeb ate
Ġbes onder
Ġroom s
i end
Ġne cess
un ter
it es
Ġ 0
et her
B ut
Ġwo llen
iz ed
Ġver fÃ¼
Ġsich er
Ġuns eren
am er
aup t
fÃ¼hr t
ĠCommission er
ant wort
u le
as h
p re
or g
o ten
a at
Ã ¡
Ġtechn olog
Ġein ge
il ities
le ist
f ts
Ġch ild
te llen
ktion en
Ġam end
Ġcomm on
ble ms
ĠwÃ¼r de
eschÃ¤ ft
Ġen g
an gen
Ġe ach
h af
Ġad op
ĠZ immer
kun ft
D es
P ro
Ġch e
etz en
Ġinclud ing
Ġp ass
lich t
ir d
or en
ĠKommiss ar
ĠP al
f ass
ĠÃ ĸ
Ġg ar
om at
o de
Ġcomp et
Ġp ower
ĠComm ittee
ach e
o h
ĠK in
imm ung
re it
Ġcitiz ens
ĠParlament s
Ġc olle
Ġre f
c ip
ĠArbeit s
v ention
ĠEn erg
ĠGe w
Ġw Ã¤hrend
N ach
Ġste hen
ĠP olitik
p or
b ed
ĠG esch
gen ommen
Ġetw as
ie der
op p
Ġth ree
aur ant
ab lish
Ġst ay
Ġsa gen
Ġfo und
Ġall ow
in ing
ge w
i pp
Ġare as
ĠEn g
Ġc ult
Ġob ject
Ġres pect
ort h
gan gen
Ġne xt
Ġmeas ures
ain s
e ll
Ġd och
ĠVorsch lag
ï ¿
ï¿ ½
Ġst ud
Ġso zial
ĠW ir
ĠB est
ĠFor m
ĠW or
Ġg ive
u ge
z w
Ġor ganis
ze pt
Ġfe w
and s
Ġ /
u gen
ord nung
How ever
Ġdem oc
Ġaut hor
Ġre ce
Ġb r
Ġens ure
lin ie
ĠB ild
Ġ3 0
Ġres ult
Ġdisc uss
Ġk omm
l ing
as ch
Ġ %
ra che
ug ht
Ġf urther
Ã¼r lich
Ġer m
Ġhist or
Ġprov ide
Ġen ergy
Ġpr es
Ġth ank
ĠE uro
schaf ten
Ġt un
Ġw issen
ĠP h
if f
Ġtak en
Ġins besondere
Ġsu ccess
Ġer st
Ġbu ild
f alls
Ġf il
un de
ĠB o
ĠU r
Ġagre ement
Ġm us
Ġc al
g leich
Ġer halten
Ġcont rol
ĠL Ã¤nder
ank en
stell ung
Ġk om
Ġad dition
stÃ¼tz ung
i ate
Ġd ra
w irt
s er
sch l
g re
Ġein mal
it or
ag t
ind et
Ġwar en
e k
ĠL Ã¶s
z iel
Ġgro w
Ġemp loy
O ur
Ġ Ã¶ffent
Ġd et
l ungs
W ith
pe cial
Ġp ay
as es
ĠVer fÃ¼
Ġa uÃŁer
Ġpos ition
Ġest ablish
ĠF all
il fe
ck en
le gt
Ġre ad
itÃ¤ ten
1 9
t schaft
Ġab s
Ġk ommen
chn olog
g ang
uf f
dit ions
ig ten
Ġla w
ĠPro blem
Ġv o
o hn
Ġbe im
Ġcom e
ro ss
ul es
Ġl ink
ĠDe ut
Ġd u
Ġopp ort
ar te
Ġp op
je kt
ĠÃĦnder ungs
Ġin de
ar n
Ġs k
ĠK unden
m m
Ġer sten
Ġim p
Ġpro blems
Ġsh all
ĠMar kt
em ents
ar en
b o
um s
Ġver w
Ġnecess ary
ut en
Ġcomp any
ĠG o
igkeit en
Ġd id
ĠI tal
Ġ Ð
E ine
ro p
Ġsch w
ĠZusammen arbeit
ar ten
A T
Ġe l
Ġt err
ĠGro up
f re
utz en
Ġl assen
Ġprin cip
p olitik
A uf
un ic
ess er
p end
ĠA ll
Ġbe gr
ot t
Ġke y
um en
ĠUnter stÃ¼tzung
ĠQ ual
Ġd rei
A N
Ġg iven
is es
le men
Ġleg isl
Ġgro ÃŁ
Ġb udget
ĠS h
F Ã¼r
f ung
ĠN amen
Ġse curity
Ġpra ct
Ġ Ã¤
b au
el f
ĠG er
Ġge ben
Ġinv ol
f ang
m ed
Ġe m
Ġ |
esell schaft
Ġhe alth
icht s
Ġwir k
g lichen
Ġh ope
Ã¶r der
Ġ Â
ct ive
T o
I N
is ing
Ġwh y
Ġhow ever
l ungen
Ġle ad
Ġent wick
H e
ĠR es
Ġse cond
or gen
Ġch ar
ass e
ĠZ ug
b urg
be wer
j oy
Ġver l
ĠSch w
iet y
it er
ĠPro ble
iv ely
is ation
ĠM us
Ġwh ile
ĠUm welt
w ards
Ġ2 5
f te
are d
Ġco operation
ur z
Ġbeste ht
Ġre t
ge ther
ĠB l
ne ll
ĠSp iel
Ġwir tschaft
a ve
Ġb l
E S
ĠRe cht
ĠM ill
sp ro
Ġ ir
fÃ¼hr ung
ĠSt ra
ĠCh ina
Ġloc ated
S ch
v on
Ġand er
Ġw ish
Ġst art
Ġg ra
ar ch
Ġl ife
Ġprote ction
ĠR o
Ġimple ment
sch ied
Ġtra dition
ĠD ienst
ur y
Ġre fer
Ġal ways
alt ung
ĠL Ã¤ndern
Ġ1 4
ĠfÃ¼ hren
Ġneed s
Ġcomple te
wend ung
E n
te xt
Ġste ht
Ġw rit
Ġse hen
Ġsein en
er b
Ġ X
zie h
rie d
ear ch
Ġv ote
Ġin form
ĠM ein
al d
k on
le ct
ĠG eschÃ¤
i que
o gen
ĠT ag
Ġst att
Ġcom b
Ġbe h
h Ã¤ng
pp e
Ġs ens
ĠDe b
Ġ1 1
Ã¶ t
Ġdif f
Ġa kt
ce ll
W ie
t ion
Ġw Ã¤re
Ġbet ter
k re
ĠI ch
Ã¤t ze
ste llen
ĠS ystem
c a
ĠFra gen
b y
Ġm ult
iv il
dr ess
ĠV ol
ĠUn ited
ett bewer
ichter st
Ġd abei
Ġt re
z ess
Ġ1 6
Ã¤ d
Ġa ction
ĠB eit
al le
sch ein
Ġinter est
g aben
ch es
A t
ĠH ouse
Ġacc ount
S e
ĠKolle gen
ial og
Ġg laub
ĠA t
i ation
Ġge hÃ¶r
z Ã¼
Ġn et
ĠT r
Ġm en
Ġh Ã¶
ĠR est
Ġn or
ĠLe bens
Ġleg al
ber eich
Ã¤ mp
Ġf iel
Ġus ing
Ġletz ten
uf t
is te
ch er
Ġf av
re chte
Ġwor den
se qu
Ġch o
ĠReg ierung
Ġm uÃŁ
l ess
ent en
ik an
ĠR ed
Ġde fin
i od
ier ungs
ĠP ort
ĠD es
ob il
r Ã¤n
Ġb le
Ġm ov
ĠS w
ĠEnerg ie
und heit
sch rif
Ġcons um
ge hen
Ġs ing
o f
ĠA d
cl us
ing ungen
Ġre ach
ĠBed eut
ĠComm unity
Ġ20 10
Ġ200 8
Ġ1 7
Ġbas ed
Ġa round
ĠK r
Ġcon ne
Ġtransp ort
Ã¶l k
Ġgro ÃŁen
F ra
ig es
g abe
ab il
Ġder en
ĠVerfÃ¼ gung
ges tellt
Ġgro ÃŁe
ĠS pe
Ġwel che
mar kt
Ġter ms
Ġwork ing
gen den
Ġcurr ent
3 0
if y
Ġad d
Ġ5 0
Ġm et
ĠBedeut ung
ĠEnt scheid
ĠUS A
erv or
Ġin ner
ge d
ass er
Ġst ru
ĠS eite
Ġprodu ction
Ġsh ort
Ġbec ome
le v
b lick
ĠK om
Ġwh ether
ra cht
um ents
ĠQ u
pp orte
Ġl ess
off e
Ġparticular ly
ĠEr geb
Ġn on
Ġc rit
ĠB el
Ġcent re
ho f
Ġl im
Ġindivid ual
Ġex tre
ĠD as
ed er
Ġto gether
Ġde f
Ġdiff icult
Ġbe l
Ġh o
ĠReg ion
Ġvis it
Ġan other
lo ad
ĠR om
Ġne ar
Ã¼n st
fer enz
Ġor ig
Ġst ate
ut er
Ġd ist
Ġres earch
Ġtra de
d ruck
Ġw ater
Ġz ahl
os ition
Ġcl os
ig ent
Ġre p
Ġh im
ĠSch utz
ustr ie
an ies
Ġc are
Ġe ar
im men
k auf
Ġchild ren
Ġb ene
ĠF amil
pecial ly
ĠS k
Ġbe ach
ro om
Ġs l
Ġnot wend
ben e
Ġcon trib
ĠC l
Ġwho le
as tr
Ġex ist
tell ung
Ð ¾
Ġiss ues
ĠVer trag
Ġto ur
ot s
Ġjed er
n ers
Ġbie ten
t y
Ġh ervor
Ġloc al
ak es
ĠRe gel
5 0
trÃ¤ ge
i ar
Ġcon ditions
Ġda von
entr um
ar ante
O N
c kt
le it
ĠThem a
Ġspec ific
Ġr icht
Ġ1 00
Ġreas on
am es
Ġdar Ã¼ber
Ġfr iend
at te
Ġent fern
Ã¼ t
ie w
Ġer forder
ĠL a
Ġen joy
ĠB esch
Ġk m
b t
ult ur
Ġc all
ort s
h ang
Ġe ben
ord ing
v est
Ġsub ject
Ġa ff
Ġsh ow
Ġste llen
Ġbe w
Ġgegen Ã¼ber
ĠWirt schafts
h Ã¶
Ġb ook
rie den
Ġan n
ad ies
k ungen
x im
Be i
Ġad dress
Ġd aher
od y
Ġs ystems
Ġall es
Ġro le
ĠKin der
ik a
Ġ200 7
ĠU N
t on
Ġt ax
Ġvar ious
ik el
our s
enn t
Ġsch nell
ĠWe ise
Wh at
uf en
ateg or
Ġb rauch
Ġra pporte
eng th
Ġeigen en
ro w
Ġr un
ĠProble me
W hen
Ġexper ience
f Ã¤h
Ġw omen
ĠM al
ĠS ervice
Ġges am
ail s
Ġ2 4
ĠT ur
wirt schaft
gem ein
Ġp age
Ġor gan
Ġcomp anies
Un d
ĠBe ispiel
Ġsow ohl
Ġindustr y
Ġste p
isch es
ĠBer ichterst
Ġse ctor
Ġo ld
is ions
s k
Ã ³
Ġ ur
Ġpolit ischen
Ã Ń
Ġbas is
sch utz
ĠG Ã¤
Ġgu arante
ĠHaus halts
Ġa im
Ġn Ã¤ch
Ġbef indet
Ġweit ere
ĠIntern ational
s en
ro ll
as ter
Ġbene f
N e
ro du
ese hen
ĠW ahl
ĠWe g
ĠMr s
ĠkÃ¶nn te
The y
Ġo cc
Ġp at
ĠFra uen
one y
Ġd ort
iti ative
Ġer reichen
ne ten
th ing
Ġbe aut
Ġcom fort
Ġprof ession
Ġp ack
Ġhat te
Ġmein er
Ġre ally
ĠIhr er
ir m
ĠEU R
ĠA ir
A us
ch an
Ġd i
Ġde al
Ġm atter
Ġwirk lich
Ġnat Ã¼rlich
ĠB us
A R
Ġcomm it
ĠS an
ge ord
lo ck
in o
Ġse ver
a i
reat y
ĠG u
ĠGerm an
Ġar beit
W as
Ġc ol
Ġt yp
Ġth ird
Ġbesonder s
Ġin nov
rit te
in ter
ab ly
Ġpr ior
ĠZ ahl
gen de
Ġb ar
ĠF ahr
ĠF ol
Ġes pecially
b ild
Ġmon th
Ġbre ak
ĠB en
ĠZu kunft
iv ed
ĠAussch uss
o ber
Ġi hnen
Ġmember s
Ġgovern ment
an ces
Ġper iod
Ġd one
am t
Ġst aff
Ġcl ose
Ġg ent
Ġverschieden en
Ġd oc
ĠSt aaten
ĠunterstÃ¼tz en
ĠL in
ĠGeschÃ¤ fts
cell ent
Ġpro ced
e an
t il
ĠSt ud
if iz
iz ation
re g
ĠEn de
ĠK l
Ġm ot
ĠD er
u ktur
Ġs he
et y
fin den
Ġentfern t
Ġfo od
Ã¼n ft
og raph
d ings
id es
Ġh och
z uf
. (
ĠF un
tre ten
Ġinner halb
iv al
Ġ1 3
Ġto p
eth ing
ĠM ark
wer k
I T
ic an
sp l
ĠH aupt
ĠFor sch
Ġneg ot
Ġperson al
Ġcre ate
Ġfe at
ĠS eiten
Ġviel en
Ġte il
ĠProdu kt
a pp
Ġt urn
Ġpriv ate
ĠF ort
k ung
Th ese
ne h
Ġloc ation
ra um
ĠS ituation
Ġs ite
Ġper form
Ġin stit
ĠR olle
Ġrepr esent
as ing
Ġp le
du c
Ġappro ach
ic ient
" ,
Ġpr ess
Ġs um
en ces
ich tet
Ġgen er
Ġbe tr
Ġent er
Ġzw ar
Ġpro p
er ien
sche iden
e c
Ġso c
ind ung
Ġre form
" .
we isen
Ġev ent
om ent
ens ion
Ġw elt
Ġinternational en
u c
f ast
Ġam ong
ĠDeut sch
ĠPro gramm
Ġj ob
Ġsing le
Ġp oin
ĠW ettbewer
im ate
Ġits elf
Ġdec ision
z ip
ord in
Ġl o
Ã¼ d
Ġsom ething
ul ts
i ol
w h
Ġst ar
Ġbest imm
Ġlang u
1 1
Ġsever al
ĠmÃ¶ chten
Ã¼ hr
ol f
land s
Ġstru ct
o or
kt or
at iven
Ġdo ub
Ġgen eral
if t
ĠPar k
Ġres our
e ign
Ġl ist
Ġfav our
ut h
Ġm aterial
ue llen
Ġinst all
ĠF est
itt le
min istr
ian s
U m
ond s
is is
ĠRicht linie
tem ber
Ġto wn
Ġauf ge
at ch
Ġdire kt
Ã¤n de
Ġm aking
' t
Ġhin aus
Ġcontin ue
Ġd Ã¼r
Ġpro gramme
I S
m os
ra el
me work
An d
Ġres olution
ĠW och
ĠVerb rauch
w Ã¤r
ĠD isk
Ġle ast
Ġen c
ĠI hren
ific ation
ĠT err
ĠG ru
an e
ĠA fr
Ġaut omat
Ġac cept
Ġgent lemen
Ġfollow ing
y l
Ġint rodu
c el
V er
sp rache
Ġm illion
g o
i ations
w Ã¤
ĠN utz
A uch
Ġpro gress
Al s
ĠE l
Ġser ious
Ġa way
ĠSo ftware
Ġpe ace
ĠStr ateg
D a
Ġrel ations
ĠT our
Ġgo ing
ĠL ie
Ġex cellent
Ġk ind
Ġof ten
Ġle t
ĠK Ã¼
A ber
neh mer
Ġop in
ĠC omp
Ġg l
Ġh ome
Ġte xt
h ens
be i
Ġman agement
at ives
if en
r im
Ġ :
C H
m iss
Ġs up
ĠGerm any
Ġers te
Ġn ame
Ġunder stand
Ġfamil y
Ġkon n
Ġm ar
Ġpartic ip
ĠAb st
Ġt ro
Ġof fen
Ġr ules
Ġdirect ive
ier e
au er
ĠN ot
le t
ĠeuropÃ¤ ische
Ġan s
ĠW er
ap s
gr icult
fe hl
Ġcr isis
str ument
ik en
Ġa part
Ð µ
ĠGe gen
or m
Ġrapporte ur
ĠR Ã¼ck
ant rag
Ġcont act
und s
ot o
Ġreg ul
Ġan al
pro du
ĠE s
ĠHotel s
Ġ200 0
ic le
Ġs ett
ier ungen
ĠU hr
ĠC hr
ks am
th ough
y pe
1 2
ĠMein ung
f ect
ic ial
we g
Ġm ach
Ġfe el
Ġm oney
Ġfor ward
H ier
Ġto wards
Ġso ftware
Ġex press
Ġon ce
Ġst ark
leist ungen
Ġin c
t he
ĠNe w
Ġpr ice
Ġeinz el
Ġr ange
Ġkl ar
th ers
Ġl ine
ull y
ach st
Ġwel come
Ġextre m
pe kt
on y
Ġon line
Ġf ast
Ġet c
ĠGes undheit
etz ung
Ġth ings
st Ã¼ck
Ġabs ol
Ġl ittle
ĠW ind
ĠK re
pr Ã¼
ĠBer lin
Ġrec og
Ġd est
z ogen
air s
teil ung
Ġb al
Ġinstit utions
ĠZusammen hang
v oll
Ð °
fer ence
Ġh Ã¤t
we is
Ġm ention
Ġcomm unic
ad am
Ġ ident
uÃŁ en
Ġp ost
Ġz us
itÃ¤ ts
Ġan t
if ft
Ġun til
D E
es ten
ĠO n
ĠAb geord
Ġs itu
w and
ist ic
Ġbei den
Ġm ilit
Ġunser em
A S
h aus
l ik
ĠF isch
A b
i j
out h
Ġkomm t
enz en
Ġst re
a den
ĠRe p
ĠWor ld
Ġd ays
ĠUn ivers
as st
ĠTran sp
Ġw alk
w w
Ġopt im
y r
Ġcustom ers
en nen
ĠD ire
g Ã¤n
ure d
b et
Ġfin anz
at ten
v ent
ies en
Ġa id
Ġstr ong
um e
ĠT reaty
O R
z immer
Ġ ess
Ġentsp rechen
Ġpl an
is on
ĠPart ner
ang es
lÃ¤ ge
ĠGÃ¤ ste
Ġincre ase
le an
tra ct
ĠH ilfe
ĠM et
ie ten
iden ce
ĠE mp
ĠFran k
Ġag ree
ĠEnt schlieÃŁ
omm end
Ġbeste hen
Ġopport unity
le icht
Ġ19 8
Ã¤ch st
ĠPerson en
fass ung
ĠJ an
Ġwelt weit
ĠK omm
Ġr ather
n a
e u
Ġke ep
ĠSp an
iden cy
re ch
Ġgrow th
Ġfun ction
Ġactiv ities
ĠZ we
ĠBerichterst atter
hal f
ĠIn vest
Ġm ind
oc us
ĠB ank
Ġh ard
lich es
Ġv e
cr ip
ĠVer antwort
Ġqu ite
st ra
ed om
ĠG ra
Ã¤ uf
we il
ĠO p
Ġste llt
iel en
Ġbring en
m Ã¤ÃŁ
Ġ200 6
ĠTe chnolog
ĠLÃ¶s ung
Ġb zw
ĠSchl uss
Ġche ck
m et
s ide
bar en
ĠN ov
Ġse em
Ġj a
lie ÃŁen
Ġ il
Ġposit ive
ĠU ms
ĠArt ikel
Ġprovid ed
ĠPrÃ¤sident in
ann ten
Ġst Ã¤r
ĠK lim
Ġbegr Ã¼
en der
ĠK o
Ġtr y
Ġresour ces
Ġele ct
an a
p ly
Ġb ig
Ġt as
ĠS u
ĠLe ben
ĠD ies
Ġs w
Ġpart ners
ĠfÃ¼ hr
Ã¤r en
Ġs ug
Ġwen iger
ue ll
Ġdar an
Ġme an
Ġde v
Ġt reat
ĠI t
Ġind em
Ġm ight
rol le
eit s
Ġbe half
Ġide al
forder ungen
ĠDem okrat
ere cht
ĠF il
in ed
Ġg ilt
Ġl and
Ġfull y
reich e
Ġp ort
Ġetw a
ĠN ational
Ġcl ass
ap an
ide o
Ã¼ck sicht
Ġgew Ã¤hr
Ġqu al
ĠMe hr
ĠOr ganis
ĠK ultur
Ã¤m lich
hn t
am b
L e
mos ph
Ġjed en
Ġges agt
fra ge
Ġincl ude
Ġf our
ab hÃ¤ng
Â ®
zeit ig
on a
ĠN atur
wo hl
Ġn Ã¤mlich
Ġl ab
ĠMin ister
ament al
Ġsign ific
if ul
ĠC ent
u h
legen heit
Ġy et
Ġum f
on ger
le tz
st adt
Ġb itte
Ã¤hl en
Ã¼ hren
ĠJ ul
Ġg ute
ĠD urch
ĠSe p
Ġval ue
Ġpers Ã¶n
it ions
Ġp ark
ein ander
Ġm ag
fer t
k omm
Ġha ving
Ġl adies
Ġp ur
s h
Ġtechnolog y
ĠI m
cept ion
pro chen
Ġent scheiden
Ġso gar
O M
setz ung
Ġgen au
rat ic
Ġfiel d
tel le
ĠR ates
Ã¤ch lich
b on
Ġpropos als
ĠSo zial
Ġb or
h under
ĠMember s
al es
re cht
op s
wend et
A m
ag er
Ġamend ments
ĠSt ate
v Ã¶lk
Ġger ade
Ġk urz
Ġal ong
Ġe duc
sel f
Ġ u
ĠS er
ĠOr t
ĠC ar
ĠProdu kte
tra gen
ill a
Ġrem ain
Ġer folg
ĠEr fahr
Ġsol ution
Ġfra mework
Ġt imes
ar f
Ġle ft
ro ffen
Ġt em
Ġne hmen
ĠEurop as
Ġbek annt
arm on
Ġl og
Ġk osten
f ully
le i
it en
Ġsaf ety
ĠG eld
Ġmin utes
pl an
at iv
Ġar ch
s ere
ĠCh ar
Ġrec ommend
Ġer war
ver b
Ġcost s
ra cy
Ġl ight
Ġab ove
Ġspe ak
Ġeconom y
in ge
ĠPro jekt
Ġeas y
op h
st ant
iber al
Ġi hn
an c
m ost
Ġo thers
Ġadop ted
ĠAus tr
an st
Ġtak ing
Ġn ie
ĠGr Ã¼n
ĠK osten
ing en
Ġess ential
ĠP unkt
al ten
le ment
ĠJahr es
ĠSep tember
Ġpolit ische
led ge
Ġunter schied
Ġeben falls
Ġwe ek
ĠPre is
Ġme isten
Ġstr ength
eth od
Ġi hm
ĠTe xt
Ġre cht
Ġf lo
hand lungen
Ġgem acht
w ahl
ĠFra ktion
Ġc reat
Ġp a
Ġsein em
ĠA ss
Ġm akes
ĠT Ã¼r
Ġ Ã¼
ĠB as
un st
z a
A L
Ġv iol
ĠZug ang
Ġcont ent
at ors
Ġent ire
Ġle d
Ġchar ac
Ġopin ion
Ġd essen
Ġto ol
Ġb esser
ĠAn ge
ĠBe zug
Ġverb unden
Ġb ank
M an
Ġcal led
ier s
Ġge hen
Ġver st
port s
Ġdar f
yste me
ĠS c
Ġf lex
Ġb ath
ĠSt a
Ġa gricult
Ġret urn
Ġan ges
ach ten
ib en
b are
Ġcon stru
at is
Ġne ver
ne te
Ġlegisl ation
Ġwe bsite
re en
ĠunterstÃ¼tz t
Ġf ocus
Ġw esent
aur ants
ĠWirt schaft
ĠG ar
re icht
tel s
Ġapplic ation
ĠAn d
w ord
Ġt erm
ig ital
Ð ¸
ile d
geb ung
Ġa k
Ġres ults
ig r
es ted
Ġw ahr
Ġ2 1
Dies es
ĠZ ust
ĠRe chte
Ġs ure
Ġbuild ing
E urop
ĠIn stitution
age d
Ã¼n f
Ġpoin ts
s weise
Ġprovid es
Ġdar in
Al le
Ġdel iver
Des halb
Ġfre edom
aus sch
Ġproject s
vern ment
ar ian
l iament
Ġatt ention
ĠP e
ĠK ap
Ġd ue
Ġbeg inn
Ġf air
Ġpolic ies
Ġpro gramm
bens o
Ġ4 0
Ġconcern ed
r ic
er st
ĠK omp
u z
ĠVer kehr
Ġhe art
Ġp ot
Ġr en
Ġstand ard
Ã¼ l
Ġco ver
ĠWe b
ĠEntwick lungs
ot ing
ir c
Ġrespons ibility
Ġglaub e
ĠÃ¶ffent lichen
ĠIs rael
Ġp ast
Ġr isk
Ġsim ply
Ġbeaut iful
uf act
E L
ĠdÃ¼r fen
Ġein igen
in er
â Ĥ
n ow
Ġder zeit
Ġappro pr
Ġre la
Ġm ass
âĤ ¬
Ġnicht s
mit ted
Ġquest ions
reib en
ish ed
ĠDeutsch land
Ġper fect
Ġsch affen
ber g
Ġgroup s
Ġte am
Ġimport ance
Ġyo ung
z entr
ĠGemein schaft
Ġto tal
Ġd om
Ã ¨
i ents
w Ã¼r
ĠF rei
ĠAn tw
ĠMill ionen
d ing
Ġeffect ive
h ing
Ġmo der
Ġb it
b our
Ġso llen
schlieÃŁ lich
Ã¤ he
Ġsoc iety
Ġab ge
ust ain
ĠB uch
amp f
ĠWe bsite
af en
ce ed
D ar
Ġ200 5
Ġcon text
ĠRe i
Ġihre m
Ġhe ad
E C
Ġbrauch en
ad a
ĠQual itÃ¤t
Ġkn own
Ġad ministr
ĠB eschÃ¤ft
Ġkein en
Ġnational en
ĠFl ug
Ġgreat er
Ġh olid
Ġse a
zus tellen
g esehen
wÃ¤r t
Ġenvironment al
Ġcontin u
Ġhand elt
ĠJan u
Ġstrateg y
sp olitik
t lich
ĠP at
arbeit en
Ġm ethod
ĠAus sprache
un kte
ĠW asser
al er
i qu
ĠA pp
ver kehr
utz t
u elle
ĠM Ã¤r
Ã¤ us
ist an
Ġzus Ã¤tz
Ġvers ion
Ġverb ess
ĠVerbrauch er
on nen
ĠS a
Ġnat ural
Ġstand ards
H otel
m at
ĠKolle g
e x
pf licht
ĠT V
le ben
em p
ĠAn geb
Ġro ad
it ive
Ġprincip le
Ñ Ĥ
Ġweiter hin
rie g
Ã¤ ter
zie hen
Ġt able
un Ã¤chst
Ġar r
' '
Ġat tra
ĠH Ã¶
Ġvers te
une hmen
Ġn a
Ġra d
Ġt alk
ĠJahr hunder
ĠF ir
Ġm iss
O S
Ġwor ds
h a
eu tet
Ġbetr ifft
Ġver sch
h ib
ring en
et te
ĠE bene
Ġs end
Ġincre asing
halt ung
Ġch allen
Ġin stitution
Ġrequire d
n ing
fr astr
ll er
A fter
Ġle a
ac y
ĠM o
Ġc entral
ĠS itz
F in
Ġvie ws
un ities
ĠFort sch
Ġher aus
ĠPr iv
ran k
ber eit
Ġsignific ant
Ġh ouse
ur f
ĠI I
zeich net
id ed
Ġman ufact
w ach
Ġwen ig
ra ch
Ġer klÃ¤r
ult ure
h an
is iert
Ġm oment
st aat
Ġres erv
use um
ĠTh is
Ġ200 4
Ġbed eutet
Ġtra ining
Ġse i
Ġdeut lich
Ġclear ly
ĠÃĦnderungs an
Un sere
ĠFr Ã¼h
Ġben Ã¶t
st off
Ġm acht
on en
Ġauthor ities
ĠN o
Ġdes halb
ter m
ĠVer w
Ġmeet ing
Ġsol che
ar i
ĠMe er
Ġun ver
Ġqu ick
Ġmus ic
ĠAbst immung
Ġin fl
b an
ĠGro ÃŁ
ĠG l
Ġbes ten
f il
Ã¤n ger
6 0
c al
Ġd on
ĠP ra
ispiel sweise
lÃ¤ ss
v o
spr uch
ic ro
Ġdem and
Ġrela x
Ġrec ent
ĠT re
Ġc la
Ġus er
at al
an ze
Ġkom ple
Ġauf grund
ĠLe ist
Ġp ub
gend a
Ġinter ess
Ġnet work
schl uss
y le
Ġcap ital
rit ten
Ġle arn
Ġbreak fast
it ing
Ġex tra
Ġachie ve
al itÃ¤t
ĠB em
ĠwÃ¼r den
zÃ¼ glich
m als
zieh ungen
Ġl ar
ĠS al
ĠN or
Ġf a
Ġas pect
Ġn ight
ag ing
Ġwicht ige
Ġso ur
Ã¤s ent
Ġsh are
er ous
f all
Ġtechn ical
ĠGes etz
pr il
ĠG esellschaft
Ġof t
P r
c ent
he b
Ġm at
U S
Ġdis trib
ges etzt
A P
uch e
Ġp ages
Ġacc ording
Ġfund amental
Ġv ia
Ġse le
ie f
A D
ĠChr ist
Ġc lean
Ġnat ure
or k
Ġapp ear
Ġintern al
hÃ¶r den
r i
on es
Ġl onger
ge legt
ĠD ok
Ġdirect ly
j en
he im
ĠKlim a
pl atz
ĠO b
Ġs ide
Ġfac ilities
Ġmonth s
Ġfind et
Ġth ough
Ġpre c
ĠUms etzung
ch ange
Ġf ish
wo hn
Ġv erein
Ġemploy ment
ĠnÃ¤ch sten
Ġpropos ed
Ġen ough
Ġob l
Ġim m
Ġsol utions
ĠMenschen rechte
Ġrespons ible
Ã¶rder ung
pt ion
el ves
ĠBe vÃ¶lk
un ch
1 3
ĠF ar
ĠSch ul
Ð ½
Ġer n
ĠK unst
ĠMit arbeit
ĠgewÃ¤hr le
ĠW ohn
k Ã¤mp
Dies er
Ġcult ural
ĠAn sicht
Ġhist ory
I C
Ġvor gesch
el bst
Ġer ne
Ġinter ests
ĠI de
gen cy
Ġsub s
Ġgu ests
ĠRicht ung
Ġt est
Ġrequire ments
ub e
Ġn utzen
ĠBet rie
Ġv ol
ĠHerr en
Ġcharac ter
Ġcurr ently
A r
Ġl ange
ff e
Ġbet re
Ġprev ent
Ġmain tain
G e
ĠPro t
ĠDemokrat ie
Ġv ier
Ġc ivil
fr ist
ĠDes ign
o od
umen te
Ġreg ions
Ġev ents
lieÃŁ lich
ith er
ĠNov ember
Ġass ist
g ent
ĠN Ã¤he
Ġterr or
u k
ĠInd ustrie
ab les
O ne
ist ischen
Ġm ount
Ġthe ms
Ġaller dings
1 5
Ġinvol ved
gr u
Ġthems elves
dr Ã¼ck
Ġs ustain
ĠJ u
mit t
ver stÃ¤nd
Ġpart ies
e le
Ġ2 3
Ġapp ly
Ġil leg
Ġs y
Ġan im
Ġwe b
e llen
ĠVerantwort ung
ste hen
ĠI ra
Ġrecog n
Ġb il
Ġneed ed
wir kungen
ĠB ro
Ġz ie
la uf
ĠB Ã¼
d am
h as
Ġl ive
Ġcompet ition
esen ted
Ġha ppen
ĠBed ingungen
ll ig
ĠJ apan
Ġfor eign
Ġh offe
v al
ĠIn sel
richt ung
ĠWind ows
Ġvo ted
Ġextrem ely
Ġge geben
ĠW achst
Ġgemeins amen
Ġfor ce
Ġimplement ation
fol gt
te ile
ĠAn wendung
ĠEntscheid ung
Ġrequ est
ĠStr uktur
en ch
ĠC as
Ġnotwend ig
mb H
Ġdemoc racy
Ġst ation
ck e
ie llen
ĠW ert
Ġeff orts
es tern
Ġcent ury
ĠGeb iet
Ġguarante e
ap er
g u
Ġbe ispielsweise
Ġup on
haf t
b ank
r up
Ġf ight
t a
ĠC o
ĠBes uch
omm od
Ġc amp
Ġlangu age
Ġje weil
Ġit em
Ã¼r z
ire d
ĠZ iele
ĠB rit
ĠR aum
g liche
Ġk ont
Ġag o
C h
yn am
ĠFe hl
en ken
pe ten
Ġd ank
ĠgehÃ¶r t
Ġbed eut
Ã¼ss el
Ġwo hl
ĠA pril
ĠInter esse
lin ien
ĠA G
Ġch anges
ob ile
Ġkle inen
E x
Ġc aus
ien en
ub lik
Ġviel leicht
ĠVorsch lÃ¤ge
an o
Ġsozial en
Ġpre p
in zip
ĠH a
ra gen
tr ie
ĠK ons
ĠBen utz
ĠB au
Ġ )
Ġdis k
lie d
ĠG mbH
Ġch arge
ĠSt at
Ġer ziel
Ġl ow
Ġex pect
Ġdem okrat
ke y
Ġc irc
Ġent halten
Ġver wendet
Ġse par
Ġdevelop ed
at ory
ĠGrund lage
Ġcont ain
Ġw ind
Ġp lease
ver t
ĠD ruck
is her
ĠP f
ig ur
Ġsp rechen
ĠPar te
Ġerm Ã¶glich
gr if
ĠT ages
ĠIhre m
ig ungs
Ġbe vor
b el
Ġcor re
Ġf arm
Ġz ust
Ġreg ulation
- ,
am ous
sch n
ĠK ar
je kte
Ġne u
Ġprote ct
im s
sicht lich
Ġso on
de ut
on str
Ġl ot
wÃ¼r d
ĠVer fahren
ĠEr folg
ĠW ort
ĠT ats
ĠC an
ĠRei he
Ġer reicht
k er
Ġ Ã¶
ch s
Ġcomfort able
ĠA uÃŁen
am a
teil t
hand lung
Ġ200 3
u ct
Ġc ases
tend ed
Ġm ess
T O
Ġp ool
and id
ĠEin satz
Ġnegot iations
pl ay
Ġma xim
cr ib
ne hm
ff ice
ĠGesch ichte
ĠN ord
Ġwer de
ens e
ip s
ĠPar is
ĠMus ik
Ġber Ã¼cksicht
imm ungen
Ġsitu ated
Ġcom es
Ġhal ten
Ġ2 2
Ġn am
Ġt arge
ĠA uss
Ġe ither
b l
Ġmarket s
Ġsaf e
Ġprev ious
ipp ed
gel n
ĠMÃ¶glichkeit en
d le
Ġer fÃ¼
Ġ19 7
ur t
ĠSt re
Ã¤t zen
Ġrest aurant
teil en
arbeit ung
Ġeing es
mer ksam
Ġregion al
ĠK rit
il der
eit er
ition en
pr ise
R O
ĠF rieden
ll ing
Ġdevelop ing
h end
in i
ĠD ate
ĠDeb atte
ĠHer aus
or ge
g ern
in ner
ĠD amen
ĠN etz
b est
um p
ĠC our
ĠÃ¼ber n
Ġmin im
Ġevery thing
Ġind ic
st all
ĠTe le
au en
Ġcre ated
ze igt
Ġaus gest
ĠJ un
ab el
Ġfin al
Ġsur round
on n
ĠW h
ĠS oc
ĠRest aurant
Ġh os
d ate
ĠB lick
ĠG leich
is tet
ĠW ar
Ġarbeit en
Ġun ique
Ġimpro ve
g ing
V or
Ġf Ã¼nf
Ġst ates
Ġam b
at tet
Fra u
ers eits
ĠHin blick
ĠhÃ¶ ch
ĠkÃ¶nn ten
ĠI r
ĠPres idency
ĠC ont
Ġl ater
Ġvorgesch lagen
Ġpr ices
Ġverschieden e
m ark
rie ben
schrif ten
ĠEr weit
Ġm er
T e
Ġeduc ation
an ten
Ġschw ier
Ġacc ommod
Ġp ict
i able
un ik
ĠA ug
ĠArbeit spl
m ut
Ġim med
Ġtr ue
I P
in t
Ġkon kre
Ġaddition al
Ġ âĤ¬
ĠSch we
ich en
Ġal tern
ĠE ur
Ġal most
ĠS ol
Ġex pl
Ġ6 0
h aps
O b
Ġinclud ed
k a
Ġdemoc ratic
ul ate
Ġgemeins ame
Ġmon itor
el ess
ip ment
Ġl iving
Ġth us
ĠSte uer
ĠverfÃ¼ gt
Ġqu e
ĠFran ce
chn ik
ĠP er
Ġc ut
Ġanal ys
Ġble iben
D urch
ĠA ktiv
Ġst or
ig te
or ted
ĠEr klÃ¤r
Ġfor t
Ġact ually
Ġcon tract
ĠM ot
spr Ã¤sident
ĠEin z
ĠermÃ¶glich t
ĠRuss ia
Ġcl imate
ib r
Ġide a
Ñ Ģ
ĠInstitution en
ĠS outh
ĠMin uten
Ġse en
omm er
pend ent
iÃŁ t
ĠAus wirkungen
re chts
Ġdoc ument
Ġtra vel
k ra
ĠDisk uss
ĠFr ench
es ter
Ġw ide
ing t
we gen
ge gen
iel le
i kt
v in
la ck
b ahn
ĠW ieder
Ġj oin
Ġenc our
Ġpro gram
ent al
Ġl ack
Ñ ģ
Ġak zept
or f
Ġrece ive
Ġhat ten
ats Ã¤chlich
Ġf ile
la den
jen igen
Ġh old
ir es
Ġvoll stÃ¤nd
m ail
i os
Ġknow ledge
ĠK raft
ĠM ont
il ar
ĠPro zess
ĠâĢ ĺ
Ġt ype
ĠA ff
c ies
ĠD r
ĠRe chn
ĠM ay
bar keit
Ġze igt
ĠStrateg ie
Ġappropr iate
Ġd ialog
ĠV iel
ra chten
Ġerforder lich
Ġfund s
hin der
Ġwirtschaft lichen
Ġv ill
ĠPl atz
Ġbis her
Ġsch ein
Ġoff icial
ĠfÃ¼hr t
Ġhel d
d es
us st
f rei
Ġen l
og ra
ĠAus druck
ĠDienst leistungen
Ġproced ure
Ġe uro
ĠW issen
ĠForsch ung
ĠL is
setz en
ĠSicherheit s
ĠTran s
Ġall gemein
Ġha pp
Ġgesam ten
tern al
Ġout side
ĠLand es
Ġass oc
ad urch
ĠM od
Ã¤hl t
ĠReg ionen
fol gen
ĠIn tegr
au ber
ĠE C
ĠAbgeord neten
es te
P lease
ian ce
Ġth ing
Ġer wÃ¤
ct ors
ĠH och
an ced
f eld
Ġan geb
ĠPl an
Ġdesign ed
Ġsch ool
Ð¾ Ð
Ġwork ers
Ġeinzel nen
ĠErgeb nis
Ġe benso
l le
am s
Ġdar um
Ġsug gest
atis f
Ġprop ert
D aher
ĠK ir
ĠZ us
Ġfun ktion
Ġr ate
op er
ĠS ub
1 8
fra gen
ĠWe bs
ste ad
Ġmajor ity
Ġfeat ures
ĠS port
Ã¶ glichen
ie ÃŁen
Ġprofession al
Ġd anken
Ġf amous
c ure
ie ws
ĠVer tre
P l
f s
Ġre lev
Ġsp Ã¤ter
Ġentwick elt
ĠKolleg innen
cl ud
Ġh on
V on
ond on
f el
ce p
Ġthrough out
ĠD ank
j Ã¤hr
E T
ĠSch ritt
Ġear ly
Ġcommunic ation
ot os
us h
Ġdra w
Ġden ke
ien s
Ġf ive
Ġans wer
Ã¤n den
v a
Ġc op
Ġlook ing
Ġan genommen
igr ation
ĠÃĦnderungs antrag
ĠB innen
Ġex clus
uÃŁer dem
l Ã¤ndern
mittel n
is ieren
o x
or re
ĠTats ache
ĠÃĸ ff
o id
Ġimp act
Ġcustom er
ĠFun ktion
ind est
o und
ver fahren
Ã¤s st
Ġbe tra
Ġbe hand
ĠFamil ien
Ã¤nder t
Ġemp has
Ġsp ace
Ġtrans l
ĠH ers
Ġdown load
Ġtak es
Ġh ours
Ġdo ing
F rom
fÃ¤h igkeit
Ġwork s
ĠPort ug
Ġac ross
ĠK le
Ġpot ential
kÃ¤mp fung
im me
Ġw ider
ĠI ran
Ġstrength en
ĠAr ch
ĠBereich en
Ġnor mal
arbeit et
Ġen able
Ġjed em
Ġinternational e
Ġcertain ly
Ã¼l t
Ġlink s
Ġ 000
sch lag
ĠVer handlungen
Ġe ver
ĠÃĦnderungsan trÃ¤ge
pr ession
Ġun ivers
Ġd ate
Ġcon sequ
Ġpar ts
Ġpro per
ĠFrÃ¼h stÃ¼ck
. ,
ĠMitglie der
Ġ2 7
ra d
ĠGemein schafts
Ġwe iÃŁ
ĠAmer ican
A C
Ã¤ che
ĠhÃ¤t te
Ġsol id
A M
Ġkonn te
Ġgemeins am
lie gen
Ġa ud
Z u
iel t
k n
Ġbe finden
Ġcolle ag
ĠÃ¤ uÃŁer
k r
ĠR is
ur en
ĠVerein igten
z if
ĠW Ã¤hr
Ġus ers
Ġgu est
on om
Ġvor h
ĠW est
Ġs etzen
ĠVers ion
Ġtradition al
Ã¶s en
ĠR ad
ar a
Ġinvest ment
il le
ĠSta ats
Ġgleich zeitig
Ġto ok
Ġne ues
Ġme chan
Ã¤ llen
ĠF und
ĠP osition
Ġweit eren
b ru
Ġrec ord
h ab
1 7
Ġorig inal
k o
ĠAntw ort
Ġd ivers
ĠBe ziehungen
ch sel
bild ung
st re
Ġer hÃ¶
Ġumf assen
Ġc a
Ġexist ing
Ġconcern s
ĠL uft
ĠD ialog
Ġe th
ere i
ĠBevÃ¶lk erung
Ġam ount
Ġres ol
z er
Ġcomple x
ĠHand els
Ġe igent
Ã¼ gen
Ġhin ter
c en
ĠZ entrum
i as
S h
Ġprogramm es
Ġhe iÃŁt
Ġpub lish
ĠGen eral
te id
Ġconne ction
u ted
h ung
ok ing
ke i
Ġc ross
Ã¤ ss
ĠN orth
Ġz uf
hal te
av a
gr iff
Ġl at
Ġse arch
ĠW erk
al ter
Ġrel ig
ĠPro f
Ġ200 2
ĠAb kommen
Ġ8 0
Ġne ben
Ġmention ed
se hen
om s
Ġconcern ing
l Ã¤nder
Ġmod el
l ang
an de
ĠInter essen
ĠF Ã¼hr
fort un
b all
Un ser
ĠL ondon
Ġpr im
Ġte le
Ġal though
Ġpar liament
Ġjed e
Ġwrit ing
Ġreas ons
Ġhel fen
. "
Ġl ux
g l
Ġabsol ute
Un ter
ĠAug ust
ĠB re
Ġv Ã¶
ĠPro gramme
ĠPro z
aff ung
Ġa ktiv
Ġdem onstr
ĠK Ã¶n
ĠCour t
ĠK os
al y
Ġc ard
richt ungen
ĠBeit rag
ĠH os
Ġdec isions
o le
Ġlead ing
f ace
B ook
Ġa ware
D och
hl en
Ġcomplete ly
I D
ĠP ak
ĠVer tra
ĠAn t
E D
M y
ay er
at ure
Ġbu ilt
ip l
Ġrel ated
Ġnot hing
ran ge
Ġgegen wÃ¤rt
ĠTÃ¼r kei
te mp
Ġj oint
Ġg ame
Ġgel ten
Ġbe it
ess erung
ĠHand el
es h
Ġex tens
Ġges tellt
ĠF Ã¶rderung
ar ing
ĠSchluss el
ĠKont rolle
ĠVer pflicht
Ġcomm unity
z Ã¶s
ĠGo vernment
Ġ200 1
Ġhal f
G en
ĠAuf gabe
Ġemp f
ar ity
ĠM il
Ġr und
ĠS Ã¼d
Ġin tens
Ġwicht igen
id dle
Ã¼ss e
Ġconf lic
for men
Ġfriend ly
Ġkle ine
ĠN icht
Ġmein en
ĠFl ugh
t es
Ġunser es
Ġbas ic
amer a
Ġenl arge
Ġass ess
m ore
Ġcomm ittee
S E
ĠL iste
Ġpra kt
un a
ĠTerr or
or ten
ĠThem en
ode ll
Ġcult ure
Ġpract ice
olog ical
Ġfr ont
ĠBe g
Ġholid ay
qu is
Ġpop ulation
uf fer
fÃ¼ hren
ĠSt abil
ĠVerb indung
Ġmilit ary
Ġagre ements
Ġinclud es
Ġsch wer
1 4
ĠWettbewer bs
ĠF uÃŁ
Ġd igital
gr at
l ies
ahr en
Ġintern et
M ore
Ġver d
Ġs pr
M ail
ĠErweit erung
s pe
al ien
ĠP C
ĠK ampf
.. ..
it able
fl uss
Ġcons ult
in den
ter min
gangen en
Ġbec om
w ie
Ġg ab
Ġlie gen
Ġmed ia
ol z
ĠC D
Ġall ows
Ġobl ig
Ġgest immt
ĠDe c
n issen
ĠEng lish
Ġspe zie
ĠJ ust
Ġer inn
ĠC or
st att
bed ingungen
Ġcomm er
ill s
y ing
Ġjed es
ĠAusschuss es
l ant
Ġadv ant
Ġobject ives
z unehmen
g n
ĠAmer ica
F irst
S eit
Ġble ibt
Ġcon clus
Ġb ody
lick en
end ing
ze ugen
Ġcho ice
C on
Ġer r
Ġ- ,
Ġbe kommen
B y
ag n
Ġw a
iter ran
it ness
Ġrece ived
Ġwe gen
ĠTur key
Ġjob s
Ã¤l le
Ġw Ã¼n
Ġval ues
en k
Ġsim ple
ĠVer ordnung
i ated
ann te
ov o
ra chen
Ġe mer
ĠM or
er y
Ġtrans fer
Ġorig in
a ul
am it
D e
ĠEntschlieÃŁ ung
ra b
v ement
str uments
as on
Ġs atisf
Ġf ail
Ġna he
ĠS y
Ġwar m
Ġestablish ed
ĠOn line
ĠKon ferenz
Ġ $
ĠRe form
Ġb ess
Ġp oor
Ġange m
ĠVol k
ĠBar cel
Ġapplic ations
u ck
i h
Ġpl ann
o o
Ġcomp uter
Ġequ ipment
ĠNutz ung
mb ol
our n
gesch lossen
Ã¶r dern
min ister
Ġricht ig
ĠStr and
Ġregard ing
Ġperform ance
Ġcap ac
Ġpack age
Ã³ n
Ġs ag
Ġmo ve
ĠBe hÃ¶rden
ĠIn form
Ġcent er
p ite
ikan ischen
Ġh armon
Ġl ok
ab on
l en
Ã¶ st
p ass
Ġw under
Ġ199 9
ĠEinz el
D o
enn ung
Ġger ne
Ġj ud
ĠLis bon
Ġwichtig sten
Ġatt ack
Ġdurch ge
v ious
Ġer laub
1 6
Ġin iti
Ġver antwort
pe cted
Ġagricult ural
Ġple as
at ic
Ġfil es
Ġp urch
Ġim age
s itz
er ve
ĠA ugen
ess our
uc lear
Ġbro ad
ĠFe bru
Ġun abhÃ¤ng
Ġs un
Ġobject ive
ĠL iss
Ġquick ly
om b
ĠF ern
os en
ic les
Ġcre dit
d ie
in ne
Ġmehr ere
Ġhin sichtlich
ĠAuf ent
ĠVol ks
ĠKr ise
Ġreport s
Ġc ru
Ġst op
er c
Ġf ace
Ġh err
os ed
Ġgood s
Ġkey word
Ġbel ow
Ġso und
Ġw onder
ĠFor der
ges amt
S p
ĠNot wend
im ension
ĠAff airs
ro s
s eit
Ã¶ hn
Ġganz en
Ġg anze
ge f
ĠMitarbeit er
Ġf ran
stell ungen
em b
Ġeing er
Ġindustr ial
Ġnach halt
ĠI S
ĠVerb esserung
w ide
Ġpart y
h em
und es
ĠK op
Ġwo bei
ch ter
f ten
Ġsel f
Ġso uth
ĠRe ise
ĠGru ppe
Ġerm Ã¶glichen
Ġlea ders
Ġexper ien
er nen
Ã ľber
br igen
Ġbenef it
p s
. -
ĠUr laub
m ann
Ġno te
Ġtro tz
Ġtreat ment
Ġsens e
Ġh uge
ĠLiss abon
Ġpop ular
Ġent hÃ¤lt
4 0
av ing
Ġachie ved
tell er
ĠAus wahl
A uÃŁerdem
ot ion
Ġsch Ã¶n
ĠWoch en
l am
Ġco de
Ġseem s
Ġcont ains
l assen
ent wick
Ġopt ion
it ect
Ġin itiative
ein er
Ġinde ed
schlieÃŁ end
er weise
Ġp assen
d om
iven ess
ster reich
Ġgar ant
ll a
opp ing
w ander
Ġra il
Ġbe ein
B er
ĠI T
Ġze igen
Ġle ben
Ġrec ently
ĠBinnen markt
ut t
Ã¤ um
ĠVer anst
ed en
ĠO ber
ĠP ass
Ġgr und
ĠSch affung
m Ã¶glichkeit
ist ische
Ġ ill
ĠWachst um
ĠGe legenheit
L et
ĠW ill
Ġl os
Ġsp ac
Ġcorre ct
Ġeng ine
Ġcar ry
R E
m or
Ġv ict
ĠDok ument
Ġdoub le
B es
ĠFrank reich
p ut
Ġcon grat
V D
ĠE ast
Ġve h
Ġbeginn ing
âĢ ĵ
ĠU kra
ĠL ux
ken nen
f on
Ġdialog ue
S ince
ien ste
Ġhigh ly
it el
opp el
r ig
Ġr uh
st ens
l ass
Ġlevel s
an ia
j ahr
Ġser ies
f onds
Ġsp ielen
Ġo il
Ġfr Ã¼
Ġflo or
ĠGeb Ã¤
h aupt
p id
Ġpr esented
Ġeff icient
wert ungen
c er
ĠB ad
s uch
ĠS ant
Z um
Ġhe ut
w ill
ÃŁ t
ĠPr ior
Ġevery one
ĠH ome
Ġn ice
ĠM acht
ĠC ity
Ġsc ient
st ances
Ġequ ipped
ĠvÃ¶ llig
Ġgovern ments
Ġsuccess ful
n ern
ĠG ree
Ġgar den
M adam
Ġintegr ation
ic ien
Ã¤t igkeit
vor schriften
t liche
um b
on se
le y
Ġact ive
Ġverbess ern
ut ter
Ġcomp rom
Ġcl ick
la ce
ĠVer wendung
ĠNotwend igkeit
fortun ately
ink s
Ġex change
Ġeinz ig
forder t
P E
Ġre d
ff iz
Ġk ulture
Ġincre ased
Ġl Ã¤sst
O L
I M
ĠF ach
Ġ !
Ġgrund legen
er ing
ĠAngeb ot
Ġ +
me hr
Ġcar ried
or ganis
Ġp ain
anz en
ĠErgeb nisse
Ġf urn
Fin ally
ĠBe f
Ġwh ose
Ġf rei
is ted
Ġst age
Ġconsum ers
a pe
auf en
A d
ab or
j ust
ĠGew alt
ĠCl ub
Ã¶r per
Ġprincip les
Ġt w
ik o
sch w
Ġa ge
l ier
Ã¼tz en
ĠT age
Ġb lock
ĠBarcel ona
Ġagre ed
I L
ate ll
Ġhigh er
Ġgut en
Ġse x
ĠMan agement
Ġgef Ã¤hr
Ġsozial e
ĠS up
ĠAm ster
Ġeigen e
a ction
Ġd re
ĠgroÃŁ er
Ġverw enden
imm ing
ho ben
ĠD is
ĠWoch e
p ose
ĠverfÃ¼ gen
Ġs ent
ĠAn zahl
Ġd ang
ĠI mm
2 5
ĠKÃ¶n ig
Ġst ra
o z
Ġrev iews
ĠK ern
ĠZ e
Ġamend ment
ĠA part
Ġoff ice
Ġbath room
Ġco ll
w ise
Ġdire ction
Ġr at
Ġprof it
end s
j a
ann er
Ġver g
Ġask ed
ĠZeit punkt
Ġh Ã¤uf
icher ung
b uch
ĠS erv
un t
Ġsubs id
Ġex c
loy ment
Ġm al
asch inen
Ġcommer cial
Ġcho ose
Ġsupp ly
. )
Ġsee k
ĠJ une
Ġcommit ment
Ġtra ff
grif fen
Ġsim ilar
Ġmein em
ĠverfÃ¼ g
Ġs ix
Ġf Ã¶rdern
ĠM aterial
ĠTe am
ap t
us ion
Ġob tain
at ast
Ġsch Ã¶
Ġdisk ut
x is
ic o
Ġan zu
Ġper haps
b ie
Ġk Ã¼nft
Ġte ll
ĠLie fer
Ġgesam te
verstÃ¤nd lich
Ġz unÃ¤chst
Ġsh ows
il es
Ġr ates
ĠM y
ĠCh in
Ġinfl uen
Ġmat ters
ĠProdu ktion
sch t
Ġaspect s
Ġav oid
Ġnew s
Ġob s
ĠgehÃ¶r en
ig lich
ĠLÃ¶s ungen
Ġstr ess
Ġadd ed
Ġsh own
Ġat mosph
Ġ5 00
Ã¤n gt
Ġgleich en
Ġn uclear
kl us
ĠSoc ial
uff icient
Ġb i
Ġre in
Ġinnov ative
h es
st anden
Ġfor mer
ĠT at
Ġprom ote
Ġd ynam
f Ã¤lt
b a
Ã¤ st
ĠJu gend
Ġ You
ĠM iss
Ġconsider ed
Ġc ame
pf lich
Ġvorh anden
al u
Ġt atsÃ¤chlich
ĠBer g
Ġp an
Ġthank s
ĠBeschÃ¤ft igung
gre ifen
en cy
ck s
Ġ2 8
ĠVor aus
Ġspe ed
Ã¤nd ig
Ġge legen
ir it
ĠB ud
Ġs orgen
fahr t
e hr
ĠH igh
ing er
Ġeffect s
ĠM Ã¤n
ĠIntegr ation
Ġhotel s
ak ter
Ġl ik
ĠK rieg
Ġver Ã¶ffent
Ġlat est
essour cen
ĠC entral
Ġposs ibility
ĠAn fang
art ige
l Ã¶s
Ġopport unities
ĠMa ÃŁ
Ġein deut
Ã¶ff net
2 4
ĠStand ard
Ġverst Ã¤r
ĠL eit
Ġge fÃ¼hrt
k i
ous ly
ĠHer zen
Ġmaterial s
ieren den
ĠT od
ĠIn itiative
l i
or ed
crip t
ow ers
ĠMehr heit
Ġbeh ind
ĠD u
ast ic
aus ch
ĠErfahr ung
Ġpro t
wh ere
ĠB alk
olog y
Ġcon dition
Ġde pend
ot es
z ub
Ã¤ cht
Ġer k
il en
R o
Ġentwick eln
aussch uss
Ġern st
ĠS tellung
Ġso fort
ĠY ork
ic y
H ere
ĠW ein
D enn
Ġd raft
ok oll
ĠP an
Ġph ys
Ġa f
ĠSe e
Ġresp onse
ĠÃĦnder ungen
ar ent
Ġsett ing
Ġreach ed
ĠS olid
Ġprovid ing
itt ing
Ã¼ hm
Ġcre ation
Ġrev iew
b re
Ġeas ily
ĠgrÃ¶ÃŁ ten
ĠPerson al
ĠReg ierungen
ĠÃ¤uÃŁer st
Ġaccommod ation
Ġverste hen
Ġex ternal
ĠN ieder
ĠBesch l
alt ungs
gen e
Ġle icht
Th ank
Ġatmosph ere
un sch
ĠEin fÃ¼hrung
ĠRep ublic
Ġsum mer
9 9
Ġprep ared
ĠP ost
ĠPro gram
Ġrelev ant
ĠOrganis ation
Ġde ath
ict ion
zeug t
I s
Ġredu ce
rif ten
ĠE igen
ĠR u
N o
ĠH am
Ġs ize
Ġh off
ar ily
r id
ĠRuss land
Ġcrit er
Ġsom it
ĠLe g
Ġex hib
ĠL es
Ġdet a
Ġsch le
Ġ9 0
Ġd ring
id el
Ġsustain able
k raft
ĠgewÃ¤hrle isten
he ben
le b
Ġled iglich
ĠJun i
Ġpress ure
ent lich
Ġdec ided
Ġho hen
u el
uff et
ĠIn nov
ĠL auf
Ġgesch lossen
rech end
ĠÃ ł
ĠR el
ĠG lobal
ne y
Ġpre par
ĠDe z
ist ics
re c
Ġver pflich
qu are
Ġcon du
Ġcapac ity
Ġele kt
ĠRat sprÃ¤sident
um mer
ĠM ac
ĠUm gebung
Ġgeb racht
ĠS elbst
u ern
Dar Ã¼ber
ĠI mp
Ġter ra
Ġcom ing
ĠKon fl
Ġbe teil
ĠCon vention
Ġpro b
oun ts
Ġsub mitted
Ġerfolg reich
Ġact ions
ib ilities
stell t
Ġst yle
ier ter
ĠSp ain
ĠB ra
Ġv ideo
ĠG olf
Ġwirtschaft liche
Ġg ives
es tens
Ġpla ces
Ġander er
Ã© s
Ġdet ails
ĠHÃ¶ he
Ġne igh
Ġcon cept
ĠM adam
itz en
ĠA gr
Ġt en
ĠAmster dam
cre en
Ġreg ular
Ġrem ains
Ġs ites
ĠVerein bar
v olle
Ġarch itect
Ġgro ss
Ġver n
ĠM ag
Ġ19 6
Ġde p
Ġ7 0
ul gar
i ately
Ġpropert y
ĠA kt
Ġemploy e
ĠA ktion
ĠSp rache
ĠH o
s y
ĠFamil ie
ma ÃŁnahmen
ĠBus iness
Ġenlarge ment
ĠStand punkt
komm ens
Ġs uffer
Ġbestimm te
W er
2 3
Ġc ause
Ġclos ed
ĠL at
ind ustrie
Ġprior ity
il os
re hens
ĠE rachten
P L
Ġreg istr
res p
ĠMa i
ro at
ĠErachten s
Ġer schein
Ġmein es
D amit
Ġausgest attet
o der
ĠInform ations
Ġzw eite
ĠS icht
ĠKomm unik
ĠKomp rom
it ure
rim in
S ome
Ġdis play
Ġbal ance
ze uge
ĠItal y
Ġle ave
ĠBe kÃ¤mpfung
N ow
ĠL og
ĠWettbewer b
Ġf al
Ġis land
ad em
Ġann oun
Ġtra in
et ing
ien te
Ġbestimm ten
rie f
Ġ =
ĠD inge
la v
ĠW ahr
ĠN et
em in
al a
ĠKommissar in
ĠVertrag s
ĠTransp ort
ĠA ud
There fore
ĠR ot
Ġzahl reiche
Ġa mer
zieh ung
Ġfund ing
Ġreg ister
Ġpart ner
Ġun e
ĠAm end
men ted
Ġconsum er
Ġdes crib
Ġob wohl
Ġlim ited
Ã¼nd et
Ġvor gesehen
Ġ3 00
F urther
ĠF erien
ĠPart y
ĠAs pe
s on
Ġassist ance
at o
Ġ ut
Ġmov ement
ĠDeb ian
ĠW TO
Ġde cl
setz ungen
ug s
ĠFrei heit
Ġfor ms
Ġar g
Ġne uer
ĠKos ovo
ĠSt ad
ter ne
ie g
atast rop
Ġdisc over
P ar
spr Ã¼n
Ġer hÃ¤lt
Ġel se
legen heiten
iterran ean
ĠP ers
Ġtra gen
velop ment
Ġhigh l
ĠAfr ica
Ġschein t
s ystem
sel ves
ĠVerkehr s
Ġtransp aren
Ġs port
Ġw oll
schn itt
u ert
Ġsupp orted
ct ober
ĠHin ter
ategor ies
Ġgro und
Ġ' '
itz er
ĠÃ¤ hn
ĠM useum
ĠArt icle
Ġbro ught
mÃ¤ÃŁ ig
Ġsag te
Ġent de
ĠÃľber ein
a der
ĠE ing
ĠM ich
ĠC he
ĠC ol
g han
Ġg reen
miss ion
ĠAktiv itÃ¤ten
wert ung
icien cy
c le
Ġregul ations
ran g
Ġvor lie
Ġn orth
Ġinde pendent
' .
Ġr ule
ĠIn strument
Ġer weit
ĠauÃŁer dem
ĠFortsch ritte
Ġalle in
Ġge wor
Ġ2 6
Ġv irt
Ġfo ot
Ġvers uchen
ĠG ed
stit ute
ourn al
ĠKont akt
el ten
ĠF ed
g esellschaft
ĠD ar
ĠFehl er
Ġh or
ĠDec ember
ĠBrit ish
hin dern
Ġeff e
N G
Ġlim it
reib ung
Ġsol chen
Ġbest Ã¤t
et imes
ste in
ge ber
Ġcreat ing
Ġqu iet
Ġw ww
ĠUkra ine
ĠSp a
ĠBest immungen
Fra ktion
ĠT o
Ġunter st
Ġple ased
Ġeff iz
Ġd adurch
ĠM ad
Ġconstru ction
Ġer ster
Ġf ig
Ġor d
Ġpur pose
Ġ x
ĠA dr
Ġrest aurants
Ġvar iety
a w
ĠGe fahr
Ġgem Ã¤ÃŁ
u is
Ġre gel
Ġzw eiten
e hen
ber t
ĠRe v
ĠItal ien
ĠS telle
Ġl ic
Ġre pe
ĠÃĸff ent
Ã¼tz t
Ġdiscuss ion
Ġapart ment
p age
Ġeinz ige
ĠMed ien
Ġfriend s
Ġfran zÃ¶s
ĠV is
ĠW ohl
an ischen
Ġm obile
Ġho he
Ġins gesamt
Ġf ix
Ġexp la
P res
merksam keit
d ra
Ġh y
Ġmess age
Ġde ep
Ġcon tr
ĠW estern
Ġbec ame
Ġer heb
ĠIn stall
Ġauf genommen
Ġprodu ced
ategor ien
Ġlar gest
Ġb illion
ĠSt unden
ag s
ĠI N
ĠMar ch
Ġin stead
Ġs us
Ġw id
mÃ¶glichkeit en
Ġex ec
Ġf isher
t ent
unter nehmen
âĢ ¦
ĠItal ian
ĠO kt
* *
ĠFol gen
end es
Ġren ov
is ters
g y
er o
en a
Ġver gangenen
Ġth ous
ig ungen
Ġrelations hip
F R
ĠAuf merksamkeit
ĠP unkte
Ġair port
is p
Ġstud y
Ġst ability
Ġcon ference
ĠJahrhunder t
Ġch em
ĠM icro
Ġw ays
Ġal ten
Ġsch lieÃŁlich
O r
Ġob vious
ar enz
Ġh ost
Ġreg ards
Ġacc ord
Ġinterest ing
ĠS il
ĠUnter k
b us
Ã¼r f
Ġeff ort
be wertungen
Book ing
ĠDez ember
af t
ĠUn d
la re
rit ts
le gung
Ġbo ard
Ġmeas ure
b esch
y ond
ĠErklÃ¤r ung
Ġstep s
k ont
rÃ¤ fte
com ing
ĠPre ise
Ġein schlieÃŁlich
Ġstar ted
por ate
Ġallow ed
ĠEntscheid ungen
Ġde termin
8 0
Ġ Ã¤ndern
Ġfish ing
Ġproced ures
Ġactiv ity
conom ic
Ġr ich
Ġgen ieÃŁen
f alt
S T
ad es
ĠPriv at
Ġ199 8
Ġtas k
Ġj Ã¼n
ĠSt aat
Ġprodu ce
Ġmed ium
Ã¤ gt
Ġver treten
Ġh ous
ĠBild ung
Ġin strument
W Ã¤hrend
ĠA f
et ary
Ġd iv
ĠBenutz er
ron ic
Ġstat us
E P
ang t
Ġkon zentr
an lage
Ġkein er
ĠBericht s
ĠAn forderungen
Ġhervor ra
Ġoper ation
ĠK ing
pr ises
al tet
Ġp urs
Ġac cep
Ġlegisl ative
z one
ĠR ights
Ġsour ce
Ġcomprom ise
Ġf all
ĠBas is
se e
Ġl iberal
n o
Ġm orgen
Ġcontrib ution
b or
ĠKÃ¼ che
Ġprov isions
Ġd ut
Ġrel ation
Ġdam age
over ty
s icherheit
ĠÃĸffent lichkeit
Ġt Ã¤
Ġbet roffen
Ġm or
ĠD i
Ġex act
so ft
ĠAl t
âĢľ ,
g round
l Ã¤nd
Ġb eschÃ¤ft
ĠC ons
ĠGÃ¤ste bewertungen
ĠDiskuss ion
itu de
Ġdis p
ĠSchwe iz
an nen
ĠVorsch riften
ĠFil m
ib il
ĠSer ver
p olit
u ed
Ġs an
ĠD om
ĠO ctober
Ġwrit ten
Ġin struments
wend ungen
iv ity
B itte
Pres ident
Ġwor d
ĠAb end
glie d
Ġlab our
k osten
Ġvill age
ĠZ eich
Ġd ise
Ġle isten
Ġfor der
ĠGru ppen
lin es
ĠGr enzen
ĠBereich e
Ġcomp on
Ġapp e
ĠUnternehmen s
ĠG ip
ĠSt Ã¤d
Ġerwar ten
ennt nis
Ġfe hl
it ial
ient en
Ġkonn ten
ug g
ĠO per
Ġg iving
ĠEr zeug
d ienst
Ġeinges etzt
Ã¼h ungen
Ġdist ance
ĠhÃ¤uf ig
ĠÃ¼ber w
Ġk it
ck er
E M
for d
ĠP ap
T od
Ġour selves
ok er
Ġle ider
Ġeigent lich
id ge
Ġg ain
Ġcriter ia
ĠLand wirtschaft
Ġhistor ical
Ġl oss
im inal
ĠO pt
ĠFlugh afen
ĠArbeit nehmer
rat s
ir a
Ġcon ven
il fen
if ik
ĠAn satz
Ġg ot
Ġmin or
U R
ĠH ar
Ġwen ige
ĠB undes
Ġdoc uments
w esen
Ġgen ommen
wor ks
ĠW ider
ĠGesundheit s
Ġkle in
Ġgewor den
ĠT er
Ġpre fer
ĠPrÃ¤sident en
ĠMÃ¤r z
le kt
O ffice
Ġp en
Ġstat ement
ater al
ĠN ationen
Ġviol ence
Ġev alu
Re g
fre und
Ġmount ain
ĠJanu ary
Ġd at
Ġver m
ĠK an
Ġcomp rehens
Ġele g
Ġdurchge fÃ¼hrt
ĠSpan ish
Ġw on
ĠPr Ã¼
ĠSt Ã¤r
ĠS ystems
cre t
Ġla unch
ie te
ĠOkt ober
ĠTransp arenz
Ġstruct ure
Ġfin ally
ĠS ite
Ġb ase
Ġf irm
Ġbenef its
Ġinter pre
un k
Ġg ran
forder ung
Ã ±
Ġz entr
... "
Ġfe ll
or gt
Ġtyp es
h ere
y a
ĠOr gan
Ġun mittel
lichkeit en
Ġde part
or gung
ĠE re
ĠPr inzip
Ġm em
Ġber Ã¼hm
ogra f
ĠbenÃ¶t igen
Ġn ied
ĠS inne
Ġb rit
Ġfil m
he ad
ĠTages ordnung
ieren de
o ught
Ġp ath
oc ated
O f
ĠC amp
te uer
ter prise
Ġimmed iately
Ġsuch en
letz t
Se cond
Ġse ction
Ġakt uellen
ĠD on
Ġw orth
Ġcon stant
Ġe dit
Ġw est
O T
ĠGrÃ¼n den
ĠhÃ¶ her
Ġb ra
Ġw ine
ĠC om
Ġele ments
Ġhigh est
z we
Ġihr es
ĠeuropÃ¤ ischer
Ġdistrib ution
Ġanges ichts
! !
drÃ¼ck lich
w ind
e ks
ĠBel g
Ġobs erv
Ġ2 9
Ġth reat
Ġtransparen cy
ĠAuf trag
ĠB ilder
frastr uct
Ġfre und
Ġg as
for dern
ene w
Ġwicht iger
Ġkann st
crip tion
an ted
Ġper fe
ĠTe x
ur ance
Ġg rat
Ġl ower
leit et
Ġk ennen
Ġemploye es
ĠSchw ier
ĠIn n
ĠInvest itionen
ĠS ommer
p en
Ġgef unden
zeich nung
Ġsup er
ĠH ung
Ġintegr ated
ĠGem eins
Ġw eder
h ouse
y er
ie ht
Ġuse ful
ĠS l
Ġbe zÃ¼glich
Ġequ al
Ġc y
Ġst ock
ĠEmp fehl
st ag
ĠMet ho
T ra
Ġ ult
Ġge le
zus ch
a ign
ul s
ĠVer Ã¤nder
Ġa genda
Ġg re
Ġnum erous
ĠAuf fassung
Ġaltern ative
ĠVor sitz
Ġgesch affen
orn ing
Ġaff ect
Ġl ate
Ġvor ge
ĠJul i
Ġread ing
Ġur sprÃ¼n
ĠRed e
ĠM art
Ġz eit
Ġapp lied
ĠDe velopment
amm lung
Ġpark ing
Ġchallen ges
ĠE d
Ġele ctions
Ã¤n gen
ern er
ĠDem oc
mosph Ã¤re
ĠPortug al
ĠS ache
Ġhal te
v iew
Ġre ality
Ġe mb
Ġdr ive
ĠUnter such
Ġm is
Ġhelp ful
ĠInd ustr
- -
ĠAufent halt
l ose
ik er
Ġson st
r Ã¼
ĠFir ma
r al
be zogen
Ġcons ist
ĠServ ices
ĠN r
Ġco ast
ĠPro jekte
ĠSt ar
Ã¼ck en
Ã¤ te
Ġapart ments
ĠCent re
Ġprocess es
Ġp overty
ĠIra q
wor tern
Ġpay ment
Z ur
Ġro und
ĠUnivers ity
Ã¼n de
Ġtool s
fr ont
ze hn
ĠK ur
Ġconsequ ences
Ġem iss
Ġe her
Ġda ily
ĠLin ux
9 8
W el
acht ung
Ġsk i
ĠÃ¼ brigen
leg ation
ĠT ro
af e
ĠPrÃ¤sident schaft
Ġun emp
Ġte ach
ĠLebens mittel
P S
ĠAf ghan
ĠComp uter
Ġsay ing
m Ã¶
Ġerne ut
Ġh om
Ġsie ht
ph one
Ġoffer ing
ĠIn nen
ĠbegrÃ¼ ÃŁe
Ġocc as
Ġcru cial
Ġdie jenigen
ĠJul y
Ġsolid arity
Ġtre ffen
I I
Ġbe m
Ġm ut
ĠÃ¼ber prÃ¼
Ġbring t
ol a
Ġt im
Ġanalys is
own load
zuf Ã¼hren
spro zess
Ġbe yond
r ichten
p ark
ilos oph
ĠRegel n
Ġb ad
Ã¼nst ler
Ġentsprechen den
a ktion
Ġleg it
Ġper man
en gen
ĠB ulgar
Ġ ign
ĠEre ign
iz in
og le
spr Ã¼
Ġph ot
Ġzie hen
Ġdis tr
Ġund ert
Ã¶r en
Ġpers ons
ĠS um
Ġpa id
ĠSolid ar
Ã §
ĠE m
ar es
Ġpl ant
fol ge
Ġbeit ragen
ion e
Tod ay
gel t
Ġwissen schaft
Ġk rit
y e
Ġer fahren
ĠÃ¶ffent liche
d ed
Ġhuman it
Ġoffer ed
ĠBe teil
ĠG al
e g
ĠK oh
Ġcolleag ues
Ġconflic t
ĠC ap
ĠC O
Ġsp irit
Ġth ought
Ġgo es
spr icht
Ġp al
Ġ199 7
ĠStra ÃŁen
schein lich
ĠEn ts
ĠSchlussel wortern
ĠB ahn
ĠÃĦnder ung
ĠM ann
ĠM obil
ĠJ ava
Ġhin zu
ĠG ott
ĠAuf gaben
Ġpract ical
sp iel
ĠJanu ar
Ġilleg al
ĠF Ã¤llen
Ġentsp rechend
b ack
ĠD VD
Ġhapp y
uf e
im ent
ĠC ost
ĠZ w
ien z
ĠBem Ã¼hungen
Ġlang frist
Ġ3 5
Ġl as
ĠD an
Ġverg essen
los en
ĠFl or
Al so
Ġs ufficient
Ġide as
v ors
ĠG ast
Ġmit t
Ġv an
Ġze hn
ĠLin ie
Ġk ur
ws er
sch lieÃŁen
ĠMon aten
I A
ĠBed Ã¼rf
leist ung
ĠAgr ar
ĠfrÃ¼ her
ot he
ĠAr mut
Ġrequ ires
ĠU p
Q u
Ġver hindern
fÃ¼ hl
i ability
ĠMed iterranean
ĠFol ge
D abei
Ġh ar
ob by
ive au
w art
Ġh il
Ġfor ces
Ġex ception
Ã¼r ger
c ement
an geb
Ġk il
Ð »
f o
z y
Ġin frastruct
Ġausge zeich
ĠNach bar
J ed
ĠBÃ¼r gern
Ġgen annten
sy ch
v ere
Ã¼ cht
Ġget an
Ġun be
Ġwe ak
ĠT erm
S S
b ased
oc ol
at Ã¼rlich
ang ing
Ġorganis ations
est ic
str umente
ĠVertre ter
{ {
ĠRep ublik
ĠSitz ung
Ġspe e
h old
D F
Ġbehand elt
ĠhÃ¤t ten
Ġminim um
ĠW unsch
Ġp ie
Ġwe eks
Ġdoub t
Ġadvant age
ur b
Ġto mor
Ġ3 1
Ã ł
tell ten
Ġfre qu
ca pe
Ġb an
ĠR essourcen
a is
Ġer folgt
c raft
Ġcongrat ulate
Ġtomor row
ĠD et
ĠV Ã¶lk
ĠD ritt
Ġvor her
Ġpr Ã¤sent
Ġmod ified
if el
ir l
ĠjÃ¼n g
Ġhistor ic
Ġander em
ĠKre dit
ĠO st
Ã¶ ÃŁe
Ġwas te
ĠT agen
Ġimple mented
ĠM os
pro gramm
re t
Ġhe ar
Ġpartners hip
2 2
Ġse cure
E very
ord ination
Ġs ales
ĠDire ctive
Ġn immt
Ġsh opping
Ġcl ients
Ġrel ating
ĠBe handlung
ĠT a
Ã¼ ge
Ġr enew
isch em
Ġl ines
gew iesen
Ġrefer ence
v is
ib e
ĠSpe zial
Ġstart ing
esell schaften
0 3
ĠAut o
Ġpublish ed
ic it
Ġre ich
Ġbed room
Ġpa ar
Ġmonitor ing
Ġsch l
Ġvers ucht
4 5
Ġrest r
Ġm orning
ĠBeg inn
ĠG as
w Ã¼n
Ã¤n ge
Ġbes ondere
Ġs yn
ĠRest aurants
Ġsim pl
Ġo l
Ġgrow ing
Ġl ives
ĠAn str
ain t
Ġcaus ed
ĠPal est
Z weit
Ġcomprehens ive
ĠD o
) :
ĠVer l
ick en
Ġredu ction
Ġeff iciency
Ġmaxim um
ul a
Ġoper ating
frastr uktur
ĠK or
ĠV en
Ġcirc um
pect ive
Ġj en
Ġw r
Ġaus reich
o on
sch reit
Ġus w
z t
Ġfor dern
ĠBÃ¼rger innen
Ġread y
re m
ĠS ign
ateg ie
Ġmach ine
th eless
C O
b in
ĠTechnolog ie
stitution al
Ġaccord ance
ĠAt mosphÃ¤re
Ġmean ing
haf te
ziel le
A pp
ĠW inter
ĠDies e
Ġser ver
D uring
sch Ã¶
Ġse lect
ĠNe u
n ungen
Ġf ul
Ġcamp aign
M any
Ġm Ã¼
ĠGer ichts
Ġant i
Ġre con
Å ¡
ungs ver
Al though
ĠBetrie b
gru ppe
ĠÃ¼ber haupt
Ġgew esen
Ġse chs
ĠGebÃ¤ ude
Ġun bed
p ack
Ġs ports
P h
ĠFinanz ierung
N ur
Ġopt ions
ĠV al
Further more
Ġin itial
ul ated
alt ungen
Ġstre et
Ġany thing
ĠErfahr ungen
i us
ĠerfÃ¼ llen
Ã ´
p ool
b ook
ich ert
ad o
Ġd ed
stand ing
schrif tlich
ĠerklÃ¤r t
c ia
Ġfol gen
Ġ urg
Ġbe ant
Ġzahl reichen
ĠZ entral
ĠM ult
Ġsom etimes
Ġwar um
L A
Ġbeg in
ĠberÃ¼cksicht igt
ĠB ot
ĠN acht
ĠVer gangen
Â Ń
ĠMin der
ĠV illa
Ġra pid
m us
it ch
Ġk o
Ġtechnolog ies
ĠOp en
ĠForsch ungs
Ġbor der
Ġplay ers
Ġcrit ic
Ġmen sch
ĠgrÃ¶ÃŁ er
at form
ĠProt okoll
Ġs Ã¤m
Ġoff iz
Ġpict ures
Ġg Ã¼nst
Ġex tent
Ġbetre ff
Ġg erecht
Ġch arm
as ten
Ġad vert
Ġprob ably
Ġch ance
Ġon es
Ġlangu ages
ĠWer te
Ġbe gan
Ġterror ism
aly se
} }
fl Ã¤che
Ġsw imming
Ġex port
Ġrem ov
Ġfarm ers
Ġst immen
bo ard
Ġworld wide
S tr
ĠAustr ia
Ġricht ige
ĠVer teid
A cc
ĠVergangen heit
Ġst aat
h otel
Ġun er
trÃ¤ gen
ĠAspe kte
Ġein geb
ĠPra xis
' ,
ut ive
Ġs av
ich ern
ĠB a
it ation
Ġmethod s
Ġcoun ter
S P
ie ll
Ġwel ches
ĠCent er
Ġdec or
ĠSe curity
I V
w a
Ġjeweil igen
Ġb ur
Ġinter ested
leg ten
ĠO l
Ġv oting
ĠgrÃ¶ÃŁ te
Ã¤ llt
Ġchallen ge
if ically
ĠIn halt
ffiz ienz
Ġverpflich tet
ĠK e
Ġem ail
Ġl ands
ĠF Ã¤h
gr enz
Ġtransp arent
Ġse ctors
ok e
it ten
id ing
Ġresp ond
ĠIn iti
Ġein heit
Ġste ts
Ġtour ist
ĠTerror ismus
ĠEr d
Ġadop t
Ġs al
iz es
iz ing
Ġc ast
kt ive
9 7
Ġconc entr
ĠCon ference
Ġsein es
Ġmot or
ĠW eit
ĠMenschen rechts
Ġhistor ischen
s am
Ġscient ific
Ġw anted
Ġsy mbol
ĠV ideo
Ġar range
Ġb ill
ĠR ats
Ã¤ chen
Ġe hem
ĠRe al
w enden
re land
ig ation
vo llen
Ġb ald
Ġw Ã¤hlen
Ġc andid
zeit en
Ġval id
Ġbe in
ĠGr and
Ġw ach
Ġc ert
Ġl es
ĠA gent
ĠauÃŁer halb
n ungs
Ġg ames
ĠM c
ĠSt ock
Ġaccep ted
en ze
Ġsele ction
Ġre lease
ĠTra dition
ĠBer uf
ĠT est
ĠA k
Ġex erc
k arte
ĠSch ritte
rÃ¤n kt
Ġbe trÃ¤
icht lich
Ġbusiness es
s c
Ġre le
Ġapp rec
Ġmoder nen
Ġbef Ã¼r
ĠAn frage
ab kommen
ĠT ier
ĠAir port
ĠOp fer
ĠGe f
f igur
Ġin e
ĠG reen
b as
fen ce
Ġverantwort lich
ĠH el
Ġzum indest
pos es
los igkeit
in ary
Ġp owers
â Ħ
Ġdes pite
me er
f Ã¼r
tem pt
Ġup d
âĢĿ .
Ġfol gt
Ġb lo
Ġk am
ĠRechts vorschriften
ĠZ ivil
i ant
ĠC al
Ġt Ã¤t
ĠT H
Ġgem ein
f urt
Ġf ine
Ġl ay
k om
Ġvisit ors
Ġwalk ing
ĠSpan ien
ĠAnge legenheit
en h
z ul
Ġinfluen ce
Ġver ab
ĠvollstÃ¤nd ig
Ġgen u
Ġexp ert
Ġheut igen
ver age
ĠM er
Ġl ies
Ġgen ug
ĠD at
Ġsch Ã¼tzen
Ġen orm
Ã¤mp fen
Ġim ages
Ġver kauf
Ġrem ember
Ġtry ing
Ġra ised
w el
er dings
atal og
ĠWe ll
Zweit ens
M eine
Ġg lo
ĠpersÃ¶n lichen
im b
um m
Ġsepar ate
Ġl ost
Ġcompet it
AT O
Ġco up
ĠM ass
ĠG el
r aten
Ġabsolute ly
ĠAnge legenheiten
Ġr is
bar er
af fe
Ġf ant
ĠBer at
ĠHeraus forderungen
ak te
Ġref lect
ĠW enn
ĠstÃ¤r ker
Ġeleg ant
ĠG et
ĠW aren
ĠSchwier igkeiten
ĠG arten
tr itt
M S
ĠM and
Ġtechn ischen
Ġk omp
Ġsub stant
kon om
erk ennung
ĠParte ien
id s
ĠFir men
Ġco hes
Ġhe av
Ġfol genden
im ed
and a
M L
ĠCh ance
Ġerinn ern
ĠK n
Ġand ers
Ġpr Ã¼
wer te
Ġaus schlieÃŁlich
ĠVer gleich
Ġdem ands
qu em
Ġbess ere
âĦ ¢
olog ie
t ag
Ġdeut schen
ĠReg ierungs
hand el
hÃ¤lt nis
s Ã¤tze
ĠD oppel
ges etz
ĠAn nahme
ick et
ĠH y
l ast
Ġzu k
ĠP et
zus etzen
N atÃ¼rlich
ĠHin sicht
Ġbor ders
ĠI d
ĠEx per
Ġim pl
Ġerlaub t
ter e
ĠEin wander
Ġaff e
Ġun ten
Ġspe zif
Ġcl ub
Ġangem essen
ĠE igent
Ġ199 6
Ġin sp
Ġs il
I F
ĠEntschlieÃŁ ungs
Ġhon our
Ġnam ely
st ar
ch tet
ĠâĢ Ķ
Ġerwar tet
Ġmanufact ur
Ġfiel ds
ĠVertra uen
Ġsl ow
I ON
Ġinnov ation
Ġl isten
Ġan erk
Â ´
am in
ĠChin ese
ge hend
Ġchange d
E ven
Ġv ital
att le
âĢ ŀ
Ġstrateg ic
g Ã¼lt
ab r
Ġge k
Ġget roffen
7 0
Ġver urs
zu legen
lemen te
Ġ ).
ĠE ss
re ise
ĠIhr es
h ilfe
Ġj Ã¤hr
Ġover all
/ /
rup tion
b it
Ã¶r t
kr ise
a e
ĠH al
ĠU K
Ġmen u
Ġann ual
ul y
ĠÃ¼ber nehmen
Ġallgemein en
Ġkit chen
E G
un ge
Ġit alien
Ġzuk Ã¼nft
Ġrepresent atives
us es
ĠT or
Ġc alls
ĠProz ent
Ġf ire
ind ungen
Ã¤tz lich
Ġpro ceed
ĠÂ »
igh ted
iar den
ĠGes pr
ro gen
eng ungen
Ġse ason
ĠEn d
He ute
ĠEin richtung
Ġges etz
ĠI reland
Ġwork ed
at ers
Ġiniti atives
Ġg esehen
as c
oll ar
ĠG ran
it ts
Ġyour self
ĠM odell
Ġpriv aten
Ġtr ip
T ro
z iert
us ed
Ġwieder hol
ĠKap ital
pp ort
sp rechen
ĠOr d
ar ies
Ġwr ong
Ġprocess ing
Ġplay er
gru ppen
ĠS m
Ġin tended
vors itz
ĠH uman
Ġbit ten
h ers
Ġneg ative
ĠGen eration
ĠbegrÃ¼ ÃŁen
Ġhe ard
Ġexpress ed
imm ern
Wh ile
Second ly
ul ations
ĠProdukt ions
ĠMicro soft
Ġoff ens
is ely
m and
Ġeven ing
ĠSpiel er
d i
Ġdar stellt
Â ²
Ġbeg innen
a cc
ĠP H
Ġehem al
ly mp
Ġver tra
ĠL iberal
ĠIs lam
Ġtra ck
Ġacc ession
Ġangeb oten
in ens
Ġzu dem
ĠM ess
Ġpl ans
eign et
ĠArbeitspl Ã¤tze
Ġa ward
um in
Ã¶rder t
Ġs etzt
ĠVer fassung
Ġocc up
Q L
Ġbank s
G leich
Ġcommit ted
ĠB al
au ern
Europ ean
Ġnat Ã¼r
Ġend lich
ĠVerw altung
Ġautomat isch
ĠRuss ian
A G
In de
Ġab ility
Ġc ities
Ġc ell
Ġb ir
i Ã³n
ho od
Ġan gene
Ġflex ible
Ġeindeut ig
ild et
Ġbest immt
n el
st offe
Ġl Ã¤nd
Ġd ipl
yste men
r as
ĠS en
Ġtalk ing
zeich en
Ġrestr ict
Ġtraff ic
ru it
Ġf alls
Ġl ove
Ġletz te
ĠS Ã¼
ĠT em
g ere
ifiz ierung
Ġgo al
Ġtarge t
Ġent gegen
ĠJ ohn
ĠSolidar itÃ¤t
Ġfr esh
Ġd eine
ĠPr Ã¤
ĠEin fluss
s et
T V
9 0
ĠH ause
or ies
ĠS onder
Ġpla ced
Ġph oto
Ġdat ab
clud ed
w es
Ġs inn
Ġal one
ust ausch
ĠBerichterstatter in
Ġt al
N ot
Ġrun ning
ĠA gre
ĠPre m
Ġ rom
Ġdring end
z lich
Ġmain ly
ĠF alle
Ġspe ct
b ringen
Ġj em
Ġbem Ã¼
Ġh ot
ĠAmend ment
Ġbei de
ĠKon zept
Ġfamil ies
idel ines
et ten
Ġl Ã¤nger
ĠK rank
Ġaut om
w an
ĠG ene
Ġplann ing
ĠÃĸ sterreich
Ġterra ce
Ġele ment
Ġcohes ion
ĠA mb
Ġbr and
Ġf ear
ĠAn trag
ĠAfghan istan
ĠE ind
gra ms
9 6
ĠSw iss
ag raph
Ġbe ge
Ġt it
Ġver me
pl es
b um
Ġopen ing
Ġimpro ved
Ġrem ind
ĠHos tels
geb iet
ĠD el
ĠHe im
Ġjust ice
Ġappro ved
Ġeth n
C D
ĠFre iz
Ġan c
Ġ19 5
ĠZust immung
or es
Ġk aum
Ã¼ b
ĠAnstr engungen
g ers
ib ly
kauf s
More over
ĠT al
ĠVerpflicht ungen
Ġconf irm
ĠgrÃ¶ÃŁ ere
il s
Ġreform s
Ġre ag
Ġincreasing ly
ĠAussch uÃŁ
Ġbu y
Ġwh om
ĠN ATO
Ġstud ents
ĠG old
ĠT Ã¤tigkeit
Ġconclus ion
ĠLe ute
ĠVer halten
d o
Ġcurr ency
Ġcomm ents
Ġaffe cted
Ġat tempt
Ġfeat ure
ĠKomprom iss
Ð º
Ġben utzt
Ġdec ide
Ġgen annt
Ġir gend
ĠM Ã¼n
Ġum fang
Ġadministr ative
it ory
rie b
Ġcircum stances
Ã¼ ckt
ze igen
Ġgen utzt
bour g
Ġto t
qu ate
Ġla ws
Ġkom fort
Ġbil den
Ġunbed ingt
Ġsu itable
m el
ify ing
Ġreg ime
ĠzusÃ¤tz liche
Ġcolle ction
ĠMit te
ĠOrganis ationen
Ġin n
ĠC y
Ġprov ision
ar ia
Ġbe zahl
Ġemiss ions
ĠGes amt
an ach
ĠV oll
ĠAus gang
ĠAn erkennung
asch ine
Ġto uch
as te
Ġeinge hen
Ġredu ced
Ġautomat ically
itz t
Ã¤nd igen
st a
Ġbelie b
ĠN ations
Ġc ele
ĠRom a
Ġbo x
L assen
Ġ15 0
ĠIde e
Â »
Ġdeliver y
it a
Ġprior ities
Ġph one
Ġmoder ne
ĠÃ¼ber zeugt
Ġent spricht
ang s
ĠJ e
D en
K on
ĠB ade
Ġm ill
Ġo ben
ent y
ĠP la
ĠGe org
enden ce
ĠG od
Ġent stehen
Ġvor gelegt
h ow
ĠS am
Ġfe ed
Ġent schieden
Ġp o
Ġcontrib ute
b Ã¼
Ġselbst verstÃ¤ndlich
Ġer kennen
ĠT her
Ġconf idence
Ġadministr ation
Ġunemp loyment
s es
f un
ĠS lo
lich ung
ag o
al led
ĠÃľber wach
L a
Ġst abil
Ġstruct ural
Ġin tell
Ġk Ã¼rz
ĠÂ «
Ġc os
Ġsupport s
Ġg ere
Ġex tend
Ġextens ive
ĠA c
la ufen
ig ran
ĠA C
Ġge gr
rei ber
ĠAn g
ra y
ĠF ree
Ġs ays
Ġges etzt
Ġinfrastruct ure
b rit
Ġens uring
Ġer sch
Ġunter b
ĠF lex
ĠGo ogle
âĢĿ ,
oc ation
Ġh ol
el te
ĠQual itÃ¤ts
stru ktur
ĠP ublic
ĠNe ws
ĠWissen schaft
a el
ze ch
ĠH off
Ne ben
ĠK auf
Ġmilit Ã¤r
ĠberÃ¼cksicht igen
Ġzuf rieden
Ġco ordin
Ġelekt ron
ver lÃ¤ss
ian o
end et
ĠWahl en
Ġc e
Ġr ise
Ġaus zu
Ġparticip ation
Ġunterschied lichen
f Ã¤lle
ĠD ub
âĢľ .
Ġwesent lich
2 6
: //
art igen
ĠÃĸ l
IN G
Ġsc ope
ĠVereinbar ung
Ġencour age
ĠMe x
ĠDurch fÃ¼hrung
Ġpower ful
ĠSch wer
Ã¤ her
Ġvict ims
Ġan z
t ime
fol ger
ĠC op
m on
P T
Ġm anner
iz enz
Ġspec ifically
ĠB ur
Ã¤st inens
is c
am ing
entwick lung
Ġmed ic
ium s
Ġplay ed
re l
ly ing
Ġm id
ĠD a
Ġcr ime
Ġange geben
ĠKrit erien
let ter
haf ten
Ġspezie ll
Ġfell ow
Ġc as
om et
Ġvor aus
ide os
d aten
ĠO sten
Ġakt uelle
ĠGr ie
ĠL ang
Ġge zeigt
Ġmit tel
All erdings
Ġelect ronic
h et
ese arch
I G
ĠL icht
amp ag
Ġbew usst
Ġmind estens
ĠBo den
I R
Ã¼nd ung
ben en
Ġmehr eren
Ġtable d
ĠH olz
ong s
Ġpur poses
Ġe d
z entrum
Ã¡ n
ĠG laub
az z
ĠAl le
gew Ã¶hn
V iele
in ian
Ġintrodu ced
Ñ ĥ
Ã¤ den
ĠEr k
Ġher unter
Ġdemokrat ischen
Ġagricult ure
il er
Ġhoch wert
ĠK Ã¶rper
Ġdank e
ĠverfÃ¼g bar
f iz
la us
Ġ199 0
Ġer reich
af ft
Ġb lack
wir ken
ar us
Ġh und
od ies
Ġch urch
Ġqu ant
ĠW affen
Ġnach dem
Ġpl us
Ġrep la
ore a
Ġentsprechen de
Ġhin weisen
ĠAus bildung
Ġeffect ively
ĠCost a
a ktiv
Ġget ting
an lagen
ĠAb schluss
Ġlar ger
ĠBest and
Ġsour ces
rÃ¤ ge
Ġvor sch
Ġdeta iled
Ġwonder ful
ĠKommunik ation
Y our
Ġanim als
Ġn Ã¶t
Ġglaub en
ĠGar ant
Ġsh ip
Ġserv ed
Ġh arm
ĠAn spruch
Ġaim ed
Ġpl atform
zeich nen
Ġs creen
ĠParte i
cht ung
Ġrefer red
Ġcompet itive
Ġus ually
Ġbesch lossen
Ġf ert
ĠArch ite
am ber
l Ã¼ck
Ġ" ...
ick ets
Ġfun ctions
ĠH aft
Ġcl ient
Ġnational e
Ġsum mit
Ġges prochen
ĠerwÃ¤ hnt
Ġe uch
m ack
sch uld
Ã¶ m
ĠStabil itÃ¤t
Ġe c
Ġded ic
ĠVor teile
Ġglobal en
ter t
ĠWÃ¤hr ung
ĠG est
ĠMit teilung
Ġm m
ĠB ran
Ġwer t
Ġmot ion
Ġexact ly
es ents
Ġpleas ant
Ġser ve
Ġr ural
Ġanges prochen
Ġwh ite
ident ial
Ġinstall ation
Ġs ort
av i
ĠB on
at ik
Ġz entral
a ult
Ġbesonder en
ĠAgre ement
f u
s m
Ein ige
ing u
ĠAut om
Ġkont roll
Ġinstitution al
Ġris ks
ĠSe a
Ġp oll
Ġprote cted
W ar
Ġpre m
sp unkt
ĠSp rachen
Ġocc ur
Ġprec isely
itzer land
cal led
Ġs itting
Ġde ad
Ġakzept ieren
2 7
zie ht
ud em
Ġch ann
Ġcom peten
Ġ4 5
Ġsicher zustellen
ier tel
b ad
Ġre ception
o ted
Ġlux ur
ator en
at ively
Â °
P er
Ġeinz us
Ġst ated
Ġbecom ing
oun ge
ut s
Ġv ac
la w
Ġeinger ichtet
Ġpol ice
Ġfac ilit
st ieg
fahr ens
g ree
Ġother wise
ibil itÃ¤t
Ġ20 20
ĠSch aden
olog ischen
ĠIra k
ĠZeich en
Ġc amera
ĠKo ordin
ĠI P
Ġge eignet
ĠD en
ĠHinter grund
Ġm and
ĠEn terprise
Ġrepr esents
Ġdiscuss ed
Ġw ants
ĠW ik
ĠIn halte
w eder
ĠD re
Ġbudget ary
r ip
u ber
Ġtem per
ĠVerw altungs
ĠEin sch
ĠAl tern
iel d
we gung
. âĢľ
un kten
Ġdevelop ments
Ġbestehen den
age gen
Ġwahr scheinlich
qu ality
fÃ¼hr er
Ġdiscuss ions
ĠMen sch
3 5
h y
Ġver z
' ll
ĠRe formen
ĠE as
Ġzu g
ĠN ahr
Ġlik ely
ĠE lekt
I E
ĠBo ard
ident s
Ġerziel t
Ġe hr
ĠFisch erei
W ann
ĠSchl af
Ġar m
tr y
Ġ ;
Ġm ix
Ġben utzen
je cted
ĠT ab
Ġcon vin
N un
enh agen
ĠSe ktor
D em
ĠAs ia
Ġspac ious
ĠHome page
ĠM iddle
Ġcon ver
ĠA rab
Ġpro grams
Ġ *
ĠL ab
ĠAus gaben
Ġdom in
0 1
Ġthous ands
S pe
ĠM io
Inde ed
B et
j o
ĠId ent
g a
Ġaut h
Ob wohl
ĠPol icy
obil ien
Ġman aged
u it
Ġw atch
Ġfor get
ĠEr n
ĠE t
Ġsol d
uis ine
Ġrem ark
ĠBesuch er
Ġfre uen
im a
Ġexp ens
Ġfest gelegt
amen te
Ġre chts
ĠH altung
w asser
ĠmÃ¶glich erweise
ĠKonfl ikt
ĠK arte
ĠAss oc
ĠBem erk
Ġexp and
ĠHaus halt
Ġausge w
Ġassess ment
en te
Ġzu letzt
ach tet
Ġcover ed
Ã¼ ste
Ä į
ĠC zech
id a
In s
Ġent ry
schie de
Ġmet res
ĠAuf nahme
Ġcrit ical
Ġum gesetzt
ĠFrank furt
Ġcor resp
Ġnotwend igen
ĠS pr
Ġex pected
Ġj ene
ĠK ind
c ategories
m as
Ġge Ã¤ndert
Ġgu idelines
ĠK enntnis
ĠprÃ¼ fen
ad s
Ġprov ider
ĠL iber
Ġsele cted
Ġsp end
Ġfinanz iellen
Ġfollow ed
Ġander es
Ġhoff en
Ġwo od
Ġact ual
m od
ĠMill iarden
ens ions
Ġins ide
On ly
i at
ĠF ot
ĠBeit ritts
c ause
ĠA genda
ĠE st
ĠRegion al
ĠA L
wer ke
Ġear lier
ĠerfÃ¼ llt
Ġclos ely
ĠRom an
r um
ĠS and
Ġrad io
Ġd ienen
Ġintrodu ction
as ts
Ġsch rif
ick s
pos ed
Ġw inter
Ġdeb t
ĠS ing
ĠUnterk ategorien
ure au
Ġwe ap
Ġer greifen
Ġmed ical
ĠI f
ĠSal z
Ġbe quem
ĠSch engen
ĠF akt
Ã¤us er
Ġp aper
Ġfre ien
D P
Ġc entr
Ġl isted
b u
ĠA cc
Ġbuild ings
in u
ĠW el
ĠA N
Ġv otes
ĠD ol
Ġunter s
ĠD av
Ġenter prises
ĠO lymp
ĠWettbewerbs fÃ¤higkeit
ĠS erb
ul ieren
ĠAn pass
Ġ199 5
Ġim press
pr Ã¤sident
Ġbe ziehen
Ġjeder zeit
Ġsp read
Ġsc en
ĠGrie chen
ur a
ĠRicht linien
g al
k ap
ĠF Ã¼r
wer ten
ĠStra ÃŁe
ĠVor bereit
h am
ĠC ast
eit her
ĠC ode
Ġnet works
ĠTechnolog ien
ail ing
ul ierung
M ein
Ġl Ã¶sen
Ġdis app
Ġverme iden
den ken
lev ision
ĠwÃ¼n schen
chnolog ie
Ġschwier ig
ĠSchl Ã¼ssel
ĠMon ate
ĠH ow
ĠFun ktionen
brit ann
ĠC ard
Ġtr ust
ĠProdu kten
ge ts
ĠLux em
S oll
Ġelect ric
ĠGe h
ĠPl ay
Ġimpro ving
ish ing
ĠAn n
iqu es
Ġcol or
ĠFisch ere
Ġf ahren
Ġa de
ĠP aul
Ġaus ger
Ġlink ed
Ġterr itor
ony m
Ġg raph
Tro tz
Ġbrauch t
Ġein zu
ĠBe w
Ġoper ations
ĠTur k
Ġgleich e
Ġopen ed
ĠC r
urop a
v ements
Ġsupport ing
Ġr ies
Ġexp lo
je kten
ĠMot or
Ġs Ã¼d
ĠKom fort
Ġunderstand ing
Ġimm igration
reit en
Ġspee ch
sch er
ĠUm st
n ach
In tern
ĠH aup
ĠSte llen
ĠKin dern
in c
av es
Ã Ħ
Ġmarket ing
ra hmen
ĠAr ten
Ġge d
frei heit
wir k
ĠÃ ©
enn is
T A
Ġverbess ert
Ġtele phone
Ġexclus ive
Ġn ah
Ġmult ip
Ġcomm ent
I hre
ĠViel falt
Ġstatt finden
et ze
ĠK y
ĠI M
Ġconsider able
Ġde gree
M ar
ĠWell ness
Ġf rag
Ġkosten los
as er
ĠD ownload
ĠInd ia
ĠHer z
Ġw ent
Ġus es
Ġcomp ens
Ġf allen
Ġbed s
Sch lieÃŁlich
gen cies
ĠL ink
Ġ ?
kt iven
Ġm ap
ĠIn frastruktur
ĠInnov ation
ro h
ĠS on
Ġsicher lich
ĠMe ter
Ġmult il
Ġtem por
Ġhand s
fol gend
g ment
Ġacc omp
Ġsubstant ial
ĠB i
Ġl esen
ĠDate ien
c ers
cre te
Ġent it
un ion
or a
m Ã¶glich
cl ude
ome ter
le isch
br uch
ol den
Ġcomp ar
Mit glied
ak fast
ĠE v
ĠSch iff
Ġm il
I B
isten ce
kon ferenz
ĠZwe ck
Ġemp fehl
ige m
D ann
Ġab st
Ġac qu
istr ib
ĠMen ge
Ġgem Ã¼t
V iel
Ġpres ence
ĠSt il
Ġtour ism
l ad
Ġsh ower
Ġdest ro
Ġg ave
ĠEin richtungen
Ġab zu
ĠGrund satz
Ġdar unter
Ġgel angen
2 000
Ġsa ve
c an
Ġeffiz ient
Ġproper ly
prÃ¼ fung
Ġc uisine
Ġjeweil s
Ġgew Ã¼n
Ġcompon ents
Ġg ern
Ġplay ing
E U
ĠH il
ĠWe ge
ĠS uche
ĠFre m
uss els
AD S
2 8
Ġerziel en
ĠFebru ary
Ġb rief
leit ung
Ġange zeigt
ĠSt imme
ĠB u
ĠForder ung
ĠStand ards
F l
it ors
p unkte
ut ing
Ġdel ay
Ġpurch ase
Ġb ott
ikan ische
Ġitem s
Ġent weder
Ġg ing
Ġfisher ies
Ġphot ograph
G er
gem eine
sp er
ĠVerein ten
ĠH ier
Ġanim al
I ts
Ġdut y
Ġconven ient
Ġdo or
p rechen
Ġ4 00
Ġfound ed
Ġexper ts
J ust
ch mal
Ġpict ure
por ted
z ieren
ĠSt art
Ġco ordination
F alls
ĠerhÃ¶ hen
ma ÃŁ
b and
in der
Ã¼t ze
Ġentire ly
R A
geb aut
ĠÃ¼bern achten
Ġaus drÃ¼cklich
pre is
Ġer gÃ¤n
2 1
it ter
Ġpl ants
wohn er
Ġso le
ĠM ilit
ste lle
it ze
ĠChar akter
Ġinc or
ĠO ffice
Ġtyp ical
Ġform at
Ġauthor ity
Ġun c
Ġstr ict
Ġref uge
Ġw Ã¤ren
sch ul
ĠT ar
Ġge kommen
ĠstÃ¤r k
Ġcompetit iveness
Ġm obil
Ġpres idency
ĠKle in
ĠS inn
ĠSt ation
Ġdra mat
Ġun tern
Ġteil weise
Ġgener ally
ĠR a
ĠSw itzerland
Ġgr enz
Ġbes uchen
Ġwill ing
Ġdifficult ies
Ġsh o
Ġt ack
Ġdeal ing
ĠStre et
Ġe lim
Ġtechn ische
ĠTele fon
temp or
sp ort
Ġwel cher
ĠBe ih
cl ub
Ġco ffe
Ġs agt
ĠT un
rÃ¤ ft
Ġst Ã¤ndig
Ab schlieÃŁend
Da zu
Ã¼ nen
Ã ĥ
Ġkommen den
sch lossen
Ġst imme
Ġcomb at
Ġhos p
Ġinterpre t
Ġkomple tt
ĠStat us
Ġwoll te
Ġbet onen
Ġperman ent
ĠKlima wand
Ġkomple x
Ġdis pos
ve y
ĠInstall ation
Ġch ines
Ġcr iminal
Ġcon stit
pl Ã¤tze
y m
Ġn ieder
ĠTh ere
ĠPl en
ĠVÃ¶lk er
ers tellen
Ġers tellt
Ġp sych
ĠLe hr
Ġrel ate
gew icht
Europ e
ĠDate i
Ã¼n den
Ġver ur
ĠEntw urf
et ter
Ġzu vor
Ġdet ail
Ġrecog nis
ĠNetz werk
Ġorganis ation
Acc ording
ĠA p
Ã¼ck e
ĠGree ce
ĠBer eit
ĠS im
ĠAb s
Ġsu c
Ġsh ops
m Ã¤r
Ġk lare
Ġinform ieren
R es
o very
om an
oss ible
fÃ¼ ll
ish es
Ġpeace ful
Ġfunktion iert
Ġhand eln
Ġveh icles
Ġal te
f achen
ĠAr g
Ġfac ing
Ġpr Ã¤
M U
ĠO ff
Ġmor al
ĠBÃ¼ ro
Ġl ernen
ĠW ie
Ġthink ing
Ġcal c
Er stens
E A
r ies
ĠP rag
Ġmach ines
ak en
ĠIn strumente
Ġs and
Ġdar stellen
ame ter
op ol
Ġpar agraph
ĠEx p
Ġ19 4
um n
Ġspe aking
ĠIS O
Ġfra gen
Ġmeet ings
Ġper cent
Ġres ort
Ġad just
ĠLeist ungen
Ġo ber
Ġflex ibility
ĠIniti ativen
r ich
hens wÃ¼rd
Ġres ist
port ion
ĠBel arus
Ġa verage
Ġapp lies
Ġconsider ation
pp er
ĠZeit raum
ĠBr ussels
Ġs auber
Ġtra ve
pl iz
ĠArbeit en
ĠGroÃŁ britann
te te
ov a
ĠVerÃ¤nder ungen
y ear
ind ing
Ġdistr ict
ĠD ienste
ĠGl Ã¼ck
Ġbecom es
An y
Ġbe ar
Ġnumber s
ĠWebs eite
Ġin come
Ġr uss
l ike
ĠW ien
sche ch
Ġh our
ĠAbgeord nete
be w
h aben
ĠBer ichte
erm an
Ġge fordert
alle l
l as
Ġd agegen
ĠWir k
sch ung
ĠB il
ik ing
ĠBus h
Ġto ld
ĠW ass
ĠBe griff
ĠL ib
ash ion
Ġopp osition
ĠTe ile
Ġfix ed
ct s
ĠEng agement
ĠS ach
Ġpract ices
Ġdurch aus
Ġsch em
ĠHe il
Ġkonkre te
C C
Ġd ro
ĠB anken
Ġver ring
Ġwen igen
Ġdom estic
Ġs org
Ġprom otion
ĠFebru ar
ĠK ol
ĠS ysteme
ĠZeit en
ĠB os
hn ung
hr ase
ĠstÃ¤r ken
emb ly
20 10
ĠGip fel
Ġsuc ceed
3 3
Ġin stru
ĠVer stÃ¤nd
Ġs le
Ã¶ff nen
ĠN ah
ak er
Ġunter nehmen
ĠP ack
ĠAb satz
Ġer leben
Ġj ur
l ern
ĠMitglied staat
ĠÃ ľ
Ġgra du
Ġb odies
ĠE isen
N icht
Ġor ient
ĠMad rid
Wh y
y es
ran ken
Ġcon tra
ĠF onds
ĠÃľber gang
I st
L E
ill ing
i ro
Ġv olle
hÃ¶r de
S elbst
Ġaim s
ĠgewÃ¤hrle istet
leist ungs
Ġhim self
i ÃŁen
ĠM aschinen
qu alitÃ¤t
S C
re ifen
Ġ- -
s b
ĠPro te
Ġeing esch
ĠB ay
ere hr
ww w
Ġprop ose
ĠApart ments
) ;
Ġwir ks
Ġmy self
Ġl if
S L
ĠHers tellung
Ġlok alen
ĠB and
f ree
Ġdefin ed
ĠGu est
ĠHaus es
E ach
fÃ¼hr ten
Ġsup erv
ĠGeb ieten
d is
ĠN ame
war en
ĠBar ro
Ġestablish ment
t te
ck now
Ġabsol ut
ĠerklÃ¤r en
ester day
ĠverÃ¶ffent licht
Ġr ent
Ġsign al
Ġeas ier
Ð ²
ĠGr enz
Ġpolit ics
Ġfre ue
Ġm iddle
ct ing
Ġtr Ã¤gt
is ierten
ĠAn teil
is ms
ber icht
Ġcla im
Ġlie be
ich e
Ġf it
ĠEin igung
Ġadv anced
ĠPh il
ĠRis iko
Ġh Ã¤lt
ĠPol and
ĠPak istan
Ġhin zuf
ĠKÃ¶nig reich
ub a
w agen
wor ten
Ã¤ umen
ĠE conomic
ĠAn gaben
Ġdatab ase
Ġ3 2
Ã© e
Ġer folgen
Ġcl ar
Ġsign ed
T hen
schrif t
ĠbenÃ¶t igt
ut in
Ġfinanz ielle
Ġprom oting
kn own
Ġfr Ã¼h
Ġpro s
Ġfail ure
Ġinform ed
ĠHeraus forderung
r is
ĠW orte
ĠKrit ik
k le
Ġfinan cing
ac cept
ĠRegel ung
Ã¶ der
Ġparliament ary
ib et
ĠR ein
Ar t
Ġz ul
ĠSch n
oy al
and o
Ġa cknow
Ġverw ende
Ġserious ly
Ġexperien ced
Ġerschein t
Ġglo b
L ast
Ġanc ient
Ġh tt
Ġger ing
ĠStellung nahme
ĠRats vorsitz
W ill
lÃ¤ gen
m aking
Ñ ı
0 4
wo gen
Ġvo ice
d a
Ġmult i
ĠnÃ¤ch ste
Ġany one
Ġdenn och
ĠVers uch
ĠRechn ung
ĠK al
ĠW ander
Ġtransl ation
p endence
Ġge ograph
Ġcoffe e
ĠmÃ¶glich st
qu al
lÃ¶s ung
200 1
Ġl ength
]] ,
ĠPrior itÃ¤ten
bo x
Ġdang erous
ers e
f a
Ġkonzentr ieren
0 5
Ġh op
Ġber u
de ck
l isch
ĠEin haltung
Un fortunately
Ġre ch
ĠT ool
fl anzen
Ġposit ions
D A
Ã¼ g
Ġim ag
Ġest ate
ĠKing dom
ic ians
Ġstruct ures
Ġkl ass
D ank
ĠK il
Ġco oper
Ġgegen seit
ĠZwe ifel
ĠForder ungen
ĠV ill
ĠPro v
ĠTe chnik
9 5
Ġdiffer ences
ĠSe henswÃ¼rd
Ġ Å
zept ion
ĠR esearch
Ġconne cted
Ġdiffer ence
Ġmod els
Ġers tellen
Ġorgan iz
Ġassoc iated
ĠV ien
Ġcele br
Ġst y
ĠN I
Ġstud ies
e ig
Ġk licken
Ġcon crete
ĠAt lant
ĠH afen
ĠÃ¼ber tragen
ein en
Ġst able
Ġde fence
Ġz erst
art a
ungs k
ibr ary
EN T
ar ter
C lick
Ġappear s
Ġf le
ĠG N
Ġwith dra
g as
ll os
Ġinst ance
ib el
ĠM oment
ĠKir che
ĠGew Ã¤hr
per atur
ĠFor men
ĠS P
Ġopp os
ĠP ower
Ġhous es
Ġwel com
S he
z ig
ĠS onnen
Ġver folgen
Ġunterschied liche
ĠFl Ã¼cht
Ġhappen ed
Ġun ge
Ġt ut
Ġ20 11
P art
Ġneigh bour
Ġun to
Ġimplement ing
ĠS M
verkehr s
Ġcomb ination
Ġsafe gu
u a
ĠpersÃ¶n lich
ĠA g
Ġdr ink
ĠBr Ã¼ssel
gre if
Ġn ennen
um Ã¤n
ĠAs pekt
Ġbeach es
ifiz iert
ĠAn alyse
Ġadop tion
Nach folgend
zw ischen
Ð ¼
ĠAssoc iation
ĠT itel
Ġhumanit arian
ĠSe kt
Ġnat ur
ĠMittel meer
yr ight
ĠGe ist
L AN
Ġn ames
ĠAs yl
Ġamer ikanischen
ĠGemeins amen
d oor
Ġcare fully
Z udem
p erson
Ġacc ur
Ġend gÃ¼lt
Ġappro xim
ĠF ore
ĠW eiter
Ġcour ses
Ġart icle
ĠEntschlieÃŁungs antrag
ateg ory
Ġun accept
Ġumf asst
Ġgele istet
Ġcon dem
Ġle gen
Ġsp ielt
Ġbetra chtet
ĠLes ung
Ġp et
Ġcoll abor
Ġbook ing
z z
Ġman age
licher weise
Ġimp ossible
C hr
Ã¼ ter
ten ance
Ġexhib ition
rÃ¤ ume
Ġstat ements
b ody
ĠF ound
ĠHe alth
leit en
Ġgegr Ã¼ndet
if fer
ĠFor um
Ġprodu cers
Ġverl assen
Ġa gencies
ab y
abhÃ¤ng igkeit
zeug ung
ro llen
lie fer
Ġimmed iate
ĠtÃ¤ glich
Ġsp ent
ist a
ol o
rauch er
Ġredu cing
ĠLeist ung
statt ung
est aurant
Ġden ken
Ġdiskut ieren
ĠMe chan
Ġposit iv
Ġarr ival
Ġte levision
ib li
Ġverl oren
% .
ar ischen
Ġind ire
Ġaus ges
ĠTerr asse
Ã º
ad ing
Ġev idence
ĠM ount
ĠschÃ¶ nen
Ġun an
Ġad apt
Ġtr uly
ĠAuf bau
Ġcall ing
Ġattra ctive
Ġlea der
Ġarchitect ure
S er
ĠEn vironment
hinder t
In nen
or ient
Ġguarante es
Ġreason able
st immung
ĠPH P
. âĢĿ
D ate
ĠSant a
B ar
Ġful fil
re gel
ĠJahrhunder ts
Ġannoun ced
ro ad
lÃ¤ uf
Ġrecogn ition
ĠF en
Ġcre d
Le ider
ĠunabhÃ¤ng ig
Ġdescrib ed
Ġbeh aup
ha ber
s ized
e ing
r uf
ie gel
Ġerforder lichen
k Ã¼nd
Ġhtt p
id o
oin ted
Ã¤l ter
Ġha ir
em a
Ġsh ared
Ġfest stellen
ĠD orf
ohl en
n y
organis ation
ĠK atastrop
Ġbegr enz
Ġa u
Ġzw eit
ĠPak et
la ger
Ã¤r m
Ġcomp la
rim ination
ĠB lack
Ġs atell
ĠK enn
Be cause
Ġgenu ine
Ġer leich
k or
ĠVer fass
Ġh Ã¶ren
Ġrele ased
ĠCas ino
w issen
pre ise
ad or
Ġex cess
Ġback ground
Ġab geschlossen
Ġcharge d
k arten
m eld
Ġal t
act ive
Ð ĵ
Ġterr itory
Ġgarant iert
Ġadv ance
Ġa head
ĠViel zahl
U N
ĠTex te
Ġm ist
ug os
ok raten
Ġdisc rimination
Ã¤ ck
ĠM esse
ĠStÃ¤r kung
Ġent ertain
Ġavail ability
ĠWÃ¤hr ungs
Ġarbeit et
ĠJust ice
ĠIde en
Ġent h
Ġimpro vement
ĠFern se
h le
ĠH armon
ĠKom peten
or ing
re ten
Ġein iger
iend ly
ĠZug rif
w urf
at isch
Ġfor est
Ġposs ibilities
Ġmon etary
Ġtas te
Ġc ards
Ġbe mer
ĠSehenswÃ¼rd igkeiten
ĠS orge
Ġwish es
0 2
Ġtra g
tempor ary
Ġkulture llen
rÃ¤n ken
G u
ĠA v
ir us
ĠIr ish
ĠÃ¼berprÃ¼ fen
Ã¤ ten
n am
Ġw in
Ġmembers hip
7 5
S cript
it ious
pos it
spro gramm
ĠE ine
con dition
ĠP a
auf trag
Ġhin gewiesen
Ġrelax ing
1 00
et o
ĠSte in
ĠRes erv
jÃ¤hr igen
olog ische
Ġunaccept able
is cal
Ġown ers
w ith
Ġnear by
Ġcontinu ed
gra de
Ġconsum ption
ens us
ĠKommiss ions
Ġsp l
ĠAn wendungen
Ġis ol
ick ing
Ġtas ks
ĠRu he
ĠtÃ¤t ig
gy pt
3 4
ĠSt rom
N ever
Ġun z
Ġdes ire
Ġmit einander
Ġste ll
Ġsk ills
Ġgl ass
Ġparticip ate
ran ce
Ġausreich end
we ist
ĠEntwick lungen
ĠArbeits losigkeit
gest immt
Ġo w
ist isch
Ġc ur
Ġintrodu ce
Ġbe zeichnet
ĠC re
Ġcontin ues
Ġfig ures
c omm
3 6
Ġtra ding
Ġun a
Ġcar s
Ġricht igen
Ġdel ic
Ġs n
Ġcomb ined
Ġgreat est
hal tet
ĠS aint
Ġeffe ktiv
ĠÃľberwach ung
Ġoccas ion
formation en
ÃŃ a
3 2
Ġgen eration
ar ation
ĠUm fang
ĠAuss icht
ĠPol ize
S ystem
Pro du
Ġha up
ĠBed arf
Ġexp end
bie ter
ĠNahr ungs
fÃ¼hr ungen
Ġstrong ly
ĠH ol
ĠL am
On ce
ber e
Ġcomple ted
G r
ĠW and
Ġvern Ã¼nft
Ġatt ach
Ġex cept
Ġallow ing
k m
ĠHers teller
ĠDemoc rats
C an
ĠGroÃŁbritann ien
Ġprofit ieren
ĠW ald
B ahn
Ġweiter er
sequ ent
Ġdev ices
Ġcon v
ĠHam burg
k rieg
sch lÃ¤ge
Ġra ise
ire less
Ġsurround ing
Ne w
Ġun less
Ġun fortunately
Ġpack ages
Ġentit led
ĠS af
Ġzahl en
Ã¶ ss
Ġeinge fÃ¼hrt
ass ung
part ner
Ġtrans ition
ĠTour ismus
ĠBedÃ¼rf nisse
ut ch
il st
go vernment
Ġmiss ion
3 8
ub le
Ġgew innen
ĠProble men
yl um
Ġbeaut y
Ġattra ctions
ĠE lement
chn et
Ã¶ se
Ġauf merksam
lei hen
Ġrelig ious
Ġen ables
ĠHeim at
ch em
Ġs ale
ĠKon z
Ġp ure
Ġkon stru
ĠEng land
ĠVer letz
' re
Ġs quare
Ġeconom ies
Ġregister ed
Ġer f
Ġbur den
Ġr iver
con t
ĠPat ienten
Ġme ters
Ġgesch ehen
ĠFound ation
ĠN utzen
ges ichts
stand s
ĠBeit ritt
ĠÃ¼ber all
Ġregion alen
Ġv ul
ĠTe chn
ĠZust Ã¤nd
Ġappe al
Ġb orn
ĠW Ã¼n
V ers
ĠRechn ungs
ĠK Ã¼nstler
ĠGeschÃ¤fts ordnung
ĠA chtung
Ġbeginn t
ik al
Ġver t
Ġm icro
J etzt
S ub
Ġd anach
wind igkeit
M ost
Ġf ruit
Ġins urance
ĠFre und
Ġclos er
rimin ierung
H er
Ġsur face
andid aten
ĠR and
ĠAfr ican
v iel
F e
Ġrel ativ
Ġein setzen
Ġvorlie genden
Ġur ban
Ġdedic ated
Ã¼r k
all ery
Ġent standen
Ġspe zielle
Ġwind ow
ĠS uch
ĠFest ival
hÃ¶r en
b rauch
Ġref le
ĠsÃ¤m tliche
b ieten
ĠÃ¼ b
Ġunterst Ã¼tze
ĠVerpflicht ung
rÃ¼ st
ign ed
Ġexerc ise
ĠN ether
Ġcomm and
ĠAll gemein
ĠImm obilien
an ische
ĠE ffe
tz eit
on ia
om as
Ġ199 4
r ate
ĠbestÃ¤t igt
Ġl iter
Ġbes itzt
ĠTurk ish
ĠK urs
vers ion
C ont
T E
Ġkeiner lei
re al
Ġun ion
ĠR ome
ĠgegenwÃ¤rt ig
Ġholid ays
Ġ7 5
ĠVerteid igung
Ġas ylum
Ġver folgt
ĠVer sch
ĠAfr ika
Ġk ons
glie der
p a
ple x
ro chen
ĠFÃ¼hr ung
Ġenorm ous
O ther
ĠT op
Ġgrenz Ã¼ber
Ġfol gende
ĠJust iz
Ġein st
ĠGerichts hof
te chnik
lin ge
Ġindividual s
Ġear th
ĠfranzÃ¶s ischen
ate ver
af r
se ktor
ĠCh anc
U p
i am
ĠW all
ausschuss es
Ġpers pective
Ġs ides
l og
ste ht
Ġrom ant
ĠF inn
Ġnor m
ĠD rogen
ĠAn lagen
Ġnied r
Ġv erehr
ĠPol en
Ġbeteil igt
Denn och
Ġfor ced
Ġcla ims
Ġzentr ale
ĠA K
ĠZ ur
ĠM el
Ġpolit ischer
Ġtot ally
ĠAn w
Ġvoll kommen
ĠD ollar
ĠLand wir
ĠRo oms
ĠE lemente
Ã £
Ġgest alten
is ierte
ĠÃ¶ k
ĠGlobal isierung
Ġadvert ising
Ġnot ice
ĠAus fl
Ġn Ã¼tz
Ġv ision
Ġreserv ation
Ġme ant
ĠEuropÃ¤ er
Ġst im
ĠPrior itÃ¤t
ĠW i
Ġke pt
Par liament
Ġrail way
Ã ĸ
ag ue
hÃ¶ hung
Ġrel iable
ĠPartner schaft
a ktionen
Ġinst alled
Ġoffens ichtlich
ĠFortsch ritt
Ġhaup ts
ĠÃ¤ uÃŁ
ĠAlt stadt
In d
ĠgrÃ¶ÃŁ eren
First ly
Ġestablish ing
Ġbut ton
ĠP oker
ĠgroÃŁ es
im it
ĠChrist ian
6 4
Ġein ver
ĠWor ten
ze p
ĠC olle
Ġlearn ing
Ġgran ted
mÃ¶ gen
Ġd iss
ĠB ern
s ysteme
ge geben
wer b
ist ik
Ġconf ir
Ġeinfach e
Ġlux ury
Ġst ory
ĠOr ig
Ġer geben
ĠTeil nehmer
ĠM use
Ġcour t
Ġsh op
200 9
Ġfa iled
F i
ĠTra de
Ġc ra
ĠPr ime
Ġcomp ared
Ġconvin ced
p al
Ġpar a
ĠEuropean s
ĠB ut
hl t
ol ge
Ġqual it
Ġempfehl en
Ġstor age
ĠgegenwÃ¤rt igen
P e
ĠVer st
u pp
Ġgr ant
Ġge eig
Ġgarant ieren
Ġurg ent
Ġre produ
Ġdev ice
Ġhighl ight
Ġex tended
Ġmem ory
ĠVien na
ĠStad tz
ĠGr unde
Ġstand s
ell er
Ġsp ending
Ġwar ten
Ġda uer
Ġgesch Ã¼tzt
Ġbig gest
Ġmount ains
att form
ĠhÃ¶ch ste
ĠRegel ungen
Ġfor th
Ġsol cher
Ġgen et
erg ie
Ġb uffet
ĠM P
Ġse ven
x ts
erm a
ĠE ADS
re isen
Ġsc ience
Ġconclus ions
Ġgut es
Ġverbunden en
it age
uch ten
5 00
Ġs ession
Ġpass ed
Ġbe ige
Ġgr unds
Ġelim in
Ġmag n
z ust
ĠMa ÃŁe
Ġinternational er
ipp ing
te ten
Ġpr ison
Ġve get
re u
Ġumfassen de
ra m
ĠT isch
Ġp or
ath ed
on ial
as il
ĠUS B
ĠReg ulation
ĠzusÃ¤tz lich
Ġh um
Ġch air
ĠA lex
ĠBe wertung
2 9
Ġcontrol s
O s
Ġt ief
ĠBeteil igung
Ġr u
Ġg olf
Ġk Ã¼
ĠV o
ĠF oto
hol ung
ĠH all
Ġun able
ĠIr land
ĠMeer es
Ġbein haltet
Ġfor mal
ĠSch if
en kt
ĠM utter
heb ung
re is
Ġcontr ary
re ibt
ĠIn s
ĠNether lands
Ġen for
Ġ3 6
Ġcor porate
pr inzip
Ġfact ors
ĠFed eral
Ġfin ance
Ġmov ing
ĠBarro so
Ġadv ice
d et
C om
am mer
Ġauf zu
Ġmot iv
Ã¤ fen
ĠEind ruck
= =
il ot
io de
Ġro b
al ia
Ġwesent lichen
ĠM ik
War um
or am
an cial
Ġl Ã¤
Ġ ),
Ġl iber
Ġc ore
Ġso gen
Ġdise ase
v erein
Ġt ried
Ġun it
ĠL ake
heit s
S terne
I hr
ĠLeist ungs
S QL
Ġdefin ition
Ġd imension
ĠF el
ist or
Ġaus fÃ¼hr
act ions
Ġdra wn
Ġlegit im
Ġperfect ly
S uch
ak et
lÃ¤ gt
Ġla id
ĠP PE
Ġle b
ĠmÃ¼ s
ĠH ard
iert es
Ġweap ons
igran ts
Ġdef end
Ġsc ale
Ġe arn
ĠD igital
Ġp our
Ġex pression
Ġart ists
ĠDe fin
ĠUr s
stra ÃŁe
Ġinter vention
s etzt
Ġmain tenance
ĠBe ach
Ġsa w
Ġmo de
Ġch osen
Ġcommit ments
an cy
Ġdestro y
Ġgu ide
ĠGriechen land
Ġdipl omat
ĠM un
ĠGeb rauch
re ck
st Ã¤t
Ã ľ
Ġun f
ing ton
wor fen
lÃ¼ck wÃ¼n
Ġ 00
utz er
g ibt
Ã¼ gel
H in
En t
f allen
ĠP DF
Ġsp a
M e
ic ed
Ġteil nehmen
Ñ Į
ennt nisse
ĠMÃ¤r kte
Ġcondem n
Ġen or
Ġfre ie
le un
Â «
ie fer
ĠVer trie
ĠMed ia
ĠH T
ĠH aut
Ġste igen
Ã¤uf er
Ã¤l fte
ĠPe ople
ĠTod es
Ġcandid ate
M ehr
Ġn either
id ung
Ġinvest ig
Ġj our
ĠGr Ã¶ÃŁe
it ar
D R
vor schlag
ĠUnivers itÃ¤t
Ġwunder schÃ¶
A dr
ĠM indest
ĠEas tern
Ġright ly
ĠGrÃ¼n de
Ġs em
ĠF otos
Ġhonour able
Ġk orre
Ġbeg lÃ¼ckwÃ¼n
ibli othe
mittel t
ĠPal ace
Ġm atch
ran s
Ġbetra chten
Ġinter face
ĠM Ã¼
we chsel
ĠGegen satz
Ġer h
b ring
) (
Ġa gency
ĠMon at
Ġoblig ations
nehm ern
ĠVer mitt
a ub
Ñ ĭ
Ġout come
Ġk os
ĠVer z
Ġachie ving
ĠStÃ¤d te
ap ers
bal d
0 8
ĠGree k
ĠCon stitution
Ġdefin it
inn ing
ĠAustr ian
Ã ¥
Ġchem ical
Ġbal con
ter nen
ĠL izenz
j et
Ġ ï¿½
om in
Ġse cret
E W
ĠWe chsel
Ġamb itious
ĠUn abhÃ¤ngigkeit
Ġspezie llen
ĠIn stitute
ichte te
Ġcol our
um er
alt y
Ġd ient
Ġsch ed
Ġro ute
ĠI C
sequ ently
ur m
ĠD us
ĠPr esse
as chen
Ġout standing
ĠB udget
Ġl angen
lo ok
Ġobvious ly
vers orgung
ĠNutz er
ĠA ber
Ġro ck
uz z
Ġs am
Ġsitu ations
ut ers
Ġgel ungen
ĠVerstÃ¤nd nis
i ov
ĠM ond
Ġconstant ly
ĠKoh Ã¤s
ĠL ive
ar io
as ters
ĠBeschÃ¤ft igungs
Ġwe ight
wor tet
Ġfest ge
Ġele ction
Ġph otos
Ġanal y
Ġcolleag ue
ĠerhÃ¶ ht
Ġe p
fÃ¤h ig
government al
ic kt
ĠN av
Ġfl ight
ĠA ktionen
Ġf iscal
kl ang
ĠLat in
Ġorganis ed
Ġlim its
or ial
Ġdar aus
Ġup date
end um
Ġpat ent
ĠTre k
ĠThe y
F re
Ġtit le
Ġsens itive
ĠCont rol
ĠErklÃ¤r ungen
ĠEreign isse
Ġer fre
Ġse ll
Ġcontinu ing
Ġcorresp ond
Ġdist in
ĠF itness
Ġmin ute
Ġpay ments
Ġbrit ischen
B r
Ġsome one
Ġsurround ed
Ġd ur
ab ilities
ĠEC U
utz ung
on enten
Ġver gleich
An gesichts
Ġveh icle
el a
ĠG re
Ġele cted
3 9
Ġcomp at
Ġstark e
ĠSch Ã¶n
Ġequ ality
Ġge Ã¶ffnet
M einer
is ure
el be
ĠZw ischen
ĠS Ã¤
ĠEr de
Ġinform iert
Ġum welt
K licken
U T
man agement
A B
Ġy esterday
ĠschÃ¶ ne
Ġrev olution
Ġask ing
f est
Ġben ach
N L
ĠSÃ¼ den
P C
Ġsuccess fully
kn Ã¼
ĠMark en
ific ations
Ġl auf
Ġst ore
ĠMittel n
reit ung
ĠAn lage
ĠC H
Ġgo als
er a
Ġre ject
Ġn Ã¤her
Ġcont ents
ĠAus land
Ġwe alth
ĠUnter kunft
Ġbo und
Ġaccess ible
ĠMark et
ĠBahn hof
ĠFore ign
ĠRe alitÃ¤t
ĠRes ort
Ġpriv ile
B en
or et
aus o
Ġorgan ization
i pe
ĠK arten
at ures
ĠN iveau
gef Ã¤hr
ĠComp any
ar th
Ġche ap
ĠWir kung
ĠFra ktionen
Ġc ategory
is men
ĠEmpfehl ungen
ĠSum mit
Ġexpend iture
err y
Ġsur v
l ament
ĠC am
reit et
Ġex klus
as k
ĠKop f
ĠA gency
ktiv itÃ¤t
Ġrecommend ations
Ġmass ive
Never theless
0 9
W eit
tel lect
ens wert
Ġair craft
ĠBeschl uss
ĠFlex ibilitÃ¤t
n d
ĠInd ien
k urr
ĠBot schaft
ĠTH E
Ġra ce
Ġgut er
ategor ie
Ã¤ hren
Ġsorg fÃ¤lt
E O
Ġph ilosoph
Ġspec ies
Ġeinver standen
ĠÃ¼ber ein
ap ter
Ã ¢
ĠR os
Ġr ig
Ġall gemeine
Ġinde pendence
Ġmitt l
Ġr asch
Ġphys ical
ĠProgram ms
ĠHoff nung
Ġhaupts Ã¤chlich
ĠArchite ktur
ĠD imension
Ġbal anced
ans ion
Ġein sch
Ġlab or
hand els
ĠI D
ĠBetrie bs
Ġge halten
ĠC roat
ĠRe ich
ĠAgent ur
Gleich zeitig
im al
Ġg rie
Ġbeach ten
Ġ4 8
Ġsatell ite
An other
Ġtre ten
Ġact s
An der
Ġgesch ieht
lich em
Ġmer ely
ab l
une hm
ĠStud ien
S im
Ġn ar
Ġide ale
G em
ĠFr ont
Ġtarge ts
g barkeit
Ġd Ã©
Ġp un
ĠP o
ein d
ob ility
Ġfest gestellt
w ers
Ġint ention
ĠauÃŁer ord
Ġnie mand
Ġfurn ished
Ġh oh
c ast
Ġcons ists
ĠGeb iete
Ġman chmal
ĠFar ben
Ġt Ã¼rk
Ġl ake
ot ten
ĠO ut
ĠmÃ¶ glichen
ĠE miss
ĠDaten schutz
ĠWieder auf
ĠLiberal isierung
k y
ĠMich ael
Ġre ve
Ġmit tels
Ġeinz igen
Ġcontain ed
ĠVoraus setzungen
Ġher zlich
ĠZahl en
ĠL o
able d
ĠF eld
Ġcomm unities
ĠBeih ilfen
ĠF ert
Ġch anging
Ġk aufen
Ġcon temporary
Ġpres erv
ĠGegen teil
b indung
ĠL inks
Ã¼n fte
Ġapproxim ately
0 6
b ett
ĠjÃ¼ng sten
Ġuntern ommen
ĠGesetz gebung
rup t
Ġj ungen
c ap
Ġaus lÃ¤nd
Ġspr icht
Ġdynam ic
ĠArbeits markt
ĠKo operation
Ġlands cape
Ġde te
Ġs age
Ġwa iting
Ġge be
wend ungs
ĠStud io
w achst
Ġso bald
ĠWh ite
ĠL ord
Ġput ting
Ġvorgeschlagen en
b Ã¼rger
ĠP ool
ĠD ay
vers e
O ver
Ġprev ention
z il
ĠS yn
ĠRis iken
k an
ĠGrund rechte
Ġparticip ants
Ġdispos al
Ġth er
Ġgro unds
le ge
ĠV e
ĠO ption
ĠU l
Ġsmall er
ĠPalest inian
Ġ( "
ĠV an
Ġmechan ism
C omp
Ġsub mit
W o
ĠM ail
od urch
ĠGar den
Ġb ars
Ġschnell er
Ġpros pect
ĠR ob
Ġbring ing
Ġerforder t
ĠVor teil
ĠÃ¼bern ommen
ĠKont roll
ĠAl s
ann ung
200 8
Ġs we
ist ungs
Ġgl ad
3 7
ĠEr wart
Ġpoin ted
Ġnational er
Ġlead s
( )
Ġsl ight
ĠMilit Ã¤r
ĠVer kauf
Ã¤hl ten
Ġfra ud
Ġguarante ed
ĠRel ig
Ġqu ot
Ġgew iss
ĠII I
Ġresult ing
Ġplann ed
ĠB ill
Ġcon vention
Ġsel ten
in ent
vere ign
Ġwe bs
Ġdam als
Ġco ol
Ġcoun t
Ġpre d
Ġteil en
Ġso vereign
Ġbl og
as en
ĠpersÃ¶n liche
ĠAn s
ar tet
ĠS quare
Ġab hÃ¤ng
ul ating
ĠL ag
Ġfact or
ĠZ oll
ĠAl ban
Ġwrit e
h el
ĠReg istr
Ġrespons ibilities
w iesen
rÃ¤n kungen
Ġz unehm
ĠM ain
spl an
ĠSch m
Ġd ig
ost er
Ġseek ing
Ġregel mÃ¤ÃŁig
T P
ĠG az
ĠgewÃ¼n sch
Ġwach s
end ung
Ġviel er
Ġoper ate
ĠMark eting
Ġp ill
ĠAll iance
Ġcaus es
ĠMitglie dern
Ġcap able
Ġzu gleich
Ġstrengthen ing
k unden
ake te
weg s
Ġaccept able
Ġan bieten
Ġbetroffen en
rit tens
ĠMitglied s
r ist
ĠG reat
Ġw odurch
Ġb erecht
Ġn av
Ġander erseits
Ġbe ob
Ġcon clude
vel y
Ġpleas ure
go ing
Ġnachhalt ige
in ts
erma ÃŁen
aus ende
Ġmed izin
ĠMan ager
ĠFrieden s
ut r
r ess
ĠA ct
ĠHaupt stadt
vent ions
k rat
ie b
re a
Ġre tain
qu es
Ġbr ings
ĠPh ase
cc o
Ġprakt isch
Ġun g
ar ium
isten z
Ġexam ples
Ġz Ã¤hlen
Ġf ashion
Ġgra mm
om it
ien e
Ġmanufact uring
Ġregistr ation
Ġvorsch lagen
ĠBe ob
i ot
H is
Ġ id
richt linie
Ġval u
V ielen
weit en
ife llos
Ġgemein schaft
Ġund erg
ss ystem
ĠDeut sche
g in
ĠB la
Ġver k
Ġrec overy
Ġlet ter
ĠA uch
ĠNieder l
ĠBestand teil
Y et
Ã¤ ume
ĠMÃ¤n ner
ĠGes am
Ġident ity
ĠM EP
Ġen h
cl ing
Ġb and
Ġto ler
Ġl ov
ĠIs land
Ġsch n
ĠPrÃ¼ fung
Ġass um
Ġspac es
sp h
Ġnear ly
ĠF ire
Ġexpla in
S V
ĠF ischer
ĠbeschÃ¤ft igt
ĠTeil nahme
Ġassoc iation
g esellschaften
Ġsafegu ard
Ġzunehm end
Ġsur pr
Ġarg ument
ĠSl ow
" )
r ant
l iance
Ġwe g
Ġth erm
ĠMart in
ab len
Ġerne uer
Ġsich ern
Ġz one
ĠEr hÃ¶hung
ier end
Ġdec ades
Ġe chte
ĠTour isten
Ġf uel
ĠH Ã¤lfte
ĠSp rach
Ġwichtig ste
Ġkle iner
ĠTre ffen
E l
m lich
In ter
ĠJ ac
iqu id
Ġa cht
ĠCh amber
ĠLand schaft
ĠKoordin ierung
S m
ĠJ ournal
our ce
Ġgovern ance
Ġtradition ellen
Ġade quate
Ġmultip le
Ġir gende
ĠR ules
ĠÃľber prÃ¼fung
ĠExper ten
Ġincor por
ĠGe fÃ¼hl
Ġpro portion
Ġsie ben
Ġgew Ã¤hlt
zw ungen
Ġpass word
Ġ199 2
Ġsie he
es halb
Ġste el
Ġwithdra w
le bt
G o
Ġrequ ested
war z
ĠKom b
ĠE ffizienz
ges tellten
Ġtr end
ĠPolitik er
Ã£ o
Ġprin t
S ol
Ġcons ensus
ĠPf licht
Ġn ations
ĠA kte
ĠApp arte
Ġsouth ern
Ġreg ret
p lace
Ġs ets
z ur
kt op
Ġattack s
ĠGed anken
Ġpat ients
ĠW erb
organis ationen
ĠBe i
ĠE N
st ation
Ġthere by
Ġtr uth
Ġbess eren
ĠSup er
ĠLauf e
sprÃ¼ che
Ġdiscuss ing
Ġoptim al
Ġvul ner
Ġd ivid
Ġvers ions
ĠInternational en
ir ing
iss ens
ĠAnpass ung
Ġl iability
Ġat tend
od es
Ġaddress ed
Ã ª
Ġdr iving
Ġtest ing
ĠCy pr
Ġher gestellt
sel ben
ĠNicht raucher
Ġseit ens
sp rach
ĠF ax
Ã¼ ben
Ġindustr ies
Ġele gan
leg te
Ġcons olid
oc al
Ġkind s
Ġprim ary
oten zial
Ġl au
ĠAb sicht
Ġrepresent ative
ĠNor den
s id
ĠO S
Ġprim arily
M A
Ġex plan
Ġdeut sche
Ġf Ã¤llt
Ġweiter es
ĠP ublik
ĠJ o
ĠgrenzÃ¼ber schreit
ĠS T
ac es
ĠOrd nung
ĠZ immern
Ġse c
ahr t
Ġcop y
ĠPe ter
lich ten
ĠTeil en
Ġprevious ly
Ġin hab
r or
ĠSu pport
ĠVorbereit ung
Ġres pekt
pos ition
Ġdiskut iert
ĠK affe
ĠK orea
ĠSch ne
Ġaf ford
gÃ¤n glich
ĠSt reit
ĠAus nahme
ĠS yr
piel t
Ġschool s
Ġviel fÃ¤lt
k rÃ¤fte
ĠR iver
Ð ´
produ ktion
ĠEin kaufs
ĠKlima anlage
Ġrein for
Ġtal ks
kt ions
ĠÐ ¿
Ġm aster
ĠkÃ¼rz lich
Ġ25 0
p hrase
Ġd isch
ĠG ent
A V
ĠMetho de
ann es
Ġexpens ive
Ã¤ ger
ampag ne
ent ure
Ġbeg ann
Ġjem and
Th us
Ġph ase
ĠJava Script
Ġj unge
Ġrem ove
ĠDisk riminierung
Ġbl ue
Ġm ail
Ġakt ual
ĠA R
il ing
Ġkon text
M ed
ic on
ĠMetho den
ĠT yp
]] .
ĠInsel n
ĠR oyal
Ġevalu ation
Ġver teid
Ġfin de
les en
Ro om
Ġauth ent
ze ÃŁ
bereich e
Ġt a
Ġcondu ct
ĠBos n
ĠJ oh
ĠBl og
nah m
Chr ist
Ġreag ieren
Ã¤d t
g ro
ie gen
ies t
Ġorder s
ĠChar ter
Ġa p
200 3
ĠMo dern
Europ a
C he
ent scheid
ĠD utch
Ġglob ale
d own
ĠM erk
leb nis
J eder
Ġwill kommen
Ġturn ed
Ġe ight
ĠStadtz entrum
Ġakzept iert
Ġf if
Ġeinzel ne
Ġl ag
S te
ĠWill en
ĠSch ool
gram ms
bor der
Ġdemokrat ische
ĠVeranst altungen
Ġb io
at lant
ad y
Ġde alt
Ġdetermin ed
tellect ual
ĠB an
zahl ung
ĠGÃ¤ sten
Ġaud io
W or
ent er
ĠlÃ¤nd lichen
Ġj ournal
ier n
Ġz unehmen
ah nen
ĠCh em
ak s
k und
Ġnam ed
ĠAn griff
Ġfl ow
Ġdeliver ed
Ġsinn voll
is er
mitt ag
Ġf ried
Ġdies be
Ġcap t
Ġw aters
Ġn ation
C l
Ġbehand eln
Ġmut ual
ig ern
ĠZ uf
str ategie
Ġbook s
c or
met ho
4 8
ĠMar ia
ĠP ic
ĠVer hÃ¤ltnis
Ġcor ner
kre t
ver w
Ġoppos ite
200 6
fÃ¼ gt
Ġange ht
Ġanerk annt
Ġb ere
Ġm el
Ġbet ont
Se hr
Ġgen Ã¼
ĠEl tern
Ġb ran
Ġextre me
cil iation
Ġamong st
ĠF irst
Ġco ok
Ġprep are
ĠverstÃ¤r kt
f angen
ĠberÃ¼hm ten
Å Ĥ
clud ing
s ein
ungs verfahren
Ġposit iven
A re
Ġnoch mals
ĠFÃ¤h igkeit
t ten
ĠH or
Ġdo ll
Ġdivers ity
f ers
Ġvor be
ĠB ol
Ġmechan isms
k urs
Ġb on
ĠPro vin
ĠBer Ã¼cksicht
ĠForm ular
un sten
ĠM at
3 1
Ġbe wegen
ĠSw eden
ĠRev olution
ĠFreiz eit
Ġunan im
Ġbeg onnen
ĠRe aktion
Ġon to
Ġgrie ch
ĠDub lin
Ġd ritten
ĠEin klang
Ġtechnolog ical
utt le
Ġs now
ĠAn liegen
Ġinvest ments
Ġbel ong
st at
ed s
B S
ĠBild ungs
Ġd ry
Ġterritor ial
ĠAut or
Ġqual ified
grif fe
Ġges pe
u y
Th ose
umin ium
Ġsich erstellen
ĠfÃ¼hren den
Ġw all
Ġacc ounts
Ġim per
ĠâĢ ¦
ou ver
Ġmanufactur ers
Ġth re
Ġviel mehr
ĠUmst Ã¤nden
de te
Ġfeel ing
o ÃŁ
ĠD ach
Ġur ge
ir y
m o
Ġum geben
E F
Ġconsult ation
ab sicht
Ġsp Ã¤t
ĠZust and
Ġdivers e
Ġp ension
Ġult im
Ġle iden
200 2
Ġrepe ated
ĠGl as
sp art
Ġg esellschaft
se c
op t
Ġpar allel
grund lage
Ġex ceed
ĠT iere
ĠV alle
bereit et
Ġleaders hip
Ġgr and
ĠR oh
ian a
Ġmov ed
ĠBerÃ¼cksicht igung
ĠSt unde
ĠVer Ã¶ffent
Ġsk in
Ġb ureau
ĠP in
ĠD ata
Ġverl ieren
Ġcharm ing
i ary
je ction
ĠMinder heiten
ĠZahl ungs
Ġno ise
klÃ¤r ung
âĢ Ķ
stoff en
Ġe ye
Ġat temp
ĠÃľber n
icher ungs
Ġmark ed
Ġf and
ess or
ĠAl ter
M ember
gen ce
ĠF Ã¤lle
ĠMin utes
Ġatt itude
Ġehemal igen
folger ungen
ak ers
ven ue
ĠRe pr
ĠPro di
g g
ĠÃ¼ber zeugen
ĠCh amp
Ġbar r
ĠGra f
Ġschle cht
.) (
ĠRom ania
Ġme ist
me ister
fol io
Ġzu verlÃ¤ss
ĠFl uss
Ġzust immen
Ġ ..
ĠKlimawand el
Ġsp ot
Ġre jected
ĠJahr zehn
Ġber uf
Ġer griffen
Ġderzeit igen
Ġex istence
ĠB ack
T ER
Ġimpro vements
Ġrun s
ĠE th
fert igt
u j
Ġh all
ke hren
Ġbed arf
term ine
c ar
Ġw he
Ġkn ows
ĠK ong
ĠJ ose
iet ies
ĠUnter schiede
org nis
Ġin ten
ĠO F
Ġcomp liance
Ġ >
ur ies
Ġhelp ing
zahl t
Ġrep ly
im in
iger ung
Ġexperien ces
ĠSt Ã¼ck
iz ont
stru ction
ĠF lÃ¤
ang er
Ġvor genommen
ĠGr enze
Ġstark en
ĠWachst ums
0 7
Ġdest ru
Ġheav y
ĠVerfÃ¼ gbarkeit
Ġbef assen
Ġsignificant ly
Ġill ustr
n es
at ically
jÃ¤hr ige
ĠR umÃ¤n
Ġsch lieÃŁen
bere cht
D S
it o
Ġsh ape
Ġgew isse
Ġ8 00
igen ce
ĠFen ster
Ġ #
Ġse ien
ĠEinwander ung
ĠB M
Ġl ock
Ġde le
Ġwieder um
Ġforder t
ĠT ai
ĠCh urch
ĠS onn
ĠFre ude
Pro gramm
Ġblo od
ĠKomb ination
ĠDienst leistungs
me chan
wo od
ĠV ision
Ġst one
Ġstre ets
Ġwa it
Ġrequ ests
uropÃ¤ ischen
ĠnÃ¶t ig
op les
ĠSch Ã¤den
Ã¶ p
ĠPat ent
Ġtrans form
ĠDiskuss ionen
le chter
ĠRe f
sicht s
ĠC ustom
Ġle isure
geb racht
Ġd ah
ik te
kun fts
Ġcompeten ce
4 9
gr Ã¶ÃŁ
Ġar ms
ĠHand eln
Ã¨ s
U s
Ġf ed
ĠN ik
Ġabge le
Ġrecommend ed
on te
Ġper mit
it ime
Ġb ildet
Ġunterschied lich
Ġkonkre ten
or ough
Ġbetre ffen
te hen
ak ten
ĠPr Ã¤s
Ġstra ight
own ed
ĠPers pekt
Ġpriv acy
ĠAut ob
er ungs
Ġlaunch ed
Ġpolit isch
ĠRo om
Ġexpert ise
Ġla ut
Ñģ ÑĤ
Ġtre ated
Ġland wirtschaft
z ed
ge ht
Ġspeak ers
Ġbir th
isp iele
ĠVerb esser
Ġwel chen
ĠK unde
Wh ere
abil itÃ¤t
fÃ¼ll ung
i ating
ik as
ĠPra kt
Ġb inding
ĠEr wach
ne w
Ġconsist ent
Ġbedroom s
Ġoblig ation
Ġpie ce
ĠlÃ¤ uft
L ocated
Ġd ir
Ġc m
Ġge ehr
Ġdr ugs
pp ed
Ġro t
Ġsw itch
Ver y
schaf fen
la use
rif t
Ġexpect ations
istrib ution
Ġf elt
ĠGes etze
Ġconf igur
Ġpresent ation
Ġrecogn ise
Ġcompens ation
ĠB alt
he ber
Nach dem
Ġf ir
ĠUntersuch ung
on i
ĠP flanzen
Ġkein es
ĠEx press
Ġwebs ites
st Ã¤nde
Ġdest ination
ettbewer bs
S A
Ġsan ctions
Ġun its
ent wurf
Ġsubsid iar
ĠAdr esse
Ġsp ok
Ġpar ad
Ġ199 3
zub auen
Ġ198 0
ĠSw ed
ĠL ast
v ak
ĠFre unde
Ã¤hr t
ge iz
ĠStruktur fonds
iv ate
ĠThe ater
f are
Ġsle ep
Ġeng ag
Ġemphas is
6 8
Ro oms
Ġfurn iture
zÃ¼ g
hand lungs
Ġfl at
ĠGrund sÃ¤tze
ĠRot ary
Ġd ishes
Ġl ose
Ġum fass
Ġwir ksam
ĠSp iele
ud s
be ziehung
Ġbas iert
Ġrepr esented
v ol
ru ppen
ĠFl ash
te en
ĠV ia
Ġv ess
Ġout put
Ġcomp ly
Ġent lang
Ġgen auso
Ġextens ion
Ġdef ault
sp arte
ĠO ne
Ġkom pliz
ĠAllgemein en
t i
amer as
G B
ĠEigen schaften
ĠS un
if orm
Be im
Ġsp rach
Ġresol ve
al ys
ĠKy oto
ĠL u
Ġsub stances
Ġverl angen
Ġapplic able
Ġbro wser
ĠBre akfast
B esch
st ance
Ġs ights
ĠKolle ge
ĠabhÃ¤ng ig
Ġex ists
Ġk or
at re
Ġges tern
Ġrel atively
, "
Ġbe iz
Ġst ations
ichte ten
Z immer
ĠW esten
Ġcomp lic
Ġd ict
k op
at i
Ġbe zieht
form ance
D r
Ġw ild
Ġpro ud
Ġtre es
B oth
isch ung
est ion
ĠO ld
ĠAngeb ote
Ġtr ial
ĠStra f
bahn hof
Ġfant astic
Ġd einer
gra d
ĠMen Ã¼
Ġol der
âĢ ¢
ĠLa w
us te
ĠO ur
Ġze ich
Z unÃ¤chst
Ġ6 00
h op
Ġd og
ĠL Ã¶
ĠS atell
Ġoper ators
ir k
Ġenter ed
Ġtax es
ĠZ ul
och en
uch er
ĠAr gent
Ġwichtig es
Ġkeep ing
z za
d ass
Ġhelp s
ab ling
th eit
wh at
a j
ĠH erk
oss en
Ġtrotz dem
ĠSign al
Ġrefuge es
ok ument
ro te
Ġre icht
Ġappro val
Ġindivid uell
Ġerr or
Ġv ast
sp ar
Ġra re
Ġapprec iate
re chten
Ġad j
ĠK ranken
Ġumfassen den
ĠMaÃŁ nahme
ĠL os
Ġspe zial
Ġobject s
ot te
ĠEn ergy
if all
ĠEng lisch
Ġl atter
Ġal ter
Ġart icles
Ġakt uell
Ġge ist
tra gung
Ġlie fern
ĠDaten bank
Ġemphas ise
ĠMÃ¼n chen
stit ut
Ġt ests
ĠGew inn
ĠLeit linien
ĠB io
B is
Ġge pr
Ġadvant ages
s ervice
Ġcentr es
n etz
an i
ĠfÃ¼hr te
ĠDok umente
Ġdisch arge
sch ule
Ġregion ale
Ġho her
w in
Ġs enden
ĠCl ass
Ġaff airs
Ġc old
ĠUnter schied
Ġzie mlich
ach er
Ġwh atever
Ġengine ering
Ġitalien ischen
ĠK reat
ĠDefin ition
ĠAntw orten
A part
ĠKÃ¼ ste
Ġfav or
ĠOrig inal
ant ly
Ġarrange ments
ĠSchwer punkt
ur ger
ĠB Ã¶r
Ġbek annten
Ġwh ilst
o be
ĠBe wegung
Ġw enden
h ard
ild ing
ĠDet ails
i Ã¨
us al
Ġob st
Ġest im
ĠE gypt
icht ig
Ġde legation
ĠSchul den
ĠSchl oss
Ġtemper ature
lÃ¤ ne
ĠBed enken
ĠQ ue
Ġrespect ive
S ervice
Ġco vers
Ã¤tz ung
Ġunmittel bar
ĠA ustausch
Ġy e
Ġpl ug
ĠVerb rechen
Ġhelp ed
Ġo d
Ġmin i
co de
reg ion
Ġhapp ens
ĠPrem ier
e v
Ġd inner
Ġent re
ĠauÃŁer gewÃ¶hn
o ÃŁen
ĠJ ack
Ġte xts
weit e
Ġ3 7
f it
ĠWahr heit
ĠS ud
St ar
Ġentertain ment
E benso
Ġad ap
Ġrelig i
Ġver f
Ġfind ing
Ġinvol ving
f Ã¤
Ġma ÃŁ
O P
ĠO s
ĠerhÃ¤lt lich
ĠD rit
ĠMin isters
Ġsuffer ing
m aschinen
Ġperson ally
ĠBra zil
polit ischen
Ġpe oples
Ġhistor ische
ĠFrem den
in ations
be hÃ¶rden
re ds
Ġf oll
fl ug
pre ch
, âĢĿ
ĠP aper
ĠOb ama
ĠS D
Ġpolit icians
Ġange p
ĠBes itz
ĠZugrif f
ĠMun ich
ĠU ser
Ġdis aster
ĠhÃ¶ here
ĠZus atz
uch te
ĠW ith
Ġin f
Ġcl oth
Ġdang er
ĠAm ts
Ġexclus ively
Ġnatur ally
T S
Ġth orough
unkt ions
Ġfal sch
waren ess
Ġre ichen
ĠBeruf s
U M
Ġerweit ert
Thank s
Des pite
ĠSan ktionen
tell te
spruch s
Ġvalu able
Ġto urs
amer ika
trÃ¤ cht
Ġentsp annen
Ġbesch rieben
Ġkomm un
Ġdise ases
e y
ĠH ong
ve c
Ġ12 0
Ġsc rip
F ind
R estaurant
ĠKon sequ
que llen
Ġeng l
Ġspect ac
ĠW in
ĠStrateg ien
ĠVer trÃ¤ge
Ġzu ge
ĠbetrÃ¤ gt
Ġrecognis ed
ĠJ es
Ġe ur
ĠSch ule
ĠBe weis
gel assen
ĠR ich
ĠL ou
ĠIn de
ĠG ut
Ġg ather
Ġer Ã¶ffnet
Ġspr ing
Ġm useum
Ġin tend
Ġwe ather
ĠT ibet
rÃ¼st ung
Weit ere
Ġg Ã¼lt
f Ã¤llen
Ã¤nd ige
ĠzusÃ¤tz lichen
Ġb reat
ĠUmwelt schutz
Ġweltweit en
ĠS he
ĠPla za
iz z
ĠStrateg y
ĠLandwir te
Ġopp osed
S eine
p ol
ĠkÃ¼nft ig
à ¸
is ory
uf Ã¼hren
komm t
in os
Ġstr ugg
ur d
Ġso ft
ne ter
ĠGes icht
Ġjour ney
Ġthre aten
ru ct
Ġerschein en
Ġm obility
ul ted
cl ass
fl Ã¤chen
Ġentde cken
p ers
Ġut il
Ġko ordin
Ġin tellectual
Ġconfir med
w est
ĠDe legation
tr an
Ġfirst ly
Ġf ill
Ġp ick
ĠG M
Ã¼r en
Ġgrundlegen den
ĠPl ayer
ĠFahr zeug
ĠTechnolog y
ĠR ub
u den
ach te
Ġout door
Ġcons erv
ĠH oll
ĠE G
Ġer b
z in
Ġhos tels
Ġver Ã¤ndert
ess ene
Ġkurz em
ĠNach frage
ĠHerk un
Ġsol ve
ĠFin ancial
ĠAmer ika
Ġzu gÃ¤nglich
Ġg irl
ĠP op
Ġres idence
id den
Ġschwier igen
reu ung
Ġrepe at
Ġrenew able
ĠM ach
ĠSo und
ĠBes tell
Ġinteress iert
ĠJ ean
Ã© r
T R
J e
n ot
ĠR ock
ĠAr m
Ġobtain ed
Ġfig ure
ch ron
ĠPr ess
onder s
ĠErwart ungen
Ġgef Ã¶rdert
trie ben
L in
u ens
an cing
N ote
Ġd ans
ol er
Ġge prÃ¼
ĠEr wÃ¤
Ġfamil iar
Ġvoll er
h i
icht bar
ik es
Ġso fern
ĠBerichterst at
ĠWor k
ĠMaterial ien
Ġmill ions
ĠUn gleich
Auf grund
ĠschÃ¶n sten
5 5
Ã© n
Ġfac ed
Ġexception al
ĠWirk lichkeit
ink en
Ġcomb ating
f ar
Ġwesent liche
ĠMittel punkt
vention en
ĠSu ite
Ã¤nd ler
de ten
ĠAt om
st es
Ġ1 000
c ol
Ġl aufen
Ġbes itzen
ĠB aum
Ġex em
bau en
Ġbedeut en
Ġdiscover ed
Ġpassen gers
C S
Ã¶ ger
Ġoff ices
az ine
Ġeigen es
ug nisse
ag on
Ġinvol vement
Ġl Ã¤ng
Ġch ain
ĠjÃ¤hr lich
h me
Ġ Ã¶ffnen
iv a
Ġde termine
Ġacc om
alt a
Ġdirect ives
Ġlook s
ĠSwed ish
Å ¾
Ġlarge ly
Ġdire kte
Ġkulture lle
Ġhil ft
V om
ĠHin dern
and on
act ory
ĠStud ie
Ġ3 8
ĠUm gang
m l
Ġa uÃŁen
Ġzwe ifellos
Ġgesch rieben
ĠT it
ĠHe iz
Ġnie mals
stehen den
M od
Ġp ush
Ġein erseits
A ut
Ġobst ac
ĠNach richten
ĠEss en
Ġcreat ive
ĠAmb iente
V ert
ĠAn gel
Ġw eshalb
ĠEisen bahn
d essen
ĠEmpfehl ung
Ġserv es
a al
ank s
ĠAgrar politik
Ġhervorra gende
Ġbureau c
lie fert
hand elt
gend es
be k
Ġdurch zufÃ¼hren
Ġprotect ing
ĠBade zimmer
Ġenth us
ĠM orgen
rÃ¤ ften
Ġcoup le
Ġimpress ive
Ġe yes
ll es
ec utive
ĠEntwicklungs lÃ¤ndern
lie ben
ab we
ĠW as
ĠMon te
ĠRad io
ĠnatÃ¼r lichen
ĠStud enten
Ġausgezeich nete
Ġt reaty
astr onom
ĠM aster
Ġkom bin
Ġin zwischen
ĠM assen
Ġle aving
Ġam ounts
ges undheit
ĠBerat ung
M ill
Ġzu erst
Ġconstru ctive
weis ung
Ġremov ed
Ġofficial s
ĠK andidaten
ic ip
ĠEnts p
leg ungen
d ire
St and
ump ing
we i
O W
ĠK rie
fin anz
Ġneues ten
Ã¶r ung
Ġequ ally
ed e
ĠK ategorie
ĠEr inner
Ġcritic ism
itÃ¤ re
ĠDire ctor
ĠW Ã¼r
Ġincre ases
Ber icht
ing esch
Th ird
Ġstrateg ies
ĠbemÃ¼ ht
Ġre den
ĠPro ced
Ġstatt f
ĠSk ype
ĠFerien wohn
Ġhappen ing
Ġtempor ary
Ġnew ly
Ġautomat ic
F r
Ġcommunic ations
Ġorganiz ations
in stitution
ted ly
En joy
Ġcontrib utions
ĠKar l
ste uer
Ġinc ent
re b
ĠT on
ĠDav id
ĠÃľber setzung
Ġdoes n
ĠO pp
gemein schaft
ĠKomm ent
Ġsp anischen
Ġbetreff enden
an en
Ġ {{
Ġst ake
Ġausgezeich neten
lo oking
Ġruh igen
ĠD iv
Ġhosp it
m es
Ġres erve
ĠEin stellung
Ġinteress ant
ĠAd ministr
ĠVeranst altung
ad ow
Ġprepar ation
Ġlic ense
Ġmand ate
ĠVer k
gem Ã¤ÃŁ
ver letz
l ight
Ġge pl
ap est
% ,
Ġver Ã¤ndern
Ġlo vely
p Ã¤ck
Ġhand ling
ĠVoraus setzung
ĠbetrÃ¤ cht
4 7
Ġge tr
ĠursprÃ¼n glichen
Adr esse
Ġh it
Ġund erm
ĠB or
Ã¤hl te
fre ie
ein richtungen
Ġla den
Ġim pression
Ġrequire ment
Ġge legt
Ġoffen en
Ġhealth y
Ġinstall iert
ĠPap ier
Ġcan cel
Ġqual ifiz
Ġremain ing
ĠPriv ate
Ġrestrict ions
ĠfÃ¼ hlen
Ġbo at
Ġa wareness
r d
J a
s ystems
ĠÃľber zeugung
ĠGra d
Wel che
and al
istr y
ĠFar b
ĠF er
hol ders
Ġgrundlegen de
Ġsch reiben
Ġac quis
ent ions
Ġcontract s
Viel leicht
Ġmensch lichen
Ġr ichten
ĠNor men
Ġvol ume
Ġliberal isation
wachst um
Ġ essen
Ġc er
Ġein fachen
Ġgew alt
ĠM ut
ĠVerbesser ungen
Ġ Ã¤lter
Ġgen e
Ġiss ued
ĠÐ ²
Ġchar ges
[ [
hr t
Ġpro hib
ĠIn c
ĠFran c
grenz ung
ĠE P
Ġdeb ates
b il
Ġauf zunehmen
Ġfight ing
Ġen han
Ġdec is
Ġcharacter istics
ĠBau ern
ĠTem peratur
ĠMus lim
Ġrem ote
hm igung
Ġkomm er
ĠBrit ain
hol en
Ġcolle ctive
Ġbalcon y
Ġm ur
ĠMein ungs
Ġrapporte urs
st ood
el er
Ġab road
Ġunivers al
ĠGN U
Ġcont roll
Ġs orgt
ub l
Ġpres ident
ĠprÃ¤sent iert
ĠK now
Ġmus ste
ĠKÃ¼ sten
Ġentscheiden d
wir kung
Ġtr ifft
meld ung
ash ington
Ġd ining
Ġan wes
Ġp hen
Ġfunktion ieren
Ġpro ve
reich ung
Ġopin ions
ĠNah en
- /
Ġdeta ill
Ġreturn ed
unic ip
Ġinhab it
Ġst immt
ff ect
Ġa chten
Ġsurround ings
mÃ¤r kte
Ġf asc
sch irm
n ischen
Ġd ich
be hÃ¶rde
Ġab ol
ip el
Ġextra ordin
200 5
' ve
Ġresol utions
Ġfa ith
ĠLuxem bourg
Ġ198 9
ĠNahrungs mittel
ro hung
Ġco her
Ġoper ational
Ġabgele hnt
Ġal bum
Ġge zogen
Ġmaintain ed
Ġsex ual
Ġnied rig
ĠSt ahl
ĠhÃ¶ch sten
Ġcre ates
Ġpat tern
Ġs la
Ġsu ite
Ġv ous
N or
Ġl obby
ĠT om
Ġber aten
angeb ot
G et
ĠL as
Ġcomm un
Ġident ify
Ġdepend s
Ġs i
ĠKap az
Ġign or
Ġsch lieÃŁ
ĠSaf ety
B o
u ite
is ierungs
Ġc ry
ĠA z
Ġum zusetzen
gÃ¤n ge
ĠE p
Ġausges prochen
t d
ĠTag ung
ĠkÃ¼nft igen
ĠMy SQL
Ġst arten
Ġorganis iert
loy ed
g ut
Ġmess ages
Ġc ab
ĠStruktur en
in ational
itte es
Ã¤um t
Ġrecommend ation
ĠM Ã¶
ĠHostels club
m aterial
re ffen
Gen eral
ĠÃľberein stimmung
Ġw alls
Ġrenov ated
Ġfe e
Ġbre ite
ĠGarant ie
Ġ199 1
Ġprec ise
ĠD auer
Ġdecor ated
m acht
Ġd ritte
ĠStabil itÃ¤ts
ĠHarmon isierung
ĠS und
Ġvol unt
or ia
ĠG DP
Ġtra ditions
Ġverschieden er
ĠSchw eden
ĠAir bus
Ġclass ic
Ġries igen
8 6
Ġgrat ulieren
ze llen
ĠT y
ate ful
fin ed
Ġverurs acht
G ro
ĠR und
Ġerlaub en
Ġinsp ir
ĠN on
ĠW Ã¤hl
arm a
En tw
ĠUN O
Ġg old
Ġge ts
Ġver an
ĠVer fahrens
for schung
Ġkur ze
t Ã¤us
ĠV ir
gar n
g Ã¤
Ġbek Ã¤mpfen
A F
Ġgew onnen
last ung
ĠP ia
ĠB urg
gr enzen
Ġschn elle
t able
Ġsow eit
Ġb attle
ĠÃ¼bern immt
ĠTerm in
Ġc atalog
k rit
Ġs in
ĠAr men
Ġausge wogen
m odell
Ġaus geschlossen
Ġgeb aut
C omm
Ġan statt
de b
Ġd ark
Ġinvol ve
ĠP unkten
ĠN G
Un der
ĠT im
igh ten
ĠFest legung
Ġapp oint
Ġgen der
F ollow
Ġyo uth
Ġverl angt
cent er
ĠA ction
ĠMan gel
r ufen
inu ier
Ġconflic ts
z ne
Â ¤
cl es
Ġsa una
Ġow ner
al ing
yp ern
Ġfacilit ate
v ant
Ġz Ã¤hlt
Ġir re
Ġpropert ies
Ġle istungs
ĠRe fer
Ġgel Ã¶st
Ġperfe kt
ĠS ov
ĠT own
Ġle gend
zip lin
Ġbes eit
ig u
ĠWe iÃŁ
Ġart ist
ĠKr isen
Ġg one
Ã¤t igung
ĠKons ens
Ġregular ly
Ġw itness
ĠProced ure
ĠEng ine
Ġsch afft
Ġdraw ing
ĠAng st
ĠUS D
Ġb uchen
ĠM all
ĠSe cret
Ġune ingesch
Ġbe zug
ul iert
ĠC a
ĠBo x
Ġlau tet
erecht igkeit
ĠÃĦnderungsan trÃ¤gen
Ġan schlieÃŁen
Ġre ported
ĠAus stattung
co hol
Ġan gesehen
Ġsm o
Ġauf treten
ĠKomm un
Ġhard ware
mit ten
ĠmÃ¶ gliche
ĠHo hen
Ġforder e
ĠDritt lÃ¤ndern
ĠZustÃ¤nd igkeit
ĠAr me
Ġan nehmen
ĠD ra
Ġcondu cted
Ġw ettbewerbs
ĠSte uern
Ġaf tern
ĠAn fragen
Ġcustom s
Ġvac ation
ĠP uert
az ier
ĠS ens
ĠVorsch lÃ¤gen
ĠGest altung
Ġal arm
ĠG eschÃ¤ft
Ġeinzig artige
l iste
Ġaufge fordert
Ġaccomp an
Ġc able
Ġsch ne
Ã¤hr ung
B C
Ġab gesch
ĠGesch mack
ĠAltern ative
w ater
Ġwissenschaft lichen
Ġ Î
ac ion
ĠGer Ã¤te
ĠKrank heiten
Ġme at
Ġtransport ation
ĠTh ese
Ġreserv es
onym ous
4 4
te le
de cken
Ġcons c
Ġperform ed
Ġintens iv
ĠGe gend
ĠBulgar ia
Ġparliament s
Ġhund reds
6 7
Ġer Ã¶r
Ġhervor heben
Ġlo ad
Ġzug unsten
Ġrec ip
ĠBes tellung
C ommission
ĠT schech
Ġsupp osed
ĠSh ow
us ter
c i
p oint
Ġpar ents
Ġzentr alen
in y
Ġe ast
iz er
ĠC af
ĠIntern ets
as che
id ay
u ese
ber ge
ĠAb schnitt
Ġtop ic
Ġnorth ern
Ġse he
Ġphen omen
ĠMa astr
Ġintens ive
ĠW are
Ġver stÃ¤nd
ĠStand ort
Ġsome what
stand ards
Ġverein bar
ĠPlan ung
Ġinter ior
Ġwor se
lÃ¤ ut
Ġdef ine
Ġerheb lich
Ġcare er
ar r
Ġmet al
ĠBe hinder
ess ions
Ġdurch fÃ¼hren
ĠJapan ese
Ġ iron
ĠFar be
Ġbe absicht
Ġein ig
and t
all er
ĠA th
fÃ¼hr te
ĠBalk an
et a
ĠK urz
ĠAkt ien
ig sten
Ġbek omm
lie b
ud es
ĠL ist
ĠMEP s
Ġcontr ast
Ġd ates
is tern
Ġz ut
Ġhold ing
Ġsee ing
Ġregul atory
Ġfoll ows
Ġa vec
Ġverst anden
or ca
Ġzust Ã¤ndigen
Ġdisplay ed
Ġkur zen
ĠbeglÃ¼ckwÃ¼n schen
Ġam az
Ġterror ist
ĠV ater
Ġ9 5
ĠKil ometer
Ġab andon
io x
ring erung
ĠPolize i
Ġmit ten
ĠAus fÃ¼hrungen
Ġ9 00
6 5
os is
ĠEx port
Ġjoin ed
ĠRegierungs konferenz
Ġvis a
ĠCroat ia
F erner
w ald
ĠprÃ¤ z
ĠFÃ¤h igkeiten
Z us
ol i
ĠEx ecutive
Ġun for
ĠReg ime
ĠerwÃ¤ hn
or gan
Ġcolle ct
ĠBl ut
ĠfrÃ¼her en
Ġzuf olge
Ġnachhalt igen
ĠI st
ĠAl p
b anken
Ġpar lament
Ġupd ated
st anz
est r
ĠUm feld
ĠzurÃ¼ck ge
Ġfrequ ently
ĠM S
k ur
Ġconne ctions
al ed
ĠM ir
iv als
ĠCan ada
ĠRatsprÃ¤sident schaft
Ġtown s
ĠAusgang spunkt
ĠB SE
ĠMar ina
Ġschw ed
Ġultim ately
Ġf aster
Ġcontin ent
Ġis lands
Ġno ted
Ġtechn iques
CH T
Ġverb ringen
ĠbestÃ¤t igen
Ġo ught
un ning
ĠL im
ĠGe orge
Ġans wers
ĠB y
ĠAn wendungs
schied et
Ġlab el
Ġkont inuier
Ġf ather
Ġun gefÃ¤hr
Ã¤lt igen
Ġminor ity
e f
Ġso dass
ĠArbeitspl Ã¤tzen
Ġehr geiz
ĠPol ish
ĠMus ic
ĠAus fÃ¼hrung
ĠKon text
Ġverab schiedet
Ġde als
Ġsty lish
c are
be auftrag
ĠZentral bank
sch Ã¤d
ĠH imm
ain e
Ġb ud
la red
kre is
ig end
ĠBe ispiele
Ġnotwend ige
ĠGleich gewicht
Ġun ent
Ġder art
we chs
Ġorgan ized
ĠG U
u ers
ier a
Ġm other
ĠRo bert
ĠSa una
ĠUr spr
ĠCypr us
ĠGe heim
Ġsett ings
lÃ¤ss lich
ĠApart ment
if ies
Ġwor ry
ĠAnt i
Ġemer gency
Ġtr ib
Ġ6 5
ĠStra ÃŁ
ĠEntwicklungs lÃ¤nder
ĠChe ck
p assen
ĠRe isen
Ġdemand ing
ies sen
ĠA ward
min uten
ĠS at
ĠHil fs
Ġausgest atte
ĠT emp
ĠÃľberein kommen
P al
zeich nis
b art
we ll
ĠH ans
Ã¶ ÃŁen
ift ung
Ġd rop
Ġre act
ĠS ur
ĠRe port
ĠMon etary
or ama
ĠSch atten
ĠHal b
fu hr
M en
ĠT el
Ġgew issen
ĠW ashington
aus end
Ġgr ateful
Ġethn ic
min ute
ĠPlen um
n or
Ġder artige
Ġdr ug
rel ated
ĠAutom obil
ĠRe gen
w ing
Ġhe at
Ġbeh avi
Ġhos tel
Ġbezahl en
ĠDus che
t ies
Ġan spruchs
Ġam t
ĠÃ¶ffent lich
us ted
ĠK roat
Ġelectric ity
st ud
ĠLie be
ot ive
Ġerm ut
Ġinteress ante
ĠE is
Ġcast le
ĠSon ne
L ike
Ġent schlossen
Ġinv ite
Ġdivid ed
ĠL ife
oun ter
ĠT ime
Ġm igration
ĠW ild
ĠEin heit
Ġprodu ziert
ĠArbeitspl atz
Ġher itage
g Ã¼nst
Ġbesch rÃ¤nkt
Ġt ail
Ġvis ual
ibliothe k
ac iÃ³n
Ġdr iver
Ġentwick elten
ĠAus stellung
Ġdel ighted
ĠPrinzip ien
Ġprodu cing
Ġse at
Ġqu arter
Ġexp ansion
Ġstat istics
ĠRed ner
Ġs ter
Ġwind ows
Ã¼ ler
Ġmult inational
zÃ¼ ge
ĠVer mÃ¶gen
Ġcour age
Ġarr ive
ce an
ĠVer d
Ġvor ange
Ġver hindert
ĠBr asil
A mer
T wo
Ġver leihen
ĠGew icht
sch m
ĠAus gabe
So ftware
ĠVer ringerung
ĠBuch ung
Ġh Ã¤ngt
ĠEr holung
Ġsu ites
Ġtour ists
ĠK MU
Ġwel fare
Ġwid ely
ĠEx pl
Ġmagn ific
Ġent rance
Ġrelax ation
ĠÃ¶ sterreich
Ġchann els
1 60
Ġw ines
Ġausge zeichnet
ikan er
d as
ĠPart nern
Ġentde ck
Ġun mÃ¶glich
Ġaus gesetzt
Ġinvest ors
Ã ®
ĠN ap
Ġserv iert
D rittens
ar at
Ġm Ã¼nd
ĠN ice
ĠWebs ites
Ġfrei will
ĠgeprÃ¼ ft
R at
ĠW il
tend lich
Ġpoll ution
p g
Ġt ats
ĠEin beziehung
ĠInd ones
Ġprot ocol
ĠS O
Ġge Ã¤
Ġvis ible
g or
Ġ5 5
ĠDeut schen
Ġre fr
ay a
Ġinvol ves
ie ben
ĠFrei heiten
Ġval ley
ĠL ate
Ġpro of
Ġj etz
ĠPrÃ¼ f
Ġl ibrary
ro vers
Ġauf nehmen
Ã¶r d
Ġstr ing
Ġdire kten
Ġloc ations
ap y
Ġprot est
er geb
ĠBe ziehung
Ġcontact s
Ġbott om
sid iar
ĠSpe icher
re tt
Ġgeb oten
Ã ½
Ġent steht
kont rolle
ic ans
ĠAn bieter
ner g
Ġdecl aration
ĠRumÃ¤n ien
8 8
R OM
er kennen
Ġwel chem
Ġstar ts
Ġsubsid ies
Ġinhabit ants
ĠB lock
ĠSchlaf zimmer
imed ia
Ġmaintain ing
ĠGo vern
Ġkurz frist
Ġc ash
ĠM old
Ġor al
etz ten
ĠFakt oren
e te
Ġt icket
con s
Ġfl ights
Ġsy mp
iz za
Ġkont akt
ĠT rag
Ġbest immen
Ġpie ces
ĠPro p
Ġinter v
T atsÃ¤chlich
ĠPro blems
Ġvisit ing
f Ã¤nger
Ġexpl ore
Ġexc iting
ien ted
Ġsupp lement
ĠKohÃ¤s ion
Ġt ie
Ġab gestimmt
ĠY ear
Ġpres ents
Ġerreich bar
d iction
Ġs ac
Ġ3 4
Ġb all
ig a
Ġgeb oren
et r
Ġpass iert
Ġaftern oon
Ġk Ã¤mpfen
ĠEr satz
Ġversch w
Ġbeein druck
Ġindic ated
Ġwoll ten
Ġcollabor ation
U NG
Ġst ars
iss es
och ter
Ġstaat lichen
L T
ĠV iertel
Ã¤t igkeiten
Ġunder stood
hÃ¶r igen
Ġprov ed
Ġfocus ed
ko hol
We ll
O hne
ic er
ĠE arth
Ġbil ateral
Ġan tw
Ġstor ed
ĠUp date
ĠVor be
Ġcorrespond ing
Ġdemonstr ate
ib ar
ĠCon gress
Ġcare ful
Ġshow ing
ru h
le vel
Ġsign s
ĠVorschlag s
Ġdemonstr ated
d ro
Ġvis ited
m aschine
ra k
au x
iet nam
Ġmit ge
Ġgelten den
Ġgarden s
ul f
ag ers
ĠFÃ¼hr er
ĠHaft ung
Ġnew sp
Ġcos y
n ational
ĠE dition
Ġdepart ment
B us
l ife
Ñ ĩ
Ġv oc
Ġspok en
ĠIn f
ĠVerb ot
Ġge zwungen
Ġerleich tern
ĠvollstÃ¤nd ige
ĠPortug uese
up s
wÃ¼rd igkeit
Ġtats Ã¤ch
ĠF unds
ĠsorgfÃ¤lt ig
ĠNe ben
Ġger Ã¤um
ĠGer ichte
T H
Ġle gt
Ġdr ivers
ĠDire kt
Ġk ing
ĠJ er
Ġhervor ge
wer ks
ĠFra mework
under t
scheid et
ĠH of
Ġmost ly
ĠGeschÃ¤ fte
mÃ¤ÃŁ igen
Ġdepend ing
Ġf erner
ach ing
Ġst opp
aussch uÃŁ
B M
Ġt rop
Ã© es
Ġdefin iert
ĠGent oo
Ġa wa
ograph y
Ġacc ident
ĠÃĦ r
ĠBemerk ungen
Ġausge fÃ¼hrt
Ġcut ting
Ġw ann
ĠA qu
Ġr ub
ver tre
Ġwest lichen
Ġin put
Ġv en
l angen
ĠWÃ¼n sche
ĠT ax
Ġf itness
ĠFr Ã¼
ĠbegrÃ¼ ÃŁt
ĠB ook
ĠPro jekten
ĠK rÃ¤fte
Ġaccompan ied
Ġc ommission
Ġpre is
Ġplan et
h Ã¤user
Ġn ine
ĠL ager
Ġwork sh
ĠStr uct
ĠhÃ¶her en
Ġhinzuf Ã¼gen
ĠF Ã¶rder
etz te
ĠC ook
Ġle bens
ĠGesetz es
we ile
ĠP RO
Ġc ategories
mÃ¤ÃŁ ige
Ġkos tet
Ġord nungs
ĠZ ypern
ĠSch uld
ĠBalt ic
on ien
Ġfac ility
ger Ã¤te
ĠV ideos
Ġfin ished
ĠTh at
D u
l iers
ar ische
200 4
Ġverehr te
Ġvor legen
Ġperson nel
ĠW olf
ĠBr enn
Ġinfl ation
ĠP act
ĠAn ton
N S
ĠKompeten z
Ġe chten
Ġthe me
re p
kl ass
produ kte
ĠH D
Ġrest ruct
Ġsol ange
ĠFe uer
Ġdist ingu
Ġsett lement
Ġpriv at
Ġbesch leun
tr ans
Ġje gliche
ĠTai wan
Ġcop yright
amm eln
ĠVereinbar ungen
Ġchines ischen
schl uÃŁ
ĠKre uz
6 6
Ġcon cluded
ĠBeit rÃ¤ge
r ent
ĠGemein de
Ġpurs u
ĠGr Ã¼ndung
Ġspezif ischen
Ġverring ern
Ġspectac ular
ul en
Wel come
pp ing
ĠZ entr
Ġ3 3
Ġs ad
at iver
Ġcontrol led
ĠCop enhagen
Ġon going
Ġeffect iveness
Ġangem essene
Ġdid n
Ġnahe zu
ĠBud apest
Ġpro sper
Ġindivid uelle
Ġgespe ichert
Ġf ab
M ark
te chn
ul in
Ġer a
ien ces
hol m
Ġerinn ert
ĠbemÃ¼ hen
hip s
Ġexpl icit
ĠAud io
S ow
if orn
Str ategie
ĠL td
Ġdre am
ĠS emin
Ġcomm ittees
P ort
Ġcar bon
ĠGip f
if est
ugh ter
Ġbre it
ĠF leisch
teil ungen
ath ol
Ġfert ig
men s
ĠSp azier
Be fore
ĠÐ ½
C OM
ĠG esellschaften
Ġresist ance
Ġl ounge
Ġheut ige
Ġnach zu
St ud
Ġrepla ced
p ap
fl ation
Ġbil ater
Ġsmo oth
Ġs ah
imm ungs
Ġra w
Ġterm in
ĠBalk on
ĠZ iffer
Ġpl enty
ĠAnd re
b ro
ul pt
Ġprin ting
Ġdocument ation
Ġt ar
ar ters
Ġf lag
Ġhe ating
ble me
cep ts
Ġpal Ã¤stinens
use hen
P ol
ĠEin wohner
ame ters
ĠEurop ol
ĠAuÃŁen politik
Ġn ights
ĠI V
ĠOr te
ĠA gricult
ĠW ord
ĠVerb indungen
Ġcy cle
ĠM ode
ĠÃ¼brigen s
Ġr ational
chn ung
Ġaut onom
Ġcitiz en
ID S
ĠPrag ue
ĠN ic
ĠAs ien
Ġminor ities
ĠIdent itÃ¤t
uss e
Ġbestehen de
ĠMaastr icht
ĠK amera
Ġcon fer
Ã¡ s
Ġoccas ions
ĠProte ction
ĠW C
ap ie
Ġeduc ational
lie gt
Ġfound ation
Ġfil ms
ĠProf ession
ĠÃ¼ber ras
wirt schafts
ĠWerb ung
fra gt
ifiz ieren
R uss
Ġtraff icking
Ġfir ms
ĠVor gehen
n itten
ĠRe c
ĠNet work
Ġaward ed
ĠVerÃ¶ffent lichung
Ġbehavi our
h err
we ge
Ġdefinit ely
V is
ĠK as
ign et
}} )
B A
d urch
Ġfra me
or ter
ĠK at
V erb
s ieht
In stead
Ġt ickets
ĠKon zer
Ġcr imes
Ġcor ruption
ĠMex ico
Ġcon stitution
ĠO ffen
Ġstr eng
ĠSchweiz er
teil s
Ġimm igrants
schaf fung
ur laub
ĠBet r
ĠN az
be ziehungen
Ġtack le
Ġf em
ĠA P
Ġletz tlich
Ġspeak er
ĠMobil itÃ¤t
19 99
Ġverd ient
Ġpassen ger
ĠSlo vak
8 5
ĠPal Ã¤stinens
ĠWebs eiten
k ter
ger ufen
Ġass ume
Ġeing ere
klus ive
D ER
ĠB Ã¶
Ġrapid ly
Ġus ual
Ġrecord ed
Ġverb ind
Ġ197 0
ĠE lect
ĠG ames
ĠPart ners
Ġgrunds Ã¤tzlich
Ġbe halten
Ġass ets
ĠSub sidiar
ĠCamp ing
Ġberecht igt
be kÃ¤mpfung
ĠInvest itions
m ung
Th rough
Ġover come
ĠBo ot
ĠGe pÃ¤ck
dem ark
Ġgegeben en
ĠKommunik ations
h Ã¤ngen
ĠIsrael i
Ġsp iel
Ġne un
Ġpl en
ĠFran z
Ġcompet ent
Ġw oman
D adurch
Ġpr est
Ġadop ting
em ble
ĠMil ch
ag ent
Ġres pected
ĠZwe cke
ĠO R
ĠForm at
Ġobl ige
Ä ±
x y
Ġverur teilt
Ġim posed
ĠOpt im
ag g
Ġ20 12
7 7
ĠChanc en
Ġcompat ible
ĠBar s
Ġth r
App lause
Ġdes ired
ĠgewÃ¤hr t
Ġmitt ler
ĠB IP
ver trag
komm unik
ra f
ĠVer pack
ĠGespr Ã¤che
Ġconfigur ation
o ub
Ġdis cre
ĠTar if
ĠFernse h
ĠUn garn
ĠWe gen
Ġcent uries
ĠVerb reitung
Ġfor g
Ġverb inden
Ġeinfach er
ĠZiel en
ĠMarkt es
ult ural
Ġro utes
ĠhÃ¶ch st
o den
och e
ĠBes onder
Ġrecht lichen
Ġjen en
Ġunc ertain
ĠB ord
Ġschem e
ĠProvin z
F ree
Ġprov en
Ġnun mehr
Ġeinheit lichen
te chnolog
as y
ĠbeschÃ¤ft igen
Ġvor zu
Ġorganis ieren
Ġmanufactur er
Ġd ein
ĠPr in
use ums
Ġrep lace
Ġvirt ual
it ra
ĠL uf
Ġprof ile
Ġtradition elle
Ġse as
Ġtrans actions
ĠPolitik en
Ġcontain ing
Ġp ed
T ake
ne x
ĠSy mbol
ĠAkt ual
amm t
Ġdestru ction
Ġsend ing
Ġfact s
ĠSM Es
B l
ĠAn schluss
Ġapp ointed
ĠFr iday
ĠEnerg ien
c omp
Ġers etzt
Ġges pielt
a un
Ġbelie bt
ĠFre it
Ġsubsidiar ity
Ġjud icial
oc kt
N A
Ã¼hr t
Ġsug ar
Ġ ice
Ġarr ived
Ġenjoy ed
Ġcorrect ly
Ġerweit er
Ġweek end
Ġlic ens
ĠR ent
ĠGe fahren
Ġletz ter
ĠArg ument
Ġmar itime
Ġmil k
Ġis rael
ra in
Ġposs ibly
fre ien
Ġfunction ing
Ġcred ibility
Ġstr onger
Ġpop ul
Ðµ Ð½
ĠS pecial
glich keit
200 7
L O
ard o
ĠPre isen
Ã´ tel
ĠW art
Ġtrans atlant
ĠU R
E E
Ġs ud
Ġvor stellen
Ã¶r ter
z ent
ĠU s
ĠBe am
Ġg allery
Be ifall
ĠS orgen
aler ie
Ġruh ig
Ġberu ht
zne imit
ĠTra ining
ik i
Ġvorhanden en
Ġcondition ing
Jed es
Ġerfolg reiche
Ġr ul
ĠMed ik
Ġprofession als
wh ile
Ġfor um
The ir
Ġpart ly
ĠWe i
Ġmin ister
Ph one
C ons
ĠD enk
ĠRe zeption
ĠAn re
Ġsh ares
ĠMa x
ĠT O
Ġentscheiden de
ĠHos tel
ĠN os
Ġgest altet
Ġl abe
Ġi P
ĠAut hor
Ġchann el
Ġluxur ious
Ġal cohol
ĠZ ert
b ach
Ġthe oret
S c
ĠMik ro
Ġs it
Ġdec lared
Ġcour ts
t own
Ġco al
Ġf uer
Ġinstall ieren
Ġemer ging
Ġsatisf ied
ĠTh omas
ĠSer ie
ĠVerl ust
Ġbek rÃ¤ft
d auer
m ir
Ġindivid uellen
Ġcert ific
Ġdiv ision
ĠRo ad
ĠauÃŁerord entlich
ys ide
Ġdisc ip
Ġman ager
ĠdÃ¼r fte
ĠKomp onenten
ain ed
Ã¼ ne
ern el
ĠRes pekt
ĠLeg al
C P
wer tet
ĠBes orgnis
Ġglobal isation
Ġstehen den
ĠL iter
Ġunver zÃ¼glich
Ġhor izont
Ġer lÃ¤ut
eth eless
I K
ĠAb kommens
Ġl ots
ĠR en
Ġcons ent
Ch ina
D aten
gel Ã¶st
Ġdi agn
Ġflo od
Ġd ign
I X
N och
Ġad ults
T r
ĠSh op
Ġver wirk
ival ent
Commission er
Ġtax ation
ĠBro wser
j an
ĠE R
Ġcon stitutional
ĠP age
ch o
te in
ĠFre unden
W F
g ess
Ġr ental
ĠRechnungs hof
Ġin j
Ġaus sprechen
ack s
ĠStÃ¤d ten
ĠAus maÃŁ
Ġredu zieren
Ġjen er
Ġdie d
Ġbrit ische
Ġmagnific ent
w affen
be handlung
ĠWer ke
l uss
Ġs en
Ġm iles
Wh ether
Ġkl aren
imb abwe
le hnung
ĠRechts staat
Ġfehl t
Ġat tract
ro wn
Ġsupp liers
Ġbr ut
Ġaddress es
ĠverstÃ¤r ken
Ã¼nde te
ĠF ac
ograph ic
Ġrech tzeit
Ġunf air
or ie
uch s
ĠBet rag
ĠM em
unic ations
j u
il a
zie le
ĠF err
mar quis
ĠWerk zeug
ĠDe fiz
Ġconsider ing
Ġslight ly
Ġex it
Ġdistrib uted
ĠursprÃ¼n glich
9 4
E X
D ire
ĠSekt oren
Ġhund red
ĠBed ien
ĠA D
ub en
Ġk amen
ath em
Ġange wand
ĠVer lauf
ank e
ges ted
ĠE Z
tel n
Ġzusammen arbeiten
Ġident ified
Ġencour aging
ild ren
Ġeas tern
ĠSk i
ĠErzeug nisse
Ð ·
Ġsch lÃ¤gt
Ġbestimm ter
Ġsus pend
ĠAb hÃ¤ng
ĠInd ian
z ut
ĠSozial dem
Ġangegeben en
r ates
ie ller
ot ic
ul ich
est ra
Ġpropos es
ĠMitarbeit ern
Ġprepar ing
ĠZ Ã¼r
Ġwiederhol en
d ienste
ĠP ay
Ġsur f
Ġp oten
ĠP R
ĠVor stellung
Ġluxur i
ĠOpp osition
Ä ĩ
Ġform ed
Ġvar i
ĠBalk ans
ĠGaz a
Ġincl usion
wir kt
ĠWohl stand
ĠSpa ÃŁ
Ġpl ays
Ġverb esser
ĠBet racht
ĠGer icht
ĠKrieg s
C ar
ĠgroÃŁ zÃ¼g
ĠKap itel
ĠNorth ern
Ġextraordin ary
Ġverkauf en
re geln
ĠUntersuch ungen
Ġeingere icht
Ġplen ary
w Ã¤hlen
Ġbetreff end
ud i
Ġsub stance
Ġprovider s
ĠBe k
pr ene
ĠMÃ¤n nern
er ts
ĠA uge
ung er
am o
ip t
an w
ĠF air
ĠD ynam
Ġde posit
ĠUS S
bet rieb
ĠV ietnam
zentr en
ĠOpt ionen
in formationen
ĠUr heber
Ġbr ight
Ġresol ved
Ġarm y
gen er
Ġun w
ĠN iger
stell ungs
Ġm ac
Per haps
D on
r ical
ĠT sch
Ġsu it
ĠSalz burg
K ann
z onen
ĠSch e
ĠCh air
ĠS ar
id et
urs day
ĠVers and
ĠBelg ium
Ġruss ischen
ĠV ict
ĠSov iet
ĠDe v
Ġappe ared
ĠÃ¤uÃŁ ern
T M
ĠKr iminal
ĠProgram men
ĠBr and
ĠT ochter
ĠD ipl
kehr t
b ung
ĠCh arta
ĠBemerk ung
Ġa men
ĠJ a
wer ken
Ġ20 13
Ġerh ielt
ĠKont rollen
ĠBereit stellung
ĠKaffe e
ĠMo z
ĠMich el
en ted
Ġa rab
ĠQu ark
ĠDet ail
Ġsens ible
ĠSchluss folgerungen
spart ner
Ġens ures
Ġerfolg reichen
ĠKons ult
it im
Ġvor bereitet
Ġhon est
zie llen
v ille
Ġempf angen
adem y
ĠKop enhagen
Ġthous and
Ġdut ies
s ite
Ġviel es
ÑĢ Ð°
ĠHung ary
d orf
ĠS atz
Ġver mitteln
Ġevery day
Ġst il
ian z
pro gramme
ĠM alta
ĠVer n
ĠW esent
stra fe
Ġerheb liche
sche fs
Ġart istic
Ġactiv ely
Pr ess
ĠPl ug
Ġdom ain
Ġroad s
Ġenh ance
B est
Ġn utz
Ġnah m
Ġbeige tragen
ie gelt
gÃ¤n ger
Ġfunction al
ĠAK P
Ġcon cepts
Ġcomp os
Che ck
ing ly
ĠL uc
ĠAl pen
Ġevent ually
Ġs or
ĠHin weis
ĠI b
ĠG Ã¼ter
Ã¶ konom
ber eiten
ist ent
am i
ĠK ais
ĠVerbraucher schutz
Ġthe ory
ĠzurÃ¼ck zu
Ġmus ical
Ġsole ly
Ġpart ial
ĠRechts grundlage
ĠAss embly
Ġelse where
ĠValle y
Ġ7 00
Ġcompon ent
ĠDon ner
Ġass ure
ĠDes k
Ġw estern
as ion
Ġsubject s
Third ly
ĠRed uz
ĠMr d
Ġdecis ive
ĠK u
id ad
Ġaus einander
Ġto ba
ob el
Ġpropos ing
Ġeinge halten
he in
Ġte a
er in
ĠD al
ÃŃ n
a ue
ste igen
Ġabs ence
Ġinde x
ĠgroÃŁ em
ro ck
Ġde ter
Ġsp oke
ommer ce
Ġbeteil igen
ĠS ad
G iven
ed y
ĠLeg isl
Ġde leg
Ġ6 4
ĠD E
Ġupd ates
v i
Ġ Ñģ
Ġdr inks
ĠStruct ural
or se
ĠA V
b i
l ings
Ġv ary
Ġbo ost
Ġfour th
Ġdef icit
Ġo u
ĠV ice
Ġro ll
Ġstrateg ischen
ĠBel ast
Ġnever theless
Ġde lla
Ġcarry ing
Ġanwes end
ĠSchul en
Ġapply ing
ĠWh at
Ġintell igent
Ġelektron ischen
ĠKon gress
aut en
ĠKrank heit
Ġauthent ic
3 00
ĠBed rohung
Ġvulner able
ic ing
men ade
Ġsupp lies
Ã¤ss ig
ugg age
ĠwunderschÃ¶ nen
e conomic
Ġverantwort ungs
Ġab ziel
Ġcountr yside
Ġlang sam
athed ral
ĠAutob ahn
Ġc atch
ĠAn mer
Ġa fr
on ic
ĠBe weg
Ġlegit imate
par te
Ġlok ale
ĠW etter
Ġst olz
ĠPh ilosoph
ch st
Ġstr en
Ġentscheiden der
Ġamer ikanische
olid ay
ĠKl ar
Ġde cre
Ġem otion
Ã¤ g
Ġsh ips
ĠNach richt
Ġunivers ity
Ġverb oten
ĠSchl uÃŁ
aussch au
Ġinterpret ation
Ġbeob achten
Ġen erg
lÃ¶s ungen
Ġbis lang
Ġgek enn
Ġeur os
Ġs emin
Ġgen annte
Ġbed auer
ĠSta ates
ĠNews letter
9 2
end o
Ġeinzig artigen
ll o
ĠB ang
Ġless ons
Ġwe chsel
7 1
Ġw rote
ĠB ug
ĠKon stru
ĠPl ane
Ġsuggest ions
Ä Ľ
end ar
Ġ4 2
lÃ¤ uft
Ġverw and
Ġausger ichtet
rÃ¤ umen
Ġunver gess
Ġsus p
ĠS icherung
ĠR em
Ġexcess ive
Ġin g
ĠF a
Ġkomm e
p ft
de ckt
Ġconne ct
Ġvill ages
Ġvor rang
Ġhand le
ĠE mail
Ġwar n
Ġgener ated
Entw ick
Ġsh ipping
Ġpack aging
G es
Ġto ile
ĠB ere
ĠEx change
ĠGegen stand
d h
geb iete
Ġintegr iert
Ġan bel
Ġtoba cco
un ction
ge hens
Ġadv oc
Ġimp ose
ĠP utin
ĠV AT
Ġge arbeitet
ig ert
Ġab use
bereich en
u i
ur teilung
ĠGewÃ¤hr leistung
Ġvolunt ary
ie den
ĠN at
Ġdef ect
Ġaktiv ieren
Ġs ong
ĠA fter
Ġgreat ly
ĠLiefer ung
Ġacknow ledge
Ġsol ches
ĠSud an
Ġpre ced
Ġphilosoph y
Besch reibung
Ġh yp
ĠKonsequ enzen
Ġunfor get
te ch
Ġdes cription
ĠJ ames
Ġsh ock
Ġtop ics
Ã¤us ern
ĠGlaub wÃ¼rdigkeit
Ġer zeugt
ĠMc C
M ay
le iter
Ġun iform
ĠL i
ĠCl ient
ĠfranzÃ¶s ische
ĠHT ML
Ġkle ines
Ġanbel angt
o om
Ġl it
Ġdirect or
ĠZu ge
on st
c ision
ĠS ony
ĠP ot
ĠI ll
Ġverb indet
ĠSo hn
ĠPark platz
ĠSund ay
Ġgain ed
Ġfin ish
ĠAd obe
Ġbereit gestellt
US S
Bes onders
itu ated
Ġex ports
ip fel
ĠS atur
ĠSt immen
ult ane
âĢĻ .
Ġzust Ã¤ndig
Ġlik ed
ĠHam as
9 3
Ġverkauf t
Ġsch icken
ĠEr stellung
hÃ¤lt nisse
ĠÃ¶ konom
Ġsozial er
as bourg
ĠG B
ĠÃ¼ber sch
ĠZus ch
ĠF A
ĠAns ichten
g yp
et ic
Ġl ists
ĠK ab
Ġlie fert
ĠF ood
Ġver we
Ġcol ours
ĠK er
Ġnar row
ĠR ule
Ġkon front
Ġin klusive
ĠKon kurr
ĠS AP
ĠG ang
Ġdes k
ut ation
ize prÃ¤sident
ĠCast le
ĠÃľber legungen
ĠBud gets
ĠEigent um
Ġle ichter
att ung
Ġregard ed
Ġperiod s
ĠOb jekt
Ð¾Ð ²
Des wegen
pro zess
Ġrece iving
Ġsatisf action
Ġbeant worten
m pt
en bezogen
Ġwiederhol t
4 1
W eiter
wer ben
Ġpurs ue
L adies
Ġteam s
ĠVerletz ung
H igh
s eite
ĠÃľber setz
ches ter
Ġmittl eren
Ġwe ist
Ġins ist
ĠAm t
Ġdepart ure
Ġcompar ison
bed arf
Ġdifficult y
ie ts
Ġhous ing
ĠPuert o
or er
Ġsupp lier
h ilfen
or ation
Ġvor anz
U se
Ġsug gested
Ġoffiz iellen
Ġverteid igen
g art
Ġst ammen
fol gung
Ġge ziel
kt ors
Ã¤r kt
ĠA M
hÃ¶r t
Ġer z
Ġdelic ious
ĠTra um
ru ppe
ĠÃľbergang s
Selbst verstÃ¤ndlich
Ġletz tendlich
ĠAn stieg
lie hen
ord s
Ġinv ited
ĠEmp fang
Ġbank ing
figur ation
ĠgenÃ¼ gend
ix el
Ġspec ified
Ġgra v
Ġreserv ations
Ġattemp ts
o ul
ĠS terne
ord nungen
ĠGer Ã¤t
Ġpan oram
ĠAlex ander
Ġweit gehend
Ġre lie
Ġdo ors
Ġtra demark
Ġl ift
Ġfor ests
ĠEr fÃ¼llung
T rans
ĠH en
ĠV ene
ien sten
ĠZivil gesellschaft
Ġso unds
wahl en
ĠV on
Ġpain t
ĠGet rÃ¤n
weil en
ĠFund amental
Ġmur der
Wir d
H aus
c u
ĠKolleg in
ĠPosition en
ĠHung arian
urn ing
Ã¤ÃŁ t
Ġin mitten
ĠM as
Mr s
Ser ver
v an
ĠR ena
Ġherr scht
Ġsav ings
ĠC up
lin ed
ĠP otenzial
Ġhin weg
ĠGesch windigkeit
Ġmus sten
Ġmach te
ĠKir k
ĠAC P
ĠSchÃ¶n heit
Z usammen
Ġwar rant
ĠTh ursday
rech ter
afr ika
sparte i
is co
gesch ichte
ach ts
Ġsc ene
Ġstand ing
la ut
ĠSt utt
Ġro of
Ġdis abled
Ġrepresent ation
ĠÃ¼berprÃ¼ ft
Ġsh ap
Ġh art
Ġwo hnen
Ġact ing
Ins besondere
ĠBM W
M us
Ġed ge
ĠV el
Ġro ot
Ġrev ision
Y es
Ġs cre
Ġn Ã¶rd
age ments
n ummer
t lichen
Ġen abling
Ġexam ine
ĠT reib
Ġer lebt
Ġper mitted
ĠVer arbeitung
rÃ¤n kung
ĠFlug zeug
pl atte
ĠR oll
Ġbr idge
usst sein
Ġdestroy ed
Ġcomple ment
ieren der
Ġt ast
ĠP fer
Ġvor zulegen
ĠIs lands
s ie
ĠAugen blick
Ġmod ule
os p
Ġdeut sch
Ġin fr
ĠR iv
ann ing
Ġentwick elte
ĠSing le
Ġaus geb
ĠGr Ã¼nen
Ġre action
ĠAn lass
Ġbre iten
Ġernst haft
Soll ten
le m
Ġarg uments
Ġgl Ã¼ck
n iveau
Ġp orts
Ġresour ce
ĠFuÃŁ ball
Ġcon stitute
Ġall zu
ĠEnt lastung
Ġpass ion
ĠKultur en
ol es
Ġge he
Ġf an
iz a
ĠBe gr
4 6
an ne
wie gend
B el
it ale
ĠA llt
Ġreal istic
Ġb atter
ĠMiss ion
ĠR am
Ġso ught
oun ted
Ġeinzig art
ent h
ĠK abel
ip her
ĠEin stellungen
c as
Ġwel coming
Ġerst mals
Ġinvest ieren
icht ung
Ġpat ient
ĠReduz ierung
n ight
ĠLe on
7 8
gram men
ĠBesch wer
Ġrelig ion
ĠFed eration
ĠDol om
s a
ĠSt offe
Ġref ers
ĠBeschl Ã¼sse
Ġhor se
ĠFreit ag
ĠVor haben
ĠW Ã¤l
ĠQ uellen
z usammen
Ġt end
ĠStr asbourg
ĠMinister prÃ¤sident
Mitglied staaten
Ã¼ st
Ġakt ive
Ġcooper ate
Ġstell te
ĠL obby
Ġj u
Ġbet reiben
ĠÃ¤hn lich
Ġbekomm t
ĠW issens
Ġr ising
ss en
ĠMitglied schaft
Ġredu ziert
weis ungen
Ġfreedom s
Ġfarm ing
Ġoblige d
z esse
re cher
Ġb la
fr iendly
ES S
Ġconfirm ation
ĠW LAN
wer ts
Ġfest ival
Ġgel ingt
Ġwirtschaft licher
ĠAtlant ic
sk i
Ġtw enty
ĠRe is
ES CO
ĠBulgar ien
B ed
Ġt ritt
qu er
sc ale
O C
Ð ¡
Ġj apan
duc ation
ĠDies er
Ġkil omet
ĠPrakt iken
Follow ing
re in
op en
ug ang
ĠGeh minuten
Ã¼g igkeit
ĠG erechtigkeit
ĠOr ient
Ġk reat
ĠHer bst
zep te
z ung
Ġman ual
ĠEin kommen
Ġpol y
g ner
ĠMe ister
Ġunter scheiden
Ġprosper ity
Ġfed eral
Ġunforget table
Ġc ul
Ġdies el
Ġle aves
ail and
O ut
j pg
Ã¼ bt
halt igkeit
ran che
Ġpublic ation
Ġsignific ance
Ġcontinu ous
ĠerwÃ¤ hnen
Ġkil led
ĠzukÃ¼nft igen
ĠWor ks
Ġu pper
em en
Ġp as
ĠM ur
Ġin fo
Ġsch we
ĠLe iden
ĠAr zneimit
Ġt ennis
ĠB itte
ĠSch Ã¼ler
ĠBe ge
D I
Ġhier bei
Ġm unicip
Ġh ill
iz iert
Ġinstru ctions
ĠVerz Ã¶ger
ĠHard ware
Ġangep asst
ies e
Ġinstitution ellen
Jed e
op olit
Ġover view
Ġpay ing
ul se
ĠfÃ¼hren de
Ġsoc ieties
em ark
Ġpolitical ly
mb uds
Ġeinzus etzen
Date i
Ġw ireless
ĠPro ject
Ġfil ter
Ġempf ohlen
rom e
hl ung
sb uffet
ĠKatastrop he
Ġele ctor
ric ted
m ade
Ġfoot ball
) )
ĠP en
ĠR h
Ġvers ichern
por ation
Ġoptim ale
Ġgr Ã¼nd
ĠEing ang
Ġwelcom ed
4 3
ĠP SE
Ġimport s
Ġers etzen
Ġren owned
ad vant
ĠCan on
ĠMond ay
ĠG i
Ġgef allen
Ġcharac ters
Ġfreund lich
Ġmiss ing
Ġein bezogen
ĠP fe
F ol
a ders
ro g
Ġrad ical
Ġindire ct
Ġtran qu
Ġilleg alen
ĠW al
Ġi Phone
Ġharmon isation
ian ischen
Ġbl ind
Ġvorgesehen en
D ort
u tet
ĠBl ue
Ġappear ance
Soll te
in strument
Ġgest attet
ĠText il
Ġexc urs
P re
Ġr ank
st al
Ġde pendent
Ġtr ips
Ġbre ach
With in
ĠkÃ¶nn t
ro t
Ġdes wegen
ĠÃľbern achtung
Ġdurch schnitt
Ġjust ified
ĠKont akte
Ġclean ing
Ġunterst reichen
ag a
Ġleg ally
Ġconf ig
ĠInvest ment
Ġneigh b
Ġhom es
Ġen de
Ġob ser
em it
ĠverfÃ¼g baren
ie ÃŁ
aus piel
pf ung
Ġmov ie
Ġkonkre t
Ġski ing
l ers
t ung
Ġun n
Ã¶ tz
ĠR ab
LA F
Ġbehaup ten
b sp
ĠP il
Ġge tragen
ĠT Ã¤tigkeiten
tt y
ĠGleich stellung
ĠGott es
oub tedly
Ġsuffer ed
ĠE M
aus chen
Ġumfass end
D eut
' m
Ġn one
ĠUnter nehmer
ĠChar les
ĠSa ison
Ġproceed ings
Ġan schlieÃŁend
Ġbe endet
Ġver teilt
Ġrel ative
Ġnegot iating
Ġremain ed
Ġbedeut ende
Ġbege g
T C
ul ous
irt y
il led
ĠA ben
ĠKor ruption
Ġkontakt ieren
Ġl unch
Ġret ail
ĠergÃ¤n zen
ĠAn kunft
ure ich
ĠAl ger
ĠLate Rooms
sp rachen
Ġman che
ĠSp ace
Ġsur ve
ĠSchif fe
Ġf ans
N et
der ung
ĠProz esse
4 2
Ġf as
Ġmit teilen
Ġvo llen
Ġwissenschaft liche
Ġhil f
n i
Ġf u
os a
ĠMark e
g ain
Ġat trib
Ġspecial ist
Ġbeein trÃ¤cht
Ġentre prene
Ã¶ff nung
Ġrefer endum
ĠApp le
Ġsuperv ision
Ġan sprechen
Ġlook ed
Ã¤ ne
ĠkÃ¼nft ige
Ġkonzentr iert
l an
Ġm i
Ġv ideos
ann ter
ĠEx istenz
Ġcontrib uted
Ġprevent ing
n immt
p et
ĠF rie
Ã¶ ch
ĠWohn ung
Ġdire cted
ĠAud itors
ĠVerÃ¤nder ung
ĠL ok
ĠL ounge
Se e
. [
ial e
Ã¤tz t
ĠM ore
Ġvor an
crib e
Ġkonfront iert
Ġhas t
Ġcar r
ĠPers Ã¶n
Ġspezif ische
Ġall ocated
Ġsure ly
v ar
ĠS achen
we ich
Pro jekt
ĠSituation en
rie be
Ġdis advant
ĠE L
Ġevery body
Er st
ĠgrÃ¶ÃŁer es
Ġcomplic ated
at ischen
ĠE benen
fer nen
Ġdirect ory
M ir
ĠVor gehens
Ġlangfrist ige
cess ion
Ġger aten
te chnologie
ĠSchw imm
Ġher um
ĠEnt fern
Ġ8 5
Ġexper im
Ġclub s
at in
dr Ã¼ckt
ĠR io
Ġsh aring
gr enze
ĠLux us
Ġhervorge hoben
I CH
ĠS ow
Ġbe ings
rif ft
Ġhard ly
ĠW o
ĠUms atz
ĠIm age
ĠWeit eren
Ġte ile
ĠEuro zone
Ġforth coming
Z iel
Ġman ip
ĠPl attform
Ġoffen e
Ġwelcom es
O pen
b aus
All es
Ġabst immen
M a
Ġbisher igen
Ġhospit ality
Ġamen ities
k ultur
p ay
ĠM obile
m ot
ub s
burg h
ĠWider spruch
C o
H and
dr ich
amm elt
ĠKl asse
ĠSocial ist
P erson
Ġph arm
Ġ0 1
ĠSecret ary
Ġ Ä
Ġcut s
Ġe at
out s
Ġwell ness
Ġenable d
Ġas p
ĠAb lehnung
Ġpar ameters
ab s
ĠEr lebnis
oun try
imm ers
Ġmov ements
zusch lieÃŁen
verw altung
ĠPerspekt ive
Ġunter zeichnet
kap az
A ir
ĠD ue
ĠAgricult ure
Ġgeb rauch
Des cription
ĠMill enn
ĠS av
Ã¤r ten
gar ten
Ġfirm ly
v iertel
ĠMin i
ĠStock holm
Ġbegrenz t
S u
ĠF Ã¼
Ġlie ber
ĠÃĦ gyp
Ġcheck s
ĠAN D
S M
ĠY our
Ġerst re
ĠFreiz Ã¼gigkeit
ĠD enn
mit glieder
Ge gen
Ġvorgeschlagen e
Ġcom pe
ĠGef Ã¤ng
ĠT urn
os ing
ĠSch le
Ġreal ise
D ue
ĠG olden
org ungs
ĠDonner stag
polit ische
Ġde fe
Ġunter liegen
Ġcell s
Ġm useums
Ġgen ere
Ġromant ic
Ġgepr Ã¤gt
Ñ ħ
Ġsim ultane
ĠMet ro
Ġorigin ally
p fen
AT ION
Ġenter prise
Ġprogramm ing
Ġjur is
ug t
ĠJ ung
Ġindic ate
Ġr Ã¼ck
ist ischer
ĠWider stand
ĠKroat ien
ĠPlane ten
ll ers
ĠVor der
pl ans
ĠUrlaub s
ivers ary
Ġstud io
Ġcan cell
ugos law
S w
ĠRÃ¼ck kehr
Ġt ables
Des ign
Intern ational
ab et
con f
eschÃ¤ d
ĠBet ten
hers tellung
ĠH ost
ĠHaushalts plan
u um
Ġperson enbezogen
gre g
ij k
Ġexpla ined
d y
Ġabs or
ĠFahr zeuge
Ġintrodu cing
Ġjud ge
ĠMount ain
ro c
ĠF unktions
yp en
if ferenz
Ġrecogn ized
best immungen
Ġer gibt
ĠPass wort
Ġherunter laden
Ġacknow led
Ġunz ureich
Ġausge hen
St aaten
Ġord inary
hy th
P R
ĠR uf
ĠAmend ments
Ġbarr iers
ĠWÃ¤hl er
O ff
Ġl iquid
ĠT reat
ir s
C E
Ġan g
ĠB ett
uÃŁ t
Ġschrif tlich
o ured
Ġt ree
Ġinter nen
i ang
Ġs ongs
ĠAb schaffung
ĠArme e
eit igung
Ġvess els
ĠV ide
ĠLat ein
Ġan gest
ĠAuf sichts
staat lichen
ĠArt ik
ĠVolk es
u age
Ġh es
ĠAll ianz
Ġerr ors
b ul
Ġeinge gangen
Ġfinanz iert
Ġmensch liche
a ustausch
Ġ ere
un ruh
op es
Ġdes erv
Ġrec y
Ġshow ed
ob ody
Ġproduct ivity
Ġtrans mission
r un
ĠS ammlung
be f
Ġhochwert ige
M o
Ġsch lagen
With out
bild ungs
P A
ĠC atal
ĠAb fall
Ġcal m
ĠChin as
Ġlangfrist ig
Ġobstac les
ĠZÃ¼r ich
H aving
Ġhe aring
oph istic
at on
sp olit
Ġan hand
Ġauf gebaut
Ġangene hm
ĠzukÃ¼nft ige
Ġremark s
Ġbe hoben
ivers ity
ĠVerein fach
ĠFahr t
ĠBelg ien
out ique
ĠAusfl Ã¼ge
am ed
ze ll
Ġcolle cted
ĠWirtschafts wachstum
Ã¤sent ation
ĠUN ESCO
sm oking
Ġsogen annten
zahl en
Ġcomb ine
Ġsav ed
ss on
Ġenthalten en
Ġexclus ion
ĠK laus
Ġsh ar
ĠKre is
Ġfest zulegen
Ġfe es
bet ten
Ġanzu zeigen
Ġsuper ior
Ġumfang reiche
ĠmilitÃ¤r ischen
Ġimag ine
Ġre chten
Ġger ichtet
Ġamaz ing
e ffizienz
Ġse ctions
Ġverein bart
ĠVolks gesundheit
ĠFr ist
Ġmod ules
ĠProf essor
ĠM iÃŁ
gr unde
Ġsustain ability
z enten
Ġinvest igation
ĠGeb urt
Ġfem ale
es is
Ġl Ã¤ÃŁt
ĠD res
Ġend orse
Ġfunction ality
c ul
le ments
Ġcover ing
fÃ¼hr ungs
Ġclass es
ĠSt off
Ġwhere as
Ġbesonder er
Ġport ug
Ġn ord
ĠSu iten
ĠprÃ¤sent ieren
c s
ĠV ort
o ot
Ġaccur ate
Ġspl end
Ġturn ing
ĠBrasil ien
la c
ĠEZ B
ĠE xt
ĠBerlin er
ĠCont ent
ĠF ein
Ġsp ons
ĠPort o
Ġprakt ische
ĠPlay a
us ive
ĠO ste
Ġdemoc rat
ĠAbhÃ¤ng igkeit
p ot
ĠRegierung schefs
ode x
Ġbedeut end
Ġstock s
ĠNachbar n
Ġimpl ic
h ar
re che
ĠE dit
Ġse qu
ĠJ ob
Ġcomp act
S D
ĠSt ability
Ġfle et
Ġfasc in
Ã ²
ĠD ritten
ver l
Ġr ide
th and
Ġsich ere
Ġinternational ly
Ġconc ert
ĠD ikt
Ġauf s
ĠBevÃ¶lk erungs
Bes ides
besch reibung
ĠVen ice
Ġrefle cted
Ġgebe ten
Ġenc ounter
Ġflex ib
Ġdank bar
ĠErinner ung
Î ±
ĠV iew
ess es
ĠFin land
ĠFinanz ierungs
M on
ĠL y
Ġsch Ã¤d
ĠSp ann
Ġunivers ities
usal em
p at
Ġdis asters
Zus Ã¤tzlich
Ġz ivil
ĠM B
ut ral
ES T
Ġgener ate
Ġpen alty
ĠGene va
Ġenhan ced
ĠVer handlungs
be ing
Ġincre d
w all
ĠE uch
ĠM A
Ġcon ce
Ġdign ity
Ġum ge
D ass
K Ã¶n
Ġange kÃ¼nd
Ġgener ations
Ġvorlie gende
Ġhervorra genden
Ġhin gegen
ĠmilitÃ¤r ische
Ð ¿
Ġis lam
ĠBef ugnisse
Ġag gress
ĠVor ausschau
Ġverd ienen
Ġpr ime
K l
Ġbo ot
Ġing red
Ġzu grunde
Ġdel iber
Ġine v
ber n
Ġdar gestellt
Ġgew Ã¤hren
Ġconsider ably
ĠDom in
ĠBÃ¶r se
Ġjetz igen
orre ktur
ier ra
Ð ¹
Ġan zub
us ch
iz ieren
Ġtr ends
ho le
Ġregard less
ĠÐ ¸
Ġhab it
Am ong
ro v
Ġbe we
ĠP lÃ¤ne
Ġvor bei
Ġcan cer
Ġgross e
C A
Ġar ran
En g
Ġviol ations
Ġun ited
Ġgemeinschaft lichen
ĠNG Os
ĠZeit ung
Ġmin isters
ĠLeit ung
Ġtrave lling
c ard
Ġgepl ant
ĠRes olution
Ġnach drÃ¼cklich
ĠEntscheid ungs
ĠKom ple
Ġzie ht
Ġsyn th
Ġnot es
ach ter
ĠunabhÃ¤ng igen
Ġg ap
Ġmet ro
Ġstaat liche
ĠC F
il m
ĠF els
ĠAt tra
Ġreach ing
Ġl Ã¶
ĠMet all
ĠHow ever
p her
Ġv it
ĠVers ionen
ugos lav
M in
Ġund oubtedly
Ġperfe kte
Ġadap ted
r ik
ĠKommission sprÃ¤sident
ĠKont inent
Ġbe ur
ĠC AP
ĠDokument en
Ġende av
Ġz it
rat ing
Ġlabe lling
Ġcomp uters
ĠKatastrop hen
er er
Ġkn app
n ische
o ben
ĠAustr alia
ĠGespr Ã¤ch
Ġkontroll ieren
ĠI l
Ġaccept ance
quis ite
ĠSlo ven
ĠF rom
ĠÃ ¨
ĠGene hmigung
ĠStutt gart
us ing
om a
Ġstud ent
ĠMor oc
ĠBinnenmarkt es
ĠBeteil igten
O K
is a
iss ance
ib an
ĠAut omat
Ġexplo itation
Ġerfre ut
it ate
ĠD istr
ĠKont o
ĠWirtschafts politik
ĠHaupt bahnhof
ĠFrÃ¼hstÃ¼ck sbuffet
Hotel s
w as
uÃŁ ert
e per
ĠT en
Ġbelie ves
Ġtim et
ord an
ĠMÃ¤r kten
Ã ¸
ĠV alen
ĠAmer icans
ĠgewÃ¼nsch ten
Ġl ayer
Ġpre tty
Ġges te
mitt lung
wesen heit
gef unden
Ġbelie f
Ġe ignet
arbeit er
Ġwirtschaft lich
i i
ie val
Ġen ger
Ġstrateg ische
Ġe dition
Ġex cluded
ĠzurÃ¼ck zufÃ¼hren
Ġhoh em
Vert rag
ĠKir chen
ĠAnw ender
ill er
Ġwor st
t ch
Ġorgan ic
jahr es
Ġr Ã©
Ġer hoben
Ġman aging
Ġrec over
Ġbesch rÃ¤nken
Ġconsult ing
k ampf
Ġbe z
ĠNach haltigkeit
Ġs ight
ĠTh ailand
ĠCommission ers
ĠAs ian
Ġfil led
Ġtransfer red
. '
icht igkeit
ĠN am
eld orf
j unkt
r est
op f
ĠMed izin
ĠMod elle
ĠEntsp annung
t im
Ġet abl
ĠPhil ipp
ĠGrund lagen
Ñ ĸ
Ġin qu
ut age
ĠW ater
Ġex ternen
Ġs ophistic
ĠR et
ĠÃ¤hn liche
ĠOl iven
Ġrest ored
ĠSatur day
S K
st Ã¤r
Ġreflect s
ĠGo od
n ik
wÃ¤r ts
Ġbe hinder
Ġsub sequent
ĠUrs achen
Ġt ested
ĠDe part
mit glied
Ġsatisf y
Ġloss es
utz utage
ĠPol y
opp elt
bit r
Ġkorre kt
B re
e ten
ĠVer teilung
Ġrepr Ã¤sent
ichterst atter
m ess
Ã¼rz t
ak a
Ġschein en
ĠnatÃ¼r liche
ĠN ummer
Ġfestge legten
B ased
ĠG ame
ĠAbend essen
fun ktion
Ġhe im
Ġbed anken
n isses
ĠAufent halts
Ġs ichtbar
um ber
ĠF ass
od ge
Ġfre ely
Ġv ig
Ġk Ã¼nstler
ĠFlÃ¼cht linge
ĠÃ¼ber aus
Ġsupp lied
ĠMa de
ep ing
p aket
Ġc rop
Ġges p
ĠInnen stadt
ĠComm on
wh ich
f leisch
Ġsh adow
ĠTour ism
K ont
ĠIslam ic
mbuds man
Ġb ike
Ġ19 60
Ġrep air
ĠOrgan e
ĠLuxem burg
Ġt ill
ber gen
oh a
Ġsovereign ty
c ue
Ġc am
Ġst ages
Ġpl astic
Ġexist iert
-- --
Ġconcentr ate
Ġpro min
Ġaus ser
Ġmultil ateral
w ig
Ġcre w
oz i
Ġunters ucht
Ġwirks ame
Lin ux
ach sen
Ġkomfort able
arbeit ungs
at um
ĠChrist mas
Ġf Ã¶rdert
em m
ap el
ĠP ac
ĠRe chten
Ġeinheit liche
ĠAc ademy
Ġl ived
un es
Ġspe ichern
8 9
con ds
ĠBet reiber
Ã¤d chen
Ġerweit ern
ĠS n
Ġse lling
Ġany where
fl ow
Ã¤nder ungen
Ġundert aken
ĠFahr rad
k omp
ĠGe werk
Ġger inger
ksam keit
ĠPia zza
ĠMall orca
al us
wirt schaften
V O
ĠC R
Ġrel iability
s ene
ĠSie d
hal le
Ġwon ach
ĠTab ak
ĠKriminal itÃ¤t
ĠR od
Ġunter sch
Ġ0 7
rieden heit
ĠA B
ĠC ub
ĠProt ocol
Ġkor rig
or i
Ã¤ be
Ġvar ied
G ood
Ġkomple tte
ĠKonfl ikte
ĠG ard
Ġdesign s
Ġcult ures
verb rauch
Ġlearn ed
e ben
Ġch a
glich er
Ġ4 4
Ġbed ro
Ġdam ages
Ġerst klass
ĠGeneration en
iov is
kt ure
Ġse vere
Ġstrengthen ed
ĠAktion splan
S ituated
as is
Ã¼ mer
ĠB all
ĠSp itzen
ĠM ak
ĠBe arbeitung
Ġ3 9
ĠAl ters
ĠJose ph
Ġa er
Ġver he
ink el
G anz
ll i
Ġ( *
ĠSerb ia
U r
Ġrecon struction
Ġen em
ph a
ĠWochen ende
ern t
Ġant icip
Ġin ade
Ġan halten
Ġum setzen
ĠAl bum
ĠGen er
dienst leistungen
ist iken
Ġhoff entlich
Ġfisher men
ĠCons ult
sprozess es
ĠH els
Ġst uff
iz en
fahr er
Ġeinz ufÃ¼hren
Ġcla use
Trotz dem
ĠMont ag
Ġflo ors
ĠSe ele
ĠÃĸff nung
Ġportug ies
ĠH om
ĠL ohn
Ã¤r me
ows ki
Ġsymp ath
it arian
Ġnieder lÃ¤nd
ĠBer ichten
d ict
ĠT ennis
Ġver tre
Ġhuman itÃ¤re
s hip
Ġar ise
Ġrest ore
Ġequ ivalent
ĠGroÃŁ teil
Ġpictures que
Ġinfr inge
mm ern
Ġrestruct uring
m achen
Ġlauf enden
ĠSatell iten
er ted
ĠA ccess
ne cess
ap ital
iet ung
Ã¤ch er
Ġcoordin ated
Ġbeg leitet
ĠRechtsstaat lichkeit
ĠFinanz krise
ĠnÃ¼tz lich
Ġk lim
ak zept
ĠBef Ã¼r
Ġf la
st ock
Ġmass age
H O
w id
Ġover looking
Ġmon opol
freund liche
ĠW ed
Ġevery where
Z w
reich er
Ã¤ le
ĠAus einander
Ġwahr en
Ġstattf indet
v ia
Ġaus drÃ¼ck
Ġc af
n bsp
ĠSpe kt
Ġantw orten
k ir
Ġf ax
Ġange wendet
ĠY ugoslav
ĠQu ad
iv ation
Ġnormal erweise
h Ã¤ngt
Ġgene hm
U P
ge fÃ¼gt
ĠJ os
Ger ade
Ġ Ã¤lt
ĠV ista
Ġer fordern
pro blem
Ġge fragt
Ġhier fÃ¼r
ĠMuse en
ouver Ã¤n
Ġzu gelassen
Ġth umb
Ġsol ar
c ow
le ute
val u
ĠM ah
Ġr ufen
Ġevent uell
ĠTerr itor
ĠTele f
ĠwÃ¼n sche
Ġm ith
Ġlie ÃŁ
vor schlÃ¤ge
alen der
Ã¼nde ten
Ġneighbour ing
Ġg olden
Ġver Ã¤nder
Ġges undheit
Ġvor nehmen
Ġtreat ments
ĠHimm el
y an
ĠHand lungs
Ġbew Ã¤ltigen
ĠunabhÃ¤ng ige
itra vel
ĠK a
Ġdec ade
ĠPro fil
ĠKan ada
7 2
wer fen
Ġgross en
ĠKredit karte
metho den
Ġpanoram ic
Ġappro ve
Ġnecess arily
Ġhe iÃŁen
ĠHeiz ung
k et
Ġv illa
our se
geb Ã¤
ĠPh Ã¤n
Ġnormal en
Ġdeep ly
Ġbrief ly
ĠL ith
Ġst unning
Ġsich eren
Ġorder ed
ĠStÃ¤r ke
k Ã¼
ĠBÃ¼rger beauftrag
Ġprom pt
Ġent tÃ¤us
Ġscrip t
ĠAus blick
ĠEC B
ĠF isher
ĠSch warz
Ġkein em
Ġunderg round
Ġtherm al
ĠE vent
Ġmehr fach
ĠfrÃ¼ hen
7 3
it Ã©
ĠE ch
ĠGef angen
c ountry
in itiative
ĠC ivil
fÃ¤h igen
ĠCons umer
y ll
Ġch amp
Ġdis ag
Ġgest Ã¤rkt
Ġschne llen
ĠAut os
Vers ion
Ġra c
Ġform ats
ĠDeb atten
ĠDar stellung
ĠCH F
ĠgeÃ¤ uÃŁert
onom ie
ĠPass ag
Ġqualit ativ
Ġminim al
g i
Ġass embly
Ġann iversary
ĠZahl ung
ĠKÃ¼ hl
pr int
Ġprocess ed
Ġindivid ually
Ġhold s
k ul
Ġm Ã¤cht
Ġmittler weile
Ġangeb racht
ic ts
Ex per
Ġlist ings
Ã¤ chte
ed ing
zeich nungen
ĠX P
st ark
ver anst
Å Ļ
Ġge pf
Ġim pos
oc op
ĠDies es
ĠR out
Ġbeste llen
ĠFlor enz
s orge
ĠK en
Ġem pt
ĠM ov
ron ik
Ġentde ckt
ĠRegistr ierung
in de
an ter
Ġv ic
Ġsel ben
ĠWar craft
Ġgesetz lichen
ĠWei hn
e bene
g s
Ġprov ince
ĠÃ¼berw inden
ĠBereit schaft
Ġfas zin
ĠG ay
PE G
ĠNiederl anden
ĠZ unÃ¤chst
Ġtra cks
Ġtarge ted
ĠÃľber blick
Ġteach ing
Pe ople
ĠC ulture
gen z
Intern et
Ġzerst Ã¶rt
ĠE X
Ġsel ber
Ġfair ly
7 6
Ġcol umn
Ġamb ition
Ġp rag
Ġh iking
ĠOper a
ss ysteme
ĠEr haltung
Ġcl in
Ġsicher gestellt
Ġschw eren
ĠFakt or
Ġtra um
ĠSteuer ung
ĠVereinfach ung
V IS
ĠWik itravel
W Ã¤hlen
Ġs aving
Ġb auen
Ġins pect
ĠInd ivid
Ġeinges tellt
S ein
ĠTra in
Ġelekt r
ĠtÃ¼rk ischen
Ġde i
ĠRe ferenz
ĠÃ¼ber lassen
Ġar ising
AR E
des ign
wissen schaft
it als
ĠPl us
ĠBest immung
Ġbathroom s
ĠWel thand
Ġaccom pl
G A
Ġpresent ing
teuer ung
Ġunent gel
Re c
Ġmar g
Ġklass ischen
ĠJahrzehn ten
Ġcont rovers
ĠCh ile
Ġeng aged
ĠWÃ¤hrungs union
p o
stre am
Ġexec utive
Ġad ds
ling en
Ġrep utation
Ġappropr iations
Ġc in
Ġprof its
Ġsup erb
Ġdetermin ation
od a
ink i
ĠD Ã¤n
ĠD oha
or ous
ut or
ĠD ritte
ĠColle ge
ĠBerichterstat ters
ĠStraÃŁ burg
U B
Ġgu ard
ĠT anz
ger Ã¤t
Ġbes orgt
Ġol ive
ĠEmiss ions
Ġk g
qu enz
Ġch amb
zahl ungen
Ġmag azine
Ġep is
ĠE mb
ag d
Ġdecl ine
r asch
ĠP ension
ĠEr gÃ¤n
Ġfact ory
Ġpost p
ĠBon us
ĠJoh annes
ĠC ond
ĠUn ions
Ġgew Ã¶hn
F un
re me
Ġhighl ights
Ġfra ge
ĠZahl ungen
Ġstrugg le
Z wei
p es
n ame
w ish
ĠE ducation
Ġme al
Ġport folio
Ġpan el
Ġun necess
ĠS old
ĠDe ck
ĠArbeit er
hand eln
ĠFamil y
" ...
ĠK Ã¶l
Ġsh uttle
Ġra in
ĠRes erve
ĠBran che
Ġv ine
ĠWand el
Ġrechtzeit ig
ĠEr schein
ri age
Ġthreat s
Ġenter ing
u led
ed ig
ir n
Ġzu ges
ĠCor porate
ĠGeorg ia
ra ums
Ġfe et
ĠArbeit geber
R el
c at
al te
ĠSe cond
Ġac adem
ĠKom plex
ĠergÃ¤n zt
Ġw ides
Ġc le
ĠK ategorien
ĠC OM
ĠSch auspiel
anz ig
ĠMin ute
ĠWirtschafts krise
ĠWesent lichen
Ġg ift
ĠSk y
fÃ¤h ige
S piel
ĠL it
Ġtra ged
Ġbeen den
ĠVers orgung
m n
le ts
ite te
Ġunmittel barer
Ġb ul
Ġus age
Ġbeg ins
ifik ation
Mein es
B ereich
F I
Ġe gal
ĠP S
Ã© t
Ġreserv ed
Ġinten ds
F ast
oin ts
Ġnorm ally
Ġgeeig nete
K urz
un te
em e
ĠV ul
Ġr id
O der
ĠAl kohol
Ġmanufact ure
Ġh et
ĠParl amente
Ġdigital en
ĠMÃ¤n gel
Ġp f
Ġend ed
Ġtw ice
Ġdiesbe zÃ¼glich
f ox
Ġprom ise
spro gramme
Ġrefer ring
st able
ĠT R
Ġbes ucht
ĠNot es
r iere
ar ently
Ġeng ines
Ġenor me
r ight
ĠC ON
ĠT ok
Ġherr lichen
4 00
Ġer zeugen
ĠZ one
Ġ4 3
Ġcas ino
Ġgriech ischen
at ische
ig ger
str asse
ĠRei hen
ĠBelg ian
Ġphenomen on
C as
Ã¤ nen
ig are
ĠZ erst
Ġbon us
ĠP akete
Ġgleich ermaÃŁen
Ġbud gets
res erv
ĠBes eitigung
Ġbek annte
ra ce
ĠC oll
ĠD ingen
au te
spe zif
ĠMehr werts
Ġt ort
Ġprin ted
ĠGel der
Ġprospect s
S et
k Ã¶
Ġl iable
iv itÃ¤t
ĠH is
Ġme ets
mer k
Sh ould
ĠElekt ro
Ġanzub ieten
Ġt on
ĠF Ã¶der
Ġlast ing
l ist
Ġun gar
vÃ¶lk erung
ĠgegenwÃ¤rt ige
ĠVertrie b
haf ter
ĠRis ik
Ġurg ently
Ġc at
Ġto ward
con ne
Ġrec ording
f rom
Ġver weisen
pl atten
Ġintegr ierten
ĠPet itions
ĠIn struments
Ġcomp lim
ĠFil ter
St unden
Ġrecht liche
Ġzul assen
Ġspezial isiert
on ie
Ġprom ised
trie b
ĠlÃ¤nd liche
ĠWiederauf bau
ĠSpe isen
Ġwir ken
Ġkon sequent
Ġcomb ines
Ġefficient ly
el and
Ġprodu ces
st yle
ann ed
ob ald
Ġrel ates
Ġsp reche
Ġexec ution
ĠEigent ums
Ġberu hen
Do es
Ġung laub
Ġf roh
ĠT ests
ĠH Ã¤user
Ġauf fordern
Ġserv ers
Christ ian
qu et
f isch
ĠLe ip
I de
Ġm aler
ĠB ab
ĠIndustr y
ĠWelt krieg
ĠgÃ¼nst ig
i ates
z um
ar kt
ĠTele kommunik
Ġoccur red
wirk lichung
h Ã¼t
hab t
ĠDen mark
Ġmist ake
ĠFran zÃ¶s
Ġzweit ens
ĠCustom er
p ie
Ġgeograph ical
Ġkilomet res
Ġass ign
ĠZusammen halt
ĠSie g
ĠO mbudsman
ĠP ir
ĠK h
eit ern
ĠÃĦ uÃŁer
ĠQu elle
nehm lichkeiten
Ġprag mat
b orn
ah me
Ġunters uchen
ĠM aschine
ĠVor lage
z ene
ĠW hen
iel ten
Ġold est
Ġrecord s
Ġscient ists
Ġstrict ly
st abilitÃ¤t
Ġsur prise
ĠSt amm
ĠJugend lichen
ĠGre ens
ĠT icket
Ġle bt
lic ation
Ġfant ast
ĠstÃ¤rk ere
Ġessential ly
Ġop ens
Q ual
Ġst ammt
Ġres ulted
ĠSicherheit spolitik
Ġconsequ ence
Ġsucceed ed
Ġsk y
ĠLou is
7 4
Ġh ills
ĠR enten
str Ã¶m
pre t
Ġdep th
ĠB ucht
ĠEnergie effizienz
ĠZugang s
Ġerr ichtet
f ield
Ġcandid ates
it is
as i
Ã¼r ze
ĠB ru
Ġneg ativen
ĠP rom
ver handlungen
ĠInvest oren
verlÃ¤ss igkeit
ake i
ĠAll ah
Ġhighl ighted
je ktiv
Ġ0 8
Ġec ological
ĠH oliday
Ġden jenigen
Ġse ats
ĠSch lag
mer z
ĠTa uch
Ġgekenn zeichnet
ĠB our
ĠD or
Ġincorpor ated
ĠWer be
ĠH ot
men te
ĠSing ap
ĠTodes strafe
9 1
ze g
Ġful f
E B
ir men
Ġse conds
ĠPar ameter
ĠMe eting
Ġcon vert
geb ieten
ĠBedÃ¼rf nissen
Ġacqu ired
ies s
Ġaud iovis
p read
ĠMit tag
Ã¤hr ungs
ĠVertra ges
ĠDi am
Ġin com
ĠCap tain
ĠLab our
ĠF al
K T
W elt
Ġstre am
ograf ie
Ġmedic ine
Ġm ouse
ĠUR L
ĠH IV
Ġsch war
Ġbein halten
abr ik
âĢĻ ,
ĠKon zentr
O F
v y
il ation
ĠL Ã¤nge
ĠBenutz ung
Ġaffect s
ir ma
Ġent f
Ġev ident
bo den
ĠUmwelt fragen
Ġs qu
mp h
Ġbest and
ĠGemeins ame
Ġsophistic ated
ĠT onnen
ĠVer gn
Ġvor gestellt
Ġair ports
Ġfor ts
Ġrec re
Ġbetr ieben
ĠDialog s
T ip
Ġ {
Ġbe er
ĠH it
ĠAl b
Ġderzeit ige
Ġhead ing
Ġcaus ing
ĠE V
ĠAn k
Ġme als
gem Ã¤
ĠS zen
ĠSch icks
ĠAus gleich
ru ckt
Ġsp here
Ġspecial ists
Ġtax i
Ġn ative
Ġconsider s
Last ly
Ġunentgel tlich
p m
Ġsch Ã¤tzen
br id
Ġassoc iations
Ġdiplomat ic
Ġin her
Ã¶ ten
Ġer wor
fl anz
En terprise
Ġged acht
Ġd up
ĠG h
ĠStre cke
Art ikel
W ho
or der
an dern
Ġcomp uls
Ġcho ices
Ġgradu ally
Ġpro xim
ok ia
Ġfl u
ĠHoch schul
ĠKonz ern
ĠS omm
ĠAuftrag s
ĠAcc ount
ĠAb lauf
Ġhier zu
ĠB rief
ĠUn der
ĠmÃ¶ gen
ĠComm un
iff s
ĠPark plÃ¤tze
AL E
Ġdisapp ear
ĠHels inki
" -
ĠE qu
Dar um
ĠFrÃ¼h jahr
Ġvirt ually
Ġsud den
Ġein s
sch te
ĠK Ã¤ufer
ĠBer ge
Ġste uer
Ġ4 6
ĠMechan ismen
Ã¶ hnen
ist ory
ĠBl u
iner y
verletz ungen
Sch on
U L
ĠP or
gesch rieben
ĠSw imming
Ġversch Ã¤r
il ateral
Ġpr ize
Ġapp ell
Ġconf idential
ov en
Ġfest zustellen
Ġtro ops
Ġausgew Ã¤hlt
F OR
Ġentscheiden den
ĠmÃ¼s ste
Ġs enken
Ġbevor zug
L ie
a ÃŁt
Ġd im
an forderungen
Ġan zunehmen
Ġex pos
Ġend s
Ġoper ator
Ġag ents
Ġbedeut enden
Ġwides pread
an spruch
Ġun us
ĠV ie
Ġdr ast
ĠÂ §
Ġk ernel
ĠRat ifizierung
Ġencour aged
Ġar bitr
inn ers
ĠmÃ¼ ÃŁ
k ing
ĠS ouverÃ¤n
ist ical
unic ation
Ġattach ed
Ġunn Ã¶t
d ates
ĠS E
ĠR oth
Ġprison ers
C ard
Ġh ence
ĠFÃ¼hr ungs
ag og
Ġsh ift
eld et
Ġenvironment ally
ĠLin ien
ĠEur os
ĠVeranst altungs
Ġexplan ation
ĠSonn tag
Ã¶ d
Ġver letzt
Ġup grade
ĠÐ ¾
ĠSoc iety
o e
ĠEr m
Ġeigen er
ĠBe achtung
ĠBran chen
ĠFrie drich
erm ann
Ġoffiz ielle
Ġd ance
ĠK atalog
Ġex ch
Ġwar ning
ĠRepr esent
ĠJer usalem
i op
Ġre isen
Ġav iation
Ġbeein fluss
Ġangemessen en
Ġkontroll iert
ĠkÃ¼ mmern
de fiz
ĠAn hÃ¶r
k ons
v ents
ĠSc ience
Ġblock s
Ġre venue
ĠG anz
Ġprodu cer
ĠPf lege
Ġbra chte
n g
ĠF le
Ġprodu zieren
ari at
ĠHindern isse
N E
Ġb omb
Ġy es
ĠRe z
Ġinc omp
ĠVertre tern
f akt
ro b
ĠS ystemen
ĠZ auber
Ġsee ks
Ġbef asst
uzz i
ĠSad dam
ĠR ail
Ġst ick
ĠVer wirklichung
ĠReg ul
Ġoffen bar
Ġanz up
Ġenthus ias
N ein
ater ing
hol t
r t
Ġan sch
gehen de
Ġprakt ischen
u hl
Ġd oppel
ic i
ĠF uss
ĠHe ad
ĠSen kung
ĠÃľ brigen
Ġsurpr ised
ĠRich ard
ol en
pl ays
schl Ã¼ssel
Ġparticip ating
ĠKonz ert
kl asse
Ġsyn chron
bu ilding
ĠDres den
ĠEin fl
et ch
âĢ ĺ
ĠSt or
ĠerklÃ¤r te
Ġteach ers
ĠModern isierung
Ġgew id
Ġno vel
Ġrest ricted
Ġreal er
ĠExpl orer
al on
Ã¤r er
Ġacc idents
Ġup gra
Ġtyp ischen
Ġalong side
ĠTrans fer
Ġreich halt
Ġin folge
ĠS ierra
Ġso il
D afÃ¼r
Ġc ott
de p
ĠN ow
Ġput s
ĠWass ers
Ġeng age
ĠVerteid igungs
ĠTreat ies
t p
ĠVer g
ĠWir ksamkeit
ĠErgeb nissen
Ġclar ify
Ġs telle
Ġf ly
ĠVer kaufs
ĠEn ter
ator ium
an trÃ¤ge
ent liche
ss e
Ġmark s
aktiv itÃ¤ten
Ġro ugh
Ġfund ament
ĠHers tell
ĠFlÃ¤ che
S erv
ĠA st
ĠZ y
ap se
Ġbezahl t
regel ung
ĠVermitt lungs
Ġadd ing
Ġut most
on ing
ĠAuthor ity
Ġangewand t
Ġto urn
Ġbe unruh
ron ics
ĠDan ish
Ġpill ar
ĠA tt
Ġr ichtet
Con sequently
Ander erseits
in burgh
Ġad mit
Pro zess
u an
Ġh idden
ĠS amm
ĠG PS
Ġso eben
Ġ" .
Ġeinz ur
Ġachie vement
Ġprofession elle
ĠiP od
s Ã¤tzen
Ġpres erve
room s
Ġrenov iert
ĠLehr er
H U
N on
j i
ĠO bst
Ġobserv ed
Ġharm ful
ĠTool s
Ġbere chnet
ĠG a
Ġsp ite
ĠÃľber tragung
vers ammlung
Ġgraph ics
ĠmÃ¼s sten
L Ã¶s
Ġm ort
gest altung
ĠCon stitutional
Ġir ischen
verein bar
o ter
Ġgro wn
Ġend ors
ĠAir lines
Ġwachs enden
ĠÃ¤lter en
ĠM aus
Un s
ĠRes ult
re ff
Ġausge geben
ĠBesch reibung
ĠKohÃ¤sion spolitik
in ians
Ġd ial
Ġre iter
Ġfre m
Ġcol ors
ĠBas el
Ġcontext ual
Ã¼b ung
ge fÃ¼hl
Ġpro sec
Ġserv ing
ĠHÃ¶ chst
S up
ĠDepart ment
f amil
os c
Ġqu ote
ĠSu ites
ol is
Ġver ank
ad ays
ze ige
Ġpolit isches
Ġanzu wenden
Ġeinst imm
ut ors
ĠT ausende
ĠMit entscheid
ĠAuss age
ĠRev ision
ĠRelig ion
ĠSch nell
Ġstay ed
Ġper mission
Ġreport ing
Ġwider sp
ĠS L
Ġar med
app ro
Ġjeden falls
Ġlangfrist igen
F A
Ġcap abilities
ut ical
gra ben
Ġwo oden
ĠReg ulierung
ĠgefÃ¤hr det
f indung
ĠEr richtung
Ġakt iven
Ġquot as
ĠD am
ad r
ous es
sta ats
ĠA u
Ġ1 30
ĠQual ity
Ġrecogn ize
ĠFern sehen
Ġpure ly
Ġconvention al
ĠJournal isten
ann a
Ġwesent licher
erb ild
Ġeffe ktive
Ġf ach
Ġn om
ig ious
Ġaus Ã¼ben
Ġdisp ute
ĠDrit tel
T our
l if
st ab
Ġhouse hold
Ġstor ies
Ġgere gelt
stand ard
AR T
Ġind oor
ĠBet reuung
ĠPrÃ¤s enz
v re
ĠP L
ĠP lace
Ġbeh err
Ġbroad cast
y o
ig l
Ġ3 50
Ġdist ort
Ġconver gence
M O
om ents
id as
Ġspecial ized
ĠZu verlÃ¤ssigkeit
deck ung
S ind
ĠAmer ikaner
Pr Ã¤sident
ĠProzess es
F S
ĠS et
Ġre ly
ĠAn alys
in ity
Ġcomp osition
ider s
St art
o is
ĠFahr er
ung al
Ġintegr ierte
m ach
ĠT ruppen
ĠV IP
ĠPro cess
Ġilleg ale
B u
un s
Ġste igern
ĠUr teil
ĠSam stag
bar es
Ad dition
ten eg
Ġhin ein
Ġpass ing
Ġcommunic ate
ĠIm per
R C
ĠB org
Ġfl ows
ĠMand at
Ġeffiz iente
ĠSpezial itÃ¤ten
Ġconfer ences
ut ung
ĠSil ver
Ġbeeinfluss en
ĠH uss
Ġwe isen
Ġda uert
D isc
Ġfest legen
Ġinsp ired
lÃ¤uf ig
Ġcoher ent
Ġe en
Ġwirk liche
Ġthumb n
k el
Ġwir kt
ish ment
ĠAuf zug
ĠVen edig
Ä Ļ
Ġsecond ly
ĠD Ã¶r
ĠW omen
ĠVers ammlung
Ġhumanit Ã¤ren
M Ã¶
Ġver knÃ¼
ĠM igration
ĠL ine
Ġvor zunehmen
Ġoft mals
ĠKais er
in stitutional
ĠS ter
ĠB A
Ġvor liegen
ile o
ĠOber flÃ¤che
Ġp ilot
Ġj un
ĠAn sprÃ¼che
Ġschwier ige
ĠMex iko
6 9
bet racht
ĠPremier minister
Ġmac ro
en ne
ĠVor stellungen
wor ld
a ire
f ile
sch ritt
Ġbemer k
Ã¶r ungen
Ġwhe el
R icht
ite ten
Ġ6 8
Ġverl Ã¤ng
t okoll
Â ¼
ĠIn stitut
ĠAl m
Ġdisc ount
ĠZu cker
Ġfre ut
Ġbel g
5 8
ĠV izeprÃ¤sident
gÃ¤ ste
G reat
Ġa st
Ã¼r zen
oc a
Ġair lines
Ġabge geben
ĠMinder heit
Ġn u
IN E
Ġvict ory
stÃ¤t ten
S k
ĠA rea
ĠT us
ert o
pro of
Ġgest r
Ġintegr ate
Ġestim ated
ĠL ernen
Ġan sehen
ĠAus arbeitung
ple te
ĠBes te
ux e
spe ed
Ġhervorra gend
z io
Ġb ug
ĠÃ¶ st
Ben utzer
P ark
ĠD Ã¼ss
ĠÃĦgyp ten
enn ess
ĠBÃ¼ cher
p hen
ĠS QL
Ġra ising
Ġbed au
Ġpercent age
ĠDÃ¤n emark
ĠEr fordern
Ã¶l f
Ġinitial ly
wÃ¼rd ig
Ġtele comm
Ġ q
ĠT w
ĠN orm
Ġkon zip
ĠStr Ã¤nde
Ġextend ing
Ġwechsel n
ess ed
ĠZ um
aus gaben
Ġhop es
L ook
Ġass igned
ĠApparte ments
Ġbran ch
iÃ¨ re
& #
le ger
Ġmed ieval
Ġhal b
Ġin akzept
ĠeuropÃ¤ isches
ll s
ĠW a
Ġbeh av
uk lear
ĠerhÃ¶ h
Ġitalien ische
G erman
Ġder er
W ould
ĠH on
ĠHa ar
mÃ¶ gliche
Ġt rat
it ative
ĠVer handlung
ĠApparte ment
p ower
ĠF ang
Ġrec all
Ġdevelop ers
par atur
Ġzeich net
Ġin se
Ġso ul
Ġwach sen
ĠWeiter entwicklung
g Ã¤ng
Ġsufficient ly
or iented
icht igen
ce llen
Ġbus y
ĠHin weise
Ġstru kture
rim inal
um es
Ġen jo
Ġgew inn
ĠSol ar
clud es
m ale
Ġk ennt
ĠGemein schaften
Ġseem ed
ĠTradition en
Ġbeiz ut
ĠS A
ad os
igh ter
Ġexp ense
Ġstor es
Ġimplic ations
St att
W ind
ĠAus bau
ĠH under
Ġent fernen
reg ierung
ĠL ic
Ġprom ises
K A
em ed
ace utical
Ġaud ience
Ġschem es
Ðĵ Ñ
stre ben
Ġgew Ã¤hlten
ĠBild schirm
I ER
Ã¤ der
amer ikanischen
Ġmaxim al
ĠEntfern ung
ĠArbeit nehmern
Ġrelationship s
Ã¼ hen
Ġk op
ĠSch rift
ĠBeschl uÃŁ
halt ungs
ĠCon f
Fin de
Ġl iv
ific ial
ĠQu art
Ġapproach es
ĠDat um
Ġdoll ar
Ġt ab
ĠL eiter
ĠN a
Ġcl im
Ġoper ates
ĠBetrie be
Ġerk annt
Ġangene hmen
ic ian
ĠR Ã¤ume
ĠWissenschaft ler
Ġr ender
Ġs ammeln
ĠV ar
ĠHand y
gl Ã¼ck
Ġempt y
Ġbe hÃ¤lt
Ġbelie ved
Te am
ĠPer formance
ĠEd inburgh
Ġshort ly
ĠWohn zimmer
ĠFlor ence
ĠmaÃŁ geb
Ġtourn ament
ot al
Ġer teilt
Ġcr ises
k os
Ã¼ ro
ĠÅ ł
Ġn omin
ĠV ari
Ġsm art
Ġsur vey
Ġbe ibe
ĠM Ã¤dchen
angeb ote
Ġexpl os
I O
Ġw ed
ĠT ieren
ĠAn meldung
ams ung
Ġbeein fl
Ġa qu
he iz
Ġstud ied
Ġviol ation
Gen ieÃŁen
Ġer wiesen
Ġacc eler
ĠvollstÃ¤nd igen
ĠberÃ¼hm t
I mp
ĠR oss
Ġgu ided
ĠInternational e
5 1
ĠB ibliothek
Ġpl Ã¶tz
ĠRes idence
Ġenjo ys
st one
Ġnegot iation
ĠAuÃŁen minister
ĠVermÃ¶gen s
Ġp od
ĠK och
ĠH ann
ĠTra vel
Ġelimin ate
f al
ac io
Ġmoment an
ĠVis a
ĠF ull
ĠC lin
Ġ1 10
aut hor
ĠGeb Ã¼hren
Ġprincip al
Date ien
ĠLeip zig
P M
Ġverste ht
ĠFlugh Ã¤fen
N C
re dit
ĠD abei
ĠOr ten
ĠgefÃ¤hr lich
ĠtÃ¤ glichen
Ġaccomp any
ĠD ring
Ġamend ed
Ġingred ients
Ġ19 50
Ġstay ing
r ix
ĠV arian
row ing
ĠIM F
Ġbeabsicht igt
amb od
Ã¼ m
ĠG AP
etz ugang
Ġgen ie
Ġcl imb
Ġinter f
Ġabs urd
Ġan wenden
ĠCh ic
Ġaccount ing
Ġdescrib e
ĠTe ams
weit ung
ape ut
Ġedit ed
gor ith
Å Ħ
Ġhe ct
ĠMon itor
Ġbro ken
ĠBenutz ern
Ġbook ed
ĠTer ms
Ġc lo
ĠC uba
ĠL abor
ad el
Ġch rist
verb ind
A ss
ĠK DE
Ġvorge legten
ĠSt iftung
ĠIntern al
Ġweltweit e
ĠKe y
Ġ" ,
ac kt
Ġbereit et
ĠKonkurr enz
ber ger
ac o
Ġwhere by
ĠGem Ã¼
Ġadv enture
ĠVorder grund
o ft
Ġum gehen
Ġconstit utes
ĠJes us
Ġbe werten
ĠVerfass ungs
sp ace
dra ul
Ġmeaning fully
Ġmedic ines
ĠPhilosoph ie
M ich
c z
Ġen vis
pl ate
okrat ischen
ĠTr ib
ĠChamp ions
Ã «
ĠSp itze
ĠW ol
ĠBÃ¼ro krat
Ġbeseit igen
Ġch apter
antwort ung
ĠInnov ationen
Ġneighb ours
in strumente
ĠT enden
ĠVor rang
ĠSe x
ĠSo f
Ġenfor cement
ĠRe chen
ass o
ank a
Ġar gu
ĠÐ º
Ġcampaign s
ĠsÃ¼d lichen
ĠEmiss ionen
Ġwe ar
Ġent stand
ĠVolk spartei
Ġoffiz iell
ĠM essen
pl us
Ġfinanz ieren
ĠAdr i
Ġgen iessen
Ġgovern ing
Ġ0 9
Ġaddress ing
Ġconcentr ation
schlossen heit
Ġsplend id
L og
druck s
Ġsatisf actory
a uch
ik ten
Ġgen aue
Ġbo ught
Ġchar akter
Ġpoor est
Ġleb end
M et
j ud
ens ionen
ĠLiefer anten
Ġmultil ater
D VD
Ġv ibr
Ġein seit
ĠF an
ĠX ML
ĠBil dern
Ġverring ert
in cluding
ĠD ifferenz
und ry
ĠAn der
EC D
b lock
ĠS pl
gen ie
ĠLe vel
Ġins pe
ĠC la
ĠArg umente
nes day
Ġgirl s
st il
Ġent halt
ĠFinn land
Ġsc r
ir able
ĠB aby
ant es
ĠKon vent
ĠTr end
Ġclass ical
sch if
AN D
ĠEntwicklungs hilfe
Ġweak en
n amen
ot ions
Ġbew Ã¤hr
Ġorgan ise
ĠÃ¼berw achen
Ġeingeb racht
ĠInde x
u ous
ĠA str
ĠAn betracht
Ġvor n
ell ow
Ġlink en
ĠSekt ors
Ġh undert
Ġsched uled
ĠM ED
kl ar
20 13
Ġeinge leitet
nehm bar
Ġschl imm
Ġehemal ige
ĠList ings
Ġown ed
b urger
ot a
gr ession
ĠMe g
ed ded
ĠP os
ĠApp lik
Ġjoin ing
ĠPublik um
ĠAn nehmlichkeiten
Ġpain ting
ĠEngine ering
Ġentdeck st
Ġtechn ique
. ).
ach ed
Ġman chen
Ġmay be
Ġinc ident
irl pool
Ġverwende ten
Ġkontext uellen
Ġremark able
h ai
ig o
Ġcon front
Ġverb reitet
Ġ ....
im um
ĠK ampagne
ht on
Ġkontext uell
Zw ischen
in ely
Ġemploy ed
ĠSteuer zahl
Ġsam ple
Ġp ump
ĠDre h
Ġbenach teil
Ġsurpr ising
ĠT s
Ġincent ives
Ġfor e
ĠâĢ¦ ..
, /
ĠB ah
ĠC ru
** **
ĠBur ma
ĠschlieÃŁ t
Ð ³
ĠSe kunden
Ġgemeins ames
ĠAkte ure
m ing
ĠL ud
ĠLe ague
ĠMus ter
Ġgramm atically
t schafts
Ġenjoy ing
Ġcheck ed
ul der
Ġauf zubauen
ĠAn h
Ġur gency
Ġcontext ually
ĠS afe
im p
Ġhinzuf ugen
ĠMechan ismus
Ġw ife
il f
ond a
ĠÃľber nahme
wohn ern
ĠS om
Ġsch ritt
Ġgramm atisch
Ġgewid met
ĠP ier
ĠPal ma
Ġkosten lose
Ġult imate
ĠRiv iera
ĠFisher ies
Ġg astronom
ĠG ot
Ġverste he
as ien
ĠS ports
ĠInter governmental
Ġbo ats
Ġref used
ĠDokument ation
Ġb aby
ĠS ource
em ost
ĠI ron
ĠD A
Ġver anst
Ġrat ification
Ġbeant wortet
Ġappoint ment
ĠSpazier gang
ĠK m
Ġsch reck
Ġirgend wel
Ġe ase
ad ic
ĠS W
ĠN ero
Ġcomple tion
ĠnÃ¤ch ster
Ġkeines wegs
W ork
k atastrop
Ġin nen
Ġm ere
and in
chn er
Ġbo asts
Ġinnov ativen
Ġtransl ated
ĠPr im
ĠSchlussel wort
Rat schlag
Ġgegebenen falls
Ġcancell ation
Ġt schech
ĠE hre
ĠAus weitung
Be ide
ĠSpiel en
ÑĢ Ðµ
ĠSchlussel phrase
âĢ¦ "...
Ġm oments
Ġover look
Ġaufge zahlt
Ġelect rical
Ġhilf reich
Ġcompuls ory
r Ã¼ck
ie geln
al i
Ġl uck
Ġ5 2
ĠKl ass
Ġhead s
ĠSchn itts
Ġchair man
Ġun ab
Ġ4 7
Ġmar ine
Ġrub ber
w rit
Ġad ult
ĠverÃ¶ffent lichen
ĠUnterk Ã¼nfte
II I
5 9
H aben
ĠL ight
ĠN ation
ĠDem okraten
verb indung
ĠReserv ierung
Ġmore over
Ġrefer ences
tember aub
Ġbege ister
Ġlandwirtschaft lichen
ĠB ier
alt es
Ġopp on
ĠWohn ungen
vious ly
qu arters
ĠUn sere
Ġle ct
ĠSch reiben
Ġreag iert
F amil
I l
k ammer
Ġas ide
b ranche
Ġf oss
ĠS S
ĠN izza
b ut
Ġauf bauen
ĠJ azz
ĠSouverÃ¤n itÃ¤t
Ġc lock
ĠVer he
Ġimper ial
in tens
Ġfound ations
ĠVorsitz enden
ĠMos k
p ra
Ġab schlieÃŁen
ĠKon junkt
Ġschw ere
Ġdefin ieren
wÃ¤rt ige
Ġfascin ating
C ode
Ġl ingu
be griffen
Ġhochwert igen
L o
ĠR ett
Ġprefer red
ĠA U
ĠP lease
Ġda uern
Ġher z
wick lung
Ġlegitim acy
ĠR A
Ġhinzu gefÃ¼gt
ĠP as
Ġaus s
gesch windigkeit
ĠCar l
kont roll
Ġnav igation
Ġdeserv es
ess el
ĠLeg itim
het or
Ġp oker
ard in
form ular
ĠDes ktop
g ments
Ġth res
ie fen
ĠVer m
ĠGe gner
Ġfe wer
Ġpool s
hab ilit
ĠEv ents
6 2
Ð ±
ĠF assung
ĠJ oint
ĠPh ot
Ġab ges
Ġpers u
ĠP olit
Ġobser ve
g eschÃ¤ft
ĠAgent uren
sie he
Ġtimet able
ĠF OR
ĠVer ab
Ġconsider ations
Ġfac es
Ġdict ators
5 4
Ġl Ã¤dt
ch ant
Ġth ick
Ġcon j
Ġhe ight
ake ten
Ġstatt gefunden
ĠWeit erbild
L and
Ġres idential
auf nahme
ai ro
Ð½ Ð¸
Ġd rag
ĠD C
Ġpro pr
Ġst Ã¤ndigen
ĠIn ner
y ers
Ġw inning
ur er
loss ene
Ġconsc ious
F ac
ĠPro zeÃŁ
Ġher zustellen
den s
ĠBe zeichnung
fert igen
Ġinade quate
G erm
Ã °
ine a
Ġvar iable
un dern
Ġcon ciliation
Ġele v
ĠUm struktur
Im mer
ĠOper ation
ĠProfession al
ĠChair man
Ġr Ã¶m
Ġge lesen
ang o
Ġbesonder es
Ġauth ors
Ġb Ã¼rger
ĠC ross
Î ¿
ĠP ad
ant o
Ġgen auer
stell er
Ġdeb ating
ĠFremden verkehr
K OM
Ġbe aring
ĠP ed
ag ra
ĠAn onymous
ĠBest Ã¤tigung
Ġcoast al
k ar
ĠT amp
Ġer heben
Ġfavour able
ĠEmp ire
Ġguarantee ing
Ġgenu inely
c ific
Ġv ent
Ġst ip
ĠpalÃ¤stinens ischen
Ġv ir
ĠL CD
Ġso u
ĠO f
Ġbeg un
ĠPrem ium
Ġrepeated ly
Ġf assen
op ard
Ġch ief
Ġlog ic
Ġzust ande
Ġdig itale
sch uss
ĠT imes
Ġqu i
ĠBr un
Ġmix ed
p an
olog isch
Ġcode cision
ĠJe wish
er ungen
st anzen
ĠE conom
sch iff
Ġfor ec
Ġex posed
Ġport al
ĠSc ott
ĠNiger ia
8 2
Ġ Ã¤r
ĠEr reichung
Ġev ol
ĠVerbrauch ern
ĠProjekt s
ffe kt
Ġneighbour hood
Ġgenere ll
ĠKomple tt
Ġre ass
ĠAspe kten
teneg ro
Ġd ual
Ġf esten
Ġc u
ed ia
Ġdest o
Ar ch
ĠDoppel zimmer
z i
Ġf at
ĠSa al
Ġruh ige
Ġerk unden
Ġver ble
sp ielen
Ġhe il
tw och
Ġaut umn
mÃ¤r kten
ĠFire fox
ĠEr st
ĠâĢĵ ,
Ġber ichtet
Ġthe atre
Ġaff il
ĠWer ten
ĠHaup ts
Ġjournal ists
ann el
Ġtrave llers
Ġb read
ĠT rÃ¤
Ġact ors
Ã¼h le
Ġbr ill
ĠEt ik
Ġfor emost
Ġen ge
ose v
Ġjuris diction
E mp
ĠC anc
sicht ig
Ġlay out
ĠNI CHT
ĠPe ters
Ġsor ry
andin av
D av
am an
Ġsub sequently
Ġaktiv iert
es a
se kret
Ġmag net
Ġthres hold
S obald
Ġbe arbeiten
be cken
Ġunder lying
cur ities
Pl ay
Ġan geschlossen
Ġc art
ge laden
ĠF ont
ĠEnt schlossenheit
Ã´ te
J ahr
ĠW Ã¤rme
Ġqu er
Ġher be
reg ionen
Ã¼ste t
Ġunnecess ary
ĠS eit
ĠE S
fÃ¼ llt
Ġprofession ellen
ĠMont age
Ġult ra
ĠI WF
Ġfor tz
Ġha z
kauf t
Ġcharacter istic
Ġa temberaub
ĠS ir
be vÃ¶lkerung
Ã© l
ĠInvest ition
schn itts
Ġthumbn ail
ĠG esell
be g
ĠErwach sene
Ġs izes
st Ã¤d
AN T
ffect ive
ĠAr ena
Ġgest atten
Ġshe et
ÑĤ Ðµ
ĠÃ¶k ologischen
ĠDÃ¼ss eldorf
s amen
Ġind igen
ĠHo he
ĠS C
ĠMin istry
Ã± a
Ġelegan te
P olitik
ĠDe f
ander s
ograph ie
ĠLuft fahrt
Ġnews letter
Ġspee ches
Ġdramat ic
B R
Ġinv ent
Ġ% .
ĠMass age
Ġt enden
Ġim pr
Ġumfassen der
ĠTun is
ĠKompeten zen
for ce
Ġtext ile
Ġn utzt
ir ts
ĠM illion
ĠHe ads
sph Ã¤re
Ġcompe te
Ġtrans action
ĠHe kt
Ġsecond ary
ĠSm ith
ĠGlaub en
ĠDring lichkeit
Ġdis cl
Ġexam ination
Ġlisten ing
5 6
N ET
ĠG rem
Ã¼r t
Ġimportant ly
bÃ¼ ro
Ġunz Ã¤hl
Ander e
ĠDynam ik
ĠD ir
Ġtro uble
Ġexpens es
f unk
l ation
ĠP atten
ĠLe ban
ke pt
ĠAuf lÃ¶sung
Ġrespect s
ĠNik on
z te
ar on
Ġlang er
Pr ivate
Ġman agers
Ġint entions
ĠEffe kt
ĠImp lement
Ġfrequ ent
ĠM O
ĠW asch
Ġer werben
Ġdo ctor
fort able
Ġoper ated
G E
Ġl ively
Ġge liefert
ill ance
pid em
ĠbefÃ¼r worten
Ġdisapp oint
ĠP y
ĠK Ã¼rz
ĠVer zeichnis
ĠEr folge
Pro f
ĠNutz ungs
ĠSerb ien
Ġrob ust
ĠgrenzÃ¼berschreit enden
ĠR enn
Ġvor Ã¼ber
Ġeconom ically
ĠSer ies
ĠErzeug er
ĠMos cow
ing ung
ĠT ickets
qu elle
ĠUn sicherheit
sp f
ĠAus richtung
igkeit s
Ġsuch t
ock et
Ġfeat uring
Ï Ħ
ĠB av
Ġgesellschaft lichen
in et
olog ne
Ġchines ische
ĠFerienwohn ung
Ġk ost
leich heit
ĠOb jekte
ĠMult i
, -
Ġan erkennen
ĠA S
ĠUnivers itÃ¤ten
ĠCor poration
Ġarran ged
Ġcomplim ent
S om
ĠR ichter
Ġsl opes
Ġexpand ed
ĠR ing
ĠH u
ĠH an
ill on
Ġterr ible
Ġrepresent ing
ĠEmp loyment
ĠValen cia
al ts
reib ungen
Ber eits
Ġbeibe halten
Ġw age
ĠR hein
ar ians
Ġge gangen
Ġbew ahren
Wor ld
at om
Ġim men
ĠNach mittag
Ġsuggest s
Ġweak ness
ĠNiederl ande
Ġuneingesch rÃ¤nkt
ĠSlovak ia
Ġcon vers
ĠAl ps
Ġinform al
wach sen
ĠChe f
ĠEreign is
f eind
ĠV ier
Ġsch auen
Ġb ay
Ġk olle
ĠProdu ct
zieh ungs
Ġass et
ĠGro ss
ĠAs hton
Ġbig ger
ĠDurch setzung
Ġwilling ness
Sub ject
ti rol
d ring
Ġin halt
ĠRe paratur
ger ichts
Ġinst antly
Ġverur teilen
f an
s inn
Ġcom pr
ĠSch alt
Ġgr Ã¼nen
ĠRein igung
Ġenor men
Ġschwed ischen
Ġw il
Ġes cape
ht ml
amp s
Ġerst es
Ġprop ag
Z ahl
Ġwid men
g iene
ĠberÃ¼hm te
Res erv
sch Ã¶n
ven ted
voll er
Ġdev oted
ĠSlow akei
fÃ¤ llig
g te
ar c
ĠN ote
uropÃ¤ ische
Ġlet ters
Ġcompla ints
Ġpred ict
ĠGarant ien
Ġvoc ational
ĠGetrÃ¤n ke
v illa
Ġer g
Ġaus wÃ¤hlen
Ġpl ate
Ġop enness
Ġzwe if
ĠS ort
lich te
Ġsp ir
so ever
Ġmittel alter
ĠErwach sen
Ġbedro ht
r ise
u he
ĠBe ll
be ll
ĠAus be
Ġtrag ic
Ã¼ re
ĠS now
Ġbe zeichnen
ĠG elt
ĠÃľber sicht
fel der
Ġpurch ased
ran kungen
ĠBla ir
N atur
Ġd iving
Ġjoint ly
Ġdah in
Us ing
ĠSold aten
S omit
Ġbe le
Ġer lassen
sp ir
Ġinv o
Ġ18 0
ĠSc ot
ĠSm art
ĠauslÃ¤nd ischen
sph ase
sch au
ver halten
Ġins ufficient
Ġmotor way
ĠgemÃ¼t liche
ĠPac ific
G ruppe
ĠZ weiten
str Ã¤ger
Ġbereit en
Ġkosten losen
Ġexcurs ions
ĠE he
Ġer led
Mit tel
Ġhoh es
ĠFranc isco
Ġbehav ior
ĠK ohl
Ã¶ tet
ĠZ un
Ġapp arent
ĠSchwe llen
Ġein laden
qu ote
ĠPar ad
Ġamend ing
Ġexist ieren
zwe if
Î ¹
Ġne utral
Ġzw eiter
ĠHerkun fts
ĠAnmer kungen
t age
ĠM id
ĠBe fehl
elt a
Ġzusammen ge
+ +
ah ara
ĠJ on
ĠZeit plan
Ġfol der
ĠAl uminium
ampag nen
ĠWÃ¼r de
ion es
Ġaccess ories
ĠVerein igte
umm ern
z o
ĠIn t
oper ations
ĠGew Ã¤ss
Ġdest inations
fil m
Ġowners hip
Ġer teilen
lie genden
Ġkurz er
Ġaltern atives
Ġumfang reich
H z
Ġaccording ly
ĠCaf Ã©
g eschÃ¤
oc o
voll stÃ¤nd
Ġsimultane ously
Ġclick ing
5 2
L Ã¤nder
S icherheit
ra chte
ste chnik
Ġ9 9
Ġklein ere
ĠKlar heit
ĠVers icherungs
ĠDeutsch lands
iforn ia
Ġk an
Ġinter view
ĠPh otos
best and
Ġoccup ation
Ġschrif tliche
ar l
Ġ198 8
cellen ce
Ã¤nger ung
S pecial
ĠE ure
Ġsol ch
Ġanal og
ĠDesign er
8 7
D EN
Ġto ugh
ĠR unde
os es
Ġcl arity
Ã¤lt igung
Ã§ a
Ġaktual isiert
Ġer arbeitet
Ġman geln
wander ung
ĠDi agn
ĠKrie ges
ĠBeam ten
ĠF ord
Ġver tritt
6 00
Ġ4 9
Ġman ifest
ĠV ER
ĠSt imm
ĠKon ver
schie ben
H T
in vest
ĠK Ã¼nst
Ġar ray
Ġsun ny
Ġre ward
ĠW urz
ak ul
Ġcomm od
ong o
Ġtrans fers
Ġunterschied licher
m end
Ġv acc
ĠÃ¼ br
ĠNichtraucher zimmer
Ġm essen
ĠZ ins
Ġum gehend
oll y
Ġstr ike
ĠCas a
F our
ĠS em
ĠL ED
Ġver mittelt
Ġgeb lieben
ĠWahr ung
Ġtraged y
Ġe uropa
ĠA ch
ĠJ ur
ĠGemein den
Ġconven ience
K omm
condition ing
rep ublik
d ies
Ġd Ã¤n
ĠC EO
imm te
Ġar ts
Ġanzup assen
Ġinspe ction
Ġein her
Ġor ch
ĠO LAF
Ġsp anische
Ġar men
ĠPort al
ĠMil an
Ġcert ified
ĠWed nesday
= "
ch mark
Ġf ur
Ġm ine
Ã¶ gern
ĠSchicks al
Ġcon stra
Ġcomp osed
Ge b
Ġinn ere
ĠMensch heit
ĠBosn ia
ĠR SS
zie ll
Ġide ally
Ġto x
ĠL asten
ĠBer gen
ĠwÃ¼r d
fra id
Jed och
F ort
kon stru
Ġmeasure ment
P P
d t
ĠN u
Ġerst ens
] .
Ġ icon
Ġcon vey
Ġfind s
ĠEur ost
Ġerk ennt
Ġfif th
ĠAus rÃ¼stung
rei ze
Ġid yll
k u
al in
Ġwhat soever
ler nen
gebÃ¤ ude
T ag
ĠW ichtigkeit
af ter
Ġmod ify
itiz ens
Ġpost al
OT EL
Ġelektron ische
ĠB ig
ĠH Ã¤fen
rÃ¤n kte
gehen den
ĠSt ill
ĠRes iden
Ġspect rum
nor men
Ġbe weisen
hÃ¶r ige
Ġcal endar
Ġexpress ly
Ġpost s
ĠAuss agen
ĠE F
sch Ã¤tzung
ĠBe hÃ¶rde
Ġreg rett
Ġsp aren
Ġinter ne
Ġ4 1
Ġart ificial
Ġfamil i
ĠMiss brauch
ĠBÃ¼rokrat ie
Z war
ĠZ ut
Ġwirk lichen
ĠGrÃ¼n buch
Ġcoll apse
ĠLiber alen
Ġbehaup tet
ĠÃ¼berras cht
C urr
ĠH Ã¤nde
ĠH istor
st oÃŁ
ĠAr ts
ĠNach druck
Ġrev ised
fre cht
Ġfa ult
ube hÃ¶r
Ġcert ification
C lear
gen Ã¶ss
ĠW eine
ĠLe ft
Ġl ens
Ġup load
Ġev olution
K inder
st Ã¤tigkeit
ĠUnter richt
fert igung
ĠRechn er
ĠSchl acht
ĠSol ana
ĠSpr ing
Ġeffizient er
P G
Ġa fraid
ĠR uÃŁ
ĠD amit
Ġcar te
Ġdr iven
Ġel der
bet riebe
adem ie
ĠLebensmittel sicherheit
finanz ierung
ipel ine
5 7
an bul
ĠO ECD
We il
ĠFr iendly
Ġprom oted
Ar beit
a ug
sp rech
Ġopp ose
Ġcontinu ously
ĠT i
ĠSie mens
ĠÃ¼berein st
or o
ĠEntwick ler
Ġaffect ing
ĠMoroc co
th aus
ĠBes atz
lim ited
Ġspecial ly
Ġpark s
ĠIndustr ial
ĠRe icht
og a
Ġadv is
Ġfal sche
Ġ Ã¤rm
Ġun ber
ĠS tern
Ġto wer
Ġk new
Ġbus es
Ġinstitution elle
ĠStor age
e iden
Ġgr ass
ĠMar c
is st
re form
ĠP od
ĠA y
ĠAL DE
Ġeinge tragen
Pl an
ĠVertra uens
Ġverurs achen
oler anz
M ag
Ġger ingen
Ġkombin iert
B O
z Ã¤hl
ch ern
ĠFil me
ĠK art
We b
Ġvers ehen
ĠMod ul
Ġgetr ennt
Ġm ental
ĠIn kraft
ĠAb bau
ett ing
Ġvorlie gt
Ġfall ing
Ġfreund liche
Ġremov al
Ġumfang reichen
Ġdel ight
ĠÃ¶ffent licher
ĠGal ileo
Ġforg otten
Ġun ity
Ġh ers
Ã¤ ll
Ġdes ktop
eng leichheit
cure ment
Sim ilar
Ġrespekt ieren
Ġl enken
ĠEx ternal
Ġmanufact ured
ĠKÃ¶l n
ĠA IDS
ĠP sych
Ġable hnen
ĠTre ff
NG L
X I
em iss
Ġaus wirken
kun de
Ġdoub ts
N ational
Ġw ave
ĠK Ã¼rze
Ġste am
Ġunterb rochen
Ġgeehr te
Ġstopp ed
S tre
ver arbeitung
ĠEin kauf
Ġbas ically
Te ch
Ġr iding
Ġproduct ive
onn es
ĠAdministr ation
ĠC ra
ĠH Ã¼
ĠVorgehens weise
ĠW ars
he il
Ġres idents
zug s
d el
Ġs itzen
ens ive
ĠAuf hebung
Ġstru ktur
Ġeuro zone
ĠCD s
ĠFischere ip
liefer ung
f ted
s he
Ġsch m
Ġpla in
Ġpath s
Ġarrange ment
ĠendgÃ¼lt ige
r ale
ĠVor red
Ġmon uments
oph ob
n icht
ĠN okia
oy ager
ĠPalest inians
ĠBew usstsein
ĠW Ã¤
Ġexam ined
Ġinstall ations
Ġlog o
Ġfrequ ency
Sm oking
Ġm ont
Ġlo ans
stehen de
Ġdead line
Ñ Ĩ
Ġein heim
ĠMa xim
Ġgel ang
ĠLog istik
ĠgÃ¼nst igen
t op
ie hlt
Ġbe ef
ul ator
ĠLand wirtschafts
Ġfl ash
Ġbel ongs
Ġdim ensions
p in
ul ates
ĠSchul z
Mill ionen
Ġbegeg nen
Ġbewe gt
Ġn obody
Ġder selben
ĠAn zeige
ĠVolks wirtschaften
Ġlands cap
ĠO x
ĠMar ok
Ġfal se
or ters
ĠDire ct
Ġlos ing
person en
ikan ischer
ĠKre bs
Ġfocus es
ĠKons erv
azz o
" ).
te x
ĠZiel setzungen
ĠEd el
Ġk Ã¶rper
ĠÃ¼ber mitteln
In formation
old ing
ĠArch iv
Ġvor sieht
Ġpl ural
ĠMe ilen
Ġdel ays
Ġref use
Ġhealth care
8 1
ĠF our
ĠkÃ¶n ne
ĠFrei handels
Ġelector al
n ism
Ġt ip
ĠIn flation
Ġintegr ity
Ġtyp isch
Ġinnov ations
Ġarchitect ural
Ġp ull
ĠA uÃŁerdem
ĠF oot
Ġrelax ed
ak ed
are l
ose x
Ġausgestatte te
Ġb icy
ar o
Ġpharm aceutical
Ġs ake
Ġein fÃ¼hren
et tet
Ġdec lare
Ġprof ound
sch rank
str and
Ġerforder liche
ĠgemÃ¼t lichen
uer ung
Ġangenommen en
Gen au
ĠK ore
ĠAus bildungs
ĠtatsÃ¤ch lichen
ĠR ass
Ġzw Ã¶lf
Ġmed iterran
Ġverab schieden
Ġquant ity
Ġtransition al
Ġgrant ing
Ġda vor
tr as
Ġbu ying
Ġplan en
Ġce iling
Â ¶
ĠH ill
ĠNet ze
Ġaccur acy
Ġl akes
ĠG R
ĠPl Ã¤tze
Ġrenew ed
Ġerleich tert
ĠFinn ish
Ġafford able
w Ã¤nde
Ġen gen
Ġber uh
gel ung
Ġbro ader
Ġf ru
ĠI G
ĠC S
th otel
oz y
ĠIn tell
ason ic
ĠGU E
Ġforts etzen
Ġtechn isch
Ġvis its
ĠUrs ache
ĠangekÃ¼nd igt
Z ug
Ġg al
ĠT aten
ĠH Ã¤nden
ĠGesch lechter
if ts
Ġver schl
En ts
Ġverpflich ten
Ġdistin ction
Zimmer beschreibung
ĠGefÃ¤ng nis
Ġp ace
ĠUnter haltung
ĠCh ief
land schaft
ĠP ie
ĠEin nahmen
ĠEnt schÃ¤d
AS S
Ġliter ature
ĠR amb
Ġle ichte
Ġeth ical
ĠAltern ativen
Ġs ailing
be wegung
ĠMal ays
Ġflex ibel
Ġt or
Ġm outh
he bt
Ġsu ited
schlieÃŁ t
Ġturn s
Ã ¯
Ġadv ise
ĠDem onstr
ĠFest platte
Ġprogress ive
zust immen
z immern
ĠZ ahn
ĠSte igerung
Ġstress ed
h our
Ġdam al
ha ust
Ġtw in
ĠEin kommens
Ð¾Ð ¼
Ġbehinder ten
ĠM ischung
ĠHa iti
Ġherr schen
ĠZur ich
Ġp ensions
Ã¶ ne
ene ver
roll er
mut lich
Ġdiesbe zÃ¼
H ave
Ã¤ uÃŁer
ĠN obel
Ġvers p
ĠVill age
. *
ĠAn im
Ġch ose
Ġte uer
Ã¤nder ung
ĠOlymp ic
ĠChanc engleichheit
Ġparlament arischen
ĠVene zu
8 00
ĠB ureau
pro gramms
Ġreal isiert
S ever
te enth
Ġzu kommen
ĠerwÃ¤hn ten
8 3
isch t
In stall
Ã¤tz ungen
ĠPal ette
ĠFel der
ĠwunderschÃ¶ ne
Ġw al
ĠK orrektur
Ġdes erve
ib ungs
ĠEr arbeitung
Ġsold iers
Ġther apy
p ert
Ġan f
ĠAustr alien
Ġexhib itions
ĠArzneimit tel
ĠZerst Ã¶rung
ic ars
all ing
ĠFisch ler
Ġterritor ies
Ġelegan ten
k Ã¼ste
wor te
Ġgest artet
ĠAut onomie
Ġarab ischen
k orea
ĠD im
ac ter
stÃ¼ck e
Ġnewsp aper
n s
en cies
ver schm
Ġber ichten
Ġbew uÃŁt
Ġoblig ator
Ġobserv ation
Ġvine y
m akers
ĠI BM
Ġwh enever
Ġspe kt
Ġresearch ers
verb indungen
fun ktionen
Ġcontra dict
ĠHerkun ft
ĠBesch rÃ¤nkungen
Ġverz ichten
pay ers
ĠRepresent ative
' d
J an
our met
form at
gel s
bas is
Ġc row
ro ph
Ġadv ent
Unter nehmen
Ġerheb lichen
Ġprest igious
in stall
le in
ro us
Ġg ym
Ġk ill
ad ed
ĠLatein amerika
Ġzu gestimmt
Ġch at
Ġdeut liche
Ġlog ical
Ġdur ation
ed a
Ġle iten
Ġachie vements
z ing
Ġlange m
ĠWik icars
K W
al ian
le hr
ĠL ibrary
Ġr ing
Ġke ys
Ġempf Ã¤ngt
Ġoption al
Ġautom otive
Ġcook ies
Ġc ameras
Ġprepar ations
ĠTamp ere
ĠK enntnisse
Ġbr ands
zuf Ã¼gen
at em
ĠCo operation
ĠSow jet
Ġin tr
sk a
Ġregul ated
Ġnachhalt ig
Ġcancel led
ĠWelthand els
ĠF utter
ĠV in
park s
ĠVerhe ugen
Ġc ommen
ĠP ilot
Ġcon version
Ġhe ll
St ation
Ġschwer wie
ĠPan orama
ver teilung
ĠSp iegel
ĠImm un
ĠB onn
Ġsub t
ĠBr Ã¼
Ġbenef icial
Ġerstre ckt
D ownload
k es
ĠV ent
ĠD ur
Ġpop ulations
Ġexplicit ly
6 1
n t
sch lÃ¤gen
ĠC E
Ġab gesehen
ĠMon tenegro
ĠBuch st
ĠCook ies
Ġp il
ĠRÃ¼ck gang
Ġpublish ing
Ġschle chte
Ġcatalog ue
m useum
un ting
ĠPh ys
ĠGu ide
L ear
ĠC ab
Ġer Ã¶ffnen
ĠGr Ã¶ÃŁen
klÃ¤r t
ĠGesch enk
Ġel ig
Ġ198 6
Ġconstru cted
T ran
ĠF lag
oss ier
acht ungs
Ġaut or
ĠSouth ern
Ġmechan ical
Ġeinzus ch
ĠÃ¼b lichen
ĠRena issance
ĠU fer
Ġgeb unden
Ġpress ing
Ġundert ake
kap ital
e eing
p akt
Ġper ce
Ġsogen annte
Ġsurve illance
M al
ĠausfÃ¼hr lich
st ate
ĠL or
ĠIn halten
Ġab stra
ĠDe fence
Ġ20 15
oth ing
F T
ĠB Ã¼nd
Ġge habt
schaf ter
orre ct
Ġbeteil igten
mechan ismen
geb Ã¼hren
Ġtr igger
Ġniedr igen
D C
Ġh alt
um ed
ĠIn genie
ĠPr ize
produ kten
Qu estion
H S
ĠR ennen
ĠSt aff
ĠursprÃ¼n gliche
ĠstÃ¤rk sten
ĠOr ts
Ġunus ual
ĠC at
ĠAus grenzung
Ġconc erts
ĠgrÃ¶ÃŁ ter
Ġreve aled
Ġnecess ity
Ġinteress anten
ĠKenn zeichnung
Ġeindeut ige
ĠVertrie bs
g ien
ĠM erc
Ġas iat
ĠMen gen
ĠInd ik
Ġtra ins
Ġkon figur
Ġsched ule
Ġb iod
ar z
ĠVers prechen
Ġident ification
ĠOffen heit
Ġb ist
Ġan passen
ĠE IB
ĠH Ã¼gel
Ġer weisen
per iode
Ġ7 2
Ġchem ische
Ġverm ieden
Bet rifft
Ġst ops
ill igt
Ġste igt
Ġsol o
ĠMar co
Ġproblem los
Ġofficial ly
Ġgenie ÃŁt
Ġall m
ĠForm ulierung
Ġmach inery
Ġfocus ing
Ġdiesel ben
us hing
ĠEr halt
lo v
ĠMit twoch
Ġgemeins amer
ĠDom ain
Ġspl it
s ystemen
Ġer arbeiten
Ġexper iment
ĠEmp fÃ¤nger
ĠBosn ien
ĠL aser
rÃ¤ gen
br idge
ĠEinzel heiten
ĠClub s
ĠPrivat sphÃ¤re
ĠE valu
ra gt
ĠC P
zeich nete
Ġverein t
Ġkomfort ablen
ĠUmst Ã¤nde
ig i
ĠB ou
Ġje glicher
Ġemploy ers
verstÃ¤nd nis
ĠDan iel
Hin weis
we hr
ru pp
Ġfre ige
ĠInter vention
Ġeigent liche
ĠGovern ance
l or
Ġe ure
ĠF ans
ak i
Ġum so
Ġpre vented
Ġsc ulpt
Ġpers ec
Ġprec ious
Ġdeter ior
Ġw Ã¤chst
ĠMo der
Ġcertific ate
i ago
ent lichen
ĠR ap
Ġdies elbe
Ã¤l te
ĠMillenn ium
ĠAusbe utung
Ġein iges
ĠT ief
Ġver liehen
ĠInter ess
Ġ0 6
Ġkomplex en
R ed
ic ted
Ġein treten
Ġle istet
For mat
Ġverw iesen
Ġstre tch
Ge w
ac ted
lÃ¤ ufe
Ġzug ute
Ġp ays
oc ratic
pr Ã¤
Ġ5 1
Ġcent ers
ĠChar me
P at
T ime
Ġm athem
ĠD J
Ġ19 30
pect ives
Ġ198 7
ĠWerk zeuge
Ġneigh bor
5 3
er es
Ġgesch mack
Ġform uliert
Ġsand y
Ġde pr
Ġgreen house
Ġafr ikanischen
Ġrelie f
C op
k as
Ġt ang
Ġun ions
Ġproxim ity
w th
Ġzur zeit
Ġtrans national
Ġeinge laden
ĠProblem atik
ĠWieder herstellung
ĠAllt ag
Ġzu gesch
Ġent s
Ġarr est
Ġsuspend ed
ĠR E
Ġfre ight
Ġred und
Stand ard
Ġse gment
hÃ¤lt nism
Ġzentral er
Ġgegenseit igen
ĠBegr Ã¼ndung
l ow
Ġg eschÃ¤ft
ungs bereich
Ġro ots
Ġdeb ated
reg ular
ĠjÃ¼ng ste
mechan ismus
Ġentreprene urs
c ase
o ung
u v
ĠS ternen
ĠD arf
ĠL ot
Ġver schaffen
ĠStat istiken
ĠDis c
U C
Z E
k la
ij a
ĠBro k
ĠMac ed
ĠLog ik
struktur en
Ġpreserv ed
ĠPartners hip
l t
ĠLie b
Ġcivil ian
Ġign ore
ĠbefÃ¼r wortet
ĠÃ¶sterreich ischen
A bst
Ġb urn
Ġver geben
ann i
ĠUnter drÃ¼ck
Ã¤mp ft
ĠKern el
ĠC ologne
est yle
ĠBe wohner
Ġgel angt
Ġenc ry
ne ider
Ġregion aler
kun st
Ġrech nen
ĠSch war
Ġinter active
Ġdr ives
Ġren omm
Ġadjust ment
p ine
Ġen viron
Ġtra ined
Ġwar s
Ġsm oking
Ġmus ikal
schied ung
wh el
miss ionen
Ġuncertain ty
ĠgÃ¼nst ige
ĠVerst Ã¤r
agent ur
V ier
Ġ198 5
ĠTal iban
Ġermut igen
ĠA ra
ter ung
ĠL ay
Ġge plan
kt oren
Ġmov ies
ĠA T
ĠReg ister
Ġindic ators
Ġconserv ation
Ġordnungs gemÃ¤ÃŁ
ĠKonver genz
ub b
ĠThe orie
Ġfavour ite
ĠBestell ungen
and em
Ġver mutlich
our en
Ġma x
ĠY outh
Ġnegot iated
ĠgewÃ¼nsch te
ĠHuss ein
W est
Z eit
ĠD istribution
Ġle ts
ĠProt est
ĠPf lichten
ĠZun ahme
S tra
m Ã¶glichen
Ġbe her
Ġal uminium
ĠCoun try
Ġfr ustr
Ġsign als
AR D
ĠTerror isten
Ġprem ium
Ã¤ use
Ġst Ã¤dt
Ein er
bring ung
an er
ĠM und
Ġre pl
ĠN RO
Ġdass elbe
Ġreal ize
ĠEx tra
Ġphotograph s
I ES
Ġg ate
ĠZ in
ger icht
k ette
Ġat tended
ard ing
ome ters
Ã¶r m
Ġtrans it
igran ten
Ġgeeig neten
Ġrul ing
ĠVerab schiedung
O pt
Ġf ails
ĠK ra
ĠT ower
ub ringen
Ġcom prises
ĠTher mal
ĠNichtraucher zonen
Ġthreaten ed
ĠGipf elt
F rank
el led
ĠSt raft
Ġtre as
Ġsonst ige
Ġhar bour
Å Ł
Ġver gangen
Ġaus sehen
ĠHand lungen
ĠÐ ´
ĠverstÃ¤r kte
ĠGraf ik
Ġa w
ĠS el
ct ic
ot on
Ġ5 4
ell es
Ġpres idential
Ġtax payers
Ġrele ases
Ġrefle ction
Ġorgan ize
ĠMenschenrechts verletzungen
ĠSyr ia
Ġtelecomm unications
- )
Ġun known
abe llen
ĠPl atten
ĠIm port
k ind
Ġm ater
Ne xt
K ein
Ġt ap
Ġcon form
all o
Ġir ak
Ġlog istics
Te chnologie
Ġrat ified
e b
ĠE co
Ġz un
ĠF akten
ĠW esen
Ġpart ition
akt ions
zus agen
ĠAnd alus
ĠMod ule
ĠGeorg ien
Ġfab ric
Ã¼ro krat
Ġt ruck
Ġw inner
ĠB aden
ĠD est
ĠKomment are
ĠE hr
ill o
Ġintegr ieren
ĠKl ang
ĠMehr wert
ĠSa udi
ĠWÃ¼n schen
Ġbedauer lich
Ġco ckt
Ġab geben
ĠMin ibar
Ġthank ing
spro zeÃŁ
mark et
schreit en
Ġvertra ut
Ġhosp ital
8 4
is ons
Ġdurch zusetzen
Ġtra ce
ĠSe ction
ĠspÃ¤ter en
ĠC ala
ĠKunst stoff
st ers
Ġauf gestellt
ĠVer folgung
Ġref urb
haus en
hÃ¤ltnism Ã¤ÃŁ
z ia
Ġo k
ere ien
ĠN ur
Ġkomp et
ĠPhÃ¤n omen
O U
ĠS ark
Ġk oh
ĠAr c
fe hle
ipp s
ĠDes halb
ĠFunktion ieren
Ġcer em
ĠBÃ¼rgerbeauftrag ten
Ġs ach
Ġein stellen
ĠVer ordnungen
Ġ19 45
bo ot
ĠKommissions vorschlag
Ġster ben
er ver
Ġle it
Ġno on
Ġ5 6
zeich neten
Ġklein eren
ĠPrÃ¤s id
Ġcertain ty
re bt
ĠH Ã¤ndler
Ġbis schen
ĠprÃ¤z ise
g io
Ġb ot
ĠS tell
Be vor
ĠKar riere
Ġill ness
ĠMont i
ĠHil f
Ġhes itate
ic its
ĠJ ugoslaw
Ġhe utzutage
ĠFinanz en
Ġattra ktiv
zusammen arbeit
Ġacadem ic
Ġn utr
men ge
ĠMa ur
ĠOb ject
ĠCons erv
Ġmedizin ische
Ġsupplement ary
w en
Ġw ahre
ĠM are
am ar
Ġnational s
Ġav o
ĠSo ft
Ein en
Ein es
) ).
O G
Ġh af
Ġbe zogen
Ġfeed back
ĠlÃ¶ schen
Sever al
Ġte ilt
Ġsp are
Ġpublic ations
Ġ16 0
Ġdele te
ĠÐ½ Ð°
Ġsen ior
kÃ¶ mm
Ã¶ die
ĠR i
To gether
ĠendgÃ¼lt igen
Ġd okument
Ġbe wertet
Ġl ib
ĠSe en
Ġjust ify
Ġnegot iate
auber n
Ġwert volle
Sow ohl
h ause
Ġf ro
ĠO K
bereit ung
lass ungen
B as
Ġover whel
uer te
ĠRuss lands
l ong
Ġb oy
te hung
Ġz ero
Ġdeath s
ĠDritt staaten
Ġz er
Ġfar ms
ound ed
Ġgerecht fertigt
Ġmist akes
Ġacquis ition
G ibt
end em
ĠauslÃ¤nd ische
ĠBr Ã¼cke
vers icherung
Ġmodern er
Ġpurch asing
Ġrepla cement
ĠBil anz
Ġcloth ing
ĠP ast
Ġver arbeitet
ĠAus nahmen
Ġspirit ual
Ġr anging
ve z
Ġcitizens hip
ĠQu oten
ĠAl so
Ġmon ument
lass ung
D is
s ub
ĠOr ch
hÃ¶ he
Ġwachs ende
l ink
p unkten
ck ing
ĠAbgeord neter
Ġcla imed
Ġschle chter
ĠF Ã¼nf
oc ument
Ġbas ieren
ĠArbeits zeit
Ġ14 0
leit ungen
Ġcamp s
sta ates
Ġpattern s
ĠFischereip olitik
id ance
ĠDe posit
Ġ5 3
us ste
ĠB ach
ism o
Ġger inge
ĠGesch le
an gel
ar ier
ill es
sp rechend
ĠMÃ¶ bel
C ho
an as
im o
ĠW under
ĠIn tens
ĠProdu ktivitÃ¤t
ĠDienst leistung
Ġdemonstr ates
in th
ĠS ich
Ġad m
V C
Ġin fe
e qu
as p
Ġfe hlen
Ġprivile ged
T ool
Ġa rom
Ġal ike
Ð¾ ÑĢ
Ġemer ged
ĠErd be
ĠHeil igen
Ġmittl ere
metho de
ie fe
Ġcom o
Ġunter scheidet
Ġem bar
Ġdownload ed
Ġb lieb
ĠSum me
Ġun gewÃ¶hn
ĠGebÃ¤ uden
Ġangeboten en
K e
S an
Ġauf einander
ĠIn stit
pro jekt
pro bleme
ĠBr idge
red ite
Ġorganis ierten
Ġret ten
Ġmov es
ĠMet rop
ocol ate
Ġreligi Ã¶sen
S eite
Ä ħ
ers tellung
Ġpass ieren
gre es
ĠSÃ¼d afrika
Ġspiel te
F C
u ania
Ġ `
ab a
ĠBe z
Ġins ert
ĠGro ÃŁen
B ER
ĠW ett
ĠW ille
Ġim ported
Ġmy th
Ġsign ing
Ġocc urs
ĠKlimawand els
ĠGen uss
Ġpub l
Ġ900 1
Bre akfast
d isk
er zeug
ĠA SE
ĠâĢ ¢
Ġorganis ierte
ĠKl assen
Ġrat io
Ġdesign er
Ġgener ous
Ġjud gment
Ġworry ing
ĠAus Ã¼bung
Ġacc um
wer ber
ĠMenschen rechten
haus halt
ĠErfolg s
Ġannoun ce
Ġkomplex e
ĠAben teuer
v ens
ĠB uen
Ġst range
pl Ã¤tzen
Ġpre de
Ġdef icits
ĠFort setzung
ĠhÃ¶ch ster
Ġconsist ently
ĠCal ifornia
Ġheav ily
Ġ Ã¶rt
ĠAd v
Ġtyp ically
ĠBÃ¼ hne
Bes uchen
apt op
ĠUrspr ungs
ĠWÃ¤l der
Ġs enten
ĠS MS
ug nis
Ġdar gelegt
ĠTe e
alt ies
trag s
sch icht
Ġch ron
Ġph ones
Ġarg ue
Ġorient ation
fÃ¤ ll
Ġbureauc racy
Ġaus fÃ¼hren
Ġpat ents
ĠTÃ¼r en
Ġinterv ene
Ġeinstimm ig
ne iden
ĠAn gabe
Ġen rich
ĠBe ij
ĠBe urteilung
Ins gesamt
ĠL en
ĠMein ungen
ĠJugend liche
ĠMobil tele
ĠVerl Ã¤ngerung
Ġchemical s
E bene
p la
Ġf anden
ab ile
ĠL ob
Ġnot ified
lim inary
ĠFest stellung
plan ung
Q U
Ġe gg
ĠK uba
ina he
Ġapplic ant
Ġbeschleun igen
ĠGemÃ¼ se
ĠAn reize
Ġbesch reibt
ĠSan ter
miss ions
Ġempf iehlt
ĠwÃ¼n sch
ĠBelast ung
ĠKonjunkt ur
ain er
Ġform ation
Ġaufge fÃ¼hrt
Ã¤ llig
Ġ( âĢŀ
ĠfÃ¼ llen
R aum
Ġbe inahe
Ġge ograf
Ġges ichert
ĠNord ic
ĠErzeug ung
ĠK ost
Ġk Ã¼nst
Ġapp arently
Ġdown town
Ġbesch lieÃŁen
ĠSh ang
Ġheraus ra
ĠCh a
Ġcontrib uting
bl att
Ġmand atory
Ġfavor ite
ol as
ĠK im
ĠL E
Ġgrunds Ã¤tz
ĠAdri atic
an ien
le ucht
ĠP oint
Ġre cession
ĠAn wesenheit
Ġcoun cil
Ġspec ify
zub ringen
Ġcoordin ate
ĠSpekt rum
ig s
ĠD ER
isten cy
Ġclos ing
ĠSchutz es
kom peten
Ġchurch es
T ur
Ġf lying
Ġnot ably
ub lish
N ie
Ġcon ventions
Ã¼n der
Ġcreat ure
Ġvereinbar ten
t est
fahr ts
Re zeption
kon zept
ĠZus tell
ĠEinwander er
Ġwithdraw al
ĠLiter atur
men Ã¼
K om
N etz
Ġgel assen
Ġair line
En d
ĠIst anbul
sekret Ã¤r
ĠGro wth
OR T
ĠKern kraft
ĠSlow en
ĠJos Ã©
u gend
ĠS or
ĠWert pap
Ġcompeten ces
m ont
sch we
Ġindic ates
T est
Ã ¦
st ern
ĠJ ordan
Ġwhere ver
ĠKont in
Wer den
ĠLang uage
Ġd ating
Ġim bal
ack en
Ġunanim ously
ĠR ural
fahr ten
uff s
Ġmaxim ale
Ġtoile t
tegr ation
Ġadvert is
Ġsem i
ĠErwÃ¤ gung
ĠOste uropa
ar ious
est het
ĠTechnolog ies
Ġeigent lichen
Ġunbe k
Ġelder ly
ĠF R
iz ar
ĠKÃ¼ chen
produ kt
Ġdemokrat isch
Ġspekt akul
Ġgeplan ten
b rechen
d est
ĠK Ã¤
ĠC athedral
Ġdis plays
irt ual
part y
ĠErgÃ¤n zung
Â ·
in ischen
ĠZ imbabwe
ĠIn tel
anz ar
uell er
Ġqual ifications
ĠWill iam
Ġevalu ate
ĠErn st
lad ung
vertre ter
A gain
ĠM is
gen eration
Ġviol ent
Ġausreich ende
Ġsil ver
Ġintell igence
roh ungen
W E
et schen
Ġre ibungs
Ġpla cing
Ġtechn ischer
Ġweiter entwick
hol fen
EC T
ĠÃ¼berw acht
mel den
ĠKapaz itÃ¤t
z ert
sp iele
zu arbeiten
Ã¨ re
ĠBetr ug
ĠBeij ing
el ter
ĠÃ¼ber geben
Ġeigen stÃ¤nd
sprÃ¼ chen
M E
Ġall ocation
Ġlie genden
Ġsystem atic
Ġprec ision
Ġdrink ing
Ġcred ible
Ġengl ischen
E uro
ing ual
Ġref und
Ġexperien cing
reisen de
Ġhorizont al
k Ã¶rper
Ġne hme
ĠAn trÃ¤ge
ĠBet roffen
tain ment
ĠB ow
ĠR ic
Ġbed e
ĠSup erm
Ġre ven
ĠD afÃ¼r
ĠSt ufe
A K
od ox
ĠLa den
Ġreturn s
Ġca ught
ĠGast freund
ĠK atal
tr itts
Ġha us
Ġsag ten
un ta
Ġb at
ĠM ahl
sch land
ĠD ampf
Ġco oking
ĠAn aly
Ġviel seit
az in
ĠEnergie quellen
bre ite
ĠDiv ision
ĠRefer endum
ĠS ri
Ġz iel
Ġke en
Ġausge de
ĠBerat ungen
ĠSteuerzahl er
Ġ Ã¤ndert
ĠE sp
ok ol
Ġinter med
ĠMa jor
Ġcop ies
ĠHaup tz
y ssen
Ġb Ã¼rokrat
Ġp asst
am per
Ġr ating
Ġle ather
enn bar
ĠKon vention
Ġfinan ced
Ġconver ted
Ġgel ingen
ĠFranzÃ¶s isch
. âĢ¢
le bens
Ġc ir
Ġpl atz
ĠRez ession
T EN
o ge
ĠH yp
ĠVer ts
Ġanswer ed
ĠSocial ists
Ġein nehmen
str Ã¶
ĠOr der
Ġdirect ions
Ġimpos ing
ĠF igur
Ġer hol
Ġange legt
kur se
Ġt onnes
ĠM ol
ĠIn haber
oun der
ĠVerb ind
Ġmeas uring
ĠUp dates
Ġprem ises
o fern
Ġre geln
ĠÃ¼ber legen
ĠSol utions
Ġsonst igen
Ġtim ely
Ġvorbe halten
Ġge leitet
ĠAb schluÃŁ
Ġsent ence
Ġehr lich
ĠFrem d
ĠGeb Ã¼hr
ĠEnerg ies
Ġchar ter
Ġpotential ly
Ġinn eren
Ġgewinn t
C R
Ñ İ
ĠJ ud
Ġab sch
ok us
Dies en
Ġbef re
Ġvict im
Ġslow ly
H R
ĠLe id
Ġeing ereich
ĠAut oren
Ġiniti ated
ĠFerienwohn ungen
D anach
u ary
Ġder jenigen
ĠRahmen bedingungen
ĠYugoslav ia
k Ã¼nfte
Ġm ak
ĠStr asse
Ġhuman ity
onen te
Ð¾Ð »
ĠAngel es
f i
ver ter
fol genden
Ġarch ive
ĠAss ist
Ġschwier iger
ĠPan oram
Ġver zeichnen
ĠX V
Ġs essions
ĠD ort
Ġpro curement
zu gehen
voll es
lager ung
ĠVerletz ungen
H el
W ichtig
Ġver grÃ¶ÃŁ
Ġintegr al
Ġgelegen en
Ãº n
Ġde grees
ĠBr ut
Ġsum m
Ġeinger Ã¤umt
ĠS amsung
Ġj oy
rat t
ĠArbeits losen
Ġkomfort abel
ĠHeimat land
Ġinten se
ed ge
ul us
me ll
Ġdis m
fahr zeuge
Ġaccommod ate
Ġsil ence
Ġmedizin ischen
Ġtrop ical
Ġpursu ant
Ġverwirk lichen
ic ers
ĠjÃ¤hr lichen
ĠMarok ko
ier bar
ant as
Ġrest aur
Ġgrat is
ĠBerat ungs
on ts
Ġunter wegs
icher ungen
Ġvis itor
Ġdecl ar
Ġgeist igen
ĠExt rem
R ad
ĠE lev
ĠK Ã¶r
ĠPresident s
Ã¼tz ten
Ġconf ident
Ġteil zunehmen
Ġlight ing
Ġberuf lichen
Der zeit
Ġins ofern
Ġbeg Ã¼nst
Ġeigen em
hol z
gleich en
ĠVis um
Germ any
c end
i ÃŁe
un n
Ġb id
ab kommens
la u
ĠEr be
Ġbed ienen
Ġgar age
Ġkeep s
Ġcreat ivity
Ã¼l le
ĠspÃ¤t estens
ĠFÃ¶der ation
Ġp m
ĠK lin
Ġstatt dessen
Ne ue
ĠFrÃ¼hstÃ¼ck s
l us
al and
Ġst Ã¤ndige
ues day
Ġmarg inal
Ġallm Ã¤h
Ã¼r ft
ant a
Ġ9 8
ĠDarf ur
ĠCon c
ĠÄ Į
ie v
Ġv irus
Ġcontract ual
Ġdisp utes
ĠScot land
M P
Ġm ale
ĠVerteidigung spolitik
ĠInkraft treten
h Ã¤n
l Ã¶sen
ĠG ate
hl er
Ġass urance
ĠGrund sÃ¤tzen
ĠInter pret
ĠSup erv
Ġmunicip al
m ax
fen ster
ĠGeschÃ¤ ften
ĠKo operations
Ġsy mpt
Ġpurs ued
ĠKonstru ktion
c ut
Ġst ance
ht tp
ĠÃ¤hn lichen
ĠBeschwer den
ĠKonzentr ation
f Ã¶rderung
ont o
dom in
Ġedit or
Ġbiod iversity
M ake
k ov
Ġo verse
ĠF ried
ĠC lean
ĠJ ane
Ġsch uld
Ġpol nischen
Ġindustr iellen
schl iess
ĠgefÃ¤hr den
ber at
Ġwieder her
rÃ¤ gt
ĠG Ã¶
ĠLe uten
Ġagre es
Ġhead quarters
ĠVermitt lung
ĠTarif a
D ollar
sch es
de fin
Ġaus z
ahr scheinlich
ĠGe fÃ¼
Ġrespect ively
Ġz ones
Ġzeit genÃ¶ss
Bus iness
t licher
ĠAn kÃ¼nd
ĠDe leg
Ġmag ic
ĠDat ens
ĠEinsch rÃ¤nkungen
Weiter hin
ĠSpann ungen
P ass
Ġo s
ic ular
ĠG il
all eng
ht aking
Ġpers pectives
Ġwarm ly
ch i
ĠD IN
og n
Ġhand led
ĠEinsch Ã¤tzung
ĠMuse ums
ĠFlÃ¤ chen
Ġworksh ops
Ġis n
ĠB und
ĠâĢ ļ
Ġvor gehen
ĠIsrael is
Ġlok aler
7 9
s ituation
la ÃŁ
spro du
ĠVis ual
st het
wirtschaft ung
Ġunemp loyed
Ġarbitr ary
ie tet
ĠM ary
ĠC AN
Ġst ays
ĠPr Ã¤sentation
Ġhe ated
Ġmy ster
Ġfind ings
Ġsc ore
Ġapprec iated
Ġinakzept abel
6 3
ĠG Ã¤rten
ad d
Ġpos ted
h Ã¤ndler
Ġf ein
aut omat
ĠVertre tung
Ġober en
ch ar
ĠC irc
Ġch amber
St at
ĠSÃ¼d tirol
ĠHoll and
h att
an alyse
ĠG T
ĠG allery
Ġent ries
Ġfit ted
ĠPic ard
ĠCond itions
Ġfact o
Ġtal ent
Ġbelieb igen
ĠDistr ict
Ġrespekt iert
Ġbeeinfl usst
m ma
ĠL uk
gr Ã¼nden
bet rag
Ġpassen de
M C
Ġterm inal
Ġhy dro
Ġerf asst
Ġ â
ab eth
ĠÃ¤rm sten
Ġcr ash
Ġexpos ure
Ġsuggest ion
y en
Ġs tet
ac a
ced es
Ġlow est
ĠSy mb
ĠWien er
L aut
ge ld
ĠP ent
ĠC reat
Ġsh ot
ĠAb teilung
aut y
schl Ã¼sse
recht lichen
Ġruh iger
ĠS ong
Ġex haust
ĠNe ue
Ġtele fon
Ġparad ise
ĠPalÃ¤stinens er
ig nen
ĠGew inne
Ġtreat ies
Ġerb aut
ĠKonsult ation
d re
ĠM eld
Ġernst hafte
Ġerneuer baren
s ame
Ġer w
ĠAr zt
Ġoccup ied
ĠTab elle
ĠLic ense
Ġj ung
Ġtra il
Ġfol glich
ĠTerm inal
Ġconv ince
Ġt ight
az ione
gew alt
Ġir regular
itÃ¤ts prinzip
Ġkosten frei
m ap
r iz
ten ds
ĠH P
Ġbes tens
Ġgesch ickt
Ġspecific ations
ĠBeschÃ¤ft igten
S a
s ession
Ġw ake
st rom
ĠA re
ot yp
be lla
Ġpract ically
Ġterror ists
Ð¾Ð ´
Ġjem als
ĠVerhalten s
f ungen
Ġp apers
chnolog ien
Ġbl ame
ĠWachstum sp
Ġpo et
laus el
ĠLith uania
ĠS org
ĠC L
Ġtrans formation
ĠBl umen
Ġbew iesen
ĠRegional politik
Will kommen
Ġessen ce
ĠH at
Ġlas er
Ġscr utin
Ġex terne
Ġlie ben
ĠRÃ¼ck en
ĠUnivers al
Ġkontinuier lich
ĠRass ismus
Ġs q
re ben
Un til
Ġdet rim
ĠRaum s
ĠDemoc ratic
Ġkomp at
Ġunterb reiten
Ġdoll ars
ĠC e
ĠAn bindung
Ġspecial ities
Ġinvest iert
Ġvolle m
y t
hers teller
ĠAnhÃ¶r ung
Ġ Ã¶ffnet
ĠV it
Ġinde pend
Ġcover age
Ġbeizut ragen
cript ions
ĠTreib haus
b ahnen
Ġv iable
ĠEr Ã¶ffnung
ĠEin blick
str ateg
ĠGew inner
ĠB R
ĠK it
Ġ197 9
Other wise
G P
es k
ĠC ad
ahr ung
Ġper ipher
Ġsol ved
ĠMar x
Ġass ured
Ġtechnolog ische
Ġtemper atures
ĠRub rik
ĠerÃ¶r tert
on ed
ion ed
ol s
ĠL ad
Ġalle ine
Ġher kÃ¶mm
ĠProdu zenten
Ġerweiter ten
ĠD ich
Ġbra in
Ġplatform s
Ġausgew Ã¤hlten
ib iot
enn a
telle kt
Ġexpand ing
ak ings
Ġ3 60
gang s
ĠKons um
Ġf ot
Ġsch enken
Ġwind s
d os
o que
Î µ
Ġein drucks
ĠW W
ĠGeb ir
Ġgest iegen
Ġneg ativ
Ġperform ances
Ġdescrib es
Ġcrop s
z el
Ġer adic
Ġdes irable
Ġbedau ere
Ġbe wirken
ĠO cean
ĠPr Ã¤m
ast ing
ĠBar on
Ġfort gesetzt
ĠMehrwerts teuer
ĠSwimming pool
and om
ik alen
ges tellte
Ġre iz
ĠR ang
ĠVers uche
Ġdefin ing
Ð½ Ñĭ
nehm ung
Ġlov ers
Ġauf gerufen
ger Ã¤ten
w els
Ġt ips
al itÃ¤ten
ĠK rÃ¤ften
ver z
ue ber
ĠArgent ina
Ġbreat htaking
ĠK G
ĠC orn
ver fahrens
Ġab schlieÃŁend
igr ant
Ġpromin ent
Ġth row
et ition
ĠK inn
gesch oss
ĠTun es
ĠMade ira
ĠplÃ¶tz lich
an es
ĠUnter lagen
ĠGer ichten
Ġt ur
ĠR ind
Ġzwe ier
Ġvo ters
AC K
Ġparad ox
Ġworksh op
ĠAn hang
Ġche ese
Ġkrit ischen
ĠVerl uste
ĠH alle
ĠÃ¼ber mittelt
Ġges tellten
lin ess
Ġview ed
Ġkosten gÃ¼nst
ĠAss ozi
Ġersch ienen
Ġdisapp ointed
o hne
ter y
Ġk re
est y
ach es
ff icient
ĠPr est
Ġweit aus
olog ischer
Ġrece ives
Ġenlarge d
Ġruss ische
ĠSloven ia
se h
ĠFor ce
CO D
ĠMerk male
kapaz itÃ¤t
ÐĵÑ ĺ
Ġcontrovers ial
an schluss
ov ers
Ġtrans mit
ĠVers orgungs
Ġexpla ins
Ġangene hme
ĠDa zu
Ġunderm ine
C ap
z iger
or able
ar g
F P
uss en
Ġdec ent
Ġfa ire
mus ik
ĠM ix
ĠDe cl
ĠBud dh
a ure
te am
Ã¤r enz
ĠSant iago
Ġharm ony
Ġeingesch rÃ¤nkt
ĠBeob achter
es ion
Ġge heim
ate ur
Ġcompar able
Ġthorough ly
Ġk ids
ĠSh opping
Ġcho osing
pporte ur
ĠGet re
Ġchamb res
Ġin begriffen
Ġun pre
el en
ĠNe ph
Ġein ander
Ġwer fen
Ġent worfen
For m
Am end
Ġtalk ed
V ER
Ġl in
ad as
ak is
ĠBer ater
Ġmod ular
Ġavo ided
Ġse es
ust ic
Ġsett led
ĠCo ast
schw ung
Ġbi ological
Ġniedr iger
M ain
Å Ľ
Ġv ot
ĠV I
Ã¤l tere
fass ungs
g ast
ĠSch lieÃŁ
Ã¤cht igen
Ġpartnership s
Ġscen ery
ĠÃĦuÃŁer ungen
w ich
Ġf lav
Ġm aps
con i
Ġgraph ic
h uman
Ġsubstantial ly
Ġisrael ischen
Ġf ern
ĠVer markt
Ġfund ed
Ġautomat ische
AS T
ĠPrÃ¤ vention
Ġerwor ben
Ġvon einander
ĠAussch Ã¼sse
N utzen
b aum
h armon
er re
Ġt urb
Ġre ct
ĠK ne
ĠR EA
Ġcomm end
Ġpre liminary
Ġdevelop s
acht ungen
clus ive
ĠUN D
Ġfair en
ĠBew Ã¤ltigung
p ost
Ġf rank
as ste
ig ter
Ġst roll
ĠLe hren
Ġange wiesen
Ġteach er
f acht
Ġm ild
ĠMar g
ĠPal acio
ĠÐ ¼
Ġsw ift
ĠElekt ronik
Ġacqu ire
ĠS H
ĠL ind
pl Ã¤ne
Al tern
hib ition
Ġswe et
Ġt ank
Ġconsequ ently
Ġemer ge
Ġmeant ime
Ġincred ible
t urn
Ġge handelt
Ġerst aun
Ġdev ast
ĠVergn Ã¼gen
ers atz
ĠElev ator
ĠIn halts
Ġohne hin
Ġemphas ised
I r
Ġb are
Ġnon etheless
ĠJu an
Ġphotograph y
ĠgÃ¼lt ig
Ġgeb ildet
Ġsens it
Ġperform ing
greif ende
ĠVo gel
krit erien
M er
ĠG alerie
ru he
ĠVor feld
Ġform ula
ĠBes teuerung
Ġverw alten
ĠerwÃ¤hn te
F il
Ġein be
Ġmin eral
Ġbegr Ã¼ndet
Ġl ohn
ĠVer t
Ġaus gesch
Ġi z
atur en
ĠArbeits gruppe
Ġret ire
ĠDire ktor
ĠWart ung
ch tern
Ġnot ion
Ġ4 50
gesch ritten
Ġundert akings
Ġce ase
ĠendgÃ¼lt ig
Ġhair dr
Ġexch anges
Ġr ivers
Ġhe ft
Ġgel ernt
ĠIs ol
ĠOrd ner
ĠS ien
Ġg od
Ġnach denken
oll ah
Ġfin est
Ġdist urb
ĠTour en
Ġsin cer
ĠBedien ung
Richt linie
ĠG ulf
ber ichte
Ġfe as
Re al
ĠGegen wart
fu hren
Ġscre ens
ĠRuÃŁ land
ĠW alk
ĠIran ian
ergeb nisse
alleng ing
G lobal
ĠUn ser
me idung
Ġag ent
lÃ¤ ub
Ġgrundlegen der
ĠHekt ar
ĠHerr schaft
ument en
ĠMot to
Ġeinzu gehen
est ag
Ġgesch afft
ĠWeiÃŁ buch
emiss ionen
Ġf Ã¤hrt
Ġfor ese
Ġass ert
Ġbef ind
Ġunterb reitet
Ġmel den
is y
al teten
Ġbe arbeitet
ĠBÃ¼ ros
ĠFert igung
ĠSchne e
ĠShang hai
H our
ĠStud ios
ĠZustÃ¤nd igkeiten
Ġaktual isieren
Ġtrib ute
Ġschritt weise
d f
if i
ĠAn dr
ilt on
Ã¡ r
ĠFunktion alitÃ¤t
spe cific
Ġworth y
h Ã¤usern
Â Ĵ
Ġin cur
Ġp ine
ĠL ern
Ġrecht fertigen
Ġdemokrat ischer
ĠEing abe
ĠE ver
ĠT orre
ag ger
Ġinter institutional
Ġdisc rimin
ĠPal Ã¤st
Ġinc orrect
Ġkonstru ktive
ĠM ost
ĠSt ich
Ġsign ature
Ġze igte
Ġexpress ing
'' ,
ĠMedik amente
an on
Ġun stable
ill en
ĠCap ital
ĠZur Ã¼ck
ĠerÃ¶r tern
ĠA ust
ĠL AN
ett a
verb and
Ġpaint ings
ĠC ockt
pro jekte
Ġra ises
Ã¶ÃŁ t
Ġsens or
Ġdraft ing
ĠT os
ĠH ein
ĠWe llen
Ġzwe ck
vent h
ĠKonferenz en
unk el
person al
Ġcontroll ing
ĠIb iza
anzar ote
M B
r ichtet
in j
un ken
Ġh ors
Ġer langen
Ne hmen
Ġpot ent
best Ã¤nde
Ġcentr ally
stat us
Ġdetaill ierte
Men schen
ĠerlÃ¤ut ern
M ails
f eit
ĠM auer
Ġver deut
ĠUnter zeichnung
ĠBes itzer
ĠOrgan ization
!! !
Ġcelebr ate
Ġbilater alen
S ign
ious ly
ĠAl bert
ĠMa zed
Ġconf usion
ĠvernÃ¼nft ig
ĠSchwimm bad
ĠSch rif
ĠVor gaben
Ġbir ds
ĠKreat ivitÃ¤t
f ix
it udes
is ol
op ing
itz ung
ĠÃľber leben
ĠIraq i
Ġs hr
Ġab gest
Ġad mitted
Ġarbeit s
ĠCommun ist
Ġdeclar ations
L es
s q
Ġcry stal
Ġped estr
Ġp act
den k
Ġge ein
Ġj Ã¼d
ĠEin st
Ġget Ã¶tet
ĠWelt wirtschaft
Ġfinan ces
Ġstat istical
Ġsoc io
ĠSitz ungen
Ġlic ence
Ġther apeut
ĠS erien
ic as
wo hnt
ĠBar n
Ð½ Ð¾
b is
Ġb ag
ĠN ight
ĠSch eitern
Ġhin der
ĠKon zepte
ĠAir es
Ġsport ing
Ġexec uted
Ġlov ed
Ġbelong ing
R em
b em
ir ds
ĠÂ °
Ġerfolg te
Ġangeb lich
Ġeingeb unden
Ġcapt ure
Serv ices
B Ã¼rger
k in
Ġbe auf
Ġl ob
ĠR Ã¶
ĠR og
ĠL uz
Ġwir tschafts
ĠGel Ã¤nde
ĠnÃ¶t igen
verschm utzung
Ġp iano
Ġein halten
Ġk Ã¶st
ĠD own
ungs maÃŁnahmen
ins ula
ane ben
Ġregul ate
Ġbeit rÃ¤gt
Ġkommer ziellen
Ġkonzip iert
Ġvor hin
anc ies
Ġerinn ere
ĠMittelmeer raum
f le
f ried
Ġw ages
urch t
be an
ĠgrenzÃ¼berschreit ende
ĠAnton io
osev ic
Ġun best
ge fÃ¼hrt
ste chn
ĠEigen schaft
Ġfear s
S ystems
Un ivers
Ġemiss ion
ĠAtlant ik
ĠÃ¶rt lichen
H y
Ġre press
ĠCh ines
Ġneg l
Ġgute m
Ġisol ated
Ġb ien
ic op
Ġbe gangen
ĠBe werber
Ġje opard
ĠEigent Ã¼mer
Ġautom ation
cont rol
ĠWeiterbild ung
ĠP az
Ġfr ucht
Ġbeg leiten
ĠArbeits bedingungen
Ġprohib ited
Ġgebrauch t
ein heit
ĠEr ne
AL L
Ġgelegen e
ĠKoh le
ĠAp ache
ĠBetroffen en
ĠUn fall
Ġes te
Ġcom press
Ġinter action
Ġgu itar
Ġgewiss er
ĠConsult ing
oc ial
ick e
Ġdam aged
ĠRo ute
reg ungen
ĠFlug gesellschaften
ĠJun ior
k rÃ¤ften
ĠH i
ess ing
ĠBe haupt
ĠComm er
ĠPe ace
if er
Ġreal isieren
Ob viously
ĠHoch zeit
aw a
at ile
st Ã¤nden
ĠC ert
ĠN OT
Ã¤l sch
Ġpublic ly
Ġtell s
Ġign ored
Ġkrit isiert
ĠvernÃ¼nft ige
ĠSyr ien
Ġw omit
ĠB atter
ĠF ace
ĠF inger
ĠSte uers
ĠFe ed
Ġless on
ĠAktiv itÃ¤t
Ġwatch ing
Ġacknowled ged
ĠAttra ktionen
m y
Ġ Ã¤ltere
ĠMar ine
ĠFre il
R om
a id
Ġsp ots
com ings
ĠInnov ations
Ġbeur teilen
h ost
hen de
Ġreal en
ĠEnergie politik
ĠGu ant
m esse
ie ter
ĠL ong
ĠCh ir
arbeit eten
Ġincl usive
G est
Th ree
ĠParliament ary
Ġkon kurr
Ġconvenient ly
m ag
un en
Ġf ate
Ġsh ame
Ġfo ught
Ġequ ity
ĠEing rif
ĠCol omb
ĠTrain ings
l s
Ġz ielt
ĠC ro
ass age
Ġch airs
Ġthem es
ĠHÃ¶ hen
Ġdipl om
Ġhop ed
Ġbatter y
\ "
Ġaus gebaut
ĠPr int
ĠQ uell
Ġequ ip
Ġunver z
Ġeinger ichtete
Ġexklus iven
P reis
ĠL ido
date i
bie tet
Ġmith ilfe
D ec
k ord
Ġpr ere
me id
Ġcr imin
Ġmodern es
Ne ws
Ġcharacter ized
Ġklim atis
Ġpropr iet
un ately
end ungen
Ġab und
Ġcos met
Ġbureauc ratic
ĠLeban on
Similar ly
L ocation
_ _
y ou
Ġst Ã¼tzen
erm ark
Ġ% ,
Ġshe ets
ĠMÃ¼ ller
Ġverbesser te
ĠM ug
Ġauf er
Ġne ol
Ġbed auern
ĠHaus halte
ĠPlen ars
Amer ican
A fr
P ublic
Ġa ux
ck et
for mer
Ġsc andal
auf gaben
Ġfulfil led
Ġincent ive
ĠKapaz itÃ¤ten
f ur
un er
Ã¤t igen
Ġsp an
Ġaut o
ĠMin eral
Ġengine ers
Ġrat ifiziert
ĠReal isierung
t ax
Ġs uff
ter a
ag l
Ġsch ol
Ġmeas ured
ĠMinister rat
Ġinteress ieren
Ġthough ts
Ġregistr iert
athed rale
D istribution
j amin
on sten
re formen
Ġch allenging
ĠPar ks
ph p
Ġshort comings
ober flÃ¤che
Ð¾Ð ³
ĠC in
Ã¼r fen
ĠV eg
los er
sk y
ĠJack son
Ġregrett able
Ġmult imedia
Ġtort ure
ut ze
th al
Ġall oc
b els
ĠJ av
als o
Ġfl owers
ĠtÃ¤t igen
ĠgewÃ¼n scht
Ġzunehmen de
Ã¼ ten
th umb
Ġsch reibt
ever kehr
lim ate
ĠJac ques
ĠN ull
ĠBe zahlung
Ġgr Ã¼n
Ġtechnolog ischen
Ġtyp ische
ĠVorred ner
c m
Ġfood s
OR E
Ġcirc uit
freund lich
c am
ĠT uesday
ĠH istory
Ġse ch
Ġalle ged
ek ing
Ġeinzu halten
Ġhaz ard
C enter
ste p
ĠgrÃ¶ÃŁer er
immers ervice
h ops
es tet
Ġre jection
Ġauf richt
Ġange fangen
ĠGeneral dire
Ġgenet ic
Ġenviron ments
us a
Ġco des
ĠSubsidiar itÃ¤t
ĠBeweg ungen
g ert
fl Ã¼ss
Ġgu idance
ĠChr isten
spar ungen
ĠOs lo
ĠVenezu ela
or al
us ten
Ġcomplex ity
ĠInstrument en
Ġcondemn ed
ier er
ĠLe hre
schutz es
ĠSchiff s
ĠZin ss
Ġun fortun
ĠG lo
Ġ- >
geb Ã¼hr
Ġout set
An frage
Ġfehl er
ĠAuftrag geber
, ...
ĠS ho
ĠC av
ĠL uggage
Ġde pos
An geb
ĠMe tern
Ġglobal er
ĠVerantwort lichen
Ġmonitor ed
Ġdownload ing
Ġwarm ing
ĠKomprom iÃŁ
Ġerreich te
Ġs alt
Ġaus reichen
ĠBe h
he ar
ran e
Ġ3 000
ĠÃľber arbeitung
ibr aries
Ġschle chten
ĠZuf riedenheit
ĠArgent in
ĠGipfelt reffen
ss icherheit
Ġbro ther
ĠPh oto
Ġherr liche
ĠDis ziplin
Ġbrut al
M ult
a ppe
le ister
ra els
Ġdem ographic
iste te
CH O
Ġvol unte
eto oth
Ġmi xt
Ġconj unction
Ġ **
erv ers
Ġbro ws
lei h
ÑĤ Ð°
ĠTechn iken
Ġkurzfrist ig
Ġt esten
Ġe cht
de z
ĠRe lease
Ġgovern ed
Ġfal schen
ĠenttÃ¤us cht
D ienst
be finden
Ġcomp are
ath on
lag ert
Ġerziel ten
Ġbran ches
ĠHann over
Ġin ex
ĠF uj
ob s
ĠGeb ur
Ġfound ing
Ã¼t ter
Ġnam ens
Ġsubsid iary
ĠvielfÃ¤lt igen
ĠOptim ierung
Ġinqu iry
Ġder artigen
ĠE D
ĠP est
Ġdem onst
Ġges onder
Ġgr Ã¶s
els on
ĠTemp o
Ġher o
Ġans onsten
Ġbevor stehenden
Ġlack ing
Ġuner lÃ¤sslich
Ġnorm ale
Ġdistin ct
b ilder
w ass
Ã¼ cher
ad ium
aus enden
Ġbesch reiben
ĠSemin ar
ĠUnterdrÃ¼ck ung
F F
m aster
ĠC all
ĠO t
Ġreal ized
condition ed
ĠbekrÃ¤ft igt
F est
Ġreturn ing
Ġaccep ts
ĠmÃ¼nd lichen
ĠLegisl ativ
m esser
ab end
ĠAb u
lin der
Ġgu ilt
haf en
spro zesse
Ġtransl ations
ĠSchaden s
dis ziplin
Ġautonom y
ĠL aur
Ġges ammelt
Ġ198 4
ĠSu pp
ĠCr ist
ĠG n
ĠK od
ĠD ist
Ġunter halten
Ġweiter zu
Ð½ Ð°
ĠSpezial isten
ĠFA Q
b ot
c uss
Ġth read
Ġdepart ments
ĠGepÃ¤ck raum
es c
ĠL aut
ĠZusammen setzung
ĠLebens mitteln
ĠArm y
ĠerlÃ¤ut ert
el ing
Ġmir ror
Ġfinanz iell
ĠEas y
Ġtransatlant ic
ĠErwachsen en
b eln
ĠB aus
Ġab zusch
ph an
Ġemb ry
ĠSD L
Ġmitge teilt
L Ã¤ndern
as tet
Ġre verse
ĠK am
ĠBesuch ern
sch ra
ĠW ales
and elt
ĠCh at
Ġ9 6
Ġteil genommen
Ġsty les
b ast
in ental
Ġh ielt
ĠK ult
ĠV i
ĠZ ubehÃ¶r
th ly
ĠAn na
war ten
Ġstruct ured
Ġhon or
Ġincor porate
wechs lungs
P olit
b ungen
on z
Ġun like
us er
Ã¼ tern
ĠU V
Ġex cellence
ĠAuf forderung
Ġsurv ival
ĠStabilitÃ¤ts pakt
in formation
ĠA er
av en
iger weise
Ġcharacter ised
ĠStad ium
Ġabandon ed
Z e
Ġk ulin
Ġsch licht
ĠAb stand
Ġoff icer
Ġpar ameter
Sch l
ĠKan al
Ġsurv ive
ĠVerk Ã¤ufer
Ġunfortun ate
f assen
Ġan zeigen
ra ge
ĠR ande
ner gy
Ġir ische
Ð» Ð¸
ĠPalest ine
le hnen
Ġden k
ĠAn griffe
Ġent scheidet
ĠOber flÃ¤chen
Ġkrit isch
ĠProtokoll s
Gem eins
Ġdiscip line
kir che
al tete
ĠMit t
ĠGr iff
min der
Ġverb re
alle t
IV E
ĠMaced onia
N CC
ĠIn fo
og an
fÃ¼ g
Ġson n
Ġverw altet
Ġaccept ing
ĠsÃ¼d lich
ÃĦ nder
ĠTschech ischen
ĠHit ler
M icro
N ov
Ġp ione
In formationen
be y
Ġinv itation
az on
cent ury
Ġsepar ately
ĠvÃ¶ ll
ĠKinn ock
s uite
Ġb a
om aten
ĠD rag
Ġsh ut
gesch neider
Ġgel tend
Ġverw Ã¶hnen
Ġcheck ing
ĠBudget ary
ĠAktual isierung
ĠMalays ia
ĠV il
Ġauf rechter
Ġwe ib
Ġj ahre
In ner
Ġreg imes
stÃ¤nd igkeit
ĠNor way
Sh op
Ġexcept ions
Ġan x
Ġder ived
Ġex tern
Ġaus wÃ¤rtige
ĠStud ium
Ġdelic ate
Ġveget ables
Ġshar p
h st
ĠS earch
ver tra
Ġmon at
ĠTr ink
Ġcloth es
E st
K eine
Ġwor ding
ube ziehen
Ġinn oc
ĠVict oria
er ium
fr Ã¼
Ġac id
Ġbre ites
Ġdefect s
Ġunzureich end
Ġt act
ĠB uffet
Ġbef ried
ĠFre edom
ĠMon ats
Ġ/ /
Ġlo ud
ĠMedik ament
P O
in sel
ĠHe ating
ĠDemokrat isierung
Ġsearch ing
ĠDrit ter
Ġtrademark s
M I
Ġt at
Ġvor teil
Ġ5 8
Ġhier mit
ĠGesetz geb
Ġgran ts
ĠProv ence
ĠGerichtshof s
Ġstren ge
il ia
ac ing
Ġ5 7
ĠAl pha
Ġgel Ã¶
Ġdisk rimin
ĠGesell schafts
H A
Ã ¹
Ġh erstellen
id ges
Ġst anden
ĠVer trÃ¤gen
Ġup coming
Ġundert aking
Ġkeines falls
ĠUrspr ung
h ome
ĠS eine
ĠB it
ĠRe aktionen
Ġro w
ĠIntern etzugang
ĠzurÃ¼ck kehren
ĠÂ ·
ĠSk rip
Ġverein fachen
date ien
Ġpen alties
ĠSchatten ber
Ġtail ored
Ġinfringe ment
Ġirgendwel che
Ġo v
if ully
Ġsol ide
par thotel
ĠNachbar schafts
Ġsimpl ify
ĠEinsch rÃ¤nkung
C NS
ĠS ab
ter r
Ġl ights
Ġer schw
ite ktur
ĠTh yssen
Ġta ught
ĠZert ifik
Ġsemin ars
ĠDecl aration
d ays
st ritten
Ġfe els
Ġcelebr ated
Mo dern
P oint
o ir
Ġt iss
Ġo cean
ĠG Ã¼lt
Ġindic ation
ĠWh irlpool
Ġfreund lichen
ĠErn Ã¤hrungs
Ġtoler ance
Ġenthus i
op her
Ġk enn
Ġshare holders
ĠPlan et
Ġgegenseit ige
ĠRegul ierungs
b org
it Ã¤ren
Ġk auf
Ġopt ical
ĠLebens qualitÃ¤t
ĠFol ter
ĠHotels afe
ĠPrÃ¤ z
Ġdiagn ost
B ild
G esch
T F
Ñ Ī
Ġf inger
Ġv end
est one
Ġge ar
Ġsch rieb
ĠSp irit
Ġstr iking
Ġredu ces
frei heiten
Ġregistr ieren
habilit ation
S ep
iel ds
lieÃŁ t
ott i
ĠRel ations
Ġ196 7
Every thing
acion es
Ġimmen se
ĠSark ozy
S yn
Ġd ust
lie derung
iz enzen
dem okraten
Ġbeg ab
ĠschlieÃŁ e
Ġz Ã¼g
ĠZ er
Ġmod es
Ġexpl oring
Ġrelev anten
stÃ¤t te
ĠTy rol
Ġrecy cling
U l
Ġd iox
Ġso fa
Ġco inc
Ġzw ing
Ġzw anzig
Ġfr isch
ĠEinzel nen
will igen
ĠT able
ĠD S
ĠJu den
Ġanalys ieren
ĠÃ¤uÃŁer ster
Ġbad ly
Sol che
ĠH ere
Ġden ied
ĠAn regungen
Ġsp iegelt
res ted
ĠAmts zeit
Ġrac ism
Ġb ow
Ġb ond
le z
ĠF ly
Ġaus gelÃ¶st
ges pr
Ġjeweil ige
Ġf ung
ĠK ling
ein kommen
la im
Ġbed enken
ĠWelt bank
Ġ197 8
ĠSubsidiar itÃ¤tsprinzip
Ġte lling
Ġper pet
ke eping
Ġpe ak
Ġf ut
le et
os h
Ã¶ff nete
ĠEnts tehung
ĠKind es
ĠGewerk schaften
B ro
st unden
Ġoff icers
ĠUm wel
Ġquot a
Ġbegeister t
Ġt ub
et us
pe z
Ġsch Ã¼tzt
Ġtre mend
US A
Ber ichterstatter
Ġautom ated
sper iode
k Ã¼rz
il i
et ime
ĠT ob
ĠN ie
ĠEr nen
Ġsp Ã¼ren
Ġdra fted
Ġignor iert
ion i
Ġbo om
Ġbew aff
katastrop hen
Ġan geben
Ġgu ides
ren nen
Ġredu ctions
ĠGu inea
Ġoffen kund
Ġt ag
il ien
ĠK alender
men gen
In vest
ath ers
ĠRo llen
Ġparticip ated
crib ed
Ġaggress ive
j er
r unde
st reit
Ġlog in
Is rael
r ick
Ġz ert
ern et
ĠAus nahm
Ġide alen
Ġmind s
Ġmiss ions
Ġassum ed
Ġlandscap es
D isk
m ond
p ed
un i
ian ische
ĠAuf nahmen
ĠFor est
ĠFin ance
ge kommen
Ã¤n n
Ġtra ils
ĠMil osevic
bring t
Ġreinfor ce
Ġimpr ison
ign ano
Ġrespons es
ĠVerein igung
ĠTr ends
Wind ows
ĠÃ¼br ig
Ġwal ks
z ern
ĠS ul
mer t
Ġdr Ã¼cken
Ġensure d
Ġeinzel ner
Ġbe lo
Ġstra frecht
ĠTrag Ã¶die
ĠNat ural
Ġcontin ually
Ġbro ch
ĠMan hatt
Ġcirc ulation
ĠgefÃ¤hr lichen
prech ung
Ġm uy
ĠD ann
if iable
wir r
ĠE leg
ĠAus legung
Ġrece ipt
bin sel
m t
as sten
ĠH Ã¶r
Ġbei der
ĠEx cel
ĠBet on
Part ner
Ġreiter ate
N ichts
on ly
Ġst ood
Ġcirc le
ĠSub ventionen
Ġendeav our
9 00
B ucht
S ysteme
Ġm as
Ġg ingen
ĠÂ £
Ġedit ing
Ġade qu
f ire
Ġt ension
Ġd einen
oth ic
ron en
Ġdeut scher
Ġwirk ungs
OM E
Ġerneuer bare
spolit ischen
Ġs etzte
ĠF ile
ater ie
zug reifen
kre dit
Ġwenig stens
Ġsustain ed
ĠJugend her
ĠWohl befinden
Ġquant ities
Ġtransform ed
l isten
ra cies
ĠSt ick
Ġ6 6
ĠIs raels
Ġkl Ã¤ren
Ġche aper
ĠQu estion
ĠOst see
Ġdiscre tion
ĠEnter tainment
ch nen
Ġder og
ĠDe ep
Ġinter im
Ġrequ iring
Ġcomb ining
Ġdef ending
Ġn ennt
Ġverschieden sten
On line
ĠGu ests
Ch ar
wes ens
Ġfu els
ĠBuen os
C ertain
el ve
ĠC urr
icht ungs
ĠErk enntnisse
ĠOlymp us
Ġh ide
el ung
ĠD och
Ġcons istency
fl Ã¼ge
ĠCol umb
Ġprefer ences
Ġunge achtet
an teil
Ġges unden
âĢľ )
Ġbenef ic
wÃ¤r mung
'' '
Ġhil fs
Ġnutz bar
C ol
Ġp in
ĠW M
tr ies
Ġcont est
ĠCar ib
Ġkomple tten
ĠErn Ã¤hrung
Ġh ire
et ra
Ġdo ctors
wer be
Â® ,
RE E
IL L
ĠHol y
Ãĸ ff
k ok
k ong
r ific
ĠSch re
Ġpre jud
ĠEUR O
ĠVorsitz ender
Gu ests
Ġgenehm igt
B ack
Ä ģ
Ġw Ã¶ch
ĠC athol
Ġver halten
Ġch ocolate
ction al
ĠEin wohnern
Ġwar tet
Ġeinger ichteten
as ma
ĠL om
Ġde ll
Ġda ughter
ĠEr ic
ĠKoh Ã¤renz
ĠClass ic
Ã¤uÃŁer ung
ĠVerstÃ¤r kung
ĠR I
ĠR im
Ġzunehmen den
Ġnewsp apers
it ual
ĠA venue
el i
ĠSch ott
Ġro les
Ġtra m
ail able
Ġinternational es
Ġend et
stra ÃŁen
este in
ĠGespr Ã¤chen
Ġries ige
Ġisol ation
Ġnav ig
d amer
Ġa esthet
Ġob jekt
zus prechen
ĠNor mal
ĠgefÃ¤hr liche
ĠAlban ia
h eld
Ġp ul
ĠBe wertungen
ark ed
ĠCon ne
werb ung
Ġdauer haft
Ġd os
Ġand ern
ik alien
Ġbas es
ĠGen f
gew inn
Ġsimpl ification
Ġh Ã¼b
ic ious
ĠE cke
ĠG umm
ĠR af
ĠAus stellungen
gar ve
olid ierung
Ġabge halten
Ġvot re
F ar
Ġre ar
Ġtr ennen
ĠMarkt wirtschaft
Ġhost s
Ġma j
Ġeinz iges
ĠAmer ikas
Ġrespect ing
Ã³ w
Ġmeisten s
ĠSc ient
ĠRatsvorsitz es
Ġinvestig ate
Ġbio technolog
ĠzuverlÃ¤ss ig
re chnung
Ġun p
ĠF C
igen en
ĠAn reise
Ġsu cc
Ġpl ane
Ġunder line
Im age
Ã¤h ern
Ġcamp ing
ĠlÃ¤ng st
ber s
ĠLÃ¶s ungs
ĠLib anon
ĠEch tzeit
f ull
w inkel
C re
f ind
at ics
ĠH ub
ĠD B
Ġauf weisen
ĠArbeits krÃ¤fte
Ġarbeit ete
ari os
ĠÃ¶k ologische
Ġexklus ive
ĠHoll y
ĠIndones ia
u ay
ĠGer Ã¤ten
bl ings
Ġvorher igen
Ġlisten ed
Ġdele ted
Ġenem y
Ġepis ode
Ġsp annen
hÃ¶r igkeit
Ġgef Ã¤llt
Ġmoder ate
Ġern ste
Ġpan els
Ġengag iert
E nerg
Ġver letz
Ġall iance
Ġab wechslungs
ĠO ther
Ġste m
ĠÂ ĸ
Ġdurchge fÃ¼hrten
ĠsÃ¤m tlichen
Ġbenach richt
Ġb eschÃ¤d
Ġend less
ER S
Ġwid th
ĠFlÃ¼cht lings
ĠChic ago
p ted
st ill
sch alter
ib len
ĠKon figuration
Ġbo ards
ĠEntwicklungs zusammenarbeit
Ġconsist ing
Ġvorher ige
Ġethn ischen
Clear ly
ĠMazed onien
Ġd ish
ĠE hren
Ġres orts
pr es
Ġprov in
ĠHer itage
ĠBuch ungs
Ġconcentr ated
Ġverehr ten
D ep
h ot
u ing
Ġth in
Ġs ont
ĠF alls
ad i
Ġvor zusch
Ġmod est
Se lect
Ġcalc ulated
Ġa th
Ġun limited
ach lÃ¤ss
tr ess
Ã¤t ter
Ġprof iles
Cho ose
ĠD IE
Ġ6 3
Ġdomin ant
ĠClin ton
ok ed
Ġtra ur
Ġzw angs
ĠHer berge
ĠFinanz mittel
Ġpen al
ĠbetrÃ¤cht liche
Ġinter akt
Ġend ing
ĠAd am
ĠIniti ativ
Ġvic inity
Ġlohn t
Ġh us
Ġev il
ĠNe uer
laub nis
Ġcol onial
isp ens
ĠFernse her
Ġsudden ly
ĠL Ã¤rm
Ġzw ingen
lÃ¤ g
ĠGeb iets
Ġpresent ations
Ġcross ing
Ġ= =
Every one
ĠTax i
C L
H ence
an bieter
Ġset up
ipp e
wach s
Ġanalys es
Ġko oper
Ġweap on
Ġgegenseit ig
ĠMosk au
Ġb anned
Ġdie t
ow der
ĠSe gel
bet reuung
Ġbox es
Ġpursu ing
ĠBetr ugs
Ġcon gress
err or
ĠAuf wand
fra u
Ġaufge hoben
Russ ia
ĠSozialdem okraten
Ġc ens
Ġden selben
ĠVor bild
ett i
iar ies
Ġverst oÃŁen
Ġkrit ische
Ġexplo it
Ġwirks amen
bil anz
gemÃ¤ ÃŁe
b ra
Â ©
st uffs
per or
ob yl
ĠNe ues
tem peratur
Ġersch ien
ĠSchm id
ĠQue en
Ġcul inary
Ġt ape
est ro
Ġy ellow
Ġver handeln
ĠSm all
ĠAbs ichten
Ġsights eeing
Ġenthusias m
we ight
lev ard
Ġident ical
EL L
ĠArchite kten
ĠÃ¼b lich
ĠLit auen
ĠG itar
Ġad her
Ġperman ently
ĠDan ube
ĠKohÃ¤s ions
Ġo ste
Ġex zell
ett es
Ġhome page
Ab kommen
ĠRand lage
Ġhum ans
Ġlingu istic
ant on
igen de
Ġman gel
teil ten
Ġcar go
St aff
Ġfurn ish
A kt
ĠF at
ĠVer lag
sp ot
ĠAbst immungs
Ġobserv ers
ĠDev isen
ĠniederlÃ¤nd ischen
ho ff
Ġknow ing
ĠgrÃ¶ÃŁ t
ĠIN TER
Produ kte
gerichts hof
N ord
Ġre fined
ĠL ar
ĠL odge
art ment
ĠÃ¼ber setzt
ĠAl c
Al ong
Ġrest oration
Ġstark es
ĠAlp ine
Ġin wie
Ġn os
Ġab end
str ichen
Ġm igrants
am ination
Ġacc used
amp en
Ġdisc overy
Ġbekannt esten
Ġ197 5
e ken
it ably
Ġo vers
ĠF la
ot ype
ĠVer hÃ¤ltnisse
Ġeinz ubeziehen
Ġange hen
Ġspecial ised
ĠÂ ©
Ġweek ly
Ġemb edded
Ġdistr icts
ĠBetrieb ssystem
Ġadapt ation
ĠCre dit
/ -
7 00
ĠK lick
ĠComp uters
Ġverab schiede
Ġimpl ies
ĠverstÃ¤nd lich
Ġportugies ischen
art ikel
Ġzahl reicher
arf leet
ĠWolf gang
M T
b ur
ĠB C
ann ual
Ġ9 2
Ġpass es
Ġglaub t
ĠCas tell
Ġunpre ced
E missionen
f Ã¶rm
k ern
k rÃ¤ft
Ġre bu
ab teilung
end igung
ian ces
) |
ĠN O
In nov
Ġsp ont
Ã¤cht nis
Ġearth qu
Ġconsolid ation
izz ard
Ġabol ition
ĠFac ilities
ĠbeeintrÃ¤cht igt
Inner halb
K S
Ġs at
ĠÃľber setzungen
Ġgre w
bas ierten
Ġwarrant y
ĠWeihn achts
w unsch
her z
Ġsp Ã¼r
Wh ich
Ġ14 9
ĠText es
heim er
ĠTrans aktionen
Ġtack ling
ĠAnh Ã¤nger
x x
in as
on ischen
Ġm ent
Ġr andom
Ġse curities
ip f
Ġ19 20
fahr ung
Ġbin den
Ġdemonstr ation
Ġeingereich ten
D el
Ġr hetor
au igkeit
ĠTh ai
Ġklass ische
ĠBan anen
Ġzeich nen
Ġeinzur ichten
B ay
Ġunter en
lic kt
Ġcontin ental
Ġasp ir
Ġcompliment ary
. ),
s l
Ġdes per
ĠEin fuhr
Ġcommon ly
ĠStat istik
. :
k olle
ĠS ome
if ahr
ĠO tt
trÃ¤ glich
Ġgef angen
lik ely
lei ht
Ġconstru ct
d ar
Ġf ires
um a
Be g
Ġoptim um
Sup er
Ġan nex
ĠT ank
ĠO ze
ite kt
Ġgem essen
ĠRo und
Ġsepar ated
Ġleben den
Ġenfor ce
ĠVerzÃ¶ger ung
Ġpersonenbezogen en
w Ã¤l
al og
ĠL ande
ass es
Ġmin ing
ĠSpan isch
Ġerr ichten
ĠÃ¤lt esten
ĠS in
ĠG all
Ġro se
ans a
Ġconne cting
ĠBru der
is i
Ġg ains
ĠR oc
ern obyl
ungs antrag
hol der
ĠZu kunfts
Ġamb ience
Ġobtain ing
Ġvern achlÃ¤ss
ĠMer cedes
Ġfif teen
ĠglÃ¼ck lich
Non etheless
ra cle
ĠL anzarote
ĠSpe ed
Ġbew undern
Ġirgende iner
ĠLeiden schaft
ic ion
ĠF as
Ġwo fÃ¼r
ĠRahmen programm
ĠHaushalts plans
ĠGeschÃ¤fts bedingungen
ĠKo ordination
Ġfail ing
ĠBerichterstat tern
T yp
Ġausge legt
ĠRechts rahmen
Ġauszu Ã¼ben
i hen
t ons
Ġm Ã¡s
Ġal ive
Ġex tract
gr Ã¶ÃŁe
ph ones
Ġclear er
Ġir res
De b
Ġtw elve
ĠHar bour
ĠEreign issen
ĠManhatt an
H ome
N ear
S icher
Ġsch warz
Ä ĥ
Ġs ail
ĠO ver
Ġro y
Ġback ing
Ġfurther more
ĠDire ctors
Ġakzept abel
Ġvergleich en
ĠlÃ¤ng ere
s creen
er ne
ĠL oc
aster y
Ġdemand ed
ĠPerspekt iven
Ġverank ert
Ġf illing
ĠM ap
Ġj ump
Ġinter ven
Ġeinzel staatlichen
ĠGran de
ĠB E
ant ic
ste il
ĠSp ar
hor n
ĠKl oster
Ġleistungs stark
Fun ktion
ab schluss
ium ph
Ġbo oth
Ġcor por
Ġideal er
Ġversch le
ĠbefÃ¼r worte
greif enden
Ġemotion al
ungal ows
Ġn ic
om er
ĠC old
ik on
ik ale
Ġnot iced
ĠComm unication
Ġappro x
best immung
Ġtang ible
Ã¶ hnt
Ġdes ert
Ġeconomic s
Ġsk ill
Ġbeit reten
minister ium
Ġschl immer
Ġbeseit igt
Addition ally
Ġunpreced ented
L IN
Ġre de
ĠD aher
ĠN ein
Ġrail ways
Ġcompetit ors
ĠAndre as
Ġabziel en
ĠSien a
ar ly
ĠF uerte
ĠK athedrale
beit rag
Ġdurch setzen
Ġar rested
ob a
ĠEinfl uÃŁ
Ġmak ro
T NG
ĠM ID
ĠB om
Ġl uggage
Ġr hyth
Ġnot ification
ĠAuf sicht
Ã¼tz te
ĠFlug zeuge
Ġ196 8
Ġkons erv
Ġberuf liche
ann ers
be teil
se ktors
Ġel abor
Ġgre ifen
Ġfried lichen
ĠGefangen en
v et
Ġun ex
ĠStadt teil
Ġauthor isation
orient ierte
ĠImplement ierung
ĠSowjet union
g ab
as ant
ĠFe atures
ĠBro ad
Ġcongrat ulations
Ġinvestig ations
ĠF L
ĠH art
Ġsch lage
Ġunter liegt
Ġstr ive
ĠKr ist
Ġcontrib utes
Ġinfluen ced
ĠLib ya
Ġindepend ently
Ġt iny
Ġz a
Ġannoun cement
Ġpermit s
ĠBesonder heiten
ĠSchrif ts
S I
b rech
ud a
schein lichkeit
Ġcin ema
Ġb onds
Ġto ll
ic ity
Ġact or
reg ierungs
Ġ198 2
Ã¤uf e
sprach igen
" >
a ber
Ġun ilateral
ro tt
mer kt
Ġint oler
ĠOp fern
Ġexem pt
A ct
our ismus
Ġbesch eiden
ustain able
ĠSil ber
Ġeinzigart ig
appro pr
ĠTi rol
ĠW Ã¶rter
Ġ( {{
ag na
enn y
Pro tokoll
ĠDienst ag
ĠTats achen
Ġdistingu ished
dep th
ĠM ind
os ion
Ġind ispens
ulation en
Ġestim ates
ĠAnwendungs bereich
ĠUmstruktur ierung
ĠJugoslaw ien
d on
ĠP akt
ĠPr ix
ĠBed ingung
ĠFre ib
ator ies
Ġadj usted
tran sp
ĠTsch etschen
Kl asse
ĠAuseinander setzung
Ġrefurb ished
ĠG ol
Ġse cre
Ġgew achsen
part nern
Re chts
Ġamb itions
Gem Ã¤ÃŁ
Ġcarr ier
er te
re z
Ġp orn
Ġrev ol
Ġhy draul
ĠGB P
ĠCarib bean
al ition
ĠN H
Ġdis par
ĠTemperatur en
ĠAn weisungen
fÃ¼ llen
ĠZusammen bruch
Ġzusammen zuarbeiten
Ġsum mar
Ġgather ed
ĠFels en
ĠKomplett preise
l u
ĠL iquid
iz on
Ġzum al
att formen
ĠArbeits weise
Ġstehen de
ĠIde al
Ġenerg ies
Ġc ope
ĠC i
ĠW ood
Ġro ut
weit erung
ĠstÃ¤rk eren
ĠEV P
Natur ally
1 50
G ipfel
in frastruktur
Ġv enture
ĠI A
Ġden y
ĠHos p
V ol
ĠN ature
Ġent r
Ġben chmark
ĠKommiss are
Ġsicher er
Ġmiss ed
ĠPer u
Pl ayer
Ġmaler ischen
V illa
Ġun likely
Ġge opolit
Ġde emed
ĠJ ak
amb ling
schuld igen
ĠTenden z
ĠREA CH
W C
ĠF eind
od ing
ĠBe frei
ĠAuf ruf
Ġhier arch
Ġdeb att
Ġmot ions
ĠStre cken
Ġqualifiz ierte
ĠEurost at
Ġs ink
ĠR Ã¼st
Ġver leiht
cc a
ĠSal v
sb ruck
M ax
ĠGu ard
Ġexem pl
ĠB O
ĠR ou
Ġdies mal
rit ical
pro b
Ġbereit zustellen
Ã¤ss igen
Ġven ue
Ġe ating
ĠS ou
Ġinter institution
ats on
Ġcap ability
ĠFinanz mÃ¤rkte
ĠComp ut
Ġgrundlegen d
b Ã¶
Ġg Ã¤be
Ġ6 2
Ġmonth ly
Ġmar gin
Ġklar er
ĠInner es
in fo
Ġbe legt
ĠF ab
ĠT hre
ĠRe ader
isk o
co very
Ġmusic ians
ĠFehl en
ĠPan asonic
ĠAnn Ã¤her
Ġaufrechter halten
H och
Ġvor sichtig
ĠThe atre
Ġgleich er
igr ations
Ġausgewogen en
g erecht
ĠS CH
ĠE ta
am ine
Ġde ck
ĠGe legenheiten
ĠAb sch
ph y
ty ard
ĠnÃ¶rd lichen
lac ier
ĠAnalys en
Ġun real
ĠD enken
Ġr asche
ĠSp uren
ĠWelt markt
Ġdang ers
Ġpal ace
ĠNav igation
K E
Ġf ing
ĠAn sprech
ĠBe endigung
so fern
ĠPal m
ĠvielfÃ¤lt ige
Ġstake holders
est ablish
Ġge kauft
ĠÃ¼ber wiegend
ĠEntschlieÃŁ ungen
ĠschÃ¶n es
ĠHal binsel
ĠÃľbersetz ungs
ĠPalÃ¤st ina
j ack
arbeit s
Ġdiffer ently
ĠLie blings
Ġkil ometers
Ġunderg o
Ġd il
us sten
ĠE le
Ġinst ant
ĠÃĸ konom
Ġlif estyle
viel falt
Ġlabor atory
Ġkompliz iert
ĠInternets eite
M ean
ar ant
ĠE B
ĠL Ã¼
Ġge laden
ĠEr r
aten te
Ġauthor ised
Ġdatab ases
Mar kt
ĠS ales
Ġtrans mitted
Ġsup ermark
Ġlab els
Ge ben
Ġvill as
Ber lin
Ser ie
m und
ĠH orn
Ġer re
alt ar
ĠFl Ã¼ge
ĠHer ange
Ġatt ent
Ġcomfort s
IT E
jÃ¤hr iger
ĠDar le
ĠDo uble
ĠPot ential
" ),
W ieder
s u
ĠS i
ĠAus ge
Ġemploye e
Ġw inners
ab stimmung
ne ys
Ġwas h
Ġpr on
Ġres cue
ĠNor wegen
Ġobserv ations
Ġeffektiv er
ĠAnre iz
Ġhect ares
P ower
k rie
Ð ¶
Ġm ailing
ot or
ass ador
Ġpat ch
wÃ¼rd ige
art ig
che ck
ĠKon figur
ins on
Ġtransl ate
iox id
Fac ilities
E ben
Ġt one
Ġg ig
ab out
for me
ĠVor wand
ĠGr ill
Ġpre gn
Ġnow adays
inter essen
Ġmar kt
Ġmar ried
Ġassess ments
Ġremov ing
P ra
im ir
Ġfor b
Ġunter graben
Ðµ ÑĤ
ĠZwe cken
Ġspeak s
Ġfru its
Ġan bietet
os o
ĠL isten
ĠVor stand
Ġbes etzt
Ġbl ow
Ġprevent ive
EW G
hel m
ĠSingap ore
ĠEtik ett
ĠwÃ¼nsch enswert
ĠSorg falt
Ġp ose
om ed
em pf
ĠTag ungs
verb ot
Ġwunder bare
Ġjapan ischen
ĠVor sorge
Ġange hÃ¶ren
br Ã¼
Ġgef asst
Ġstar tet
Ġhy per
ifik ationen
ĠAnkÃ¼nd igung
S il
ĠSt orn
ĠBl an
Ġcapac ities
gere chte
Ġstring ent
P ay
ĠE very
ĠW Ã¤hrend
Ġver schieben
we ichen
ĠUnter stÃ¼tz
Ġinter governmental
leich en
Ġdr Ã¤ngen
Ġgeb illigt
ĠPartner schaften
Ġdomin ated
ratt ini
A c
m ietung
z ute
Ġ Ø
ĠM i
if fen
ad ian
uss y
ap h
ĠPal azzo
Ġfeel ings
ĠÃľberwach ungs
schuld ung
ul i
Ġco d
Ġbest icht
Ġint im
Ġeinsch lÃ¤g
Ġgesellschaft liche
Ġwettbewerbs fÃ¤hig
ĠBlu etooth
S al
m ind
Ġ ueber
Ġa cted
Ġf oster
ĠB ib
ib ung
ĠfÃ¼hr ten
leucht ung
c ultural
Ġa gr
Ġge holfen
Ġdesign ers
Ġ197 6
Ġzerst Ã¶ren
ĠKore an
Ġm Ã¼sse
ir ies
Ġden s
Ġstr engen
ange m
ĠÃľber rasch
Ã¤ng st
ĠPriv acy
ĠAK VIS
Ġcount less
ĠVerzÃ¶ger ungen
che cken
ĠNicht regierungs
resp ons
ĠStraÃŁen verkehr
Ġvertra uen
on ies
Ã¼ te
ĠM eine
Ġhab t
ĠBe griffe
ĠReg imes
Ġbeg reifen
ĠFre ien
Ġeinmal ige
Ġyoung er
Te il
Reg ierung
Ġapprec iation
Ġsuperv isory
ĠLam an
v as
ll or
st art
Ġre ine
ĠK ok
zeit raum
tre ffen
iste ten
Ġschnell es
ĠzukÃ¼nft ig
Ġbound aries
Ġunanim ous
Curr ently
h istor
s pekt
pe zif
ĠEr wer
ĠSe everkehr
ĠEl ite
kle idung
ĠRelig ions
ĠRepr Ã¤sent
g ot
Ġ @
le te
ĠL av
Ġer mitteln
Ġwer te
Ġpr ide
icher ten
trÃ¤ ger
wÃ¤rt ig
[...]
