{"<s>":0,"<pad>":1,"</s>":2,"<unk>":3,"<mask>":4,"!":5,"\"":6,"#":7,"$":8,"%":9,"&":10,"'":11,"(":12,")":13,"*":14,"+":15,",":16,"-":17,".":18,"/":19,"0":20,"1":21,"2":22,"3":23,"4":24,"5":25,"6":26,"7":27,"8":28,"9":29,":":30,";":31,"<":32,"=":33,">":34,"?":35,"@":36,"A":37,"B":38,"C":39,"D":40,"E":41,"F":42,"G":43,"H":44,"I":45,"J":46,"K":47,"L":48,"M":49,"N":50,"O":51,"P":52,"Q":53,"R":54,"S":55,"T":56,"U":57,"V":58,"W":59,"X":60,"Y":61,"Z":62,"[":63,"\\":64,"]":65,"^":66,"_":67,"`":68,"a":69,"b":70,"c":71,"d":72,"e":73,"f":74,"g":75,"h":76,"i":77,"j":78,"k":79,"l":80,"m":81,"n":82,"o":83,"p":84,"q":85,"r":86,"s":87,"t":88,"u":89,"v":90,"w":91,"x":92,"y":93,"z":94,"{":95,"|":96,"}":97,"~":98,"¡":99,"¢":100,"£":101,"¤":102,"¥":103,"¦":104,"§":105,"¨":106,"©":107,"ª":108,"«":109,"¬":110,"®":111,"¯":112,"°":113,"±":114,"²":115,"³":116,"´":117,"µ":118,"¶":119,"·":120,"¸":121,"¹":122,"º":123,"»":124,"¼":125,"½":126,"¾":127,"¿":128,"Â":129,"Ã":130,"Ä":131,"Å":132,"Æ":133,"Ç":134,"È":135,"É":136,"Ê":137,"Ë":138,"Ì":139,"Í":140,"Î":141,"Ï":142,"Ð":143,"Ñ":144,"Ò":145,"Ó":146,"Ö":147,"×":148,"Ø":149,"Ù":150,"Ú":151,"Û":152,"Þ":153,"ß":154,"à":155,"á":156,"â":157,"ã":158,"ä":159,"å":160,"æ":161,"ç":162,"è":163,"é":164,"ê":165,"ë":166,"ì":167,"í":168,"î":169,"ï":170,"ð":171,"ò":172,"ĉ":173,"č":174,"Ġ":175,"ġ":176,"Ģ":177,"ģ":178,"Ĥ":179,"ĥ":180,"Ħ":181,"ħ":182,"Ĩ":183,"ĩ":184,"Ī":185,"ī":186,"Ĭ":187,"ĭ":188,"Į":189,"į":190,"İ":191,"ı":192,"Ĳ":193,"ĳ":194,"Ĵ":195,"ĵ":196,"Ķ":197,"ķ":198,"ĸ":199,"Ĺ":200,"ĺ":201,"Ļ":202,"ļ":203,"Ľ":204,"ľ":205,"Ŀ":206,"ŀ":207,"Ł":208,"ł":209,"Ń":210,"en":211,"er":212,"in":213,"Ġa":214,"Ġt":215,"Ġd":216,"ch":217,"es":218,"on":219,"Ġth":220,"un":221,"it":222,"is":223,"Ġs":224,"Ġw":225,"at":226,"ie":227,"or":228,"an":229,"Ġthe":230,"re":231,"Ġb":232,"Ġo":233,"al":234,"ar":235,"Ġin":236,"Ġf":237,"ich":238,"Ġm":239,"te":240,"ion":241,"Ġe":242,"Ġan":243,"ur":244,"as":245,"le":246,"Ġp":247,"Ġc":248,"Ġun":249,"Ġh":250,"us":251,"ent":252,"ge":253,"Ġof":254,"ro":255,"Ã¼":256,"Ġn":257,"ĠS":258,"Ġv":259,"ing":260,"ung":261,"Ġand":262,"Ġto":263,"Ã¤":264,"ll":265,"ed":266,"Ġdie":267,"om":268,"Ġder":269,"Ġund":270,"ig":271,"st":272,"ic":273,"Ġbe":274,"ĠA":275,"Ġis":276,"ĠE":277,"Ġein":278,"ir":279,"Ġz":280,"im":281,"Ġg":282,"el":283,"ĠM":284,"ĠP":285,"ut":286,"ra":287,"ter":288,"ĠB":289,"em":290,"il":291,"ten":292,"ol":293,"ation":294,"der":295,"eit":296,"et":297,"Ġl":298,"am":299,"den":300,"Ġre":301,"ĠI":302,"hr":303,"ies":304,"um":305,"ĠF":306,"op":307,"ĠG":308,"ct":309,"sch":310,"ĠK":311,"ul":312,"Ġk":313,"uf":314,"Ã¶":315,"ber":316,"iv":317,"lich":318,"de":319,"ĠR":320,"ĠC":321,"Ġfor":322,"ab":323,"ot":324,"ĠT":325,"Ã¼r":326,"isch":327,"ĠV":328,"ĠH":329,"ier":330,"icht":331,"gen":332,"ĠD":333,"Ġdas":334,"Ġon":335,"Ġzu":336,"ĠW":337,"ere":338,"Ġden":339,"ly":340,"ess":341,"est":342,"Ġthat":343,"os":344,"he":345,"and":346,"id":347,"ĠL":348,"ce":349,"omm":350,"ers":351,"ein":352,"Ġpro":353,"Ġal":354,"ow":355,"Ġwh":356,"ach":357,"Ġvon":358,"Ġr":359,"ort":360,"Ġge":361,"uch":362,"ÃŁ":363,"Ġim":364,"Ġst":365,"ith":366,"Ġy":367,"ĠU":368,"Ġwir":369,"kt":370,"if":371,"Ġcon":372,"Ġist":373,"Ġver":374,"Ġer":375,"ver":376,"Ġwith":377,"Ġauf":378,"Ġwe":379,"ĠfÃ¼r":380,"urop":381,"ay":382,"ill":383,"Ġdes":384,"Ġit":385,"ve":386,"Ġmit":387,"ad":388,"Ġare":389,"ts":390,"âĢ":391,"ind":392,"Ġas":393,"ck":394,"Ġso":395,"Ġde":396,"Ġne":397,"iss":398,"Ġyo":399,"Ġ1":400,"ĠN":401,"Ġdies":402,"tr":403,"end":404,"af":405,"pp":406,"ĠEurop":407,"ate":408,"ment":409,"ik":410,"ĠZ":411,"Ġ(":412,"Ġse":413,"qu":414,"The":415,"th":416,"ungen":417,"la":418,"00":419,"ischen":420,"Ġ2":421,"nen":422,"men":423,"ib":424,"Ġals":425,"ĠSt":426,"Ġeine":427,"ak":428,"Ġex":429,"ĠVer":430,"ne":431,"for":432,"Ġdem":433,"Ġthis":434,"ity":435,"ĠIn":436,"Ġha":437,"ant":438,"ien":439,"ive":440,"ial":441,"ah":442,"ist":443,"Ġor":444,"Ġj":445,"art":446,"Ġnicht":447,"pe":448,"und":449,"Ġwer":450,"ug":451,"Ġco":452,"Ġnot":453,"ann":454,"Ã¼ber":455,"ste":456,"ĠUn":457,"Ġsich":458,"Ġall":459,"Ġle":460,"Ã¤n":461,"ub":462,"ff":463,"Ġwerden":464,"tel":465,"Ġ-":466,"ĠJ":467,"we":468,"Ġby":469,"Ġhave":470,"Ġdass":471,"ĠRe":472,"rom":473,"ag":474,"ĠSie":475,"igen":476,"Ġat":477,"igh":478,"ust":479,"ĠAn":480,"Ġes":481,"ass":482,"ens":483,"Ġaus":484,"ain":485,"all":486,"uld":487,"Ġyou":488,"up":489,"sp":490,"Ġwill":491,"od":492,"Ġab":493,"Ġcom":494,"Ġuns":495,"iel":496,"ern":497,"ĠÃ¼ber":498,"aus":499,"ure":500,"Ġi":501,"Ġsh":502,"Ġme":503,"ze":504,"ions":505,"age":506,"Ġwhich":507,"ommiss":508,"ted":509,"Ġwas":510,"Ġauch":511,"ĠO":512,"ran":513,"ben":514,"lie":515,"hen":516,"Die":517,"ĠPr":518,"Ġfrom":519,"ahr":520,"hal":521,"ungs":522,"du":523,"och":524,"ĠEurope":525,"ard":526,"Ġum":527,"ĠSch":528,"ould":529,"Ġsind":530,"Ġus":531,"tern":532,"Ġch":533,"Ġsch":534,"ommission":535,"ĠâĢ":536,"..":537,"ident":538,"In":539,"og":540,"Ġpr":541,"ĠPro":542,"Ġent":543,"fer":544,"Ġvor":545,"Ġwird":546,"uss":547,"esch":548,"Ġhas":549,"ue":550,"Ġhab":551,"schaf":552,"ip":553,"iz":554,"mer":555,"ft":556,"port":557,"ine":558,"Ġwor":559,"Th":560,"gr":561,"Ã¶n":562,"ss":563,"ud":564,"Ġres":565,"Ġen":566,"ang":567,"ĠEn":568,"oc":569,"llen":570,"ous":571,"ische":572,"ick":573,"ok":574,"Ġwie":575,"Ġda":576,"enn":577,"ast":578,"Ã¤t":579,"ĠBe":580,"our":581,"ĠPar":582,"Ġhe":583,"urch":584,"Ġcan":585,"me":586,"Ġman":587,"ise":588,"able":589,"etz":590,"err":591,"form":592,"Ġam":593,"ige":594,"ire":595,"keit":596,"Ġhat":597,"Ġsein":598,"Ġich":599,"ap":600,"ost":601,"pr":602,"Ġoder":603,"ert":604,"ament":605,"Ġour":606,"ia":607,"ore":608,"ĠAr":609,"be":610,"otel":611,"cc":612,"erv":613,"Ġcomp":614,"Ġzur":615,"ult":616,"beit":617,"Ġalso":618,"ations":619,"ĠEuropean":620,"ĠEr":621,"Ġhaben":622,"Ġsie":623,"ational":624,"ction":625,"her":626,"ical":627,"heit":628,"ition":629,"Ġad":630,"ese":631,"lichen":632,"ĠAus":633,"ice":634,"lo":635,"ated":636,"are":637,"out":638,"dern":639,"Ġbei":640,"Ġdo":641,"Ġeiner":642,"ĠkÃ¶n":643,"ome":644,"olit":645,"se":646,"rit":647,"Ġ\"":648,"ru":649,"aten":650,"tz":651,"hl":652,"ther":653,"ark":654,"ord":655,"fÃ¼":656,"ieren":657,"pt":658,"ect":659,"Ġunter":660,"ĠÃ":661,"Ġ200":662,"ish":663,"Ã¼n":664,"Ġnach":665,"ac":666,"Ġqu":667,"schaft":668,"Ġeinen":669,"ht":670,"ĠGe":671,"ms":672,"ign":673,"'s":674,"Ġpart":675,"Ã¤r":676,"tet":677,"ĠParl":678,"iert":679,"Ġyour":680,"elt":681,"ight":682,"Ġits":683,"ĠUnion":684,"vel":685,"ates":686,"ĠMit":687,"oun":688,"ake":689,"Ġte":690,"tra":691,"ear":692,"Ġreg":693,"ite":694,"Ġdurch":695,"Ġgro":696,"ank":697,"ian":698,"au":699,"ger":700,"yste":701,"fen":702,"Ġsu":703,"Ġsp":704,"Ġbut":705,"ary":706,"ember":707,"Ġwur":708,"Ġag":709,"Ġgo":710,"Ġro":711,"ide":712,"cial":713,"oll":714,"ĠkÃ¶nnen":715,"Ġthere":716,"liche":717,"ĠBer":718,"gt":719,"per":720,"con":721,"Ã¤s":722,"We":723,"Ġapp":724,"ose":725,"hre":726,"Ġdis":727,"Ã¶r":728,"ĠEin":729,"anz":730,"Ġste":731,"Ġdar":732,"cht":733,"Ġtra":734,"ĠEU":735,"Ġwar":736,"ual":737,"ĠFra":738,"Das":739,"chen":740,"ĠCommission":741,"ĠVor":742,"cl":743,"ime":744,"Ġwould":745,"Ġspe":746,"eren":747,"ĠmÃ¶":748,"Ġ3":749,"ance":750,"Ġmore":751,"tw":752,"ile":753,"ail":754,"ov":755,"Ġzum":756,"ĠAb":757,"Ġtheir":758,"Ġeinem":759,"Ġ19":760,"ommen":761,"Ġbeen":762,"mp":763,"Ġgen":764,"ĠâĢĵ":765,"Ġbes":766,"reat":767,"Ġcont":768,"glich":769,"imm":770,"ute":771,"ase":772,"âĢĻ":773,"uÃŁ":774,"ong":775,"ame":776,"act":777,"chn":778,"chte":779,"ĠEuropÃ¤":780,"Ġar":781,"Ich":782,"ild":783,"utz":784,"gra":785,"Ġkann":786,"Ġfin":787,"Ã¼ck":788,"ble":789,"oss":790,"ack":791,"che":792,"Ġdiese":793,"Ġone":794,"Ã¼ss":795,"Ġacc":796,"ont":797,"Ġnur":798,"one":799,"ugh":800,"ĠWe":801,"ents":802,"Ġcoun":803,"Ġper":804,"ĠTe":805,"Ġcomm":806,"ĠGr":807,"sten":808,"ges":809,"gan":810,"hn":811,"Ġshould":812,"Ġalle":813,"Âł":814,"Ġbet":815,"ahl":816,"pl":817,"Ġpl":818,"Ġwork":819,"wer":820,"ution":821,"ike":822,"ĠDe":823,"Ġnew":824,"ierung":825,"geb":826,"eine":827,"Ġ.":828,"Ġup":829,"ĠLe":830,"Ġ,":831,"ĠSp":832,"Ġcl":833,"ob":834,"ĠUnter":835,"Wir":836,"This":837,"zu":838,"ely":839,"ĠCh":840,"auf":841,"land":842,"hmen":843,"ree":844,"hren":845,"ktion":846,"It":847,"Ã¤sident":848,"Ġout":849,"to":850,"Ġdieser":851,"av":852,"igkeit":853,"ĠJahr":854,"Ġob":855,"rie":856,"ner":857,"ĠHotel":858,"ld":859,"lic":860,"olle":861,"Ġjed":862,"ons":863,"reich":864,"Ġpre":865,"Ġcountr":866,"ings":867,"Ġind":868,"Ġvery":869,"Ġmust":870,"Ġinter":871,"ke":872,"Ġzw":873,"Ġwho":874,"bar":875,"Ġother":876,"ĠKommission":877,"ĠdaÃŁ":878,"Ġnoch":879,"...":880,"Ġprodu":881,"ĠPres":882,"ities":883,"formation":884,"Ã¤hr":885,"Ġma":886,"Ġev":887,"Ġthey":888,"mit":889,"Ġpe":890,"ink":891,"ĠMr":892,"Ġneed":893,"Ġweit":894,"gram":895,"ces":896,"pro":897,"ĠHerr":898,"wo":899,"ors":900,"Ġwurde":901,"ater":902,"ments":903,"tell":904,"Der":905,"Ġno":906,"Ġber":907,"schen":908,"Ġmehr":909,"Ġsoll":910,"Ġintern":911,"Ġonly":912,"Ġyear":913,"Ġfe":914,"Ġcons":915,"Ġbec":916,"Ġsupp":917,"gel":918,"Ġstr":919,"Ġlike":920,"ĠAuf":921,"Ġaber":922,"ple":923,"olog":924,"oin":925,"ystem":926,"glie":927,"Ġtime":928,"Ġabout":929,"Ġwenn":930,"Ã¼ssen":931,"Ġpolit":932,"teil":933,"fe":934,"pos":935,"ĠPrÃ¤sident":936,"entr":937,"Es":938,"ible":939,"Ġany":940,"ĠSe":941,"ĠPresident":942,"ious":943,"Dies":944,"assen":945,"ced":946,"uen":947,"ange":948,"leich":949,"Ġprov":950,").":951,"Ġges":952,"Ġsehr":953,"Ġ5":954,"velop":955,"xt":956,"ĠmÃ¼ssen":957,"erm":958,"lin":959,"Ġtran":960,"ally":961,"itÃ¤t":962,"enz":963,"ject":964,"Ġunser":965,"alt":966,"Ġwo":967,"nah":968,"Ġeff":969,"cess":970,"Ġ4":971,"Ġsow":972,"hnen":973,"ĠReg":974,"Ġbis":975,"iament":976,"ans":977,"Ġra":978,"Ã¼tz":979,"arbeit":980,"onder":981,"Ġthese":982,"ient":983,"ammen":984,"ĠParlament":985,"rat":986,"ĠArbeit":987,"Ġrec":988,"Ġserv":989,"Ġsol":990,"io":991,"Ġdire":992,"Ġoff":993,"ular":994,"fore":995,"atz":996,"own":997,"Ġvie":998,"fahr":999,"Ġhin":1000,"ied":1001,"led":1002,"ibt":1003,"ility":1004,"Ġimport":1005,"usammen":1006,"ĠMitglie":1007,"ative":1008,"als":1009,"Ġdiesem":1010,"stit":1011,"Ã¤l":1012,"ph":1013,"Ġtr":1014,"erson":1015,"ider":1016,"ring":1017,"irst":1018,"ople":1019,"ause":1020,"ures":1021,"ĠMember":1022,"aaten":1023,"ÃŁen":1024,"ĠMen":1025,"igt":1026,"Ġgegen":1027,"Ġdevelop":1028,"Ġif":1029,"cy":1030,"ism":1031,"Ġsuch":1032,"halten":1033,"Ġla":1034,"fol":1035,"wend":1036,"Ġreport":1037,"fl":1038,"Ã¤nd":1039,"Ġihre":1040,"ook":1041,"ays":1042,"Ġact":1043,"ĠEuropÃ¤ischen":1044,"unden":1045,"wn":1046,"sche":1047,"Ġpol":1048,"Ġgr":1049,"ĠAl":1050,"iger":1051,"iven":1052,"etzt":1053,"Ġsub":1054,"ĠTh":1055,"ateg":1056,"dition":1057,"ks":1058,"ific":1059,"Ġrel":1060,"Ġins":1061,"Ġmy":1062,"Ġover":1063,"ale":1064,"itu":1065,"wor":1066,"nehmen":1067,"ĠZeit":1068,"Ġinto":1069,"Ġpeople":1070,"Ġwere":1071,"ĠMa":1072,"ĠFor":1073,"Ġihr":1074,"ĠThe":1075,"fÃ¼hr":1076,"kte":1077,"str":1078,"Ġwell":1079,"ices":1080,"cre":1081,"Ġ20":1082,"iden":1083,"irt":1084,"Ġgem":1085,"Ġinternational":1086,"Ġbest":1087,"erg":1088,"ken":1089,"ĠParliament":1090,"Ã©":1091,"),":1092,"Ġsome":1093,"Un":1094,"bs":1095,"ement":1096,"Ġviel":1097,"ĠmÃ¶chte":1098,"Ġwhat":1099,"Ġuse":1100,"lung":1101,"ou":1102,"acht":1103,"cil":1104,"enden":1105,"Ġinv":1106,"isten":1107,"conom":1108,"ľber":1109,"ene":1110,"Ġdif":1111,"ĠStates":1112,"Ġhier":1113,"Ġmark":1114,"arge":1115,"Ġsa":1116,"fr":1117,"Ġhigh":1118,"An":1119,"icher":1120,"ĠMitglied":1121,"Ġher":1122,"uropÃ¤":1123,"ustr":1124,"Ġeines":1125,"amen":1126,"Ġkn":1127,"very":1128,"rei":1129,"ĠMar":1130,"Ġhotel":1131,"ĠCoun":1132,"ory":1133,"Ġbed":1134,"ull":1135,"Ġcountries":1136,"Ġfirst":1137,"Ġloc":1138,"Ġthan":1139,"Ġgew":1140,"Ġincl":1141,"ention":1142,"Ġmost":1143,"Ġvom":1144,"olitik":1145,"zeit":1146,"Ġhel":1147,"Ġwicht":1148,"Ġdec":1149,"Ġwhen":1150,"Ġhis":1151,"ating":1152,"itte":1153,"Ġlie":1154,"Ġpartic":1155,"esent":1156,"iet":1157,"pect":1158,"Ġunder":1159,"Ġvers":1160,"ace":1161,"Ġthem":1162,"ĠOr":1163,"inn":1164,"ards":1165,"ages":1166,"les":1167,"ĠCouncil":1168,"Ġdam":1169,"itz":1170,"Ġjust":1171,"ett":1172,"Ġpolic":1173,"sicht":1174,"Ġsowie":1175,"Ġwel":1176,"att":1177,"ĠMenschen":1178,"ond":1179,"Ġele":1180,"ĠEntw":1181,"Ġnow":1182,"Ġagain":1183,"ĠeuropÃ¤":1184,"abe":1185,"ĠUm":1186,"Ġsupport":1187,"Ã¤nder":1188,"tre":1189,"ĠKon":1190,"Ġdieses":1191,"ats":1192,"Ġgu":1193,"Ġbas":1194,"ever":1195,"Ġimportant":1196,"lÃ¤":1197,"ights":1198,"Ġmake":1199,"Ã¤ch":1200,"Ġaut":1201,"ween":1202,"ĠBericht":1203,"els":1204,"ho":1205,"Ġpla":1206,"halt":1207,"Ġgibt":1208,"ĠÃľber":1209,"ĠLand":1210,"Ġeconom":1211,"Ġmany":1212,"ues":1213,"kl":1214,"Ġhow":1215,"essen":1216,"Ġroom":1217,"kommen":1218,"Ġbetween":1219,"stÃ¼tz":1220,"Ġass":1221,"fin":1222,"hand":1223,"je":1224,"oth":1225,"Ġpropos":1226,"Ġrequ":1227,"ĠMe":1228,"Ġmo":1229,"Ġfr":1230,"halb":1231,"any":1232,"fter":1233,"Ġtechn":1234,"issen":1235,"ĠQ":1236,"ives":1237,"bst":1238,"igung":1239,"Ġposs":1240,"Ã¶s":1241,"ural":1242,"lieÃŁ":1243,"Ġbecause":1244,"ence":1245,"staaten":1246,"ware":1247,"Ġzwischen":1248,"ĠComm":1249,"ters":1250,"Ġleg":1251,"dr":1252,"Ġtake":1253,"Ġbereit":1254,"Ġfre":1255,"legen":1256,"mal":1257,"Ã¶glich":1258,"zie":1259,"Ġkon":1260,"Ġworld":1261,"ublic":1262,"Ġmarket":1263,"uer":1264,"Ġpos":1265,"ote":1266,"ĠEntwick":1267,"ĠVerb":1268,"ful":1269,"arm":1270,"Ġcre":1271,"Ġ6":1272,"ĠBed":1273,"Ġmuss":1274,"Ġ'":1275,"oint":1276,"cted":1277,"rough":1278,"blem":1279,"Ġfo":1280,"off":1281,"weit":1282,"zial":1283,"Ġfind":1284,"ath":1285,"min":1286,"Ġsel":1287,"ict":1288,"ĠFl":1289,"amp":1290,"lear":1291,"hÃ¶r":1292,"Ġunsere":1293,"Ġson":1294,"Ġop":1295,"Ġnational":1296,"Ġpar":1297,"ount":1298,"dem":1299,"âĢľ":1300,"Ġwhere":1301,"Ġkeine":1302,"Ġgood":1303,"ĠNe":1304,"Ġmin":1305,"dit":1306,"ality":1307,"omp":1308,"ĠPl":1309,"nis":1310,"Al":1311,"Ġgreat":1312,"rag":1313,"Ġhand":1314,"Ġbie":1315,"vern":1316,"Ġnat":1317,"Ġav":1318,"Ġtwo":1319,"eschÃ¤":1320,"Ġinformation":1321,"ĠStr":1322,"urn":1323,"uring":1324,"Ġemp":1325,"rauch":1326,"ĠUS":1327,"achen":1328,"ĠGes":1329,"ĠIhnen":1330,"ĠIntern":1331,"ĠEnt":1332,"Ġrem":1333,"ium":1334,"Sie":1335,"Ġevery":1336,"Ã¶ff":1337,"Ġeinz":1338,"Ġverb":1339,"Ġmade":1340,"Ġhad":1341,"Ġyears":1342,"ÃŁe":1343,"Ġconc":1344,"ĠMin":1345,"aut":1346,"Ġanderen":1347,"stand":1348,"sel":1349,"amil":1350,"rol":1351,"hm":1352,"Ġmein":1353,"ĠProdu":1354,"unkt":1355,"Ġeven":1356,"Ġend":1357,"ĠArt":1358,"schie":1359,"air":1360,"laub":1361,"Ġthrough":1362,"fort":1363,"Ġway":1364,"cept":1365,"Be":1366,"Ġiss":1367,"ĠGrund":1368,"Ġsystem":1369,"geben":1370,"Ġthose":1371,"Ġproduct":1372,"Ġget":1373,"ision":1374,"ischer":1375,"chten":1376,"forder":1377,"Ġsee":1378,"ĠMitgliedstaaten":1379,"ession":1380,"ina":1381,"gend":1382,"ereich":1383,"Ġsc":1384,"Ã¤lt":1385,"gung":1386,"Ġweiter":1387,"ister":1388,"stell":1389,"Ġange":1390,"lish":1391,"urr":1392,"ower":1393,"ws":1394,"ĠâĢŀ":1395,"ĠSo":1396,"ĠIhre":1397,"immer":1398,"Ġ199":1399,"ys":1400,"weise":1401,"Ġimmer":1402,"lag":1403,"ganis":1404,"ĠÃĦ":1405,"day":1406,"ĠZusammen":1407,"Ġpolicy":1408,"Ġorder":1409,"ows":1410,"Ġmay":1411,"erein":1412,"Ġtak":1413,"ĠEuropa":1414,"uÃŁer":1415,"lick":1416,"Ġdisc":1417,"Ġdirect":1418,"ument":1419,"uman":1420,"spr":1421,"Ġdann":1422,"ster":1423,"hne":1424,"Ġright":1425,"Ġac":1426,"unity":1427,"ituation":1428,"âĢĿ":1429,"rif":1430,"If":1431,"Ġbeing":1432,"ĠRat":1433,"ĠVorsch":1434,"ivers":1435,"ital":1436,"Ġfact":1437,"alls":1438,"Ġbeste":1439,"Ġnum":1440,"ited":1441,"Ġbeg":1442,"chts":1443,"isen":1444,"Ġrest":1445,"Ġke":1446,"Ġ7":1447,"10":1448,"000":1449,"eration":1450,"Im":1451,"Ġbelie":1452,"Ġparticular":1453,"Ġappro":1454,"Ġwieder":1455,"Ġdiesen":1456,"nahmen":1457,"Ġcar":1458,"Ġdiffer":1459,"Ġdamit":1460,"com":1461,"Ġcent":1462,"nung":1463,"ĠFr":1464,"gest":1465,"Ġcour":1466,"Ġger":1467,"ionen":1468,"ior":1469,"itt":1470,"ĠHaus":1471,"Ġtrans":1472,"Ġ10":1473,"Ġzwe":1474,"vor":1475,"Ġinclud":1476,"Ġwurden":1477,"Ġ8":1478,"Ġganz":1479,"ĠBereich":1480,"Ġown":1481,"Ġgesch":1482,"part":1483,"aur":1484,"bal":1485,"Ġ[":1486,"ĠfÃ¼":1487,"eins":1488,"Ġprocess":1489,"isse":1490,"icherheit":1491,"ough":1492,"ry":1493,"Ġresp":1494,"ade":1495,"iness":1496,"eln":1497,"adt":1498,"Ġdel":1499,"Ġknow":1500,"get":1501,"ĠWelt":1502,"Ġmon":1503,"innen":1504,"read":1505,"zeich":1506,"atter":1507,"ouse":1508,"trag":1509,"ĠDie":1510,"old":1511,"Ã¤ndern":1512,"gramm":1513,"Ġbus":1514,"elle":1515,"stitution":1516,"Ġarea":1517,"Ein":1518,"Ġquest":1519,"ler":1520,"Ġmain":1521,"Wenn":1522,"hin":1523,"az":1524,"ĠâĢľ":1525,"oy":1526,"Ġbu":1527,"schieden":1528,"Ġph":1529,"Ġkein":1530,"itÃ¤":1531,"zen":1532,"Ġunserer":1533,"ĠGro":1534,"There":1535,"ool":1536,"Ġagre":1537,"alk":1538,"You":1539,"rechen":1540,"round":1541,"Ġreal":1542,"ĠHand":1543,"ix":1544,"Ġhelp":1545,"Ġhere":1546,"Ġhabe":1547,"schafts":1548,"Ġsondern":1549,"Ġsm":1550,"ĠGeb":1551,"eth":1552,"piel":1553,"Ġstand":1554,"urs":1555,"Ġafter":1556,"Ġdeb":1557,"Ġcomple":1558,"Ġseine":1559,"leg":1560,"Ġjedoch":1561,"Ġpolitical":1562,"res":1563,"ests":1564,"Ġform":1565,"ince":1566,"gesch":1567,"tegr":1568,"ĠHe":1569,"eite":1570,"Ġexp":1571,"ruck":1572,"Mr":1573,"Ġpublic":1574,"Ġplace":1575,"eld":1576,"Ġide":1577,"Ġincre":1578,"Ġgut":1579,"ax":1580,"ĠEuropÃ¤ische":1581,"mb":1582,"Ġconcern":1583,"Ġprote":1584,"mittel":1585,"Ġpossible":1586,"ĠIhr":1587,"ende":1588,"istr":1589,"ved":1590,"Ġsame":1591,"erk":1592,"Ġ9":1593,"ĠEx":1594,"ently":1595,"ĠBÃ¼r":1596,"Ġsim":1597,"ktiv":1598,"Ġausge":1599,"Ġclear":1600,"Ġetw":1601,"ĠFin":1602,"iron":1603,"ĠwÃ¼r":1604,"Ġser":1605,"bens":1606,"For":1607,"ata":1608,"Ã¶glichkeit":1609,"schlieÃŁ":1610,"ierte":1611,"ines":1612,"Ġneue":1613,"Ġcould":1614,"eral":1615,"Ġhuman":1616,"tal":1617,"tens":1618,"ĠInter":1619,"Ġwant":1620,"Ġheute":1621,"Ġbef":1622,"Ġdr":1623,"fach":1624,"ĠBes":1625,"line":1626,"ĠGem":1627,"ĠInformation":1628,"Ġnumber":1629,"Ġcontin":1630,"lagen":1631,"Ġsay":1632,"As":1633,"nder":1634,"Ġoffer":1635,"Ġcurr":1636,"Ġeconomic":1637,"ven":1638,"Ġperson":1639,"Ġgleich":1640,"Ġdoes":1641,"Ġest":1642,"Ġdevelopment":1643,"Ġthen":1644,"Ġopp":1645,"ertain":1646,"isk":1647,"Ġwithin":1648,"Ġeffect":1649,"use":1650,"ĠBar":1651,"Ġwen":1652,"ÃŁnahmen":1653,"iti":1654,"trÃ¤":1655,"Ġrights":1656,"Diese":1657,"ants":1658,"ĠBr":1659,"ep":1660,"osten":1661,"tellt":1662,"raft":1663,"uro":1664,"ĠUnternehmen":1665,"ĠKolle":1666,"Ġbereits":1667,"ĠTeil":1668,"ics":1669,"Ġavail":1670,"Ġtransp":1671,"Ġexam":1672,"Ġfest":1673,"yp":1674,"Ġselbst":1675,"Mit":1676,"Ġagainst":1677,"Ã¤hl":1678,"alen":1679,"Ġohne":1680,"hip":1681,"aup":1682,"Ġmuch":1683,"Ġmich":1684,"Herr":1685,"Ġfund":1686,"ma":1687,"ĠInd":1688,"ander":1689,"Ġboth":1690,"bes":1691,"Ġused":1692,"Ġval":1693,"Ġvis":1694,"lage":1695,"ĠÃĦnder":1696,"ĠEntwicklung":1697,"Ġprof":1698,"icult":1699,"Ġtherefore":1700,"Ġlang":1701,"Wh":1702,"Ġihrer":1703,"Ġwichtig":1704,"licher":1705,"lobal":1706,"utions":1707,"stru":1708,"Ġsur":1709,"Ġlevel":1710,"ĠSchl":1711,"ĠFre":1712,"Ġsollte":1713,"ock":1714,"Ġsign":1715,"rÃ¤":1716,"fern":1717,"loy":1718,"Ġvar":1719,"Ġhist":1720,"ierten":1721,"erung":1722,"que":1723,"Ġregion":1724,"setz":1725,"ife":1726,"Ġneuen":1727,"ĠeuropÃ¤ischen":1728,"viron":1729,"Ġmed":1730,"ftware":1731,"Ġequ":1732,"ustom":1733,"ÂłÂł":1734,"ds":1735,"ulation":1736,"ĠSte":1737,"Ġbring":1738,"Ġpra":1739,"ĠFran":1740,"Ġ...":1741,"ivid":1742,"Ġfun":1743,"stÃ¤nd":1744,"Ġ15":1745,"ĠCon":1746,"Ġplay":1747,"aff":1748,"ux":1749,"Ġfull":1750,"Ã¤re":1751,"ĠJahren":1752,"eng":1753,"satz":1754,"Ġandere":1755,"Ġcr":1756,"Ġprovid":1757,"eut":1758,"Ġsocial":1759,"Ġbo":1760,"reichen":1761,"ĠRicht":1762,"ĠGerm":1763,"ĠHer":1764,"Ġcountry":1765,"urg":1766,"Ã¶ffent":1767,"fahren":1768,"ically":1769,"agement":1770,"Ġzwei":1771,"way":1772,"Ġeigen":1773,"net":1774,"ittee":1775,"Ã¶ÃŁ":1776,"Ġbre":1777,"Ġview":1778,"wert":1779,"Ġconf":1780,"Ġdenn":1781,"Ġthink":1782,"its":1783,"eiten":1784,"Ġfinan":1785,"Ġgroup":1786,"ĠVers":1787,"Ġwithout":1788,"Ġletz":1789,"Ġlast":1790,"Ġpoint":1791,"Ġstill":1792,"wick":1793,"vironment":1794,"Er":1795,"Ġexper":1796,"work":1797,"ets":1798,"trib":1799,"ichte":1800,"kehr":1801,"Ã¤ng":1802,"under":1803,"Ġmeas":1804,"Ġens":1805,"Ġdenen":1806,"immt":1807,"ĠY":1808,"ĠPre":1809,"cur":1810,"over":1811,"wir":1812,"br":1813,"Ġsollten":1814,"Ġoper":1815,"iver":1816,"Ġconsider":1817,"St":1818,"par":1819,"Ġadv":1820,"esse":1821,"Ġdifferent":1822,"Ġservices":1823,"ĠFrau":1824,"Ġfinden":1825,"Ġlong":1826,"ator":1827,"Ġaccess":1828,"gar":1829,"ĠSicherheit":1830,"Ġgemeins":1831,"ffen":1832,"nahme":1833,"Ġpriv":1834,"ĠmÃ¶glich":1835,"ĠNach":1836,"Ġmod":1837,"ĠFrage":1838,"fra":1839,"Ġopt":1840,"lim":1841,"man":1842,"ize":1843,"entral":1844,"lichkeit":1845,"ER":1846,"esen":1847,"ists":1848,"wort":1849,"ĠAs":1850,"Ġverschieden":1851,"ohl":1852,"Ġspec":1853,"ondere":1854,"Ġers":1855,"hor":1856,"Ã¤hrend":1857,"ĠBet":1858,"ness":1859,"Ġdown":1860,"ationen":1861,"zeug":1862,"Ġ18":1863,"Ġgovern":1864,"Ġatt":1865,"Ġfree":1866,"ollow":1867,"Ġprin":1868,"ĠMon":1869,"Ġavailable":1870,"Ġcap":1871,"Ġgel":1872,"richt":1873,"ope":1874,"ĠWirt":1875,"How":1876,"aking":1877,"Ġrequire":1878,"war":1879,"Ġable":1880,"ĠunterstÃ¼tz":1881,"Ġback":1882,"ĠBÃ¼rger":1883,"uture":1884,"hol":1885,"ude":1886,"Ġindustr":1887,"orte":1888,"Ġ12":1889,"ibility":1890,"ritt":1891,"akt":1892,"Ġbietet":1893,"Ġkle":1894,"ready":1895,"ĠDaten":1896,"zahl":1897,"ised":1898,"urther":1899,"pf":1900,"ability":1901,"iÃŁ":1902,"Ġbusiness":1903,"Ġspecial":1904,"alth":1905,"atur":1906,"ting":1907,"kun":1908,"Ġdazu":1909,"vers":1910,"yn":1911,"ience":1912,"ystems":1913,"ĠHin":1914,"ĠZu":1915,"Ġsmall":1916,"Ġbefore":1917,"gem":1918,"Ġlook":1919,"ĠPerson":1920,"Ġviele":1921,"ispiel":1922,"Ġliegt":1923,"ĠKont":1924,"afÃ¼r":1925,"Ġallen":1926,"Ġmachen":1927,"ĠFe":1928,"Ġcustom":1929,"ppen":1930,"ienst":1931,"Ġweil":1932,"Ġben":1933,"Ġpers":1934,"Ġalready":1935,"loss":1936,"ĠPart":1937,"Ġfuture":1938,"Ġgest":1939,"Ġaller":1940,"Ġbelieve":1941,"aben":1942,"ahmen":1943,"Ġcor":1944,"Ġze":1945,"une":1946,"ders":1947,"ins":1948,"ward":1949,"ĠKommiss":1950,"On":1951,"Ġbek":1952,"Ġair":1953,"tem":1954,"ahre":1955,"So":1956,"press":1957,"ilt":1958,"200":1959,"ktur":1960,"ased":1961,"ctor":1962,"cond":1963,"ĠMittel":1964,"Ġsom":1965,"ctions":1966,"Ġhal":1967,"Ġseiner":1968,"]]":1969,"zug":1970,"ves":1971,"ĠIs":1972,"All":1973,"Ġcourse":1974,"ĠkÃ¶nn":1975,"Ġdarauf":1976,"Ġopen":1977,"Ġtoday":1978,"gramme":1979,"annt":1980,"ante":1981,"kten":1982,"Ġdesign":1983,"esell":1984,"Ġproject":1985,"jor":1986,"agen":1987,"ismus":1988,"Ġset":1989,"welt":1990,"Ġtoo":1991,"Ġjetzt":1992,"Ã¤h":1993,"Ġinst":1994,"ĠMÃ¶glichkeit":1995,"ving":1996,"Ġcann":1997,"Ã¤ÃŁ":1998,"Ġproducts":1999,"ĠAm":2000,"Ġservice":2001,"Ġet":2002,"aher":2003,"ron":2004,"ĠgrÃ¶ÃŁ":2005,"Ġeing":2006,"ĠStand":2007,"ica":2008,"Ġenvironment":2009,"omen":2010,"ĠAut":2011,"ĠThem":2012,"ĠFinanz":2013,"Ġfl":2014,"itiz":2015,"Ġrespons":2016,"hÃ¤lt":2017,"ination":2018,"cr":2019,"Ġcannot":2020,"Ġfac":2021,"Ġcertain":2022,"ĠRahmen":2023,"nisse":2024,"llt":2025,"zus":2026,"curity":2027,"come":2028,"mar":2029,"ren":2030,"Ġdata":2031,"Ġgeht":2032,"Ġgeb":2033,"tend":2034,"other":2035,"Ġprev":2036,"Ã¶l":2037,"aterial":2038,"Ġschon":2039,"Ġeinfach":2040,"Ġmir":2041,"ĠMaÃŁnahmen":2042,"lease":2043,"olution":2044,"ĠLage":2045,"okrat":2046,"Ġfollow":2047,"Ġredu":2048,"Ġfra":2049,"Ġbro":2050,"ately":2051,"Ġcase":2052,"chie":2053,"Ġbin":2054,"operation":2055,"ĠTra":2056,"Ġindivid":2057,"20":2058,"los":2059,"iving":2060,"Ġneg":2061,"co":2062,"Ġint":2063,"Ġoffers":2064,"ĠZiel":2065,"Ġeinige":2066,"olid":2067,"ars":2068,"ĠdafÃ¼r":2069,"klÃ¤r":2070,"Ġregard":2071,"Ġput":2072,"ĠVerein":2073,"Ġeas":2074,"tain":2075,"red":2076,"orn":2077,"EN":2078,"abei":2079,"Ġquestion":2080,"Ġimpro":2081,"ĠInformationen":2082,"ĠRechts":2083,"raph":2084,"affen":2085,"Ġseit":2086,"ĠMed":2087,"Ġvoll":2088,"Ġ&":2089,"ential":2090,"Ã¤tz":2091,"ĠGemein":2092,"inal":2093,"That":2094,"ccess":2095,"Ġart":2096,"Ġter":2097,"iber":2098,"Ġje":2099,"ervice":2100,"ually":2101,"eich":2102,"Ġintegr":2103,"isierung":2104,"ĠHerrn":2105,"ergy":2106,"ilit":2107,"ified":2108,"folg":2109,"ather":2110,"Ġfinancial":2111,"Ġcity":2112,"ĠGen":2113,"imes":2114,"Ġreas":2115,"Ġimple":2116,"Ġchange":2117,"ĠDem":2118,"ahn":2119,"Ġrepr":2120,"Ġposit":2121,"ĠMan":2122,"Ġduring":2123,"grund":2124,"Ġ[[":2125,"allen":2126,"ĠStadt":2127,"ichten":2128,"Ġrev":2129,"ĠAussch":2130,"utes":2131,"Ġcitiz":2132,"Ġihren":2133,"Ã¼h":2134,"anden":2135,"ĠzurÃ¼ck":2136,"Ġactiv":2137,"Ã¼nd":2138,"Ġfar":2139,"lex":2140,"Ġprom":2141,"Ġproblem":2142,"Ġinvest":2143,"Ġday":2144,"ove":2145,"ucht":2146,"ĠInternet":2147,"Ġfol":2148,"Ġsaid":2149,"Ġdeut":2150,"Ġallem":2151,"cing":2152,"inen":2153,"Ġnun":2154,"ichter":2155,"amm":2156,"Ġglobal":2157,"Ġlarge":2158,"uchen":2159,"Ġachie":2160,"Ġmeans":2161,"Ġstat":2162,"Ġissue":2163,"Ã¤m":2164,"ĠPol":2165,"ĠJahre":2166,"Ġproposal":2167,"Ġsaf":2168,"aum":2169,"bsite":2170,"Ġkl":2171,"Ġexample":2172,"iele":2173,"Re":2174,"so":2175,"ily":2176,"tt":2177,"Ġask":2178,"scheid":2179,"lossen":2180,"Ġmeine":2181,"reib":2182,"ĠRuss":2183,"isl":2184,"Ġquality":2185,"nov":2186,"Ġzusammen":2187,"ways":2188,"Ġapplic":2189,"Ġmajor":2190,"Ġcost":2191,"ĠAmer":2192,"besondere":2193,"Ġmember":2194,"Ġ2009":2195,"Ġmodern":2196,"halts":2197,"Ġfamil":2198,"heiten":2199,"Ġgef":2200,"Ġentsp":2201,"Ġmeet":2202,"illion":2203,"punkt":2204,"Ġsince":2205,"udget":2206,"Ġbesch":2207,"Ġpresent":2208,"gress":2209,"Ġsituation":2210,"Ġstrateg":2211,"ĠTran":2212,"Ġdebate":2213,"Ġbesonder":2214,"Ġrooms":2215,"iend":2216,"Ġnecess":2217,"unter":2218,"ites":2219,"Ġ0":2220,"ether":2221,"But":2222,"Ġwollen":2223,"ized":2224,"ĠverfÃ¼":2225,"Ġsicher":2226,"Ġunseren":2227,"amer":2228,"aupt":2229,"fÃ¼hrt":2230,"ĠCommissioner":2231,"antwort":2232,"ule":2233,"ash":2234,"pre":2235,"org":2236,"oten":2237,"aat":2238,"Ã¡":2239,"Ġtechnolog":2240,"Ġeinge":2241,"ilities":2242,"leist":2243,"fts":2244,"Ġchild":2245,"tellen":2246,"ktionen":2247,"Ġamend":2248,"Ġcommon":2249,"blems":2250,"ĠwÃ¼rde":2251,"eschÃ¤ft":2252,"Ġeng":2253,"angen":2254,"Ġeach":2255,"haf":2256,"Ġadop":2257,"ĠZimmer":2258,"kunft":2259,"Des":2260,"Pro":2261,"Ġche":2262,"etzen":2263,"Ġincluding":2264,"Ġpass":2265,"licht":2266,"ird":2267,"oren":2268,"ĠKommissar":2269,"ĠPal":2270,"fass":2271,"ĠÃĸ":2272,"Ġgar":2273,"omat":2274,"ode":2275,"Ġcompet":2276,"Ġpower":2277,"ĠCommittee":2278,"ache":2279,"oh":2280,"ĠKin":2281,"immung":2282,"reit":2283,"Ġcitizens":2284,"ĠParlaments":2285,"Ġcolle":2286,"Ġref":2287,"cip":2288,"ĠArbeits":2289,"vention":2290,"ĠEnerg":2291,"ĠGew":2292,"ĠwÃ¤hrend":2293,"Nach":2294,"Ġstehen":2295,"ĠPolitik":2296,"por":2297,"bed":2298,"ĠGesch":2299,"genommen":2300,"Ġetwas":2301,"ieder":2302,"opp":2303,"Ġthree":2304,"aurant":2305,"ablish":2306,"Ġstay":2307,"Ġsagen":2308,"Ġfound":2309,"Ġallow":2310,"ining":2311,"gew":2312,"ipp":2313,"Ġareas":2314,"ĠEng":2315,"Ġcult":2316,"Ġobject":2317,"Ġrespect":2318,"orth":2319,"gangen":2320,"Ġnext":2321,"Ġmeasures":2322,"ains":2323,"ell":2324,"Ġdoch":2325,"ĠVorschlag":2326,"ï¿":2327,"ï¿½":2328,"Ġstud":2329,"Ġsozial":2330,"ĠWir":2331,"ĠBest":2332,"ĠForm":2333,"ĠWor":2334,"Ġgive":2335,"uge":2336,"zw":2337,"Ġorganis":2338,"zept":2339,"Ġfew":2340,"ands":2341,"Ġ/":2342,"ugen":2343,"ordnung":2344,"However":2345,"Ġdemoc":2346,"Ġauthor":2347,"Ġrece":2348,"Ġbr":2349,"Ġensure":2350,"linie":2351,"ĠBild":2352,"Ġ30":2353,"Ġresult":2354,"Ġdiscuss":2355,"Ġkomm":2356,"ling":2357,"asch":2358,"Ġ%":2359,"rache":2360,"ught":2361,"Ġfurther":2362,"Ã¼rlich":2363,"Ġerm":2364,"Ġhistor":2365,"Ġprovide":2366,"Ġenergy":2367,"Ġpres":2368,"Ġthank":2369,"ĠEuro":2370,"schaften":2371,"Ġtun":2372,"Ġwissen":2373,"ĠPh":2374,"iff":2375,"Ġtaken":2376,"Ġinsbesondere":2377,"Ġsuccess":2378,"Ġerst":2379,"Ġbuild":2380,"falls":2381,"Ġfil":2382,"unde":2383,"ĠBo":2384,"ĠUr":2385,"Ġagreement":2386,"Ġmus":2387,"Ġcal":2388,"gleich":2389,"Ġerhalten":2390,"Ġcontrol":2391,"ĠLÃ¤nder":2392,"anken":2393,"stellung":2394,"Ġkom":2395,"Ġaddition":2396,"stÃ¼tzung":2397,"iate":2398,"Ġdra":2399,"wirt":2400,"ser":2401,"schl":2402,"gre":2403,"Ġeinmal":2404,"itor":2405,"agt":2406,"indet":2407,"Ġwaren":2408,"ek":2409,"ĠLÃ¶s":2410,"ziel":2411,"Ġgrow":2412,"Ġemploy":2413,"Our":2414,"ĠÃ¶ffent":2415,"Ġdet":2416,"lungs":2417,"With":2418,"pecial":2419,"Ġpay":2420,"ases":2421,"ĠVerfÃ¼":2422,"ĠauÃŁer":2423,"Ġposition":2424,"Ġestablish":2425,"ĠFall":2426,"ilfe":2427,"cken":2428,"legt":2429,"Ġread":2430,"itÃ¤ten":2431,"19":2432,"tschaft":2433,"Ġabs":2434,"Ġkommen":2435,"chnolog":2436,"gang":2437,"uff":2438,"ditions":2439,"igten":2440,"Ġlaw":2441,"ĠProblem":2442,"Ġvo":2443,"ohn":2444,"Ġbeim":2445,"Ġcome":2446,"ross":2447,"ules":2448,"Ġlink":2449,"ĠDeut":2450,"Ġdu":2451,"Ġopport":2452,"arte":2453,"Ġpop":2454,"jekt":2455,"ĠÃĦnderungs":2456,"Ġinde":2457,"arn":2458,"Ġsk":2459,"ĠKunden":2460,"mm":2461,"Ġersten":2462,"Ġimp":2463,"Ġproblems":2464,"Ġshall":2465,"ĠMarkt":2466,"ements":2467,"aren":2468,"bo":2469,"ums":2470,"Ġverw":2471,"Ġnecessary":2472,"uten":2473,"Ġcompany":2474,"ĠGo":2475,"igkeiten":2476,"Ġdid":2477,"ĠItal":2478,"ĠÐ":2479,"Eine":2480,"rop":2481,"Ġschw":2482,"ĠZusammenarbeit":2483,"arten":2484,"AT":2485,"Ġel":2486,"Ġterr":2487,"ĠGroup":2488,"fre":2489,"utzen":2490,"Ġlassen":2491,"Ġprincip":2492,"politik":2493,"Auf":2494,"unic":2495,"esser":2496,"pend":2497,"ĠAll":2498,"Ġbegr":2499,"ott":2500,"Ġkey":2501,"umen":2502,"ĠUnterstÃ¼tzung":2503,"ĠQual":2504,"Ġdrei":2505,"AN":2506,"Ġgiven":2507,"ises":2508,"lemen":2509,"Ġlegisl":2510,"ĠgroÃŁ":2511,"Ġbudget":2512,"ĠSh":2513,"FÃ¼r":2514,"fung":2515,"ĠNamen":2516,"Ġsecurity":2517,"Ġpract":2518,"ĠÃ¤":2519,"bau":2520,"elf":2521,"ĠGer":2522,"Ġgeben":2523,"Ġinvol":2524,"fang":2525,"med":2526,"Ġem":2527,"Ġ|":2528,"esellschaft":2529,"Ġhealth":2530,"ichts":2531,"Ġwirk":2532,"glichen":2533,"Ġhope":2534,"Ã¶rder":2535,"ĠÂ":2536,"ctive":2537,"To":2538,"IN":2539,"ising":2540,"Ġwhy":2541,"Ġhowever":2542,"lungen":2543,"Ġlead":2544,"Ġentwick":2545,"He":2546,"ĠRes":2547,"Ġsecond":2548,"orgen":2549,"Ġchar":2550,"asse":2551,"ĠZug":2552,"burg":2553,"bewer":2554,"joy":2555,"Ġverl":2556,"ĠSchw":2557,"iety":2558,"iter":2559,"ĠProble":2560,"ively":2561,"isation":2562,"ĠMus":2563,"Ġwhile":2564,"ĠUmwelt":2565,"wards":2566,"Ġ25":2567,"fte":2568,"ared":2569,"Ġcooperation":2570,"urz":2571,"Ġbesteht":2572,"Ġret":2573,"gether":2574,"ĠBl":2575,"nell":2576,"ĠSpiel":2577,"Ġwirtschaft":2578,"ave":2579,"Ġbl":2580,"ES":2581,"ĠRecht":2582,"ĠMill":2583,"spro":2584,"Ġir":2585,"fÃ¼hrung":2586,"ĠStra":2587,"ĠChina":2588,"Ġlocated":2589,"Sch":2590,"von":2591,"Ġander":2592,"Ġwish":2593,"Ġstart":2594,"Ġgra":2595,"arch":2596,"Ġlife":2597,"Ġprotection":2598,"ĠRo":2599,"Ġimplement":2600,"schied":2601,"Ġtradition":2602,"ĠDienst":2603,"ury":2604,"Ġrefer":2605,"Ġalways":2606,"altung":2607,"ĠLÃ¤ndern":2608,"Ġ14":2609,"ĠfÃ¼hren":2610,"Ġneeds":2611,"Ġcomplete":2612,"wendung":2613,"En":2614,"text":2615,"Ġsteht":2616,"Ġwrit":2617,"Ġsehen":2618,"Ġseinen":2619,"erb":2620,"ĠX":2621,"zieh":2622,"ried":2623,"earch":2624,"Ġvote":2625,"Ġinform":2626,"ĠMein":2627,"ald":2628,"kon":2629,"lect":2630,"ĠGeschÃ¤":2631,"ique":2632,"ogen":2633,"ĠTag":2634,"Ġstatt":2635,"Ġcomb":2636,"Ġbeh":2637,"hÃ¤ng":2638,"ppe":2639,"Ġsens":2640,"ĠDeb":2641,"Ġ11":2642,"Ã¶t":2643,"Ġdiff":2644,"Ġakt":2645,"cell":2646,"Wie":2647,"tion":2648,"ĠwÃ¤re":2649,"Ġbetter":2650,"kre":2651,"ĠIch":2652,"Ã¤tze":2653,"stellen":2654,"ĠSystem":2655,"ca":2656,"ĠFragen":2657,"by":2658,"Ġmult":2659,"ivil":2660,"dress":2661,"ĠVol":2662,"ĠUnited":2663,"ettbewer":2664,"ichterst":2665,"Ġdabei":2666,"Ġtre":2667,"zess":2668,"Ġ16":2669,"Ã¤d":2670,"Ġaction":2671,"ĠBeit":2672,"alle":2673,"schein":2674,"Ġinterest":2675,"gaben":2676,"ches":2677,"At":2678,"ĠHouse":2679,"Ġaccount":2680,"Se":2681,"ĠKollegen":2682,"ialog":2683,"Ġglaub":2684,"ĠAt":2685,"iation":2686,"ĠgehÃ¶r":2687,"zÃ¼":2688,"Ġnet":2689,"ĠTr":2690,"Ġmen":2691,"ĠhÃ¶":2692,"ĠRest":2693,"Ġnor":2694,"ĠLebens":2695,"Ġlegal":2696,"bereich":2697,"Ã¤mp":2698,"Ġfiel":2699,"Ġusing":2700,"Ġletzten":2701,"uft":2702,"iste":2703,"cher":2704,"Ġfav":2705,"rechte":2706,"Ġworden":2707,"sequ":2708,"Ġcho":2709,"ĠRegierung":2710,"ĠmuÃŁ":2711,"less":2712,"enten":2713,"ikan":2714,"ĠRed":2715,"Ġdefin":2716,"iod":2717,"ierungs":2718,"ĠPort":2719,"ĠDes":2720,"obil":2721,"rÃ¤n":2722,"Ġble":2723,"Ġmov":2724,"ĠSw":2725,"ĠEnergie":2726,"undheit":2727,"schrif":2728,"Ġconsum":2729,"gehen":2730,"Ġsing":2731,"of":2732,"ĠAd":2733,"clus":2734,"ingungen":2735,"Ġreach":2736,"ĠBedeut":2737,"ĠCommunity":2738,"Ġ2010":2739,"Ġ2008":2740,"Ġ17":2741,"Ġbased":2742,"Ġaround":2743,"ĠKr":2744,"Ġconne":2745,"Ġtransport":2746,"Ã¶lk":2747,"ĠgroÃŁen":2748,"Fra":2749,"iges":2750,"gabe":2751,"abil":2752,"Ġderen":2753,"ĠVerfÃ¼gung":2754,"gestellt":2755,"ĠgroÃŁe":2756,"ĠSpe":2757,"Ġwelche":2758,"markt":2759,"Ġterms":2760,"Ġworking":2761,"genden":2762,"Ġcurrent":2763,"30":2764,"ify":2765,"Ġadd":2766,"Ġ50":2767,"Ġmet":2768,"ĠBedeutung":2769,"ĠEntscheid":2770,"ĠUSA":2771,"ervor":2772,"Ġinner":2773,"ged":2774,"asser":2775,"Ġstru":2776,"ĠSeite":2777,"Ġproduction":2778,"Ġshort":2779,"Ġbecome":2780,"lev":2781,"blick":2782,"ĠKom":2783,"Ġwhether":2784,"racht":2785,"uments":2786,"ĠQu":2787,"pporte":2788,"Ġless":2789,"offe":2790,"Ġparticularly":2791,"ĠErgeb":2792,"Ġnon":2793,"Ġcrit":2794,"ĠBel":2795,"Ġcentre":2796,"hof":2797,"Ġlim":2798,"Ġindividual":2799,"Ġextre":2800,"ĠDas":2801,"eder":2802,"Ġtogether":2803,"Ġdef":2804,"Ġdifficult":2805,"Ġbel":2806,"Ġho":2807,"ĠRegion":2808,"Ġvisit":2809,"Ġanother":2810,"load":2811,"ĠRom":2812,"Ġnear":2813,"Ã¼nst":2814,"ferenz":2815,"Ġorig":2816,"Ġstate":2817,"uter":2818,"Ġdist":2819,"Ġresearch":2820,"Ġtrade":2821,"druck":2822,"Ġwater":2823,"Ġzahl":2824,"osition":2825,"Ġclos":2826,"igent":2827,"Ġrep":2828,"Ġhim":2829,"ĠSchutz":2830,"ustrie":2831,"anies":2832,"Ġcare":2833,"Ġear":2834,"immen":2835,"kauf":2836,"Ġchildren":2837,"Ġbene":2838,"ĠFamil":2839,"pecially":2840,"ĠSk":2841,"Ġbeach":2842,"room":2843,"Ġsl":2844,"Ġnotwend":2845,"bene":2846,"Ġcontrib":2847,"ĠCl":2848,"Ġwhole":2849,"astr":2850,"Ġexist":2851,"tellung":2852,"Ð¾":2853,"Ġissues":2854,"ĠVertrag":2855,"Ġtour":2856,"ots":2857,"Ġjeder":2858,"ners":2859,"Ġbieten":2860,"ty":2861,"Ġhervor":2862,"Ġlocal":2863,"akes":2864,"ĠRegel":2865,"50":2866,"trÃ¤ge":2867,"iar":2868,"Ġconditions":2869,"Ġdavon":2870,"entrum":2871,"arante":2872,"ON":2873,"ckt":2874,"leit":2875,"ĠThema":2876,"Ġspecific":2877,"Ġricht":2878,"Ġ100":2879,"Ġreason":2880,"ames":2881,"ĠdarÃ¼ber":2882,"Ġfriend":2883,"atte":2884,"Ġentfern":2885,"Ã¼t":2886,"iew":2887,"Ġerforder":2888,"ĠLa":2889,"Ġenjoy":2890,"ĠBesch":2891,"Ġkm":2892,"bt":2893,"ultur":2894,"Ġcall":2895,"orts":2896,"hang":2897,"Ġeben":2898,"ording":2899,"vest":2900,"Ġsubject":2901,"Ġaff":2902,"Ġshow":2903,"Ġstellen":2904,"Ġbew":2905,"ĠgegenÃ¼ber":2906,"ĠWirtschafts":2907,"hÃ¶":2908,"Ġbook":2909,"rieden":2910,"Ġann":2911,"adies":2912,"kungen":2913,"xim":2914,"Bei":2915,"Ġaddress":2916,"Ġdaher":2917,"ody":2918,"Ġsystems":2919,"Ġalles":2920,"Ġrole":2921,"ĠKinder":2922,"ika":2923,"Ġ2007":2924,"ĠUN":2925,"ton":2926,"Ġtax":2927,"Ġvarious":2928,"ikel":2929,"ours":2930,"ennt":2931,"Ġschnell":2932,"ĠWeise":2933,"What":2934,"ufen":2935,"ategor":2936,"Ġbrauch":2937,"Ġrapporte":2938,"ength":2939,"Ġeigenen":2940,"row":2941,"Ġrun":2942,"ĠProbleme":2943,"When":2944,"Ġexperience":2945,"fÃ¤h":2946,"Ġwomen":2947,"ĠMal":2948,"ĠService":2949,"Ġgesam":2950,"ails":2951,"Ġ24":2952,"ĠTur":2953,"wirtschaft":2954,"gemein":2955,"Ġpage":2956,"Ġorgan":2957,"Ġcompanies":2958,"Und":2959,"ĠBeispiel":2960,"Ġsowohl":2961,"Ġindustry":2962,"Ġstep":2963,"isches":2964,"ĠBerichterst":2965,"Ġsector":2966,"Ġold":2967,"isions":2968,"sk":2969,"Ã³":2970,"Ġur":2971,"Ġpolitischen":2972,"ÃŃ":2973,"Ġbasis":2974,"schutz":2975,"ĠGÃ¤":2976,"Ġguarante":2977,"ĠHaushalts":2978,"Ġaim":2979,"ĠnÃ¤ch":2980,"Ġbefindet":2981,"Ġweitere":2982,"ĠInternational":2983,"sen":2984,"roll":2985,"aster":2986,"Ġbenef":2987,"Ne":2988,"rodu":2989,"esehen":2990,"ĠWahl":2991,"ĠWeg":2992,"ĠMrs":2993,"ĠkÃ¶nnte":2994,"They":2995,"Ġocc":2996,"Ġpat":2997,"ĠFrauen":2998,"oney":2999,"Ġdort":3000,"itiative":3001,"Ġerreichen":3002,"neten":3003,"thing":3004,"Ġbeaut":3005,"Ġcomfort":3006,"Ġprofession":3007,"Ġpack":3008,"Ġhatte":3009,"Ġmeiner":3010,"Ġreally":3011,"ĠIhrer":3012,"irm":3013,"ĠEUR":3014,"ĠAir":3015,"Aus":3016,"chan":3017,"Ġdi":3018,"Ġdeal":3019,"Ġmatter":3020,"Ġwirklich":3021,"ĠnatÃ¼rlich":3022,"ĠBus":3023,"AR":3024,"Ġcommit":3025,"ĠSan":3026,"geord":3027,"lock":3028,"ino":3029,"Ġsever":3030,"ai":3031,"reaty":3032,"ĠGu":3033,"ĠGerman":3034,"Ġarbeit":3035,"Was":3036,"Ġcol":3037,"Ġtyp":3038,"Ġthird":3039,"Ġbesonders":3040,"Ġinnov":3041,"ritte":3042,"inter":3043,"ably":3044,"Ġprior":3045,"ĠZahl":3046,"gende":3047,"Ġbar":3048,"ĠFahr":3049,"ĠFol":3050,"Ġespecially":3051,"bild":3052,"Ġmonth":3053,"Ġbreak":3054,"ĠBen":3055,"ĠZukunft":3056,"ived":3057,"ĠAusschuss":3058,"ober":3059,"Ġihnen":3060,"Ġmembers":3061,"Ġgovernment":3062,"ances":3063,"Ġperiod":3064,"Ġdone":3065,"amt":3066,"Ġstaff":3067,"Ġclose":3068,"Ġgent":3069,"Ġverschiedenen":3070,"Ġdoc":3071,"ĠStaaten":3072,"ĠunterstÃ¼tzen":3073,"ĠLin":3074,"ĠGeschÃ¤fts":3075,"cellent":3076,"Ġproced":3077,"ean":3078,"til":3079,"ĠStud":3080,"ifiz":3081,"ization":3082,"reg":3083,"ĠEnde":3084,"ĠKl":3085,"Ġmot":3086,"ĠDer":3087,"uktur":3088,"Ġshe":3089,"ety":3090,"finden":3091,"Ġentfernt":3092,"Ġfood":3093,"Ã¼nft":3094,"ograph":3095,"dings":3096,"ides":3097,"Ġhoch":3098,"zuf":3099,".(":3100,"ĠFun":3101,"treten":3102,"Ġinnerhalb":3103,"ival":3104,"Ġ13":3105,"Ġtop":3106,"ething":3107,"ĠMark":3108,"werk":3109,"IT":3110,"ican":3111,"spl":3112,"ĠHaupt":3113,"ĠForsch":3114,"Ġnegot":3115,"Ġpersonal":3116,"Ġcreate":3117,"Ġfeat":3118,"ĠSeiten":3119,"Ġvielen":3120,"Ġteil":3121,"ĠProdukt":3122,"app":3123,"Ġturn":3124,"Ġprivate":3125,"ĠFort":3126,"kung":3127,"These":3128,"neh":3129,"Ġlocation":3130,"raum":3131,"ĠSituation":3132,"Ġsite":3133,"Ġperform":3134,"Ġinstit":3135,"ĠRolle":3136,"Ġrepresent":3137,"asing":3138,"Ġple":3139,"duc":3140,"Ġapproach":3141,"icient":3142,"\",":3143,"Ġpress":3144,"Ġsum":3145,"ences":3146,"ichtet":3147,"Ġgener":3148,"Ġbetr":3149,"Ġenter":3150,"Ġzwar":3151,"Ġprop":3152,"erien":3153,"scheiden":3154,"ec":3155,"Ġsoc":3156,"indung":3157,"Ġreform":3158,"\".":3159,"weisen":3160,"Ġevent":3161,"oment":3162,"ension":3163,"Ġwelt":3164,"Ġinternationalen":3165,"uc":3166,"fast":3167,"Ġamong":3168,"ĠDeutsch":3169,"ĠProgramm":3170,"Ġjob":3171,"Ġsingle":3172,"Ġpoin":3173,"ĠWettbewer":3174,"imate":3175,"Ġitself":3176,"Ġdecision":3177,"zip":3178,"ordin":3179,"Ġlo":3180,"Ã¼d":3181,"Ġsomething":3182,"ults":3183,"iol":3184,"wh":3185,"Ġstar":3186,"Ġbestimm":3187,"Ġlangu":3188,"11":3189,"Ġseveral":3190,"ĠmÃ¶chten":3191,"Ã¼hr":3192,"olf":3193,"lands":3194,"Ġstruct":3195,"oor":3196,"ktor":3197,"ativen":3198,"Ġdoub":3199,"Ġgeneral":3200,"ift":3201,"ĠPark":3202,"Ġresour":3203,"eign":3204,"Ġlist":3205,"Ġfavour":3206,"uth":3207,"Ġmaterial":3208,"uellen":3209,"Ġinstall":3210,"ĠFest":3211,"ittle":3212,"ministr":3213,"ians":3214,"Um":3215,"onds":3216,"isis":3217,"ĠRichtlinie":3218,"tember":3219,"Ġtown":3220,"Ġaufge":3221,"atch":3222,"Ġdirekt":3223,"Ã¤nde":3224,"Ġmaking":3225,"'t":3226,"Ġhinaus":3227,"Ġcontinue":3228,"ĠdÃ¼r":3229,"Ġprogramme":3230,"IS":3231,"mos":3232,"rael":3233,"mework":3234,"And":3235,"Ġresolution":3236,"ĠWoch":3237,"ĠVerbrauch":3238,"wÃ¤r":3239,"ĠDisk":3240,"Ġleast":3241,"Ġenc":3242,"ĠIhren":3243,"ification":3244,"ĠTerr":3245,"ĠGru":3246,"ane":3247,"ĠAfr":3248,"Ġautomat":3249,"Ġaccept":3250,"Ġgentlemen":3251,"Ġfollowing":3252,"yl":3253,"Ġintrodu":3254,"cel":3255,"Ver":3256,"sprache":3257,"Ġmillion":3258,"go":3259,"iations":3260,"wÃ¤":3261,"ĠNutz":3262,"Auch":3263,"Ġprogress":3264,"Als":3265,"ĠEl":3266,"Ġserious":3267,"Ġaway":3268,"ĠSoftware":3269,"Ġpeace":3270,"ĠStrateg":3271,"Da":3272,"Ġrelations":3273,"ĠTour":3274,"Ġgoing":3275,"ĠLie":3276,"Ġexcellent":3277,"Ġkind":3278,"Ġoften":3279,"Ġlet":3280,"ĠKÃ¼":3281,"Aber":3282,"nehmer":3283,"Ġopin":3284,"ĠComp":3285,"Ġgl":3286,"Ġhome":3287,"Ġtext":3288,"hens":3289,"bei":3290,"Ġmanagement":3291,"atives":3292,"ifen":3293,"rim":3294,"Ġ:":3295,"CH":3296,"miss":3297,"Ġsup":3298,"ĠGermany":3299,"Ġerste":3300,"Ġname":3301,"Ġunderstand":3302,"Ġfamily":3303,"Ġkonn":3304,"Ġmar":3305,"Ġparticip":3306,"ĠAbst":3307,"Ġtro":3308,"Ġoffen":3309,"Ġrules":3310,"Ġdirective":3311,"iere":3312,"auer":3313,"ĠNot":3314,"let":3315,"ĠeuropÃ¤ische":3316,"Ġans":3317,"ĠWer":3318,"aps":3319,"gricult":3320,"fehl":3321,"Ġcrisis":3322,"strument":3323,"iken":3324,"Ġapart":3325,"Ðµ":3326,"ĠGegen":3327,"orm":3328,"Ġrapporteur":3329,"ĠRÃ¼ck":3330,"antrag":3331,"Ġcontact":3332,"unds":3333,"oto":3334,"Ġregul":3335,"Ġanal":3336,"produ":3337,"ĠEs":3338,"ĠHotels":3339,"Ġ2000":3340,"icle":3341,"Ġsett":3342,"ierungen":3343,"ĠUhr":3344,"ĠChr":3345,"ksam":3346,"though":3347,"ype":3348,"12":3349,"ĠMeinung":3350,"fect":3351,"icial":3352,"weg":3353,"Ġmach":3354,"Ġfeel":3355,"Ġmoney":3356,"Ġforward":3357,"Hier":3358,"Ġtowards":3359,"Ġsoftware":3360,"Ġexpress":3361,"Ġonce":3362,"Ġstark":3363,"leistungen":3364,"Ġinc":3365,"the":3366,"ĠNew":3367,"Ġprice":3368,"Ġeinzel":3369,"Ġrange":3370,"Ġklar":3371,"thers":3372,"Ġline":3373,"ully":3374,"achst":3375,"Ġwelcome":3376,"Ġextrem":3377,"pekt":3378,"ony":3379,"Ġonline":3380,"Ġfast":3381,"Ġetc":3382,"ĠGesundheit":3383,"etzung":3384,"Ġthings":3385,"stÃ¼ck":3386,"Ġabsol":3387,"Ġlittle":3388,"ĠWind":3389,"ĠKre":3390,"prÃ¼":3391,"ĠBerlin":3392,"Ġrecog":3393,"Ġdest":3394,"zogen":3395,"airs":3396,"teilung":3397,"Ġbal":3398,"Ġinstitutions":3399,"ĠZusammenhang":3400,"voll":3401,"Ð°":3402,"ference":3403,"ĠhÃ¤t":3404,"weis":3405,"Ġmention":3406,"Ġcommunic":3407,"adam":3408,"Ġident":3409,"uÃŁen":3410,"Ġpost":3411,"Ġzus":3412,"itÃ¤ts":3413,"Ġant":3414,"ifft":3415,"Ġuntil":3416,"DE":3417,"esten":3418,"ĠOn":3419,"ĠAbgeord":3420,"Ġsitu":3421,"wand":3422,"istic":3423,"Ġbeiden":3424,"Ġmilit":3425,"Ġunserem":3426,"AS":3427,"haus":3428,"lik":3429,"ĠFisch":3430,"Ab":3431,"ij":3432,"outh":3433,"Ġkommt":3434,"enzen":3435,"Ġstre":3436,"aden":3437,"ĠRep":3438,"ĠWorld":3439,"Ġdays":3440,"ĠUnivers":3441,"asst":3442,"ĠTransp":3443,"Ġwalk":3444,"ww":3445,"Ġoptim":3446,"yr":3447,"Ġcustomers":3448,"ennen":3449,"ĠDire":3450,"gÃ¤n":3451,"ured":3452,"bet":3453,"Ġfinanz":3454,"atten":3455,"vent":3456,"iesen":3457,"Ġaid":3458,"Ġstrong":3459,"ume":3460,"ĠTreaty":3461,"OR":3462,"zimmer":3463,"Ġess":3464,"Ġentsprechen":3465,"Ġplan":3466,"ison":3467,"ĠPartner":3468,"anges":3469,"lÃ¤ge":3470,"ĠGÃ¤ste":3471,"Ġincrease":3472,"lean":3473,"tract":3474,"ĠHilfe":3475,"ĠMet":3476,"ieten":3477,"idence":3478,"ĠEmp":3479,"ĠFrank":3480,"Ġagree":3481,"ĠEntschlieÃŁ":3482,"ommend":3483,"Ġbestehen":3484,"Ġopportunity":3485,"leicht":3486,"Ġ198":3487,"Ã¤chst":3488,"ĠPersonen":3489,"fassung":3490,"ĠJan":3491,"Ġweltweit":3492,"ĠKomm":3493,"Ġrather":3494,"na":3495,"eu":3496,"Ġkeep":3497,"ĠSpan":3498,"idency":3499,"rech":3500,"Ġgrowth":3501,"Ġfunction":3502,"Ġactivities":3503,"ĠZwe":3504,"ĠBerichterstatter":3505,"half":3506,"ĠInvest":3507,"Ġmind":3508,"ocus":3509,"ĠBank":3510,"Ġhard":3511,"liches":3512,"Ġve":3513,"crip":3514,"ĠVerantwort":3515,"Ġquite":3516,"stra":3517,"edom":3518,"ĠGra":3519,"Ã¤uf":3520,"weil":3521,"ĠOp":3522,"Ġstellt":3523,"ielen":3524,"Ġbringen":3525,"mÃ¤ÃŁ":3526,"Ġ2006":3527,"ĠTechnolog":3528,"ĠLÃ¶sung":3529,"Ġbzw":3530,"ĠSchluss":3531,"Ġcheck":3532,"met":3533,"side":3534,"baren":3535,"ĠNov":3536,"Ġseem":3537,"Ġja":3538,"lieÃŁen":3539,"Ġil":3540,"Ġpositive":3541,"ĠUms":3542,"ĠArtikel":3543,"Ġprovided":3544,"ĠPrÃ¤sidentin":3545,"annten":3546,"ĠstÃ¤r":3547,"ĠKlim":3548,"ĠbegrÃ¼":3549,"ender":3550,"ĠKo":3551,"Ġtry":3552,"Ġresources":3553,"Ġelect":3554,"ana":3555,"ply":3556,"Ġbig":3557,"Ġtas":3558,"ĠSu":3559,"ĠLeben":3560,"ĠDies":3561,"Ġsw":3562,"Ġpartners":3563,"ĠfÃ¼hr":3564,"Ã¤ren":3565,"Ġsug":3566,"Ġweniger":3567,"uell":3568,"Ġdaran":3569,"Ġmean":3570,"Ġdev":3571,"Ġtreat":3572,"ĠIt":3573,"Ġindem":3574,"Ġmight":3575,"rolle":3576,"eits":3577,"Ġbehalf":3578,"Ġideal":3579,"forderungen":3580,"ĠDemokrat":3581,"erecht":3582,"ĠFil":3583,"ined":3584,"Ġgilt":3585,"Ġland":3586,"Ġfully":3587,"reiche":3588,"Ġport":3589,"Ġetwa":3590,"ĠNational":3591,"Ġclass":3592,"apan":3593,"ideo":3594,"Ã¼cksicht":3595,"ĠgewÃ¤hr":3596,"Ġqual":3597,"ĠMehr":3598,"ĠOrganis":3599,"ĠKultur":3600,"Ã¤mlich":3601,"hnt":3602,"amb":3603,"Le":3604,"mosph":3605,"Ġjeden":3606,"Ġgesagt":3607,"frage":3608,"Ġinclude":3609,"Ġfour":3610,"abhÃ¤ng":3611,"Â®":3612,"zeitig":3613,"ona":3614,"ĠNatur":3615,"wohl":3616,"ĠnÃ¤mlich":3617,"Ġlab":3618,"ĠMinister":3619,"amental":3620,"Ġsignific":3621,"iful":3622,"ĠCent":3623,"uh":3624,"legenheit":3625,"Ġyet":3626,"Ġumf":3627,"onger":3628,"letz":3629,"stadt":3630,"Ġbitte":3631,"Ã¤hlen":3632,"Ã¼hren":3633,"ĠJul":3634,"Ġgute":3635,"ĠDurch":3636,"ĠSep":3637,"Ġvalue":3638,"ĠpersÃ¶n":3639,"itions":3640,"Ġpark":3641,"einander":3642,"Ġmag":3643,"fert":3644,"komm":3645,"Ġhaving":3646,"Ġladies":3647,"Ġpur":3648,"sh":3649,"Ġtechnology":3650,"ĠIm":3651,"ception":3652,"prochen":3653,"Ġentscheiden":3654,"Ġsogar":3655,"OM":3656,"setzung":3657,"Ġgenau":3658,"ratic":3659,"Ġfield":3660,"telle":3661,"ĠRates":3662,"Ã¤chlich":3663,"bon":3664,"Ġproposals":3665,"ĠSozial":3666,"Ġbor":3667,"hunder":3668,"ĠMembers":3669,"ales":3670,"recht":3671,"ops":3672,"wendet":3673,"Am":3674,"ager":3675,"Ġamendments":3676,"ĠState":3677,"vÃ¶lk":3678,"Ġgerade":3679,"Ġkurz":3680,"Ġalong":3681,"Ġeduc":3682,"self":3683,"Ġu":3684,"ĠSer":3685,"ĠOrt":3686,"ĠCar":3687,"ĠProdukte":3688,"tragen":3689,"illa":3690,"Ġremain":3691,"Ġerfolg":3692,"ĠErfahr":3693,"Ġsolution":3694,"Ġframework":3695,"Ġtimes":3696,"arf":3697,"Ġleft":3698,"roffen":3699,"Ġtem":3700,"Ġnehmen":3701,"ĠEuropas":3702,"Ġbekannt":3703,"armon":3704,"Ġlog":3705,"Ġkosten":3706,"fully":3707,"lei":3708,"iten":3709,"Ġsafety":3710,"ĠGeld":3711,"Ġminutes":3712,"plan":3713,"ativ":3714,"Ġarch":3715,"sere":3716,"ĠChar":3717,"Ġrecommend":3718,"Ġerwar":3719,"verb":3720,"Ġcosts":3721,"racy":3722,"Ġlight":3723,"Ġabove":3724,"Ġspeak":3725,"Ġeconomy":3726,"inge":3727,"ĠProjekt":3728,"Ġeasy":3729,"oph":3730,"stant":3731,"iberal":3732,"Ġihn":3733,"anc":3734,"most":3735,"Ġothers":3736,"Ġadopted":3737,"ĠAustr":3738,"anst":3739,"Ġtaking":3740,"Ġnie":3741,"ĠGrÃ¼n":3742,"ĠKosten":3743,"ingen":3744,"Ġessential":3745,"ĠPunkt":3746,"alten":3747,"lement":3748,"ĠJahres":3749,"ĠSeptember":3750,"Ġpolitische":3751,"ledge":3752,"Ġunterschied":3753,"Ġebenfalls":3754,"Ġweek":3755,"ĠPreis":3756,"Ġmeisten":3757,"Ġstrength":3758,"ethod":3759,"Ġihm":3760,"ĠText":3761,"Ġrecht":3762,"Ġflo":3763,"handlungen":3764,"Ġgemacht":3765,"wahl":3766,"ĠFraktion":3767,"Ġcreat":3768,"Ġpa":3769,"Ġseinem":3770,"ĠAss":3771,"Ġmakes":3772,"ĠTÃ¼r":3773,"ĠÃ¼":3774,"ĠBas":3775,"unst":3776,"za":3777,"AL":3778,"Ġviol":3779,"ĠZugang":3780,"Ġcontent":3781,"ators":3782,"Ġentire":3783,"Ġled":3784,"Ġcharac":3785,"Ġopinion":3786,"Ġdessen":3787,"Ġtool":3788,"Ġbesser":3789,"ĠAnge":3790,"ĠBezug":3791,"Ġverbunden":3792,"Ġbank":3793,"Man":3794,"Ġcalled":3795,"iers":3796,"Ġgehen":3797,"Ġverst":3798,"ports":3799,"Ġdarf":3800,"ysteme":3801,"ĠSc":3802,"Ġflex":3803,"Ġbath":3804,"ĠSta":3805,"Ġagricult":3806,"Ġreturn":3807,"Ġanges":3808,"achten":3809,"iben":3810,"bare":3811,"Ġconstru":3812,"atis":3813,"Ġnever":3814,"nete":3815,"Ġlegislation":3816,"Ġwebsite":3817,"reen":3818,"ĠunterstÃ¼tzt":3819,"Ġfocus":3820,"Ġwesent":3821,"aurants":3822,"ĠWirtschaft":3823,"ĠGar":3824,"reicht":3825,"tels":3826,"Ġapplication":3827,"ĠAnd":3828,"word":3829,"Ġterm":3830,"igital":3831,"Ð¸":3832,"iled":3833,"gebung":3834,"Ġak":3835,"Ġresults":3836,"igr":3837,"ested":3838,"Ġwahr":3839,"Ġ21":3840,"Dieses":3841,"ĠZust":3842,"ĠRechte":3843,"Ġsure":3844,"Ġbuilding":3845,"Europ":3846,"ĠInstitution":3847,"aged":3848,"Ã¼nf":3849,"Ġpoints":3850,"sweise":3851,"Ġprovides":3852,"Ġdarin":3853,"Alle":3854,"Ġdeliver":3855,"Deshalb":3856,"Ġfreedom":3857,"aussch":3858,"Ġprojects":3859,"vernment":3860,"arian":3861,"liament":3862,"Ġattention":3863,"ĠPe":3864,"ĠKap":3865,"Ġdue":3866,"Ġbeginn":3867,"Ġfair":3868,"Ġpolicies":3869,"Ġprogramm":3870,"benso":3871,"Ġ40":3872,"Ġconcerned":3873,"ric":3874,"erst":3875,"ĠKomp":3876,"uz":3877,"ĠVerkehr":3878,"Ġheart":3879,"Ġpot":3880,"Ġren":3881,"Ġstandard":3882,"Ã¼l":3883,"Ġcover":3884,"ĠWeb":3885,"ĠEntwicklungs":3886,"oting":3887,"irc":3888,"Ġresponsibility":3889,"Ġglaube":3890,"ĠÃ¶ffentlichen":3891,"ĠIsrael":3892,"Ġpast":3893,"Ġrisk":3894,"Ġsimply":3895,"Ġbeautiful":3896,"ufact":3897,"EL":3898,"ĠdÃ¼rfen":3899,"Ġeinigen":3900,"iner":3901,"âĤ":3902,"now":3903,"Ġderzeit":3904,"Ġappropr":3905,"Ġrela":3906,"Ġmass":3907,"âĤ¬":3908,"Ġnichts":3909,"mitted":3910,"Ġquestions":3911,"reiben":3912,"ished":3913,"ĠDeutschland":3914,"Ġperfect":3915,"Ġschaffen":3916,"berg":3917,"Ġgroups":3918,"Ġteam":3919,"Ġimportance":3920,"Ġyoung":3921,"zentr":3922,"ĠGemeinschaft":3923,"Ġtotal":3924,"Ġdom":3925,"Ã¨":3926,"ients":3927,"wÃ¼r":3928,"ĠFrei":3929,"ĠAntw":3930,"ĠMillionen":3931,"ding":3932,"Ġeffective":3933,"hing":3934,"Ġmoder":3935,"Ġbit":3936,"bour":3937,"Ġsollen":3938,"schlieÃŁlich":3939,"Ã¤he":3940,"Ġsociety":3941,"Ġabge":3942,"ustain":3943,"ĠBuch":3944,"ampf":3945,"ĠWebsite":3946,"afen":3947,"ceed":3948,"Dar":3949,"Ġ2005":3950,"Ġcontext":3951,"ĠRei":3952,"Ġihrem":3953,"Ġhead":3954,"EC":3955,"Ġbrauchen":3956,"ada":3957,"ĠQualitÃ¤t":3958,"Ġknown":3959,"Ġadministr":3960,"ĠBeschÃ¤ft":3961,"Ġkeinen":3962,"Ġnationalen":3963,"ĠFlug":3964,"Ġgreater":3965,"Ġholid":3966,"Ġsea":3967,"zustellen":3968,"gesehen":3969,"wÃ¤rt":3970,"Ġenvironmental":3971,"Ġcontinu":3972,"Ġhandelt":3973,"ĠJanu":3974,"Ġstrategy":3975,"spolitik":3976,"tlich":3977,"ĠPat":3978,"arbeiten":3979,"Ġmethod":3980,"ĠAussprache":3981,"unkte":3982,"ĠWasser":3983,"aler":3984,"iqu":3985,"ĠApp":3986,"verkehr":3987,"utzt":3988,"uelle":3989,"ĠMÃ¤r":3990,"Ã¤us":3991,"istan":3992,"ĠzusÃ¤tz":3993,"Ġversion":3994,"Ġverbess":3995,"ĠVerbraucher":3996,"onnen":3997,"ĠSa":3998,"Ġnatural":3999,"Ġstandards":4000,"Hotel":4001,"mat":4002,"ĠKolleg":4003,"ex":4004,"pflicht":4005,"ĠTV":4006,"leben":4007,"emp":4008,"ĠAngeb":4009,"Ġroad":4010,"itive":4011,"Ġprinciple":4012,"ÑĤ":4013,"Ġweiterhin":4014,"rieg":4015,"Ã¤ter":4016,"ziehen":4017,"Ġtable":4018,"unÃ¤chst":4019,"Ġarr":4020,"''":4021,"Ġattra":4022,"ĠHÃ¶":4023,"Ġverste":4024,"unehmen":4025,"Ġna":4026,"Ġrad":4027,"Ġtalk":4028,"ĠJahrhunder":4029,"ĠFir":4030,"Ġmiss":4031,"OS":4032,"Ġwords":4033,"ha":4034,"eutet":4035,"Ġbetrifft":4036,"Ġversch":4037,"hib":4038,"ringen":4039,"ette":4040,"ĠEbene":4041,"Ġsend":4042,"Ġincreasing":4043,"haltung":4044,"Ġchallen":4045,"Ġinstitution":4046,"Ġrequired":4047,"ning":4048,"frastr":4049,"ller":4050,"After":4051,"Ġlea":4052,"acy":4053,"ĠMo":4054,"Ġcentral":4055,"ĠSitz":4056,"Fin":4057,"Ġviews":4058,"unities":4059,"ĠFortsch":4060,"Ġheraus":4061,"ĠPriv":4062,"rank":4063,"bereit":4064,"Ġsignificant":4065,"Ġhouse":4066,"urf":4067,"ĠII":4068,"zeichnet":4069,"ided":4070,"Ġmanufact":4071,"wach":4072,"Ġwenig":4073,"rach":4074,"ĠerklÃ¤r":4075,"ulture":4076,"han":4077,"isiert":4078,"Ġmoment":4079,"staat":4080,"Ġreserv":4081,"useum":4082,"ĠThis":4083,"Ġ2004":4084,"Ġbedeutet":4085,"Ġtraining":4086,"Ġsei":4087,"Ġdeutlich":4088,"Ġclearly":4089,"ĠÃĦnderungsan":4090,"Unsere":4091,"ĠFrÃ¼h":4092,"ĠbenÃ¶t":4093,"stoff":4094,"Ġmacht":4095,"onen":4096,"Ġauthorities":4097,"ĠNo":4098,"Ġdeshalb":4099,"term":4100,"ĠVerw":4101,"Ġmeeting":4102,"Ġsolche":4103,"ari":4104,"ĠMeer":4105,"Ġunver":4106,"Ġquick":4107,"Ġmusic":4108,"ĠAbstimmung":4109,"Ġinfl":4110,"ban":4111,"ĠGroÃŁ":4112,"ĠGl":4113,"Ġbesten":4114,"fil":4115,"Ã¤nger":4116,"60":4117,"cal":4118,"Ġdon":4119,"ĠPra":4120,"ispielsweise":4121,"lÃ¤ss":4122,"vo":4123,"spruch":4124,"icro":4125,"Ġdemand":4126,"Ġrelax":4127,"Ġrecent":4128,"ĠTre":4129,"Ġcla":4130,"Ġuser":4131,"atal":4132,"anze":4133,"Ġkomple":4134,"Ġaufgrund":4135,"ĠLeist":4136,"Ġpub":4137,"genda":4138,"Ġinteress":4139,"Ġnetwork":4140,"schluss":4141,"yle":4142,"Ġcapital":4143,"ritten":4144,"Ġlearn":4145,"Ġbreakfast":4146,"iting":4147,"Ġextra":4148,"Ġachieve":4149,"alitÃ¤t":4150,"ĠBem":4151,"ĠwÃ¼rden":4152,"zÃ¼glich":4153,"mals":4154,"ziehungen":4155,"Ġlar":4156,"ĠSal":4157,"ĠNor":4158,"Ġfa":4159,"Ġaspect":4160,"Ġnight":4161,"aging":4162,"Ġwichtige":4163,"Ġsour":4164,"Ã¤sent":4165,"Ġshare":4166,"erous":4167,"fall":4168,"Ġtechnical":4169,"ĠGesetz":4170,"pril":4171,"ĠGesellschaft":4172,"Ġoft":4173,"Pr":4174,"cent":4175,"heb":4176,"Ġmat":4177,"US":4178,"Ġdistrib":4179,"gesetzt":4180,"AP":4181,"uche":4182,"Ġpages":4183,"Ġaccording":4184,"Ġfundamental":4185,"Ġvia":4186,"Ġsele":4187,"ief":4188,"AD":4189,"ĠChrist":4190,"Ġclean":4191,"Ġnature":4192,"ork":4193,"Ġappear":4194,"Ġinternal":4195,"hÃ¶rden":4196,"ri":4197,"ones":4198,"Ġlonger":4199,"gelegt":4200,"ĠDok":4201,"Ġdirectly":4202,"jen":4203,"heim":4204,"ĠKlima":4205,"platz":4206,"ĠOb":4207,"Ġside":4208,"Ġfacilities":4209,"Ġmonths":4210,"Ġfindet":4211,"Ġthough":4212,"Ġprec":4213,"ĠUmsetzung":4214,"change":4215,"Ġfish":4216,"wohn":4217,"Ġverein":4218,"Ġemployment":4219,"ĠnÃ¤chsten":4220,"Ġproposed":4221,"Ġenough":4222,"Ġobl":4223,"Ġimm":4224,"Ġsolutions":4225,"ĠMenschenrechte":4226,"Ġresponsible":4227,"Ã¶rderung":4228,"ption":4229,"elves":4230,"ĠBevÃ¶lk":4231,"unch":4232,"13":4233,"ĠFar":4234,"ĠSchul":4235,"Ð½":4236,"Ġern":4237,"ĠKunst":4238,"ĠMitarbeit":4239,"ĠgewÃ¤hrle":4240,"ĠWohn":4241,"kÃ¤mp":4242,"Dieser":4243,"Ġcultural":4244,"ĠAnsicht":4245,"Ġhistory":4246,"IC":4247,"Ġvorgesch":4248,"elbst":4249,"Ġerne":4250,"Ġinterests":4251,"ĠIde":4252,"gency":4253,"Ġsubs":4254,"Ġguests":4255,"ĠRichtung":4256,"Ġtest":4257,"Ġrequirements":4258,"ube":4259,"Ġnutzen":4260,"ĠBetrie":4261,"Ġvol":4262,"ĠHerren":4263,"Ġcharacter":4264,"Ġcurrently":4265,"Ar":4266,"Ġlange":4267,"ffe":4268,"Ġbetre":4269,"Ġprevent":4270,"Ġmaintain":4271,"Ge":4272,"ĠProt":4273,"ĠDemokratie":4274,"Ġvier":4275,"Ġcivil":4276,"frist":4277,"ĠDesign":4278,"ood":4279,"umente":4280,"Ġregions":4281,"Ġevents":4282,"lieÃŁlich":4283,"ither":4284,"ĠNovember":4285,"Ġassist":4286,"gent":4287,"ĠNÃ¤he":4288,"Ġterror":4289,"uk":4290,"ĠIndustrie":4291,"ables":4292,"One":4293,"istischen":4294,"Ġmount":4295,"Ġthems":4296,"Ġallerdings":4297,"15":4298,"Ġinvolved":4299,"gru":4300,"Ġthemselves":4301,"drÃ¼ck":4302,"Ġsustain":4303,"ĠJu":4304,"mitt":4305,"verstÃ¤nd":4306,"Ġparties":4307,"ele":4308,"Ġ23":4309,"Ġapply":4310,"Ġilleg":4311,"Ġsy":4312,"Ġanim":4313,"Ġweb":4314,"ellen":4315,"ĠVerantwortung":4316,"stehen":4317,"ĠIra":4318,"Ġrecogn":4319,"Ġbil":4320,"Ġneeded":4321,"wirkungen":4322,"ĠBro":4323,"Ġzie":4324,"lauf":4325,"ĠBÃ¼":4326,"dam":4327,"has":4328,"Ġlive":4329,"Ġcompetition":4330,"esented":4331,"Ġhappen":4332,"ĠBedingungen":4333,"llig":4334,"ĠJapan":4335,"Ġforeign":4336,"Ġhoffe":4337,"val":4338,"ĠInsel":4339,"richtung":4340,"ĠWindows":4341,"Ġvoted":4342,"Ġextremely":4343,"Ġgegeben":4344,"ĠWachst":4345,"Ġgemeinsamen":4346,"Ġforce":4347,"Ġimplementation":4348,"folgt":4349,"teile":4350,"ĠAnwendung":4351,"ĠEntscheidung":4352,"Ġrequest":4353,"ĠStruktur":4354,"ench":4355,"ĠCas":4356,"Ġnotwendig":4357,"mbH":4358,"Ġdemocracy":4359,"Ġstation":4360,"cke":4361,"iellen":4362,"ĠWert":4363,"Ġefforts":4364,"estern":4365,"Ġcentury":4366,"ĠGebiet":4367,"Ġguarantee":4368,"aper":4369,"gu":4370,"Ġbeispielsweise":4371,"Ġupon":4372,"haft":4373,"bank":4374,"rup":4375,"Ġfight":4376,"ta":4377,"ĠCo":4378,"ĠBesuch":4379,"ommod":4380,"Ġcamp":4381,"Ġlanguage":4382,"Ġjeweil":4383,"Ġitem":4384,"Ã¼rz":4385,"ired":4386,"ĠZiele":4387,"ĠBrit":4388,"ĠRaum":4389,"gliche":4390,"Ġkont":4391,"Ġago":4392,"Ch":4393,"ynam":4394,"ĠFehl":4395,"enken":4396,"peten":4397,"Ġdank":4398,"ĠgehÃ¶rt":4399,"Ġbedeut":4400,"Ã¼ssel":4401,"Ġwohl":4402,"ĠApril":4403,"ĠInteresse":4404,"linien":4405,"ĠAG":4406,"Ġchanges":4407,"obile":4408,"Ġkleinen":4409,"Ex":4410,"Ġcaus":4411,"ienen":4412,"ublik":4413,"Ġvielleicht":4414,"ĠVorschlÃ¤ge":4415,"ano":4416,"Ġsozialen":4417,"Ġprep":4418,"inzip":4419,"ĠHa":4420,"ragen":4421,"trie":4422,"ĠKons":4423,"ĠBenutz":4424,"ĠBau":4425,"Ġ)":4426,"Ġdisk":4427,"lied":4428,"ĠGmbH":4429,"Ġcharge":4430,"ĠStat":4431,"Ġerziel":4432,"Ġlow":4433,"Ġexpect":4434,"Ġdemokrat":4435,"key":4436,"Ġcirc":4437,"Ġenthalten":4438,"Ġverwendet":4439,"Ġsepar":4440,"Ġdeveloped":4441,"atory":4442,"ĠGrundlage":4443,"Ġcontain":4444,"Ġwind":4445,"Ġplease":4446,"vert":4447,"ĠDruck":4448,"isher":4449,"ĠPf":4450,"igur":4451,"Ġsprechen":4452,"ĠParte":4453,"ĠermÃ¶glich":4454,"grif":4455,"ĠTages":4456,"ĠIhrem":4457,"igungs":4458,"Ġbevor":4459,"bel":4460,"Ġcorre":4461,"Ġfarm":4462,"Ġzust":4463,"Ġregulation":4464,"-,":4465,"amous":4466,"schn":4467,"ĠKar":4468,"jekte":4469,"Ġneu":4470,"Ġprotect":4471,"ims":4472,"sichtlich":4473,"Ġsoon":4474,"deut":4475,"onstr":4476,"Ġlot":4477,"wÃ¼rd":4478,"ĠVerfahren":4479,"ĠErfolg":4480,"ĠWort":4481,"ĠTats":4482,"ĠCan":4483,"ĠReihe":4484,"Ġerreicht":4485,"ker":4486,"ĠÃ¶":4487,"chs":4488,"Ġcomfortable":4489,"ĠAuÃŁen":4490,"ama":4491,"teilt":4492,"handlung":4493,"Ġ2003":4494,"uct":4495,"Ġcases":4496,"tended":4497,"Ġmess":4498,"TO":4499,"Ġpool":4500,"andid":4501,"ĠEinsatz":4502,"Ġnegotiations":4503,"play":4504,"Ġmaxim":4505,"crib":4506,"nehm":4507,"ffice":4508,"ĠGeschichte":4509,"ĠNord":4510,"Ġwerde":4511,"ense":4512,"ips":4513,"ĠParis":4514,"ĠMusik":4515,"ĠberÃ¼cksicht":4516,"immungen":4517,"Ġsituated":4518,"Ġcomes":4519,"Ġhalten":4520,"Ġ22":4521,"Ġnam":4522,"Ġtarge":4523,"ĠAuss":4524,"Ġeither":4525,"bl":4526,"Ġmarkets":4527,"Ġsafe":4528,"Ġprevious":4529,"ipped":4530,"geln":4531,"ĠMÃ¶glichkeiten":4532,"dle":4533,"ĠerfÃ¼":4534,"Ġ197":4535,"urt":4536,"ĠStre":4537,"Ã¤tzen":4538,"Ġrestaurant":4539,"teilen":4540,"arbeitung":4541,"Ġeinges":4542,"merksam":4543,"Ġregional":4544,"ĠKrit":4545,"ilder":4546,"eiter":4547,"itionen":4548,"prise":4549,"RO":4550,"ĠFrieden":4551,"lling":4552,"Ġdeveloping":4553,"hend":4554,"ini":4555,"ĠDate":4556,"ĠDebatte":4557,"ĠHeraus":4558,"orge":4559,"gern":4560,"inner":4561,"ĠDamen":4562,"ĠNetz":4563,"best":4564,"ump":4565,"ĠCour":4566,"ĠÃ¼bern":4567,"Ġminim":4568,"Ġeverything":4569,"Ġindic":4570,"stall":4571,"ĠTele":4572,"auen":4573,"Ġcreated":4574,"zeigt":4575,"Ġausgest":4576,"ĠJun":4577,"abel":4578,"Ġfinal":4579,"Ġsurround":4580,"onn":4581,"ĠWh":4582,"ĠSoc":4583,"ĠRestaurant":4584,"Ġhos":4585,"date":4586,"ĠBlick":4587,"ĠGleich":4588,"istet":4589,"ĠWar":4590,"Ġarbeiten":4591,"Ġunique":4592,"Ġimprove":4593,"ging":4594,"Vor":4595,"ĠfÃ¼nf":4596,"Ġstates":4597,"Ġamb":4598,"attet":4599,"Frau":4600,"erseits":4601,"ĠHinblick":4602,"ĠhÃ¶ch":4603,"ĠkÃ¶nnten":4604,"ĠIr":4605,"ĠPresidency":4606,"ĠCont":4607,"Ġlater":4608,"Ġvorgeschlagen":4609,"Ġprices":4610,"Ġverschiedene":4611,"mark":4612,"rieben":4613,"schriften":4614,"ĠErweit":4615,"Ġmer":4616,"Te":4617,"Ġeducation":4618,"anten":4619,"Ġschwier":4620,"Ġaccommod":4621,"Ġpict":4622,"iable":4623,"unik":4624,"ĠAug":4625,"ĠArbeitspl":4626,"mut":4627,"Ġimmed":4628,"Ġtrue":4629,"IP":4630,"int":4631,"Ġkonkre":4632,"Ġadditional":4633,"ĠâĤ¬":4634,"ĠSchwe":4635,"ichen":4636,"Ġaltern":4637,"ĠEur":4638,"Ġalmost":4639,"ĠSol":4640,"Ġexpl":4641,"Ġ60":4642,"haps":4643,"Ob":4644,"Ġincluded":4645,"ka":4646,"Ġdemocratic":4647,"ulate":4648,"Ġgemeinsame":4649,"Ġmonitor":4650,"eless":4651,"ipment":4652,"Ġliving":4653,"Ġthus":4654,"ĠSteuer":4655,"ĠverfÃ¼gt":4656,"Ġque":4657,"ĠFrance":4658,"chnik":4659,"ĠPer":4660,"Ġcut":4661,"Ġanalys":4662,"Ġbleiben":4663,"Durch":4664,"ĠAktiv":4665,"Ġstor":4666,"igte":4667,"orted":4668,"ĠErklÃ¤r":4669,"Ġfort":4670,"Ġactually":4671,"Ġcontract":4672,"ĠMot":4673,"sprÃ¤sident":4674,"ĠEinz":4675,"ĠermÃ¶glicht":4676,"ĠRussia":4677,"Ġclimate":4678,"ibr":4679,"Ġidea":4680,"ÑĢ":4681,"ĠInstitutionen":4682,"ĠSouth":4683,"ĠMinuten":4684,"Ġseen":4685,"ommer":4686,"pendent":4687,"iÃŁt":4688,"ĠAuswirkungen":4689,"rechts":4690,"Ġdocument":4691,"Ġtravel":4692,"kra":4693,"ĠDiskuss":4694,"ĠFrench":4695,"ester":4696,"Ġwide":4697,"ingt":4698,"wegen":4699,"gegen":4700,"ielle":4701,"ikt":4702,"vin":4703,"lack":4704,"bahn":4705,"ĠWieder":4706,"Ġjoin":4707,"Ġencour":4708,"Ġprogram":4709,"ental":4710,"Ġlack":4711,"Ñģ":4712,"Ġakzept":4713,"orf":4714,"Ġreceive":4715,"Ġhatten":4716,"atsÃ¤chlich":4717,"Ġfile":4718,"laden":4719,"jenigen":4720,"Ġhold":4721,"ires":4722,"ĠvollstÃ¤nd":4723,"mail":4724,"ios":4725,"Ġknowledge":4726,"ĠKraft":4727,"ĠMont":4728,"ilar":4729,"ĠProzess":4730,"ĠâĢĺ":4731,"Ġtype":4732,"ĠAff":4733,"cies":4734,"ĠDr":4735,"ĠRechn":4736,"ĠMay":4737,"barkeit":4738,"Ġzeigt":4739,"ĠStrategie":4740,"Ġappropriate":4741,"Ġdialog":4742,"ĠViel":4743,"rachten":4744,"Ġerforderlich":4745,"Ġfunds":4746,"hinder":4747,"Ġwirtschaftlichen":4748,"Ġvill":4749,"ĠPlatz":4750,"Ġbisher":4751,"Ġschein":4752,"Ġofficial":4753,"ĠfÃ¼hrt":4754,"Ġheld":4755,"des":4756,"usst":4757,"frei":4758,"Ġenl":4759,"ogra":4760,"ĠAusdruck":4761,"ĠDienstleistungen":4762,"Ġprocedure":4763,"Ġeuro":4764,"ĠWissen":4765,"ĠForschung":4766,"ĠLis":4767,"setzen":4768,"ĠSicherheits":4769,"ĠTrans":4770,"Ġallgemein":4771,"Ġhapp":4772,"Ġgesamten":4773,"ternal":4774,"Ġoutside":4775,"ĠLandes":4776,"Ġassoc":4777,"adurch":4778,"ĠMod":4779,"Ã¤hlt":4780,"ĠRegionen":4781,"folgen":4782,"ĠIntegr":4783,"auber":4784,"ĠEC":4785,"ĠAbgeordneten":4786,"este":4787,"Please":4788,"iance":4789,"Ġthing":4790,"ĠerwÃ¤":4791,"ctors":4792,"ĠHoch":4793,"anced":4794,"feld":4795,"Ġangeb":4796,"ĠPlan":4797,"Ġdesigned":4798,"Ġschool":4799,"Ð¾Ð":4800,"Ġworkers":4801,"Ġeinzelnen":4802,"ĠErgebnis":4803,"Ġebenso":4804,"lle":4805,"ams":4806,"Ġdarum":4807,"Ġsuggest":4808,"atisf":4809,"Ġpropert":4810,"Daher":4811,"ĠKir":4812,"ĠZus":4813,"Ġfunktion":4814,"Ġrate":4815,"oper":4816,"ĠSub":4817,"18":4818,"fragen":4819,"ĠWebs":4820,"stead":4821,"Ġmajority":4822,"Ġfeatures":4823,"ĠSport":4824,"Ã¶glichen":4825,"ieÃŁen":4826,"Ġprofessional":4827,"Ġdanken":4828,"Ġfamous":4829,"cure":4830,"iews":4831,"ĠVertre":4832,"Pl":4833,"fs":4834,"Ġrelev":4835,"ĠspÃ¤ter":4836,"Ġentwickelt":4837,"ĠKolleginnen":4838,"clud":4839,"Ġhon":4840,"Von":4841,"ondon":4842,"fel":4843,"cep":4844,"Ġthroughout":4845,"ĠDank":4846,"jÃ¤hr":4847,"ET":4848,"ĠSchritt":4849,"Ġearly":4850,"Ġcommunication":4851,"otos":4852,"ush":4853,"Ġdraw":4854,"Ġdenke":4855,"iens":4856,"Ġfive":4857,"Ġanswer":4858,"Ã¤nden":4859,"va":4860,"Ġcop":4861,"Ġlooking":4862,"Ġangenommen":4863,"igration":4864,"ĠÃĦnderungsantrag":4865,"ĠBinnen":4866,"Ġexclus":4867,"uÃŁerdem":4868,"lÃ¤ndern":4869,"mitteln":4870,"isieren":4871,"ox":4872,"orre":4873,"ĠTatsache":4874,"ĠÃĸff":4875,"oid":4876,"Ġimpact":4877,"Ġcustomer":4878,"ĠFunktion":4879,"indest":4880,"ound":4881,"verfahren":4882,"Ã¤sst":4883,"Ġbetra":4884,"Ġbehand":4885,"ĠFamilien":4886,"Ã¤ndert":4887,"Ġemphas":4888,"Ġspace":4889,"Ġtransl":4890,"ĠHers":4891,"Ġdownload":4892,"Ġtakes":4893,"Ġhours":4894,"Ġdoing":4895,"From":4896,"fÃ¤higkeit":4897,"Ġworks":4898,"ĠPortug":4899,"Ġacross":4900,"ĠKle":4901,"Ġpotential":4902,"kÃ¤mpfung":4903,"imme":4904,"Ġwider":4905,"ĠIran":4906,"Ġstrengthen":4907,"ĠArch":4908,"ĠBereichen":4909,"Ġnormal":4910,"arbeitet":4911,"Ġenable":4912,"Ġjedem":4913,"Ġinternationale":4914,"Ġcertainly":4915,"Ã¼lt":4916,"Ġlinks":4917,"Ġ000":4918,"schlag":4919,"ĠVerhandlungen":4920,"Ġever":4921,"ĠÃĦnderungsantrÃ¤ge":4922,"pression":4923,"Ġunivers":4924,"Ġdate":4925,"Ġconsequ":4926,"Ġparts":4927,"Ġproper":4928,"ĠFrÃ¼hstÃ¼ck":4929,".,":4930,"ĠMitglieder":4931,"Ġ27":4932,"rad":4933,"ĠGemeinschafts":4934,"ĠweiÃŁ":4935,"ĠAmerican":4936,"AC":4937,"Ã¤che":4938,"ĠhÃ¤tte":4939,"Ġsolid":4940,"AM":4941,"Ġkonnte":4942,"Ġgemeinsam":4943,"liegen":4944,"Ġaud":4945,"Zu":4946,"ielt":4947,"kn":4948,"Ġbefinden":4949,"Ġcolleag":4950,"ĠÃ¤uÃŁer":4951,"kr":4952,"ĠRis":4953,"uren":4954,"ĠVereinigten":4955,"zif":4956,"ĠWÃ¤hr":4957,"Ġusers":4958,"Ġguest":4959,"onom":4960,"Ġvorh":4961,"ĠWest":4962,"Ġsetzen":4963,"ĠVersion":4964,"Ġtraditional":4965,"Ã¶sen":4966,"ĠRad":4967,"ara":4968,"Ġinvestment":4969,"ille":4970,"ĠStaats":4971,"Ġgleichzeitig":4972,"Ġtook":4973,"Ġneues":4974,"Ġmechan":4975,"Ã¤llen":4976,"ĠFund":4977,"ĠPosition":4978,"Ġweiteren":4979,"bru":4980,"Ġrecord":4981,"hab":4982,"17":4983,"Ġoriginal":4984,"ko":4985,"ĠAntwort":4986,"Ġdivers":4987,"ĠBeziehungen":4988,"chsel":4989,"bildung":4990,"stre":4991,"ĠerhÃ¶":4992,"Ġumfassen":4993,"Ġca":4994,"Ġexisting":4995,"Ġconcerns":4996,"ĠLuft":4997,"ĠDialog":4998,"Ġeth":4999,"erei":5000,"ĠBevÃ¶lkerung":5001,"Ġamount":5002,"Ġresol":5003,"zer":5004,"Ġcomplex":5005,"ĠHandels":5006,"Ġeigent":5007,"Ã¼gen":5008,"Ġhinter":5009,"cen":5010,"ĠZentrum":5011,"ias":5012,"Sh":5013,"Ġprogrammes":5014,"ĠheiÃŁt":5015,"Ġpublish":5016,"ĠGeneral":5017,"teid":5018,"Ġconnection":5019,"uted":5020,"hung":5021,"oking":5022,"kei":5023,"Ġcross":5024,"Ã¤ss":5025,"ĠNorth":5026,"Ġzuf":5027,"halte":5028,"ava":5029,"griff":5030,"Ġlat":5031,"Ġsearch":5032,"ĠWerk":5033,"alter":5034,"Ġrelig":5035,"ĠProf":5036,"Ġ2002":5037,"ĠAbkommen":5038,"Ġ80":5039,"Ġneben":5040,"Ġmentioned":5041,"sehen":5042,"oms":5043,"Ġconcerning":5044,"lÃ¤nder":5045,"Ġmodel":5046,"lang":5047,"ande":5048,"ĠInteressen":5049,"ĠFÃ¼hr":5050,"fortun":5051,"ball":5052,"Unser":5053,"ĠLondon":5054,"Ġprim":5055,"Ġtele":5056,"Ġalthough":5057,"Ġparliament":5058,"Ġjede":5059,"Ġwriting":5060,"Ġreasons":5061,"Ġhelfen":5062,".\"":5063,"Ġlux":5064,"gl":5065,"Ġabsolute":5066,"Unter":5067,"ĠAugust":5068,"ĠBre":5069,"ĠvÃ¶":5070,"ĠProgramme":5071,"ĠProz":5072,"affung":5073,"Ġaktiv":5074,"Ġdemonstr":5075,"ĠKÃ¶n":5076,"ĠCourt":5077,"ĠKos":5078,"aly":5079,"Ġcard":5080,"richtungen":5081,"ĠBeitrag":5082,"ĠHos":5083,"Ġdecisions":5084,"ole":5085,"Ġleading":5086,"face":5087,"Book":5088,"Ġaware":5089,"Doch":5090,"hlen":5091,"Ġcompletely":5092,"ID":5093,"ĠPak":5094,"ĠVertra":5095,"ĠAnt":5096,"ED":5097,"My":5098,"ayer":5099,"ature":5100,"Ġbuilt":5101,"ipl":5102,"Ġrelated":5103,"Ġnothing":5104,"range":5105,"ĠgegenwÃ¤rt":5106,"ĠTÃ¼rkei":5107,"temp":5108,"Ġjoint":5109,"Ġgame":5110,"Ġgelten":5111,"Ġbeit":5112,"esserung":5113,"ĠHandel":5114,"esh":5115,"Ġextens":5116,"Ġgestellt":5117,"ĠFÃ¶rderung":5118,"aring":5119,"ĠSchlussel":5120,"ĠKontrolle":5121,"ĠVerpflicht":5122,"Ġcommunity":5123,"zÃ¶s":5124,"ĠGovernment":5125,"Ġ2001":5126,"Ġhalf":5127,"Gen":5128,"ĠAufgabe":5129,"Ġempf":5130,"arity":5131,"ĠMil":5132,"Ġrund":5133,"ĠSÃ¼d":5134,"Ġintens":5135,"Ġwichtigen":5136,"iddle":5137,"Ã¼sse":5138,"Ġconflic":5139,"formen":5140,"Ġfriendly":5141,"Ġkleine":5142,"ĠNicht":5143,"Ġmeinen":5144,"ĠFlugh":5145,"tes":5146,"Ġunseres":5147,"Ġbasic":5148,"amera":5149,"Ġenlarge":5150,"Ġassess":5151,"more":5152,"Ġcommittee":5153,"SE":5154,"ĠListe":5155,"Ġprakt":5156,"una":5157,"ĠTerror":5158,"orten":5159,"ĠThemen":5160,"odell":5161,"Ġculture":5162,"Ġpractice":5163,"ological":5164,"Ġfront":5165,"ĠBeg":5166,"Ġholiday":5167,"quis":5168,"Ġpopulation":5169,"uffer":5170,"fÃ¼hren":5171,"ĠStabil":5172,"ĠVerbindung":5173,"Ġmilitary":5174,"Ġagreements":5175,"Ġincludes":5176,"Ġschwer":5177,"14":5178,"ĠWettbewerbs":5179,"ĠFuÃŁ":5180,"Ġdigital":5181,"grat":5182,"lies":5183,"ahren":5184,"Ġinternet":5185,"More":5186,"Ġverd":5187,"Ġspr":5188,"Mail":5189,"ĠErweiterung":5190,"spe":5191,"alien":5192,"ĠPC":5193,"ĠKampf":5194,"....":5195,"itable":5196,"fluss":5197,"Ġconsult":5198,"inden":5199,"termin":5200,"gangenen":5201,"Ġbecom":5202,"wie":5203,"Ġgab":5204,"Ġliegen":5205,"Ġmedia":5206,"olz":5207,"ĠCD":5208,"Ġallows":5209,"Ġoblig":5210,"Ġgestimmt":5211,"ĠDec":5212,"nissen":5213,"ĠEnglish":5214,"Ġspezie":5215,"ĠJust":5216,"Ġerinn":5217,"ĠCor":5218,"statt":5219,"bedingungen":5220,"Ġcommer":5221,"ills":5222,"ying":5223,"Ġjedes":5224,"ĠAusschusses":5225,"lant":5226,"Ġadvant":5227,"Ġobjectives":5228,"zunehmen":5229,"gn":5230,"ĠAmerica":5231,"First":5232,"Seit":5233,"Ġbleibt":5234,"Ġconclus":5235,"Ġbody":5236,"licken":5237,"ending":5238,"zeugen":5239,"Ġchoice":5240,"Con":5241,"Ġerr":5242,"Ġ-,":5243,"Ġbekommen":5244,"By":5245,"agn":5246,"Ġwa":5247,"iterran":5248,"itness":5249,"Ġreceived":5250,"Ġwegen":5251,"ĠTurkey":5252,"Ġjobs":5253,"Ã¤lle":5254,"ĠwÃ¼n":5255,"Ġvalues":5256,"enk":5257,"Ġsimple":5258,"ĠVerordnung":5259,"iated":5260,"annte":5261,"ovo":5262,"rachen":5263,"Ġemer":5264,"ĠMor":5265,"ery":5266,"Ġtransfer":5267,"Ġorigin":5268,"aul":5269,"amit":5270,"De":5271,"ĠEntschlieÃŁung":5272,"rab":5273,"vement":5274,"struments":5275,"ason":5276,"Ġsatisf":5277,"Ġfail":5278,"Ġnahe":5279,"ĠSy":5280,"Ġwarm":5281,"Ġestablished":5282,"ĠOnline":5283,"ĠKonferenz":5284,"Ġ$":5285,"ĠReform":5286,"Ġbess":5287,"Ġpoor":5288,"Ġangem":5289,"ĠVolk":5290,"ĠBarcel":5291,"Ġapplications":5292,"uck":5293,"ih":5294,"Ġplann":5295,"oo":5296,"Ġcomputer":5297,"Ġequipment":5298,"ĠNutzung":5299,"mbol":5300,"ourn":5301,"geschlossen":5302,"Ã¶rdern":5303,"minister":5304,"Ġrichtig":5305,"ĠStrand":5306,"Ġregarding":5307,"Ġperformance":5308,"Ġcapac":5309,"Ġpackage":5310,"Ã³n":5311,"Ġsag":5312,"Ġmove":5313,"ĠBehÃ¶rden":5314,"ĠInform":5315,"Ġcenter":5316,"pite":5317,"ikanischen":5318,"Ġharmon":5319,"Ġlok":5320,"abon":5321,"len":5322,"Ã¶st":5323,"pass":5324,"Ġwunder":5325,"Ġ1999":5326,"ĠEinzel":5327,"Do":5328,"ennung":5329,"Ġgerne":5330,"Ġjud":5331,"ĠLisbon":5332,"Ġwichtigsten":5333,"Ġattack":5334,"Ġdurchge":5335,"vious":5336,"Ġerlaub":5337,"16":5338,"Ġiniti":5339,"Ġverantwort":5340,"pected":5341,"Ġagricultural":5342,"Ġpleas":5343,"atic":5344,"Ġfiles":5345,"Ġpurch":5346,"Ġimage":5347,"sitz":5348,"erve":5349,"ĠAugen":5350,"essour":5351,"uclear":5352,"Ġbroad":5353,"ĠFebru":5354,"ĠunabhÃ¤ng":5355,"Ġsun":5356,"Ġobjective":5357,"ĠLiss":5358,"Ġquickly":5359,"omb":5360,"ĠFern":5361,"osen":5362,"icles":5363,"Ġcredit":5364,"die":5365,"inne":5366,"Ġmehrere":5367,"Ġhinsichtlich":5368,"ĠAufent":5369,"ĠVolks":5370,"ĠKrise":5371,"Ġreports":5372,"Ġcru":5373,"Ġstop":5374,"erc":5375,"Ġface":5376,"Ġherr":5377,"osed":5378,"Ġgoods":5379,"Ġkeyword":5380,"Ġbelow":5381,"Ġsound":5382,"Ġwonder":5383,"ĠForder":5384,"gesamt":5385,"Sp":5386,"ĠNotwend":5387,"imension":5388,"ĠAffairs":5389,"ros":5390,"seit":5391,"Ã¶hn":5392,"Ġganzen":5393,"Ġganze":5394,"gef":5395,"ĠMitarbeiter":5396,"Ġfran":5397,"stellungen":5398,"emb":5399,"Ġeinger":5400,"Ġindustrial":5401,"Ġnachhalt":5402,"ĠIS":5403,"ĠVerbesserung":5404,"wide":5405,"Ġparty":5406,"hem":5407,"undes":5408,"ĠKop":5409,"Ġwobei":5410,"chter":5411,"ften":5412,"Ġself":5413,"Ġsouth":5414,"ĠReise":5415,"ĠGruppe":5416,"ĠermÃ¶glichen":5417,"Ġleaders":5418,"Ġexperien":5419,"ernen":5420,"Ãľber":5421,"brigen":5422,"Ġbenefit":5423,"ps":5424,".-":5425,"ĠUrlaub":5426,"mann":5427,"Ġnote":5428,"Ġtrotz":5429,"Ġtreatment":5430,"Ġsense":5431,"Ġhuge":5432,"ĠLissabon":5433,"Ġpopular":5434,"ĠenthÃ¤lt":5435,"40":5436,"aving":5437,"Ġachieved":5438,"teller":5439,"ĠAuswahl":5440,"AuÃŁerdem":5441,"otion":5442,"ĠschÃ¶n":5443,"ĠWochen":5444,"lam":5445,"Ġcode":5446,"Ġseems":5447,"Ġcontains":5448,"lassen":5449,"entwick":5450,"Ġoption":5451,"itect":5452,"Ġinitiative":5453,"einer":5454,"Ġindeed":5455,"schlieÃŁend":5456,"erweise":5457,"Ġpassen":5458,"dom":5459,"iveness":5460,"sterreich":5461,"Ġgarant":5462,"lla":5463,"opping":5464,"wander":5465,"Ġrail":5466,"Ġbeein":5467,"Ber":5468,"ĠIT":5469,"Ġzeigen":5470,"Ġleben":5471,"Ġrecently":5472,"ĠBinnenmarkt":5473,"utt":5474,"Ã¤um":5475,"ĠVeranst":5476,"eden":5477,"ĠOber":5478,"ĠPass":5479,"Ġgrund":5480,"ĠSchaffung":5481,"mÃ¶glichkeit":5482,"istische":5483,"Ġill":5484,"ĠWachstum":5485,"ĠGelegenheit":5486,"Let":5487,"ĠWill":5488,"Ġlos":5489,"Ġspac":5490,"Ġcorrect":5491,"Ġengine":5492,"Ġcarry":5493,"RE":5494,"mor":5495,"Ġvict":5496,"ĠDokument":5497,"Ġdouble":5498,"Bes":5499,"ĠFrankreich":5500,"put":5501,"Ġcongrat":5502,"VD":5503,"ĠEast":5504,"Ġveh":5505,"Ġbeginning":5506,"âĢĵ":5507,"ĠUkra":5508,"ĠLux":5509,"kennen":5510,"fon":5511,"Ġdialogue":5512,"Since":5513,"ienste":5514,"Ġhighly":5515,"itel":5516,"oppel":5517,"rig":5518,"Ġruh":5519,"stens":5520,"lass":5521,"Ġlevels":5522,"ania":5523,"jahr":5524,"Ġseries":5525,"fonds":5526,"Ġspielen":5527,"Ġoil":5528,"ĠfrÃ¼":5529,"Ġfloor":5530,"ĠGebÃ¤":5531,"haupt":5532,"pid":5533,"Ġpresented":5534,"Ġefficient":5535,"wertungen":5536,"cer":5537,"ĠBad":5538,"such":5539,"ĠSant":5540,"Zum":5541,"Ġheut":5542,"will":5543,"ÃŁt":5544,"ĠPrior":5545,"Ġeveryone":5546,"ĠHome":5547,"Ġnice":5548,"ĠMacht":5549,"ĠCity":5550,"Ġscient":5551,"stances":5552,"Ġequipped":5553,"ĠvÃ¶llig":5554,"Ġgovernments":5555,"Ġsuccessful":5556,"nern":5557,"ĠGree":5558,"Ġgarden":5559,"Madam":5560,"Ġintegration":5561,"icien":5562,"Ã¤tigkeit":5563,"vorschriften":5564,"tliche":5565,"umb":5566,"onse":5567,"ley":5568,"Ġactive":5569,"Ġverbessern":5570,"utter":5571,"Ġcomprom":5572,"Ġclick":5573,"lace":5574,"ĠVerwendung":5575,"ĠNotwendigkeit":5576,"fortunately":5577,"inks":5578,"Ġexchange":5579,"Ġeinzig":5580,"fordert":5581,"PE":5582,"Ġred":5583,"ffiz":5584,"Ġkulture":5585,"Ġincreased":5586,"ĠlÃ¤sst":5587,"OL":5588,"IM":5589,"ĠFach":5590,"Ġ!":5591,"Ġgrundlegen":5592,"ering":5593,"ĠAngebot":5594,"Ġ+":5595,"mehr":5596,"Ġcarried":5597,"organis":5598,"Ġpain":5599,"anzen":5600,"ĠErgebnisse":5601,"Ġfurn":5602,"Finally":5603,"ĠBef":5604,"Ġwhose":5605,"Ġfrei":5606,"isted":5607,"Ġstage":5608,"Ġconsumers":5609,"ape":5610,"aufen":5611,"Ad":5612,"abor":5613,"just":5614,"ĠGewalt":5615,"ĠClub":5616,"Ã¶rper":5617,"Ġprinciples":5618,"Ġtw":5619,"iko":5620,"schw":5621,"Ġage":5622,"lier":5623,"Ã¼tzen":5624,"ĠTage":5625,"Ġblock":5626,"ĠBarcelona":5627,"Ġagreed":5628,"IL":5629,"atell":5630,"Ġhigher":5631,"Ġguten":5632,"Ġsex":5633,"ĠManagement":5634,"ĠgefÃ¤hr":5635,"Ġsoziale":5636,"ĠSup":5637,"ĠAmster":5638,"Ġeigene":5639,"action":5640,"Ġdre":5641,"ĠgroÃŁer":5642,"Ġverwenden":5643,"imming":5644,"hoben":5645,"ĠDis":5646,"ĠWoche":5647,"pose":5648,"ĠverfÃ¼gen":5649,"Ġsent":5650,"ĠAnzahl":5651,"Ġdang":5652,"ĠImm":5653,"25":5654,"ĠKÃ¶nig":5655,"Ġstra":5656,"oz":5657,"Ġreviews":5658,"ĠKern":5659,"ĠZe":5660,"Ġamendment":5661,"ĠApart":5662,"Ġoffice":5663,"Ġbathroom":5664,"Ġcoll":5665,"wise":5666,"Ġdirection":5667,"Ġrat":5668,"Ġprofit":5669,"ends":5670,"ja":5671,"anner":5672,"Ġverg":5673,"Ġasked":5674,"ĠZeitpunkt":5675,"ĠhÃ¤uf":5676,"icherung":5677,"buch":5678,"ĠServ":5679,"unt":5680,"Ġsubsid":5681,"Ġexc":5682,"loyment":5683,"Ġmal":5684,"aschinen":5685,"Ġcommercial":5686,"Ġchoose":5687,"Ġsupply":5688,".)":5689,"Ġseek":5690,"ĠJune":5691,"Ġcommitment":5692,"Ġtraff":5693,"griffen":5694,"Ġsimilar":5695,"Ġmeinem":5696,"ĠverfÃ¼g":5697,"Ġsix":5698,"ĠfÃ¶rdern":5699,"ĠMaterial":5700,"ĠTeam":5701,"apt":5702,"usion":5703,"Ġobtain":5704,"atast":5705,"ĠschÃ¶":5706,"Ġdiskut":5707,"xis":5708,"ico":5709,"Ġanzu":5710,"Ġperhaps":5711,"bie":5712,"ĠkÃ¼nft":5713,"Ġtell":5714,"ĠLiefer":5715,"Ġgesamte":5716,"verstÃ¤ndlich":5717,"ĠzunÃ¤chst":5718,"Ġshows":5719,"iles":5720,"Ġrates":5721,"ĠMy":5722,"ĠChin":5723,"Ġinfluen":5724,"Ġmatters":5725,"ĠProduktion":5726,"scht":5727,"Ġaspects":5728,"Ġavoid":5729,"Ġnews":5730,"Ġobs":5731,"ĠgehÃ¶ren":5732,"iglich":5733,"ĠLÃ¶sungen":5734,"Ġstress":5735,"Ġadded":5736,"Ġshown":5737,"Ġatmosph":5738,"Ġ500":5739,"Ã¤ngt":5740,"Ġgleichen":5741,"Ġnuclear":5742,"klus":5743,"ĠSocial":5744,"ufficient":5745,"Ġbi":5746,"Ġrein":5747,"Ġinnovative":5748,"hes":5749,"standen":5750,"Ġformer":5751,"ĠTat":5752,"Ġpromote":5753,"Ġdynam":5754,"fÃ¤lt":5755,"ba":5756,"Ã¤st":5757,"ĠJugend":5758,"ĠYou":5759,"ĠMiss":5760,"Ġconsidered":5761,"Ġcame":5762,"pflich":5763,"Ġvorhanden":5764,"alu":5765,"ĠtatsÃ¤chlich":5766,"ĠBerg":5767,"Ġpan":5768,"Ġthanks":5769,"ĠBeschÃ¤ftigung":5770,"greifen":5771,"ency":5772,"cks":5773,"Ġ28":5774,"ĠVoraus":5775,"Ġspeed":5776,"Ã¤ndig":5777,"Ġgelegen":5778,"irit":5779,"ĠBud":5780,"Ġsorgen":5781,"fahrt":5782,"ehr":5783,"ĠHigh":5784,"inger":5785,"Ġeffects":5786,"ĠMÃ¤n":5787,"ĠIntegration":5788,"Ġhotels":5789,"akter":5790,"Ġlik":5791,"ĠKrieg":5792,"ĠverÃ¶ffent":5793,"Ġlatest":5794,"essourcen":5795,"ĠCentral":5796,"Ġpossibility":5797,"ĠAnfang":5798,"artige":5799,"lÃ¶s":5800,"Ġopportunities":5801,"ĠMaÃŁ":5802,"Ġeindeut":5803,"Ã¶ffnet":5804,"24":5805,"ĠStandard":5806,"ĠverstÃ¤r":5807,"ĠLeit":5808,"ĠgefÃ¼hrt":5809,"ki":5810,"ously":5811,"ĠHerzen":5812,"Ġmaterials":5813,"ierenden":5814,"ĠTod":5815,"ĠInitiative":5816,"li":5817,"ored":5818,"cript":5819,"owers":5820,"ĠMehrheit":5821,"Ġbehind":5822,"ĠDu":5823,"astic":5824,"ausch":5825,"ĠErfahrung":5826,"Ġprot":5827,"where":5828,"ĠBalk":5829,"ology":5830,"Ġcondition":5831,"Ġdepend":5832,"otes":5833,"zub":5834,"Ã¤cht":5835,"Ġerk":5836,"ilen":5837,"Ro":5838,"Ġentwickeln":5839,"ausschuss":5840,"Ġernst":5841,"ĠStellung":5842,"Ġsofort":5843,"ĠYork":5844,"icy":5845,"Here":5846,"ĠWein":5847,"Denn":5848,"Ġdraft":5849,"okoll":5850,"ĠPan":5851,"Ġphys":5852,"Ġaf":5853,"ĠSee":5854,"Ġresponse":5855,"ĠÃĦnderungen":5856,"arent":5857,"Ġsetting":5858,"Ġreached":5859,"ĠSolid":5860,"Ġproviding":5861,"itting":5862,"Ã¼hm":5863,"Ġcreation":5864,"Ġreview":5865,"bre":5866,"Ġeasily":5867,"ĠgrÃ¶ÃŁten":5868,"ĠPersonal":5869,"ĠRegierungen":5870,"ĠÃ¤uÃŁerst":5871,"Ġaccommodation":5872,"Ġverstehen":5873,"Ġexternal":5874,"ĠNieder":5875,"ĠBeschl":5876,"altungs":5877,"gene":5878,"Ġleicht":5879,"Thank":5880,"Ġatmosphere":5881,"unsch":5882,"ĠEinfÃ¼hrung":5883,"ĠRepublic":5884,"Ġsummer":5885,"99":5886,"Ġprepared":5887,"ĠPost":5888,"ĠProgram":5889,"Ġrelevant":5890,"ĠOrganisation":5891,"Ġdeath":5892,"iction":5893,"zeugt":5894,"Is":5895,"Ġreduce":5896,"riften":5897,"ĠEigen":5898,"ĠRu":5899,"No":5900,"ĠHam":5901,"Ġsize":5902,"Ġhoff":5903,"arily":5904,"rid":5905,"ĠRussland":5906,"Ġcriter":5907,"Ġsomit":5908,"ĠLeg":5909,"Ġexhib":5910,"ĠLes":5911,"Ġdeta":5912,"Ġschle":5913,"Ġ90":5914,"Ġdring":5915,"idel":5916,"Ġsustainable":5917,"kraft":5918,"ĠgewÃ¤hrleisten":5919,"heben":5920,"leb":5921,"Ġlediglich":5922,"ĠJuni":5923,"Ġpressure":5924,"entlich":5925,"Ġdecided":5926,"Ġhohen":5927,"uel":5928,"uffet":5929,"ĠInnov":5930,"ĠLauf":5931,"Ġgeschlossen":5932,"rechend":5933,"ĠÃł":5934,"ĠRel":5935,"ĠGlobal":5936,"ney":5937,"Ġprepar":5938,"ĠDez":5939,"istics":5940,"rec":5941,"Ġverpflich":5942,"quare":5943,"Ġcondu":5944,"Ġcapacity":5945,"Ġelekt":5946,"ĠRatsprÃ¤sident":5947,"ummer":5948,"ĠMac":5949,"ĠUmgebung":5950,"Ġgebracht":5951,"ĠSelbst":5952,"uern":5953,"DarÃ¼ber":5954,"ĠImp":5955,"Ġterra":5956,"Ġcoming":5957,"ĠKonfl":5958,"Ġbeteil":5959,"ĠConvention":5960,"Ġprob":5961,"ounts":5962,"Ġsubmitted":5963,"Ġerfolgreich":5964,"Ġactions":5965,"ibilities":5966,"stellt":5967,"Ġstyle":5968,"ierter":5969,"ĠSpain":5970,"ĠBra":5971,"Ġvideo":5972,"ĠGolf":5973,"Ġwirtschaftliche":5974,"Ġgives":5975,"estens":5976,"Ġplaces":5977,"Ġanderer":5978,"Ã©s":5979,"Ġdetails":5980,"ĠHÃ¶he":5981,"Ġneigh":5982,"Ġconcept":5983,"ĠMadam":5984,"itzen":5985,"ĠAgr":5986,"Ġten":5987,"ĠAmsterdam":5988,"creen":5989,"Ġregular":5990,"Ġremains":5991,"Ġsites":5992,"ĠVereinbar":5993,"volle":5994,"Ġarchitect":5995,"Ġgross":5996,"Ġvern":5997,"ĠMag":5998,"Ġ196":5999,"Ġdep":6000,"Ġ70":6001,"ulgar":6002,"iately":6003,"Ġproperty":6004,"ĠAkt":6005,"Ġemploye":6006,"ĠAktion":6007,"ĠSprache":6008,"ĠHo":6009,"sy":6010,"ĠFamilie":6011,"maÃŁnahmen":6012,"ĠBusiness":6013,"Ġenlargement":6014,"ĠStandpunkt":6015,"kommens":6016,"Ġsuffer":6017,"Ġbestimmte":6018,"Wer":6019,"23":6020,"Ġcause":6021,"Ġclosed":6022,"ĠLat":6023,"industrie":6024,"Ġpriority":6025,"ilos":6026,"rehens":6027,"ĠErachten":6028,"PL":6029,"Ġregistr":6030,"resp":6031,"ĠMai":6032,"roat":6033,"ĠErachtens":6034,"Ġerschein":6035,"Ġmeines":6036,"Damit":6037,"Ġausgestattet":6038,"oder":6039,"ĠInformations":6040,"Ġzweite":6041,"ĠSicht":6042,"ĠKommunik":6043,"ĠKomprom":6044,"iture":6045,"rimin":6046,"Some":6047,"Ġdisplay":6048,"Ġbalance":6049,"zeuge":6050,"ĠItaly":6051,"Ġleave":6052,"ĠBekÃ¤mpfung":6053,"Now":6054,"ĠLog":6055,"ĠWettbewerb":6056,"Ġfal":6057,"Ġisland":6058,"adem":6059,"Ġannoun":6060,"Ġtrain":6061,"eting":6062,"iente":6063,"Ġbestimmten":6064,"rief":6065,"Ġ=":6066,"ĠDinge":6067,"lav":6068,"ĠWahr":6069,"ĠNet":6070,"emin":6071,"ala":6072,"ĠKommissarin":6073,"ĠVertrags":6074,"ĠTransport":6075,"ĠAud":6076,"Therefore":6077,"ĠRot":6078,"Ġzahlreiche":6079,"Ġamer":6080,"ziehung":6081,"Ġfunding":6082,"Ġregister":6083,"Ġpartner":6084,"Ġune":6085,"ĠAmend":6086,"mented":6087,"Ġconsumer":6088,"Ġdescrib":6089,"Ġobwohl":6090,"Ġlimited":6091,"Ã¼ndet":6092,"Ġvorgesehen":6093,"Ġ300":6094,"Further":6095,"ĠFerien":6096,"ĠParty":6097,"ĠAspe":6098,"son":6099,"Ġassistance":6100,"ato":6101,"Ġut":6102,"Ġmovement":6103,"ĠDebian":6104,"ĠWTO":6105,"Ġdecl":6106,"setzungen":6107,"ugs":6108,"ĠFreiheit":6109,"Ġforms":6110,"Ġarg":6111,"Ġneuer":6112,"ĠKosovo":6113,"ĠStad":6114,"terne":6115,"ieg":6116,"atastrop":6117,"Ġdiscover":6118,"Par":6119,"sprÃ¼n":6120,"ĠerhÃ¤lt":6121,"Ġelse":6122,"legenheiten":6123,"iterranean":6124,"ĠPers":6125,"Ġtragen":6126,"velopment":6127,"Ġhighl":6128,"ĠAfrica":6129,"Ġscheint":6130,"system":6131,"selves":6132,"ĠVerkehrs":6133,"Ġtransparen":6134,"Ġsport":6135,"Ġwoll":6136,"schnitt":6137,"uert":6138,"Ġsupported":6139,"ctober":6140,"ĠHinter":6141,"ategories":6142,"Ġground":6143,"Ġ''":6144,"itzer":6145,"ĠÃ¤hn":6146,"ĠMuseum":6147,"ĠArticle":6148,"Ġbrought":6149,"mÃ¤ÃŁig":6150,"Ġsagte":6151,"Ġentde":6152,"ĠÃľberein":6153,"ader":6154,"ĠEing":6155,"ĠMich":6156,"ĠChe":6157,"ĠCol":6158,"ghan":6159,"Ġgreen":6160,"mission":6161,"ĠAktivitÃ¤ten":6162,"wertung":6163,"iciency":6164,"cle":6165,"Ġregulations":6166,"rang":6167,"Ġvorlie":6168,"Ġnorth":6169,"Ġindependent":6170,"'.":6171,"Ġrule":6172,"ĠInstrument":6173,"Ġerweit":6174,"ĠauÃŁerdem":6175,"ĠFortschritte":6176,"Ġallein":6177,"Ġgewor":6178,"Ġ26":6179,"Ġvirt":6180,"Ġfoot":6181,"Ġversuchen":6182,"ĠGed":6183,"stitute":6184,"ournal":6185,"ĠKontakt":6186,"elten":6187,"ĠFed":6188,"gesellschaft":6189,"ĠDar":6190,"ĠFehler":6191,"Ġhor":6192,"ĠDecember":6193,"ĠBritish":6194,"hindern":6195,"Ġeffe":6196,"NG":6197,"Ġlimit":6198,"reibung":6199,"Ġsolchen":6200,"ĠbestÃ¤t":6201,"etimes":6202,"stein":6203,"geber":6204,"Ġcreating":6205,"Ġquiet":6206,"Ġwww":6207,"ĠUkraine":6208,"ĠSpa":6209,"ĠBestimmungen":6210,"Fraktion":6211,"ĠTo":6212,"Ġunterst":6213,"Ġpleased":6214,"Ġeffiz":6215,"Ġdadurch":6216,"ĠMad":6217,"Ġconstruction":6218,"Ġerster":6219,"Ġfig":6220,"Ġord":6221,"Ġpurpose":6222,"Ġx":6223,"ĠAdr":6224,"Ġrestaurants":6225,"Ġvariety":6226,"aw":6227,"ĠGefahr":6228,"ĠgemÃ¤ÃŁ":6229,"uis":6230,"Ġregel":6231,"Ġzweiten":6232,"ehen":6233,"bert":6234,"ĠRev":6235,"ĠItalien":6236,"ĠStelle":6237,"Ġlic":6238,"Ġrepe":6239,"ĠÃĸffent":6240,"Ã¼tzt":6241,"Ġdiscussion":6242,"Ġapartment":6243,"page":6244,"Ġeinzige":6245,"ĠMedien":6246,"Ġfriends":6247,"ĠfranzÃ¶s":6248,"ĠVis":6249,"ĠWohl":6250,"anischen":6251,"Ġmobile":6252,"Ġhohe":6253,"Ġinsgesamt":6254,"Ġfix":6255,"Ġexpla":6256,"Pres":6257,"merksamkeit":6258,"dra":6259,"Ġhy":6260,"Ġmessage":6261,"Ġdeep":6262,"Ġcontr":6263,"ĠWestern":6264,"Ġbecame":6265,"Ġerheb":6266,"ĠInstall":6267,"Ġaufgenommen":6268,"Ġproduced":6269,"ategorien":6270,"Ġlargest":6271,"Ġbillion":6272,"ĠStunden":6273,"ags":6274,"ĠIN":6275,"ĠMarch":6276,"Ġinstead":6277,"Ġsus":6278,"Ġwid":6279,"mÃ¶glichkeiten":6280,"Ġexec":6281,"Ġfisher":6282,"tent":6283,"unternehmen":6284,"âĢ¦":6285,"ĠItalian":6286,"ĠOkt":6287,"**":6288,"ĠFolgen":6289,"endes":6290,"Ġrenov":6291,"isters":6292,"gy":6293,"ero":6294,"ena":6295,"Ġvergangenen":6296,"Ġthous":6297,"igungen":6298,"Ġrelationship":6299,"FR":6300,"ĠAufmerksamkeit":6301,"ĠPunkte":6302,"Ġairport":6303,"isp":6304,"Ġstudy":6305,"Ġstability":6306,"Ġconference":6307,"ĠJahrhundert":6308,"Ġchem":6309,"ĠMicro":6310,"Ġways":6311,"Ġalten":6312,"ĠschlieÃŁlich":6313,"Or":6314,"Ġobvious":6315,"arenz":6316,"Ġhost":6317,"Ġregards":6318,"Ġaccord":6319,"Ġinteresting":6320,"ĠSil":6321,"ĠUnterk":6322,"bus":6323,"Ã¼rf":6324,"Ġeffort":6325,"bewertungen":6326,"Booking":6327,"ĠDezember":6328,"aft":6329,"ĠUnd":6330,"lare":6331,"ritts":6332,"legung":6333,"Ġboard":6334,"Ġmeasure":6335,"besch":6336,"yond":6337,"ĠErklÃ¤rung":6338,"Ġsteps":6339,"kont":6340,"rÃ¤fte":6341,"coming":6342,"ĠPreise":6343,"ĠeinschlieÃŁlich":6344,"Ġstarted":6345,"porate":6346,"Ġallowed":6347,"ĠEntscheidungen":6348,"Ġdetermin":6349,"80":6350,"ĠÃ¤ndern":6351,"Ġfishing":6352,"Ġprocedures":6353,"Ġactivity":6354,"conomic":6355,"Ġrich":6356,"ĠgenieÃŁen":6357,"falt":6358,"ST":6359,"ades":6360,"ĠPrivat":6361,"Ġ1998":6362,"Ġtask":6363,"ĠjÃ¼n":6364,"ĠStaat":6365,"Ġproduce":6366,"Ġmedium":6367,"Ã¤gt":6368,"Ġvertreten":6369,"Ġhous":6370,"ĠBildung":6371,"Ġinstrument":6372,"WÃ¤hrend":6373,"ĠAf":6374,"etary":6375,"Ġdiv":6376,"ĠBenutzer":6377,"ronic":6378,"Ġstatus":6379,"EP":6380,"angt":6381,"Ġkonzentr":6382,"anlage":6383,"Ġkeiner":6384,"ĠBerichts":6385,"ĠAnforderungen":6386,"Ġhervorra":6387,"Ġoperation":6388,"ĠKing":6389,"prises":6390,"altet":6391,"Ġpurs":6392,"Ġaccep":6393,"Ġlegislative":6394,"zone":6395,"ĠRights":6396,"Ġsource":6397,"Ġcompromise":6398,"Ġfall":6399,"ĠBasis":6400,"see":6401,"Ġliberal":6402,"no":6403,"Ġmorgen":6404,"Ġcontribution":6405,"bor":6406,"ĠKÃ¼che":6407,"Ġprovisions":6408,"Ġdut":6409,"Ġrelation":6410,"Ġdamage":6411,"overty":6412,"sicherheit":6413,"ĠÃĸffentlichkeit":6414,"ĠtÃ¤":6415,"Ġbetroffen":6416,"Ġmor":6417,"ĠDi":6418,"Ġexact":6419,"soft":6420,"ĠAlt":6421,"âĢľ,":6422,"ground":6423,"lÃ¤nd":6424,"ĠbeschÃ¤ft":6425,"ĠCons":6426,"ĠGÃ¤stebewertungen":6427,"ĠDiskussion":6428,"itude":6429,"Ġdisp":6430,"ĠSchweiz":6431,"annen":6432,"ĠVorschriften":6433,"ĠFilm":6434,"ibil":6435,"ĠServer":6436,"polit":6437,"ued":6438,"Ġsan":6439,"ĠDom":6440,"ĠOctober":6441,"Ġwritten":6442,"Ġinstruments":6443,"wendungen":6444,"ivity":6445,"Bitte":6446,"President":6447,"Ġword":6448,"ĠAbend":6449,"glied":6450,"Ġlabour":6451,"kosten":6452,"Ġvillage":6453,"ĠZeich":6454,"Ġdise":6455,"Ġleisten":6456,"Ġforder":6457,"ĠGruppen":6458,"lines":6459,"ĠGrenzen":6460,"ĠBereiche":6461,"Ġcompon":6462,"Ġappe":6463,"ĠUnternehmens":6464,"ĠGip":6465,"ĠStÃ¤d":6466,"Ġerwarten":6467,"enntnis":6468,"Ġfehl":6469,"itial":6470,"ienten":6471,"Ġkonnten":6472,"ugg":6473,"ĠOper":6474,"Ġgiving":6475,"ĠErzeug":6476,"dienst":6477,"Ġeingesetzt":6478,"Ã¼hungen":6479,"Ġdistance":6480,"ĠhÃ¤ufig":6481,"ĠÃ¼berw":6482,"Ġkit":6483,"cker":6484,"EM":6485,"ford":6486,"ĠPap":6487,"Tod":6488,"Ġourselves":6489,"oker":6490,"Ġleider":6491,"Ġeigentlich":6492,"idge":6493,"Ġgain":6494,"Ġcriteria":6495,"ĠLandwirtschaft":6496,"Ġhistorical":6497,"Ġloss":6498,"iminal":6499,"ĠOpt":6500,"ĠFlughafen":6501,"ĠArbeitnehmer":6502,"rats":6503,"ira":6504,"Ġconven":6505,"ilfen":6506,"ifik":6507,"ĠAnsatz":6508,"Ġgot":6509,"Ġminor":6510,"UR":6511,"ĠHar":6512,"Ġwenige":6513,"ĠBundes":6514,"Ġdocuments":6515,"wesen":6516,"Ġgenommen":6517,"works":6518,"ĠWider":6519,"ĠGesundheits":6520,"Ġklein":6521,"Ġgeworden":6522,"ĠTer":6523,"Ġprefer":6524,"ĠPrÃ¤sidenten":6525,"ĠMÃ¤rz":6526,"lekt":6527,"Office":6528,"Ġpen":6529,"Ġstatement":6530,"ateral":6531,"ĠNationen":6532,"Ġviolence":6533,"Ġevalu":6534,"Reg":6535,"freund":6536,"Ġmountain":6537,"ĠJanuary":6538,"Ġdat":6539,"Ġverm":6540,"ĠKan":6541,"Ġcomprehens":6542,"Ġeleg":6543,"ĠdurchgefÃ¼hrt":6544,"ĠSpanish":6545,"Ġwon":6546,"ĠPrÃ¼":6547,"ĠStÃ¤r":6548,"ĠSystems":6549,"cret":6550,"Ġlaunch":6551,"iete":6552,"ĠOktober":6553,"ĠTransparenz":6554,"Ġstructure":6555,"Ġfinally":6556,"ĠSite":6557,"Ġbase":6558,"Ġfirm":6559,"Ġbenefits":6560,"Ġinterpre":6561,"unk":6562,"Ġgran":6563,"forderung":6564,"Ã±":6565,"Ġzentr":6566,"...\"":6567,"Ġfell":6568,"orgt":6569,"Ġtypes":6570,"here":6571,"ya":6572,"ĠOrgan":6573,"Ġunmittel":6574,"lichkeiten":6575,"Ġdepart":6576,"orgung":6577,"ĠEre":6578,"ĠPrinzip":6579,"Ġmem":6580,"ĠberÃ¼hm":6581,"ograf":6582,"ĠbenÃ¶tigen":6583,"Ġnied":6584,"ĠSinne":6585,"Ġbrit":6586,"Ġfilm":6587,"head":6588,"ĠTagesordnung":6589,"ierende":6590,"ought":6591,"Ġpath":6592,"ocated":6593,"Of":6594,"ĠCamp":6595,"teuer":6596,"terprise":6597,"Ġimmediately":6598,"Ġsuchen":6599,"letzt":6600,"Second":6601,"Ġsection":6602,"Ġaktuellen":6603,"ĠDon":6604,"Ġworth":6605,"Ġconstant":6606,"Ġedit":6607,"Ġwest":6608,"OT":6609,"ĠGrÃ¼nden":6610,"ĠhÃ¶her":6611,"Ġbra":6612,"Ġwine":6613,"ĠCom":6614,"Ġelements":6615,"Ġhighest":6616,"zwe":6617,"Ġihres":6618,"ĠeuropÃ¤ischer":6619,"Ġdistribution":6620,"Ġangesichts":6621,"!!":6622,"drÃ¼cklich":6623,"wind":6624,"eks":6625,"ĠBelg":6626,"Ġobserv":6627,"Ġ29":6628,"Ġthreat":6629,"Ġtransparency":6630,"ĠAuftrag":6631,"ĠBilder":6632,"frastruct":6633,"Ġfreund":6634,"Ġgas":6635,"fordern":6636,"enew":6637,"Ġwichtiger":6638,"Ġkannst":6639,"cription":6640,"anted":6641,"Ġperfe":6642,"ĠTex":6643,"urance":6644,"Ġgrat":6645,"Ġlower":6646,"leitet":6647,"Ġkennen":6648,"Ġemployees":6649,"ĠSchwier":6650,"ĠInn":6651,"ĠInvestitionen":6652,"ĠSommer":6653,"pen":6654,"Ġgefunden":6655,"zeichnung":6656,"Ġsuper":6657,"ĠHung":6658,"Ġintegrated":6659,"ĠGemeins":6660,"Ġweder":6661,"house":6662,"yer":6663,"ieht":6664,"Ġuseful":6665,"ĠSl":6666,"ĠbezÃ¼glich":6667,"Ġequal":6668,"Ġcy":6669,"Ġstock":6670,"ĠEmpfehl":6671,"stag":6672,"ĠMetho":6673,"Tra":6674,"Ġult":6675,"Ġgele":6676,"zusch":6677,"aign":6678,"uls":6679,"ĠVerÃ¤nder":6680,"Ġagenda":6681,"Ġgre":6682,"Ġnumerous":6683,"ĠAuffassung":6684,"Ġalternative":6685,"ĠVorsitz":6686,"Ġgeschaffen":6687,"orning":6688,"Ġaffect":6689,"Ġlate":6690,"Ġvorge":6691,"ĠJuli":6692,"Ġreading":6693,"ĠursprÃ¼n":6694,"ĠRede":6695,"ĠMart":6696,"Ġzeit":6697,"Ġapplied":6698,"ĠDevelopment":6699,"ammlung":6700,"Ġparking":6701,"Ġchallenges":6702,"ĠEd":6703,"Ġelections":6704,"Ã¤ngen":6705,"erner":6706,"ĠDemoc":6707,"mosphÃ¤re":6708,"ĠPortugal":6709,"ĠSache":6710,"Ġhalte":6711,"view":6712,"Ġreality":6713,"Ġemb":6714,"Ġdrive":6715,"ĠUntersuch":6716,"Ġmis":6717,"Ġhelpful":6718,"ĠIndustr":6719,"--":6720,"ĠAufenthalt":6721,"lose":6722,"iker":6723,"Ġsonst":6724,"rÃ¼":6725,"ĠFirma":6726,"ral":6727,"bezogen":6728,"Ġconsist":6729,"ĠServices":6730,"ĠNr":6731,"Ġcoast":6732,"ĠProjekte":6733,"ĠStar":6734,"Ã¼cken":6735,"Ã¤te":6736,"Ġapartments":6737,"ĠCentre":6738,"Ġprocesses":6739,"Ġpoverty":6740,"ĠIraq":6741,"wortern":6742,"Ġpayment":6743,"Zur":6744,"Ġround":6745,"ĠUniversity":6746,"Ã¼nde":6747,"Ġtools":6748,"front":6749,"zehn":6750,"ĠKur":6751,"Ġconsequences":6752,"Ġemiss":6753,"Ġeher":6754,"Ġdaily":6755,"ĠLinux":6756,"98":6757,"Wel":6758,"achtung":6759,"Ġski":6760,"ĠÃ¼brigen":6761,"legation":6762,"ĠTro":6763,"afe":6764,"ĠPrÃ¤sidentschaft":6765,"Ġunemp":6766,"Ġteach":6767,"ĠLebensmittel":6768,"PS":6769,"ĠAfghan":6770,"ĠComputer":6771,"Ġsaying":6772,"mÃ¶":6773,"Ġerneut":6774,"Ġhom":6775,"Ġsieht":6776,"phone":6777,"Ġoffering":6778,"ĠInnen":6779,"ĠbegrÃ¼ÃŁe":6780,"Ġoccas":6781,"Ġcrucial":6782,"Ġdiejenigen":6783,"ĠJuly":6784,"Ġsolidarity":6785,"Ġtreffen":6786,"II":6787,"Ġbem":6788,"Ġmut":6789,"ĠÃ¼berprÃ¼":6790,"Ġbringt":6791,"ola":6792,"Ġtim":6793,"Ġanalysis":6794,"ownload":6795,"zufÃ¼hren":6796,"sprozess":6797,"Ġbeyond":6798,"richten":6799,"park":6800,"ilosoph":6801,"ĠRegeln":6802,"Ġbad":6803,"Ã¼nstler":6804,"Ġentsprechenden":6805,"aktion":6806,"Ġlegit":6807,"Ġperman":6808,"engen":6809,"ĠBulgar":6810,"Ġign":6811,"ĠEreign":6812,"izin":6813,"ogle":6814,"sprÃ¼":6815,"Ġphot":6816,"Ġziehen":6817,"Ġdistr":6818,"Ġundert":6819,"Ã¶ren":6820,"Ġpersons":6821,"ĠSum":6822,"Ġpaid":6823,"ĠSolidar":6824,"Ã§":6825,"ĠEm":6826,"ares":6827,"Ġplant":6828,"folge":6829,"Ġbeitragen":6830,"ione":6831,"Today":6832,"gelt":6833,"Ġwissenschaft":6834,"Ġkrit":6835,"ye":6836,"Ġerfahren":6837,"ĠÃ¶ffentliche":6838,"ded":6839,"Ġhumanit":6840,"Ġoffered":6841,"ĠBeteil":6842,"ĠGal":6843,"eg":6844,"ĠKoh":6845,"Ġcolleagues":6846,"Ġconflict":6847,"ĠCap":6848,"ĠCO":6849,"Ġspirit":6850,"Ġthought":6851,"Ġgoes":6852,"spricht":6853,"Ġpal":6854,"Ġ1997":6855,"ĠStraÃŁen":6856,"scheinlich":6857,"ĠEnts":6858,"ĠSchlusselwortern":6859,"ĠBahn":6860,"ĠÃĦnderung":6861,"ĠMann":6862,"ĠMobil":6863,"ĠJava":6864,"Ġhinzu":6865,"ĠGott":6866,"ĠAufgaben":6867,"Ġpractical":6868,"spiel":6869,"ĠJanuar":6870,"Ġillegal":6871,"ĠFÃ¤llen":6872,"Ġentsprechend":6873,"back":6874,"ĠDVD":6875,"Ġhappy":6876,"ufe":6877,"iment":6878,"ĠCost":6879,"ĠZw":6880,"ienz":6881,"ĠBemÃ¼hungen":6882,"Ġlangfrist":6883,"Ġ35":6884,"Ġlas":6885,"ĠDan":6886,"Ġvergessen":6887,"losen":6888,"ĠFlor":6889,"Also":6890,"Ġsufficient":6891,"Ġideas":6892,"vors":6893,"ĠGast":6894,"Ġmitt":6895,"Ġvan":6896,"Ġzehn":6897,"ĠLinie":6898,"Ġkur":6899,"wser":6900,"schlieÃŁen":6901,"ĠMonaten":6902,"IA":6903,"ĠBedÃ¼rf":6904,"leistung":6905,"ĠAgrar":6906,"ĠfrÃ¼her":6907,"othe":6908,"ĠArmut":6909,"Ġrequires":6910,"ĠUp":6911,"Qu":6912,"Ġverhindern":6913,"fÃ¼hl":6914,"iability":6915,"ĠMediterranean":6916,"ĠFolge":6917,"Dabei":6918,"Ġhar":6919,"obby":6920,"iveau":6921,"wart":6922,"Ġhil":6923,"Ġforces":6924,"Ġexception":6925,"Ã¼rger":6926,"cement":6927,"angeb":6928,"Ġkil":6929,"Ð»":6930,"fo":6931,"zy":6932,"Ġinfrastruct":6933,"Ġausgezeich":6934,"ĠNachbar":6935,"Jed":6936,"ĠBÃ¼rgern":6937,"Ġgenannten":6938,"sych":6939,"vere":6940,"Ã¼cht":6941,"Ġgetan":6942,"Ġunbe":6943,"Ġweak":6944,"ĠTerm":6945,"SS":6946,"based":6947,"ocol":6948,"atÃ¼rlich":6949,"anging":6950,"Ġorganisations":6951,"estic":6952,"strumente":6953,"ĠVertreter":6954,"{{":6955,"ĠRepublik":6956,"ĠSitzung":6957,"Ġspee":6958,"hold":6959,"DF":6960,"Ġbehandelt":6961,"ĠhÃ¤tten":6962,"Ġminimum":6963,"ĠWunsch":6964,"Ġpie":6965,"Ġweeks":6966,"Ġdoubt":6967,"Ġadvantage":6968,"urb":6969,"Ġtomor":6970,"Ġ31":6971,"Ãł":6972,"tellten":6973,"Ġfrequ":6974,"cape":6975,"Ġban":6976,"ĠRessourcen":6977,"ais":6978,"Ġerfolgt":6979,"craft":6980,"Ġcongratulate":6981,"Ġtomorrow":6982,"ĠDet":6983,"ĠVÃ¶lk":6984,"ĠDritt":6985,"Ġvorher":6986,"ĠprÃ¤sent":6987,"Ġmodified":6988,"ifel":6989,"irl":6990,"ĠjÃ¼ng":6991,"Ġhistoric":6992,"Ġanderem":6993,"ĠKredit":6994,"ĠOst":6995,"Ã¶ÃŁe":6996,"Ġwaste":6997,"ĠTagen":6998,"Ġimplemented":6999,"ĠMos":7000,"programm":7001,"ret":7002,"Ġhear":7003,"Ġpartnership":7004,"22":7005,"Ġsecure":7006,"Every":7007,"ordination":7008,"Ġsales":7009,"ĠDirective":7010,"Ġnimmt":7011,"Ġshopping":7012,"Ġclients":7013,"Ġrelating":7014,"ĠBehandlung":7015,"ĠTa":7016,"Ã¼ge":7017,"Ġrenew":7018,"ischem":7019,"Ġlines":7020,"gewiesen":7021,"Ġreference":7022,"vis":7023,"ibe":7024,"ĠSpezial":7025,"Ġstarting":7026,"esellschaften":7027,"03":7028,"ĠAuto":7029,"Ġpublished":7030,"icit":7031,"Ġreich":7032,"Ġbedroom":7033,"Ġpaar":7034,"Ġmonitoring":7035,"Ġschl":7036,"Ġversucht":7037,"45":7038,"Ġrestr":7039,"Ġmorning":7040,"ĠBeginn":7041,"ĠGas":7042,"wÃ¼n":7043,"Ã¤nge":7044,"Ġbesondere":7045,"Ġsyn":7046,"ĠRestaurants":7047,"Ġsimpl":7048,"Ġol":7049,"Ġgrowing":7050,"Ġlives":7051,"ĠAnstr":7052,"aint":7053,"Ġcaused":7054,"ĠPalest":7055,"Zweit":7056,"Ġcomprehensive":7057,"ĠDo":7058,"):":7059,"ĠVerl":7060,"icken":7061,"Ġreduction":7062,"Ġefficiency":7063,"Ġmaximum":7064,"ula":7065,"Ġoperating":7066,"frastruktur":7067,"ĠKor":7068,"ĠVen":7069,"Ġcircum":7070,"pective":7071,"Ġjen":7072,"Ġwr":7073,"Ġausreich":7074,"oon":7075,"schreit":7076,"Ġusw":7077,"zt":7078,"Ġfordern":7079,"ĠBÃ¼rgerinnen":7080,"Ġready":7081,"rem":7082,"ĠSign":7083,"ategie":7084,"Ġmachine":7085,"theless":7086,"CO":7087,"bin":7088,"ĠTechnologie":7089,"stitutional":7090,"Ġaccordance":7091,"ĠAtmosphÃ¤re":7092,"Ġmeaning":7093,"hafte":7094,"zielle":7095,"App":7096,"ĠWinter":7097,"ĠDiese":7098,"Ġserver":7099,"During":7100,"schÃ¶":7101,"Ġselect":7102,"ĠNeu":7103,"nungen":7104,"Ġful":7105,"Ġcampaign":7106,"Many":7107,"ĠmÃ¼":7108,"ĠGerichts":7109,"Ġanti":7110,"Ġrecon":7111,"Å¡":7112,"ungsver":7113,"Although":7114,"ĠBetrieb":7115,"gruppe":7116,"ĠÃ¼berhaupt":7117,"Ġgewesen":7118,"Ġsechs":7119,"ĠGebÃ¤ude":7120,"Ġunbed":7121,"pack":7122,"Ġsports":7123,"Ph":7124,"ĠFinanzierung":7125,"Nur":7126,"Ġoptions":7127,"ĠVal":7128,"Furthermore":7129,"Ġinitial":7130,"ulated":7131,"altungen":7132,"Ġstreet":7133,"Ġanything":7134,"ĠErfahrungen":7135,"ius":7136,"ĠerfÃ¼llen":7137,"Ã´":7138,"pool":7139,"book":7140,"ichert":7141,"ado":7142,"Ġded":7143,"standing":7144,"schriftlich":7145,"ĠerklÃ¤rt":7146,"cia":7147,"Ġfolgen":7148,"Ġurg":7149,"Ġbeant":7150,"Ġzahlreichen":7151,"ĠZentral":7152,"ĠMult":7153,"Ġsometimes":7154,"Ġwarum":7155,"LA":7156,"Ġbegin":7157,"ĠberÃ¼cksichtigt":7158,"ĠBot":7159,"ĠNacht":7160,"ĠVergangen":7161,"ÂŃ":7162,"ĠMinder":7163,"ĠVilla":7164,"Ġrapid":7165,"mus":7166,"itch":7167,"Ġko":7168,"Ġtechnologies":7169,"ĠOpen":7170,"ĠForschungs":7171,"Ġborder":7172,"Ġplayers":7173,"Ġcritic":7174,"Ġmensch":7175,"ĠgrÃ¶ÃŁer":7176,"atform":7177,"ĠProtokoll":7178,"ĠsÃ¤m":7179,"Ġoffiz":7180,"Ġpictures":7181,"ĠgÃ¼nst":7182,"Ġextent":7183,"Ġbetreff":7184,"Ġgerecht":7185,"Ġcharm":7186,"asten":7187,"Ġadvert":7188,"Ġprobably":7189,"Ġchance":7190,"Ġones":7191,"Ġlanguages":7192,"ĠWerte":7193,"Ġbegan":7194,"Ġterrorism":7195,"alyse":7196,"}}":7197,"flÃ¤che":7198,"Ġswimming":7199,"Ġexport":7200,"Ġremov":7201,"Ġfarmers":7202,"Ġstimmen":7203,"board":7204,"Ġworldwide":7205,"Str":7206,"ĠAustria":7207,"Ġrichtige":7208,"ĠVerteid":7209,"Acc":7210,"ĠVergangenheit":7211,"Ġstaat":7212,"hotel":7213,"Ġuner":7214,"trÃ¤gen":7215,"ĠAspekte":7216,"Ġeingeb":7217,"ĠPraxis":7218,"',":7219,"utive":7220,"Ġsav":7221,"ichern":7222,"ĠBa":7223,"itation":7224,"Ġmethods":7225,"Ġcounter":7226,"SP":7227,"iell":7228,"Ġwelches":7229,"ĠCenter":7230,"Ġdecor":7231,"ĠSecurity":7232,"IV":7233,"wa":7234,"Ġjeweiligen":7235,"Ġbur":7236,"Ġinterested":7237,"legten":7238,"ĠOl":7239,"Ġvoting":7240,"ĠgrÃ¶ÃŁte":7241,"Ã¤llt":7242,"Ġchallenge":7243,"ifically":7244,"ĠInhalt":7245,"ffizienz":7246,"Ġverpflichtet":7247,"ĠKe":7248,"Ġemail":7249,"Ġlands":7250,"ĠFÃ¤h":7251,"grenz":7252,"Ġtransparent":7253,"Ġsectors":7254,"oke":7255,"itten":7256,"iding":7257,"Ġrespond":7258,"ĠIniti":7259,"Ġeinheit":7260,"Ġstets":7261,"Ġtourist":7262,"ĠTerrorismus":7263,"ĠErd":7264,"Ġadopt":7265,"Ġsal":7266,"izes":7267,"izing":7268,"Ġcast":7269,"ktive":7270,"97":7271,"Ġconcentr":7272,"ĠConference":7273,"Ġseines":7274,"Ġmotor":7275,"ĠWeit":7276,"ĠMenschenrechts":7277,"Ġhistorischen":7278,"sam":7279,"Ġscientific":7280,"Ġwanted":7281,"Ġsymbol":7282,"ĠVideo":7283,"Ġarrange":7284,"Ġbill":7285,"ĠRats":7286,"Ã¤chen":7287,"Ġehem":7288,"ĠReal":7289,"wenden":7290,"reland":7291,"igation":7292,"vollen":7293,"Ġbald":7294,"ĠwÃ¤hlen":7295,"Ġcandid":7296,"zeiten":7297,"Ġvalid":7298,"Ġbein":7299,"ĠGrand":7300,"Ġwach":7301,"Ġcert":7302,"Ġles":7303,"ĠAgent":7304,"ĠauÃŁerhalb":7305,"nungs":7306,"Ġgames":7307,"ĠMc":7308,"ĠStock":7309,"Ġaccepted":7310,"enze":7311,"Ġselection":7312,"Ġrelease":7313,"ĠTradition":7314,"ĠBeruf":7315,"ĠTest":7316,"ĠAk":7317,"Ġexerc":7318,"karte":7319,"ĠSchritte":7320,"rÃ¤nkt":7321,"ĠbetrÃ¤":7322,"ichtlich":7323,"Ġbusinesses":7324,"sc":7325,"Ġrele":7326,"Ġapprec":7327,"Ġmodernen":7328,"ĠbefÃ¼r":7329,"ĠAnfrage":7330,"abkommen":7331,"ĠTier":7332,"ĠAirport":7333,"ĠOpfer":7334,"ĠGef":7335,"figur":7336,"Ġine":7337,"ĠGreen":7338,"bas":7339,"fence":7340,"Ġverantwortlich":7341,"ĠHel":7342,"Ġzumindest":7343,"poses":7344,"losigkeit":7345,"inary":7346,"Ġpowers":7347,"âĦ":7348,"Ġdespite":7349,"meer":7350,"fÃ¼r":7351,"tempt":7352,"Ġupd":7353,"âĢĿ.":7354,"Ġfolgt":7355,"Ġblo":7356,"Ġkam":7357,"ĠRechtsvorschriften":7358,"ĠZivil":7359,"iant":7360,"ĠCal":7361,"ĠtÃ¤t":7362,"ĠTH":7363,"Ġgemein":7364,"furt":7365,"Ġfine":7366,"Ġlay":7367,"kom":7368,"Ġvisitors":7369,"Ġwalking":7370,"ĠSpanien":7371,"ĠAngelegenheit":7372,"enh":7373,"zul":7374,"Ġinfluence":7375,"Ġverab":7376,"ĠvollstÃ¤ndig":7377,"Ġgenu":7378,"Ġexpert":7379,"Ġheutigen":7380,"verage":7381,"ĠMer":7382,"Ġlies":7383,"Ġgenug":7384,"ĠDat":7385,"ĠschÃ¼tzen":7386,"Ġenorm":7387,"Ã¤mpfen":7388,"Ġimages":7389,"Ġverkauf":7390,"Ġremember":7391,"Ġtrying":7392,"Ġraised":7393,"wel":7394,"erdings":7395,"atalog":7396,"ĠWell":7397,"Zweitens":7398,"Meine":7399,"Ġglo":7400,"ĠpersÃ¶nlichen":7401,"imb":7402,"umm":7403,"Ġseparate":7404,"Ġlost":7405,"Ġcompetit":7406,"ATO":7407,"Ġcoup":7408,"ĠMass":7409,"ĠGel":7410,"raten":7411,"Ġabsolutely":7412,"ĠAngelegenheiten":7413,"Ġris":7414,"barer":7415,"affe":7416,"Ġfant":7417,"ĠBerat":7418,"ĠHerausforderungen":7419,"akte":7420,"Ġreflect":7421,"ĠWenn":7422,"ĠstÃ¤rker":7423,"Ġelegant":7424,"ĠGet":7425,"ĠWaren":7426,"ĠSchwierigkeiten":7427,"ĠGarten":7428,"tritt":7429,"MS":7430,"ĠMand":7431,"Ġtechnischen":7432,"Ġkomp":7433,"Ġsubstant":7434,"konom":7435,"erkennung":7436,"ĠParteien":7437,"ids":7438,"ĠFirmen":7439,"Ġcohes":7440,"Ġheav":7441,"Ġfolgenden":7442,"imed":7443,"anda":7444,"ML":7445,"ĠChance":7446,"Ġerinnern":7447,"ĠKn":7448,"Ġanders":7449,"ĠprÃ¼":7450,"werte":7451,"ĠausschlieÃŁlich":7452,"ĠVergleich":7453,"Ġdemands":7454,"quem":7455,"Ġbessere":7456,"âĦ¢":7457,"ologie":7458,"tag":7459,"Ġdeutschen":7460,"ĠRegierungs":7461,"handel":7462,"hÃ¤ltnis":7463,"sÃ¤tze":7464,"ĠDoppel":7465,"gesetz":7466,"ĠAnnahme":7467,"icket":7468,"ĠHy":7469,"last":7470,"Ġzuk":7471,"ĠPet":7472,"zusetzen":7473,"NatÃ¼rlich":7474,"ĠHinsicht":7475,"Ġborders":7476,"ĠId":7477,"ĠExper":7478,"Ġimpl":7479,"Ġerlaubt":7480,"tere":7481,"ĠEinwander":7482,"Ġaffe":7483,"Ġunten":7484,"Ġspezif":7485,"Ġclub":7486,"Ġangemessen":7487,"ĠEigent":7488,"Ġ1996":7489,"Ġinsp":7490,"Ġsil":7491,"IF":7492,"ĠEntschlieÃŁungs":7493,"Ġhonour":7494,"Ġnamely":7495,"star":7496,"chtet":7497,"ĠâĢĶ":7498,"Ġerwartet":7499,"Ġmanufactur":7500,"Ġfields":7501,"ĠVertrauen":7502,"Ġslow":7503,"ION":7504,"Ġinnovation":7505,"Ġlisten":7506,"Ġanerk":7507,"Â´":7508,"amin":7509,"ĠChinese":7510,"gehend":7511,"Ġchanged":7512,"Even":7513,"Ġvital":7514,"attle":7515,"âĢŀ":7516,"Ġstrategic":7517,"gÃ¼lt":7518,"abr":7519,"Ġgek":7520,"Ġgetroffen":7521,"70":7522,"Ġverurs":7523,"zulegen":7524,"lemente":7525,"Ġ).":7526,"ĠEss":7527,"reise":7528,"ĠIhres":7529,"hilfe":7530,"ĠjÃ¤hr":7531,"Ġoverall":7532,"//":7533,"ruption":7534,"bit":7535,"Ã¶rt":7536,"krise":7537,"ae":7538,"ĠHal":7539,"ĠUK":7540,"Ġmenu":7541,"Ġannual":7542,"uly":7543,"ĠÃ¼bernehmen":7544,"Ġallgemeinen":7545,"Ġkitchen":7546,"EG":7547,"unge":7548,"Ġitalien":7549,"ĠzukÃ¼nft":7550,"Ġrepresentatives":7551,"uses":7552,"ĠTor":7553,"Ġcalls":7554,"ĠProzent":7555,"Ġfire":7556,"indungen":7557,"Ã¤tzlich":7558,"Ġproceed":7559,"ĠÂ»":7560,"ighted":7561,"iarden":7562,"ĠGespr":7563,"rogen":7564,"engungen":7565,"Ġseason":7566,"ĠEnd":7567,"Heute":7568,"ĠEinrichtung":7569,"Ġgesetz":7570,"ĠIreland":7571,"Ġworked":7572,"aters":7573,"Ġinitiatives":7574,"Ġgesehen":7575,"asc":7576,"ollar":7577,"ĠGran":7578,"itts":7579,"Ġyourself":7580,"ĠModell":7581,"Ġprivaten":7582,"Ġtrip":7583,"Tro":7584,"ziert":7585,"used":7586,"Ġwiederhol":7587,"ĠKapital":7588,"pport":7589,"sprechen":7590,"ĠOrd":7591,"aries":7592,"Ġwrong":7593,"Ġprocessing":7594,"Ġplayer":7595,"gruppen":7596,"ĠSm":7597,"Ġintended":7598,"vorsitz":7599,"ĠHuman":7600,"Ġbitten":7601,"hers":7602,"Ġnegative":7603,"ĠGeneration":7604,"ĠbegrÃ¼ÃŁen":7605,"Ġheard":7606,"Ġexpressed":7607,"immern":7608,"While":7609,"Secondly":7610,"ulations":7611,"ĠProduktions":7612,"ĠMicrosoft":7613,"Ġoffens":7614,"isely":7615,"mand":7616,"Ġevening":7617,"ĠSpieler":7618,"di":7619,"Ġdarstellt":7620,"Â²":7621,"Ġbeginnen":7622,"acc":7623,"ĠPH":7624,"Ġehemal":7625,"lymp":7626,"Ġvertra":7627,"ĠLiberal":7628,"ĠIslam":7629,"Ġtrack":7630,"Ġaccession":7631,"Ġangeboten":7632,"inens":7633,"Ġzudem":7634,"ĠMess":7635,"Ġplans":7636,"eignet":7637,"ĠArbeitsplÃ¤tze":7638,"Ġaward":7639,"umin":7640,"Ã¶rdert":7641,"Ġsetzt":7642,"ĠVerfassung":7643,"Ġoccup":7644,"QL":7645,"Ġbanks":7646,"Gleich":7647,"Ġcommitted":7648,"ĠBal":7649,"auern":7650,"European":7651,"ĠnatÃ¼r":7652,"Ġendlich":7653,"ĠVerwaltung":7654,"Ġautomatisch":7655,"ĠRussian":7656,"AG":7657,"Inde":7658,"Ġability":7659,"Ġcities":7660,"Ġcell":7661,"Ġbir":7662,"iÃ³n":7663,"hood":7664,"Ġangene":7665,"Ġflexible":7666,"Ġeindeutig":7667,"ildet":7668,"Ġbestimmt":7669,"nel":7670,"stoffe":7671,"ĠlÃ¤nd":7672,"Ġdipl":7673,"ystemen":7674,"ras":7675,"ĠSen":7676,"Ġtalking":7677,"zeichen":7678,"Ġrestrict":7679,"Ġtraffic":7680,"ruit":7681,"Ġfalls":7682,"Ġlove":7683,"Ġletzte":7684,"ĠSÃ¼":7685,"ĠTem":7686,"gere":7687,"ifizierung":7688,"Ġgoal":7689,"Ġtarget":7690,"Ġentgegen":7691,"ĠJohn":7692,"ĠSolidaritÃ¤t":7693,"Ġfresh":7694,"Ġdeine":7695,"ĠPrÃ¤":7696,"ĠEinfluss":7697,"set":7698,"TV":7699,"90":7700,"ĠHause":7701,"ories":7702,"ĠSonder":7703,"Ġplaced":7704,"Ġphoto":7705,"Ġdatab":7706,"cluded":7707,"wes":7708,"Ġsinn":7709,"Ġalone":7710,"ustausch":7711,"ĠBerichterstatterin":7712,"Ġtal":7713,"Not":7714,"Ġrunning":7715,"ĠAgre":7716,"ĠPrem":7717,"Ġrom":7718,"Ġdringend":7719,"zlich":7720,"Ġmainly":7721,"ĠFalle":7722,"Ġspect":7723,"bringen":7724,"Ġjem":7725,"ĠbemÃ¼":7726,"Ġhot":7727,"ĠAmendment":7728,"Ġbeide":7729,"ĠKonzept":7730,"Ġfamilies":7731,"idelines":7732,"etten":7733,"ĠlÃ¤nger":7734,"ĠKrank":7735,"Ġautom":7736,"wan":7737,"ĠGene":7738,"Ġplanning":7739,"ĠÃĸsterreich":7740,"Ġterrace":7741,"Ġelement":7742,"Ġcohesion":7743,"ĠAmb":7744,"Ġbrand":7745,"Ġfear":7746,"ĠAntrag":7747,"ĠAfghanistan":7748,"ĠEind":7749,"grams":7750,"96":7751,"ĠSwiss":7752,"agraph":7753,"Ġbege":7754,"Ġtit":7755,"Ġverme":7756,"ples":7757,"bum":7758,"Ġopening":7759,"Ġimproved":7760,"Ġremind":7761,"ĠHostels":7762,"gebiet":7763,"ĠDel":7764,"ĠHeim":7765,"Ġjustice":7766,"Ġapproved":7767,"Ġethn":7768,"CD":7769,"ĠFreiz":7770,"Ġanc":7771,"Ġ195":7772,"ĠZustimmung":7773,"ores":7774,"Ġkaum":7775,"Ã¼b":7776,"ĠAnstrengungen":7777,"gers":7778,"ibly":7779,"kaufs":7780,"Moreover":7781,"ĠTal":7782,"ĠVerpflichtungen":7783,"Ġconfirm":7784,"ĠgrÃ¶ÃŁere":7785,"ils":7786,"Ġreforms":7787,"Ġreag":7788,"Ġincreasingly":7789,"ĠAusschuÃŁ":7790,"Ġbuy":7791,"Ġwhom":7792,"ĠNATO":7793,"Ġstudents":7794,"ĠGold":7795,"ĠTÃ¤tigkeit":7796,"Ġconclusion":7797,"ĠLeute":7798,"ĠVerhalten":7799,"do":7800,"Ġcurrency":7801,"Ġcomments":7802,"Ġaffected":7803,"Ġattempt":7804,"Ġfeature":7805,"ĠKompromiss":7806,"Ðº":7807,"Ġbenutzt":7808,"Ġdecide":7809,"Ġgenannt":7810,"Ġirgend":7811,"ĠMÃ¼n":7812,"Ġumfang":7813,"Ġadministrative":7814,"itory":7815,"rieb":7816,"Ġcircumstances":7817,"Ã¼ckt":7818,"zeigen":7819,"Ġgenutzt":7820,"bourg":7821,"Ġtot":7822,"quate":7823,"Ġlaws":7824,"Ġkomfort":7825,"Ġbilden":7826,"Ġunbedingt":7827,"Ġsuitable":7828,"mel":7829,"ifying":7830,"Ġregime":7831,"ĠzusÃ¤tzliche":7832,"Ġcollection":7833,"ĠMitte":7834,"ĠOrganisationen":7835,"Ġinn":7836,"ĠCy":7837,"Ġprovision":7838,"aria":7839,"Ġbezahl":7840,"Ġemissions":7841,"ĠGesamt":7842,"anach":7843,"ĠVoll":7844,"ĠAusgang":7845,"ĠAnerkennung":7846,"aschine":7847,"Ġtouch":7848,"aste":7849,"Ġeingehen":7850,"Ġreduced":7851,"Ġautomatically":7852,"itzt":7853,"Ã¤ndigen":7854,"sta":7855,"Ġbelieb":7856,"ĠNations":7857,"Ġcele":7858,"ĠRoma":7859,"Ġbox":7860,"Lassen":7861,"Ġ150":7862,"ĠIdee":7863,"Â»":7864,"Ġdelivery":7865,"ita":7866,"Ġpriorities":7867,"Ġphone":7868,"Ġmoderne":7869,"ĠÃ¼berzeugt":7870,"Ġentspricht":7871,"angs":7872,"ĠJe":7873,"Den":7874,"Kon":7875,"ĠBade":7876,"Ġmill":7877,"Ġoben":7878,"enty":7879,"ĠPla":7880,"ĠGeorg":7881,"endence":7882,"ĠGod":7883,"Ġentstehen":7884,"Ġvorgelegt":7885,"how":7886,"ĠSam":7887,"Ġfeed":7888,"Ġentschieden":7889,"Ġpo":7890,"Ġcontribute":7891,"bÃ¼":7892,"ĠselbstverstÃ¤ndlich":7893,"Ġerkennen":7894,"ĠTher":7895,"Ġconfidence":7896,"Ġadministration":7897,"Ġunemployment":7898,"ses":7899,"fun":7900,"ĠSlo":7901,"lichung":7902,"ago":7903,"alled":7904,"ĠÃľberwach":7905,"La":7906,"Ġstabil":7907,"Ġstructural":7908,"Ġintell":7909,"ĠkÃ¼rz":7910,"ĠÂ«":7911,"Ġcos":7912,"Ġsupports":7913,"Ġgere":7914,"Ġextend":7915,"Ġextensive":7916,"ĠAc":7917,"laufen":7918,"igran":7919,"ĠAC":7920,"Ġgegr":7921,"reiber":7922,"ĠAng":7923,"ray":7924,"ĠFree":7925,"Ġsays":7926,"Ġgesetzt":7927,"Ġinfrastructure":7928,"brit":7929,"Ġensuring":7930,"Ġersch":7931,"Ġunterb":7932,"ĠFlex":7933,"ĠGoogle":7934,"âĢĿ,":7935,"ocation":7936,"Ġhol":7937,"elte":7938,"ĠQualitÃ¤ts":7939,"struktur":7940,"ĠPublic":7941,"ĠNews":7942,"ĠWissenschaft":7943,"ael":7944,"zech":7945,"ĠHoff":7946,"Neben":7947,"ĠKauf":7948,"ĠmilitÃ¤r":7949,"ĠberÃ¼cksichtigen":7950,"Ġzufrieden":7951,"Ġcoordin":7952,"Ġelektron":7953,"verlÃ¤ss":7954,"iano":7955,"endet":7956,"ĠWahlen":7957,"Ġce":7958,"Ġrise":7959,"Ġauszu":7960,"Ġparticipation":7961,"Ġunterschiedlichen":7962,"fÃ¤lle":7963,"ĠDub":7964,"âĢľ.":7965,"Ġwesentlich":7966,"26":7967,"://":7968,"artigen":7969,"ĠÃĸl":7970,"ING":7971,"Ġscope":7972,"ĠVereinbarung":7973,"Ġencourage":7974,"ĠMex":7975,"ĠDurchfÃ¼hrung":7976,"Ġpowerful":7977,"ĠSchwer":7978,"Ã¤her":7979,"Ġvictims":7980,"Ġanz":7981,"time":7982,"folger":7983,"ĠCop":7984,"mon":7985,"PT":7986,"Ġmanner":7987,"izenz":7988,"Ġspecifically":7989,"ĠBur":7990,"Ã¤stinens":7991,"isc":7992,"aming":7993,"entwicklung":7994,"Ġmedic":7995,"iums":7996,"Ġplayed":7997,"rel":7998,"lying":7999}