{"<s>":0,"<pad>":1,"</s>":2,"<unk>":3,"<mask>":4,"!":5,"\"":6,"#":7,"$":8,"%":9,"&":10,"'":11,"(":12,")":13,"*":14,"+":15,",":16,"-":17,".":18,"/":19,"0":20,"1":21,"2":22,"3":23,"4":24,"5":25,"6":26,"7":27,"8":28,"9":29,":":30,";":31,"<":32,"=":33,">":34,"?":35,"@":36,"A":37,"B":38,"C":39,"D":40,"E":41,"F":42,"G":43,"H":44,"I":45,"J":46,"K":47,"L":48,"M":49,"N":50,"O":51,"P":52,"Q":53,"R":54,"S":55,"T":56,"U":57,"V":58,"W":59,"X":60,"Y":61,"Z":62,"[":63,"\\":64,"]":65,"^":66,"_":67,"`":68,"a":69,"b":70,"c":71,"d":72,"e":73,"f":74,"g":75,"h":76,"i":77,"j":78,"k":79,"l":80,"m":81,"n":82,"o":83,"p":84,"q":85,"r":86,"s":87,"t":88,"u":89,"v":90,"w":91,"x":92,"y":93,"z":94,"{":95,"|":96,"}":97,"~":98,"¡":99,"¢":100,"£":101,"¤":102,"¥":103,"¦":104,"§":105,"¨":106,"©":107,"ª":108,"«":109,"¬":110,"®":111,"¯":112,"°":113,"±":114,"²":115,"³":116,"´":117,"µ":118,"¶":119,"·":120,"¸":121,"¹":122,"º":123,"»":124,"¼":125,"½":126,"¾":127,"¿":128,"Â":129,"Ã":130,"Ä":131,"Å":132,"Æ":133,"Ç":134,"È":135,"É":136,"Ê":137,"Ë":138,"Ì":139,"Í":140,"Î":141,"Ï":142,"Ð":143,"Ñ":144,"Ò":145,"Ó":146,"Ö":147,"×":148,"Ø":149,"Ù":150,"Ú":151,"Û":152,"Þ":153,"ß":154,"à":155,"á":156,"â":157,"ã":158,"ä":159,"å":160,"æ":161,"ç":162,"è":163,"é":164,"ê":165,"ë":166,"ì":167,"í":168,"î":169,"ï":170,"ð":171,"ò":172,"ĉ":173,"č":174,"Ġ":175,"ġ":176,"Ģ":177,"ģ":178,"Ĥ":179,"ĥ":180,"Ħ":181,"ħ":182,"Ĩ":183,"ĩ":184,"Ī":185,"ī":186,"Ĭ":187,"ĭ":188,"Į":189,"į":190,"İ":191,"ı":192,"Ĳ":193,"ĳ":194,"Ĵ":195,"ĵ":196,"Ķ":197,"ķ":198,"ĸ":199,"Ĺ":200,"ĺ":201,"Ļ":202,"ļ":203,"Ľ":204,"ľ":205,"Ŀ":206,"ŀ":207,"Ł":208,"ł":209,"Ń":210,"en":211,"er":212,"in":213,"Ġa":214,"Ġt":215,"Ġd":216,"ch":217,"es":218,"on":219,"Ġth":220,"un":221,"it":222,"is":223,"Ġs":224,"Ġw":225,"at":226,"ie":227,"or":228,"an":229,"Ġthe":230,"re":231,"Ġb":232,"Ġo":233,"al":234,"ar":235,"Ġin":236,"Ġf":237,"ich":238,"Ġm":239,"te":240,"ion":241,"Ġe":242,"Ġan":243,"ur":244,"as":245,"le":246,"Ġp":247,"Ġc":248,"Ġun":249,"Ġh":250,"us":251,"ent":252,"ge":253,"Ġof":254,"ro":255,"Ã¼":256,"Ġn":257,"ĠS":258,"Ġv":259,"ing":260,"ung":261,"Ġand":262,"Ġto":263,"Ã¤":264,"ll":265,"ed":266,"Ġdie":267,"om":268,"Ġder":269,"Ġund":270,"ig":271,"st":272,"ic":273,"Ġbe":274,"ĠA":275,"Ġis":276,"ĠE":277,"Ġein":278,"ir":279,"Ġz":280,"im":281,"Ġg":282,"el":283,"ĠM":284,"ĠP":285,"ut":286,"ra":287,"ter":288,"ĠB":289,"em":290,"il":291,"ten":292,"ol":293,"ation":294,"der":295,"eit":296,"et":297,"Ġl":298,"am":299,"den":300,"Ġre":301,"ĠI":302,"hr":303,"ies":304,"um":305,"ĠF":306,"op":307,"ĠG":308,"ct":309,"sch":310,"ĠK":311,"ul":312,"Ġk":313,"uf":314,"Ã¶":315,"ber":316,"iv":317,"lich":318,"de":319,"ĠR":320,"ĠC":321,"Ġfor":322,"ab":323,"ot":324,"ĠT":325,"Ã¼r":326,"isch":327,"ĠV":328,"ĠH":329,"ier":330,"icht":331,"gen":332,"ĠD":333,"Ġdas":334,"Ġon":335,"Ġzu":336,"ĠW":337,"ere":338,"Ġden":339,"ly":340,"ess":341,"est":342,"Ġthat":343,"os":344,"he":345,"and":346,"id":347,"ĠL":348,"ce":349,"omm":350,"ers":351,"ein":352,"Ġpro":353,"Ġal":354,"ow":355,"Ġwh":356,"ach":357,"Ġvon":358,"Ġr":359,"ort":360,"Ġge":361,"uch":362,"ÃŁ":363,"Ġim":364,"Ġst":365,"ith":366,"Ġy":367,"ĠU":368,"Ġwir":369,"kt":370,"if":371,"Ġcon":372,"Ġist":373,"Ġver":374,"Ġer":375,"ver":376,"Ġwith":377,"Ġauf":378,"Ġwe":379,"ĠfÃ¼r":380,"urop":381,"ay":382,"ill":383,"Ġdes":384,"Ġit":385,"ve":386,"Ġmit":387,"ad":388,"Ġare":389,"ts":390,"âĢ":391,"ind":392,"Ġas":393,"ck":394,"Ġso":395,"Ġde":396,"Ġne":397,"iss":398,"Ġyo":399,"Ġ1":400,"ĠN":401,"Ġdies":402,"tr":403,"end":404,"af":405,"pp":406,"ĠEurop":407,"ate":408,"ment":409,"ik":410,"ĠZ":411,"Ġ(":412,"Ġse":413,"qu":414,"The":415,"th":416,"ungen":417,"la":418,"00":419,"ischen":420,"Ġ2":421,"nen":422,"men":423,"ib":424,"Ġals":425,"ĠSt":426,"Ġeine":427,"ak":428,"Ġex":429,"ĠVer":430,"ne":431,"for":432,"Ġdem":433,"Ġthis":434,"ity":435,"ĠIn":436,"Ġha":437,"ant":438,"ien":439,"ive":440,"ial":441,"ah":442,"ist":443,"Ġor":444,"Ġj":445,"art":446,"Ġnicht":447,"pe":448,"und":449,"Ġwer":450,"ug":451,"Ġco":452,"Ġnot":453,"ann":454,"Ã¼ber":455,"ste":456,"ĠUn":457,"Ġsich":458,"Ġall":459,"Ġle":460,"Ã¤n":461,"ub":462,"ff":463,"Ġwerden":464,"tel":465,"Ġ-":466,"ĠJ":467,"we":468,"Ġby":469,"Ġhave":470,"Ġdass":471,"ĠRe":472,"rom":473,"ag":474,"ĠSie":475,"igen":476,"Ġat":477,"igh":478,"ust":479,"ĠAn":480,"Ġes":481,"ass":482,"ens":483,"Ġaus":484,"ain":485,"all":486,"uld":487,"Ġyou":488,"up":489,"sp":490,"Ġwill":491,"od":492,"Ġab":493,"Ġcom":494,"Ġuns":495,"iel":496,"ern":497,"ĠÃ¼ber":498,"aus":499,"ure":500,"Ġi":501,"Ġsh":502,"Ġme":503,"ze":504,"ions":505,"age":506,"Ġwhich":507,"ommiss":508,"ted":509,"Ġwas":510,"Ġauch":511,"ĠO":512,"ran":513,"ben":514,"lie":515,"hen":516,"Die":517,"ĠPr":518,"Ġfrom":519,"ahr":520,"hal":521,"ungs":522,"du":523,"och":524,"ĠEurope":525,"ard":526,"Ġum":527,"ĠSch":528,"ould":529,"Ġsind":530,"Ġus":531,"tern":532,"Ġch":533,"Ġsch":534,"ommission":535,"ĠâĢ":536,"..":537,"ident":538,"In":539,"og":540,"Ġpr":541,"ĠPro":542,"Ġent":543,"fer":544,"Ġvor":545,"Ġwird":546,"uss":547,"esch":548,"Ġhas":549,"ue":550,"Ġhab":551,"schaf":552,"ip":553,"iz":554,"mer":555,"ft":556,"port":557,"ine":558,"Ġwor":559,"Th":560,"gr":561,"Ã¶n":562,"ss":563,"ud":564,"Ġres":565,"Ġen":566,"ang":567,"ĠEn":568,"oc":569,"llen":570,"ous":571,"ische":572,"ick":573,"ok":574,"Ġwie":575,"Ġda":576,"enn":577,"ast":578,"Ã¤t":579,"ĠBe":580,"our":581,"ĠPar":582,"Ġhe":583,"urch":584,"Ġcan":585,"me":586,"Ġman":587,"ise":588,"able":589,"etz":590,"err":591,"form":592,"Ġam":593,"ige":594,"ire":595,"keit":596,"Ġhat":597,"Ġsein":598,"Ġich":599,"ap":600,"ost":601,"pr":602,"Ġoder":603,"ert":604,"ament":605,"Ġour":606,"ia":607,"ore":608,"ĠAr":609,"be":610,"otel":611,"cc":612,"erv":613,"Ġcomp":614,"Ġzur":615,"ult":616,"beit":617,"Ġalso":618,"ations":619,"ĠEuropean":620,"ĠEr":621,"Ġhaben":622,"Ġsie":623,"ational":624,"ction":625,"her":626,"ical":627,"heit":628,"ition":629,"Ġad":630,"ese":631,"lichen":632,"ĠAus":633,"ice":634,"lo":635,"ated":636,"are":637,"out":638,"dern":639,"Ġbei":640,"Ġdo":641,"Ġeiner":642,"ĠkÃ¶n":643,"ome":644,"olit":645,"se":646,"rit":647,"Ġ\"":648,"ru":649,"aten":650,"tz":651,"hl":652,"ther":653,"ark":654,"ord":655,"fÃ¼":656,"ieren":657,"pt":658,"ect":659,"Ġunter":660,"ĠÃ":661,"Ġ200":662,"ish":663,"Ã¼n":664,"Ġnach":665,"ac":666,"Ġqu":667,"schaft":668,"Ġeinen":669,"ht":670,"ĠGe":671,"ms":672,"ign":673,"'s":674,"Ġpart":675,"Ã¤r":676,"tet":677,"ĠParl":678,"iert":679,"Ġyour":680,"elt":681,"ight":682,"Ġits":683,"ĠUnion":684,"vel":685,"ates":686,"ĠMit":687,"oun":688,"ake":689,"Ġte":690,"tra":691,"ear":692,"Ġreg":693,"ite":694,"Ġdurch":695,"Ġgro":696,"ank":697,"ian":698,"au":699,"ger":700,"yste":701,"fen":702,"Ġsu":703,"Ġsp":704,"Ġbut":705,"ary":706,"ember":707,"Ġwur":708,"Ġag":709,"Ġgo":710,"Ġro":711,"ide":712,"cial":713,"oll":714,"ĠkÃ¶nnen":715,"Ġthere":716,"liche":717,"ĠBer":718,"gt":719,"per":720,"con":721,"Ã¤s":722,"We":723,"Ġapp":724,"ose":725,"hre":726,"Ġdis":727,"Ã¶r":728,"ĠEin":729,"anz":730,"Ġste":731,"Ġdar":732,"cht":733,"Ġtra":734,"ĠEU":735,"Ġwar":736,"ual":737,"ĠFra":738,"Das":739,"chen":740,"ĠCommission":741,"ĠVor":742,"cl":743,"ime":744,"Ġwould":745,"Ġspe":746,"eren":747,"ĠmÃ¶":748,"Ġ3":749,"ance":750,"Ġmore":751,"tw":752,"ile":753,"ail":754,"ov":755,"Ġzum":756,"ĠAb":757,"Ġtheir":758,"Ġeinem":759,"Ġ19":760,"ommen":761,"Ġbeen":762,"mp":763,"Ġgen":764,"ĠâĢĵ":765,"Ġbes":766,"reat":767,"Ġcont":768,"glich":769,"imm":770,"ute":771,"ase":772,"âĢĻ":773,"uÃŁ":774,"ong":775,"ame":776,"act":777,"chn":778,"chte":779,"ĠEuropÃ¤":780,"Ġar":781,"Ich":782,"ild":783,"utz":784,"gra":785,"Ġkann":786,"Ġfin":787,"Ã¼ck":788,"ble":789,"oss":790,"ack":791,"che":792,"Ġdiese":793,"Ġone":794,"Ã¼ss":795,"Ġacc":796,"ont":797,"Ġnur":798,"one":799,"ugh":800,"ĠWe":801,"ents":802,"Ġcoun":803,"Ġper":804,"ĠTe":805,"Ġcomm":806,"ĠGr":807,"sten":808,"ges":809,"gan":810,"hn":811,"Ġshould":812,"Ġalle":813,"Âł":814,"Ġbet":815,"ahl":816,"pl":817,"Ġpl":818,"Ġwork":819,"wer":820,"ution":821,"ike":822,"ĠDe":823,"Ġnew":824,"ierung":825,"geb":826,"eine":827,"Ġ.":828,"Ġup":829,"ĠLe":830,"Ġ,":831,"ĠSp":832,"Ġcl":833,"ob":834,"ĠUnter":835,"Wir":836,"This":837,"zu":838,"ely":839,"ĠCh":840,"auf":841,"land":842,"hmen":843,"ree":844,"hren":845,"ktion":846,"It":847,"Ã¤sident":848,"Ġout":849,"to":850,"Ġdieser":851,"av":852,"igkeit":853,"ĠJahr":854,"Ġob":855,"rie":856,"ner":857,"ĠHotel":858,"ld":859,"lic":860,"olle":861,"Ġjed":862,"ons":863,"reich":864,"Ġpre":865,"Ġcountr":866,"ings":867,"Ġind":868,"Ġvery":869,"Ġmust":870,"Ġinter":871,"ke":872,"Ġzw":873,"Ġwho":874,"bar":875,"Ġother":876,"ĠKommission":877,"ĠdaÃŁ":878,"Ġnoch":879,"...":880,"Ġprodu":881,"ĠPres":882,"ities":883,"formation":884,"Ã¤hr":885,"Ġma":886,"Ġev":887,"Ġthey":888,"mit":889,"Ġpe":890,"ink":891,"ĠMr":892,"Ġneed":893,"Ġweit":894,"gram":895,"ces":896,"pro":897,"ĠHerr":898,"wo":899,"ors":900,"Ġwurde":901,"ater":902,"ments":903,"tell":904,"Der":905,"Ġno":906,"Ġber":907,"schen":908,"Ġmehr":909,"Ġsoll":910,"Ġintern":911,"Ġonly":912,"Ġyear":913,"Ġfe":914,"Ġcons":915,"Ġbec":916,"Ġsupp":917,"gel":918,"Ġstr":919,"Ġlike":920,"ĠAuf":921,"Ġaber":922,"ple":923,"olog":924,"oin":925,"ystem":926,"glie":927,"Ġtime":928,"Ġabout":929,"Ġwenn":930,"Ã¼ssen":931,"Ġpolit":932,"teil":933,"fe":934,"pos":935,"ĠPrÃ¤sident":936,"entr":937,"Es":938,"ible":939,"Ġany":940,"ĠSe":941,"ĠPresident":942,"ious":943,"Dies":944,"assen":945,"ced":946,"uen":947,"ange":948,"leich":949,"Ġprov":950,").":951,"Ġges":952,"Ġsehr":953,"Ġ5":954,"velop":955,"xt":956,"ĠmÃ¼ssen":957,"erm":958,"lin":959,"Ġtran":960,"ally":961,"itÃ¤t":962,"enz":963,"ject":964,"Ġunser":965,"alt":966,"Ġwo":967,"nah":968,"Ġeff":969,"cess":970,"Ġ4":971,"Ġsow":972,"hnen":973,"ĠReg":974,"Ġbis":975,"iament":976,"ans":977,"Ġra":978,"Ã¼tz":979,"arbeit":980,"onder":981,"Ġthese":982,"ient":983,"ammen":984,"ĠParlament":985,"rat":986,"ĠArbeit":987,"Ġrec":988,"Ġserv":989,"Ġsol":990,"io":991,"Ġdire":992,"Ġoff":993,"ular":994,"fore":995,"atz":996,"own":997,"Ġvie":998,"fahr":999,"Ġhin":1000,"ied":1001,"led":1002,"ibt":1003,"ility":1004,"Ġimport":1005,"usammen":1006,"ĠMitglie":1007,"ative":1008,"als":1009,"Ġdiesem":1010,"stit":1011,"Ã¤l":1012,"ph":1013,"Ġtr":1014,"erson":1015,"ider":1016,"ring":1017,"irst":1018,"ople":1019,"ause":1020,"ures":1021,"ĠMember":1022,"aaten":1023,"ÃŁen":1024,"ĠMen":1025,"igt":1026,"Ġgegen":1027,"Ġdevelop":1028,"Ġif":1029,"cy":1030,"ism":1031,"Ġsuch":1032,"halten":1033,"Ġla":1034,"fol":1035,"wend":1036,"Ġreport":1037,"fl":1038,"Ã¤nd":1039,"Ġihre":1040,"ook":1041,"ays":1042,"Ġact":1043,"ĠEuropÃ¤ischen":1044,"unden":1045,"wn":1046,"sche":1047,"Ġpol":1048,"Ġgr":1049,"ĠAl":1050,"iger":1051,"iven":1052,"etzt":1053,"Ġsub":1054,"ĠTh":1055,"ateg":1056,"dition":1057,"ks":1058,"ific":1059,"Ġrel":1060,"Ġins":1061,"Ġmy":1062,"Ġover":1063,"ale":1064,"itu":1065,"wor":1066,"nehmen":1067,"ĠZeit":1068,"Ġinto":1069,"Ġpeople":1070,"Ġwere":1071,"ĠMa":1072,"ĠFor":1073,"Ġihr":1074,"ĠThe":1075,"fÃ¼hr":1076,"kte":1077,"str":1078,"Ġwell":1079,"ices":1080,"cre":1081,"Ġ20":1082,"iden":1083,"irt":1084,"Ġgem":1085,"Ġinternational":1086,"Ġbest":1087,"erg":1088,"ken":1089,"ĠParliament":1090,"Ã©":1091,"),":1092,"Ġsome":1093,"Un":1094,"bs":1095,"ement":1096,"Ġviel":1097,"ĠmÃ¶chte":1098,"Ġwhat":1099,"Ġuse":1100,"lung":1101,"ou":1102,"acht":1103,"cil":1104,"enden":1105,"Ġinv":1106,"isten":1107,"conom":1108,"ľber":1109,"ene":1110,"Ġdif":1111,"ĠStates":1112,"Ġhier":1113,"Ġmark":1114,"arge":1115,"Ġsa":1116,"fr":1117,"Ġhigh":1118,"An":1119,"icher":1120,"ĠMitglied":1121,"Ġher":1122,"uropÃ¤":1123,"ustr":1124,"Ġeines":1125,"amen":1126,"Ġkn":1127,"very":1128,"rei":1129,"ĠMar":1130,"Ġhotel":1131,"ĠCoun":1132,"ory":1133,"Ġbed":1134,"ull":1135,"Ġcountries":1136,"Ġfirst":1137,"Ġloc":1138,"Ġthan":1139,"Ġgew":1140,"Ġincl":1141,"ention":1142,"Ġmost":1143,"Ġvom":1144,"olitik":1145,"zeit":1146,"Ġhel":1147,"Ġwicht":1148,"Ġdec":1149,"Ġwhen":1150,"Ġhis":1151,"ating":1152,"itte":1153,"Ġlie":1154,"Ġpartic":1155,"esent":1156,"iet":1157,"pect":1158,"Ġunder":1159,"Ġvers":1160,"ace":1161,"Ġthem":1162,"ĠOr":1163,"inn":1164,"ards":1165,"ages":1166,"les":1167,"ĠCouncil":1168,"Ġdam":1169,"itz":1170,"Ġjust":1171,"ett":1172,"Ġpolic":1173,"sicht":1174,"Ġsowie":1175,"Ġwel":1176,"att":1177,"ĠMenschen":1178,"ond":1179,"Ġele":1180,"ĠEntw":1181,"Ġnow":1182,"Ġagain":1183,"ĠeuropÃ¤":1184,"abe":1185,"ĠUm":1186,"Ġsupport":1187,"Ã¤nder":1188,"tre":1189,"ĠKon":1190,"Ġdieses":1191,"ats":1192,"Ġgu":1193,"Ġbas":1194,"ever":1195,"Ġimportant":1196,"lÃ¤":1197,"ights":1198,"Ġmake":1199,"Ã¤ch":1200,"Ġaut":1201,"ween":1202,"ĠBericht":1203,"els":1204,"ho":1205,"Ġpla":1206,"halt":1207,"Ġgibt":1208,"ĠÃľber":1209,"ĠLand":1210,"Ġeconom":1211,"Ġmany":1212,"ues":1213,"kl":1214,"Ġhow":1215,"essen":1216,"Ġroom":1217,"kommen":1218,"Ġbetween":1219,"stÃ¼tz":1220,"Ġass":1221,"fin":1222,"hand":1223,"je":1224,"oth":1225,"Ġpropos":1226,"Ġrequ":1227,"ĠMe":1228,"Ġmo":1229,"Ġfr":1230,"halb":1231,"any":1232,"fter":1233,"Ġtechn":1234,"issen":1235,"ĠQ":1236,"ives":1237,"bst":1238,"igung":1239,"Ġposs":1240,"Ã¶s":1241,"ural":1242,"lieÃŁ":1243,"Ġbecause":1244,"ence":1245,"staaten":1246,"ware":1247,"Ġzwischen":1248,"ĠComm":1249,"ters":1250,"Ġleg":1251,"dr":1252,"Ġtake":1253,"Ġbereit":1254,"Ġfre":1255,"legen":1256,"mal":1257,"Ã¶glich":1258,"zie":1259,"Ġkon":1260,"Ġworld":1261,"ublic":1262,"Ġmarket":1263,"uer":1264,"Ġpos":1265,"ote":1266,"ĠEntwick":1267,"ĠVerb":1268,"ful":1269,"arm":1270,"Ġcre":1271,"Ġ6":1272,"ĠBed":1273,"Ġmuss":1274,"Ġ'":1275,"oint":1276,"cted":1277,"rough":1278,"blem":1279,"Ġfo":1280,"off":1281,"weit":1282,"zial":1283,"Ġfind":1284,"ath":1285,"min":1286,"Ġsel":1287,"ict":1288,"ĠFl":1289,"amp":1290,"lear":1291,"hÃ¶r":1292,"Ġunsere":1293,"Ġson":1294,"Ġop":1295,"Ġnational":1296,"Ġpar":1297,"ount":1298,"dem":1299,"âĢľ":1300,"Ġwhere":1301,"Ġkeine":1302,"Ġgood":1303,"ĠNe":1304,"Ġmin":1305,"dit":1306,"ality":1307,"omp":1308,"ĠPl":1309,"nis":1310,"Al":1311,"Ġgreat":1312,"rag":1313,"Ġhand":1314,"Ġbie":1315,"vern":1316,"Ġnat":1317,"Ġav":1318,"Ġtwo":1319,"eschÃ¤":1320,"Ġinformation":1321,"ĠStr":1322,"urn":1323,"uring":1324,"Ġemp":1325,"rauch":1326,"ĠUS":1327,"achen":1328,"ĠGes":1329,"ĠIhnen":1330,"ĠIntern":1331,"ĠEnt":1332,"Ġrem":1333,"ium":1334,"Sie":1335,"Ġevery":1336,"Ã¶ff":1337,"Ġeinz":1338,"Ġverb":1339,"Ġmade":1340,"Ġhad":1341,"Ġyears":1342,"ÃŁe":1343,"Ġconc":1344,"ĠMin":1345,"aut":1346,"Ġanderen":1347,"stand":1348,"sel":1349,"amil":1350,"rol":1351,"hm":1352,"Ġmein":1353,"ĠProdu":1354,"unkt":1355,"Ġeven":1356,"Ġend":1357,"ĠArt":1358,"schie":1359,"air":1360,"laub":1361,"Ġthrough":1362,"fort":1363,"Ġway":1364,"cept":1365,"Be":1366,"Ġiss":1367,"ĠGrund":1368,"Ġsystem":1369,"geben":1370,"Ġthose":1371,"Ġproduct":1372,"Ġget":1373,"ision":1374,"ischer":1375,"chten":1376,"forder":1377,"Ġsee":1378,"ĠMitgliedstaaten":1379,"ession":1380,"ina":1381,"gend":1382,"ereich":1383,"Ġsc":1384,"Ã¤lt":1385,"gung":1386,"Ġweiter":1387,"ister":1388,"stell":1389,"Ġange":1390,"lish":1391,"urr":1392,"ower":1393,"ws":1394,"ĠâĢŀ":1395,"ĠSo":1396,"ĠIhre":1397,"immer":1398,"Ġ199":1399,"ys":1400,"weise":1401,"Ġimmer":1402,"lag":1403,"ganis":1404,"ĠÃĦ":1405,"day":1406,"ĠZusammen":1407,"Ġpolicy":1408,"Ġorder":1409,"ows":1410,"Ġmay":1411,"erein":1412,"Ġtak":1413,"ĠEuropa":1414,"uÃŁer":1415,"lick":1416,"Ġdisc":1417,"Ġdirect":1418,"ument":1419,"uman":1420,"spr":1421,"Ġdann":1422,"ster":1423,"hne":1424,"Ġright":1425,"Ġac":1426,"unity":1427,"ituation":1428,"âĢĿ":1429,"rif":1430,"If":1431,"Ġbeing":1432,"ĠRat":1433,"ĠVorsch":1434,"ivers":1435,"ital":1436,"Ġfact":1437,"alls":1438,"Ġbeste":1439,"Ġnum":1440,"ited":1441,"Ġbeg":1442,"chts":1443,"isen":1444,"Ġrest":1445,"Ġke":1446,"Ġ7":1447,"10":1448,"000":1449,"eration":1450,"Im":1451,"Ġbelie":1452,"Ġparticular":1453,"Ġappro":1454,"Ġwieder":1455,"Ġdiesen":1456,"nahmen":1457,"Ġcar":1458,"Ġdiffer":1459,"Ġdamit":1460,"com":1461,"Ġcent":1462,"nung":1463,"ĠFr":1464,"gest":1465,"Ġcour":1466,"Ġger":1467,"ionen":1468,"ior":1469,"itt":1470,"ĠHaus":1471,"Ġtrans":1472,"Ġ10":1473,"Ġzwe":1474,"vor":1475,"Ġinclud":1476,"Ġwurden":1477,"Ġ8":1478,"Ġganz":1479,"ĠBereich":1480,"Ġown":1481,"Ġgesch":1482,"part":1483,"aur":1484,"bal":1485,"Ġ[":1486,"ĠfÃ¼":1487,"eins":1488,"Ġprocess":1489,"isse":1490,"icherheit":1491,"ough":1492,"ry":1493,"Ġresp":1494,"ade":1495,"iness":1496,"eln":1497,"adt":1498,"Ġdel":1499,"Ġknow":1500,"get":1501,"ĠWelt":1502,"Ġmon":1503,"innen":1504,"read":1505,"zeich":1506,"atter":1507,"ouse":1508,"trag":1509,"ĠDie":1510,"old":1511,"Ã¤ndern":1512,"gramm":1513,"Ġbus":1514,"elle":1515,"stitution":1516,"Ġarea":1517,"Ein":1518,"Ġquest":1519,"ler":1520,"Ġmain":1521,"Wenn":1522,"hin":1523,"az":1524,"ĠâĢľ":1525,"oy":1526,"Ġbu":1527,"schieden":1528,"Ġph":1529,"Ġkein":1530,"itÃ¤":1531,"zen":1532,"Ġunserer":1533,"ĠGro":1534,"There":1535,"ool":1536,"Ġagre":1537,"alk":1538,"You":1539,"rechen":1540,"round":1541,"Ġreal":1542,"ĠHand":1543,"ix":1544,"Ġhelp":1545,"Ġhere":1546,"Ġhabe":1547,"schafts":1548,"Ġsondern":1549,"Ġsm":1550,"ĠGeb":1551,"eth":1552,"piel":1553,"Ġstand":1554,"urs":1555,"Ġafter":1556,"Ġdeb":1557,"Ġcomple":1558,"Ġseine":1559,"leg":1560,"Ġjedoch":1561,"Ġpolitical":1562,"res":1563,"ests":1564,"Ġform":1565,"ince":1566,"gesch":1567,"tegr":1568,"ĠHe":1569,"eite":1570,"Ġexp":1571,"ruck":1572,"Mr":1573,"Ġpublic":1574,"Ġplace":1575,"eld":1576,"Ġide":1577,"Ġincre":1578,"Ġgut":1579,"ax":1580,"ĠEuropÃ¤ische":1581,"mb":1582,"Ġconcern":1583,"Ġprote":1584,"mittel":1585,"Ġpossible":1586,"ĠIhr":1587,"ende":1588,"istr":1589,"ved":1590,"Ġsame":1591,"erk":1592,"Ġ9":1593,"ĠEx":1594,"ently":1595,"ĠBÃ¼r":1596,"Ġsim":1597,"ktiv":1598,"Ġausge":1599,"Ġclear":1600,"Ġetw":1601,"ĠFin":1602,"iron":1603,"ĠwÃ¼r":1604,"Ġser":1605,"bens":1606,"For":1607,"ata":1608,"Ã¶glichkeit":1609,"schlieÃŁ":1610,"ierte":1611,"ines":1612,"Ġneue":1613,"Ġcould":1614,"eral":1615,"Ġhuman":1616,"tal":1617,"tens":1618,"ĠInter":1619,"Ġwant":1620,"Ġheute":1621,"Ġbef":1622,"Ġdr":1623,"fach":1624,"ĠBes":1625,"line":1626,"ĠGem":1627,"ĠInformation":1628,"Ġnumber":1629,"Ġcontin":1630,"lagen":1631,"Ġsay":1632,"As":1633,"nder":1634,"Ġoffer":1635,"Ġcurr":1636,"Ġeconomic":1637,"ven":1638,"Ġperson":1639,"Ġgleich":1640,"Ġdoes":1641,"Ġest":1642,"Ġdevelopment":1643,"Ġthen":1644,"Ġopp":1645,"ertain":1646,"isk":1647,"Ġwithin":1648,"Ġeffect":1649,"use":1650,"ĠBar":1651,"Ġwen":1652,"ÃŁnahmen":1653,"iti":1654,"trÃ¤":1655,"Ġrights":1656,"Diese":1657,"ants":1658,"ĠBr":1659,"ep":1660,"osten":1661,"tellt":1662,"raft":1663,"uro":1664,"ĠUnternehmen":1665,"ĠKolle":1666,"Ġbereits":1667,"ĠTeil":1668,"ics":1669,"Ġavail":1670,"Ġtransp":1671,"Ġexam":1672,"Ġfest":1673,"yp":1674,"Ġselbst":1675,"Mit":1676,"Ġagainst":1677,"Ã¤hl":1678,"alen":1679,"Ġohne":1680,"hip":1681,"aup":1682,"Ġmuch":1683,"Ġmich":1684,"Herr":1685,"Ġfund":1686,"ma":1687,"ĠInd":1688,"ander":1689,"Ġboth":1690,"bes":1691,"Ġused":1692,"Ġval":1693,"Ġvis":1694,"lage":1695,"ĠÃĦnder":1696,"ĠEntwicklung":1697,"Ġprof":1698,"icult":1699,"Ġtherefore":1700,"Ġlang":1701,"Wh":1702,"Ġihrer":1703,"Ġwichtig":1704,"licher":1705,"lobal":1706,"utions":1707,"stru":1708,"Ġsur":1709,"Ġlevel":1710,"ĠSchl":1711,"ĠFre":1712,"Ġsollte":1713,"ock":1714,"Ġsign":1715,"rÃ¤":1716,"fern":1717,"loy":1718,"Ġvar":1719,"Ġhist":1720,"ierten":1721,"erung":1722,"que":1723,"Ġregion":1724,"setz":1725,"ife":1726,"Ġneuen":1727,"ĠeuropÃ¤ischen":1728,"viron":1729,"Ġmed":1730,"ftware":1731,"Ġequ":1732,"ustom":1733,"ÂłÂł":1734,"ds":1735,"ulation":1736,"ĠSte":1737,"Ġbring":1738,"Ġpra":1739,"ĠFran":1740,"Ġ...":1741,"ivid":1742,"Ġfun":1743,"stÃ¤nd":1744,"Ġ15":1745,"ĠCon":1746,"Ġplay":1747,"aff":1748,"ux":1749,"Ġfull":1750,"Ã¤re":1751,"ĠJahren":1752,"eng":1753,"satz":1754,"Ġandere":1755,"Ġcr":1756,"Ġprovid":1757,"eut":1758,"Ġsocial":1759,"Ġbo":1760,"reichen":1761,"ĠRicht":1762,"ĠGerm":1763,"ĠHer":1764,"Ġcountry":1765,"urg":1766,"Ã¶ffent":1767,"fahren":1768,"ically":1769,"agement":1770,"Ġzwei":1771,"way":1772,"Ġeigen":1773,"net":1774,"ittee":1775,"Ã¶ÃŁ":1776,"Ġbre":1777,"Ġview":1778,"wert":1779,"Ġconf":1780,"Ġdenn":1781,"Ġthink":1782,"its":1783,"eiten":1784,"Ġfinan":1785,"Ġgroup":1786,"ĠVers":1787,"Ġwithout":1788,"Ġletz":1789,"Ġlast":1790,"Ġpoint":1791,"Ġstill":1792,"wick":1793,"vironment":1794,"Er":1795,"Ġexper":1796,"work":1797,"ets":1798,"trib":1799,"ichte":1800,"kehr":1801,"Ã¤ng":1802,"under":1803,"Ġmeas":1804,"Ġens":1805,"Ġdenen":1806,"immt":1807,"ĠY":1808,"ĠPre":1809,"cur":1810,"over":1811,"wir":1812,"br":1813,"Ġsollten":1814,"Ġoper":1815,"iver":1816,"Ġconsider":1817,"St":1818,"par":1819,"Ġadv":1820,"esse":1821,"Ġdifferent":1822,"Ġservices":1823,"ĠFrau":1824,"Ġfinden":1825,"Ġlong":1826,"ator":1827,"Ġaccess":1828,"gar":1829,"ĠSicherheit":1830,"Ġgemeins":1831,"ffen":1832,"nahme":1833,"Ġpriv":1834,"ĠmÃ¶glich":1835,"ĠNach":1836,"Ġmod":1837,"ĠFrage":1838,"fra":1839,"Ġopt":1840,"lim":1841,"man":1842,"ize":1843,"entral":1844,"lichkeit":1845,"ER":1846,"esen":1847,"ists":1848,"wort":1849,"ĠAs":1850,"Ġverschieden":1851,"ohl":1852,"Ġspec":1853,"ondere":1854,"Ġers":1855,"hor":1856,"Ã¤hrend":1857,"ĠBet":1858,"ness":1859,"Ġdown":1860,"ationen":1861,"zeug":1862,"Ġ18":1863,"Ġgovern":1864,"Ġatt":1865,"Ġfree":1866,"ollow":1867,"Ġprin":1868,"ĠMon":1869,"Ġavailable":1870,"Ġcap":1871,"Ġgel":1872,"richt":1873,"ope":1874,"ĠWirt":1875,"How":1876,"aking":1877,"Ġrequire":1878,"war":1879,"Ġable":1880,"ĠunterstÃ¼tz":1881,"Ġback":1882,"ĠBÃ¼rger":1883,"uture":1884,"hol":1885,"ude":1886,"Ġindustr":1887,"orte":1888,"Ġ12":1889,"ibility":1890,"ritt":1891,"akt":1892,"Ġbietet":1893,"Ġkle":1894,"ready":1895,"ĠDaten":1896,"zahl":1897,"ised":1898,"urther":1899,"pf":1900,"ability":1901,"iÃŁ":1902,"Ġbusiness":1903,"Ġspecial":1904,"alth":1905,"atur":1906,"ting":1907,"kun":1908,"Ġdazu":1909,"vers":1910,"yn":1911,"ience":1912,"ystems":1913,"ĠHin":1914,"ĠZu":1915,"Ġsmall":1916,"Ġbefore":1917,"gem":1918,"Ġlook":1919,"ĠPerson":1920,"Ġviele":1921,"ispiel":1922,"Ġliegt":1923,"ĠKont":1924,"afÃ¼r":1925,"Ġallen":1926,"Ġmachen":1927,"ĠFe":1928,"Ġcustom":1929,"ppen":1930,"ienst":1931,"Ġweil":1932,"Ġben":1933,"Ġpers":1934,"Ġalready":1935,"loss":1936,"ĠPart":1937,"Ġfuture":1938,"Ġgest":1939,"Ġaller":1940,"Ġbelieve":1941,"aben":1942,"ahmen":1943,"Ġcor":1944,"Ġze":1945,"une":1946,"ders":1947,"ins":1948,"ward":1949,"ĠKommiss":1950,"On":1951,"Ġbek":1952,"Ġair":1953,"tem":1954,"ahre":1955,"So":1956,"press":1957,"ilt":1958,"200":1959,"ktur":1960,"ased":1961,"ctor":1962,"cond":1963,"ĠMittel":1964,"Ġsom":1965,"ctions":1966,"Ġhal":1967,"Ġseiner":1968,"]]":1969,"zug":1970,"ves":1971,"ĠIs":1972,"All":1973,"Ġcourse":1974,"ĠkÃ¶nn":1975,"Ġdarauf":1976,"Ġopen":1977,"Ġtoday":1978,"gramme":1979,"annt":1980,"ante":1981,"kten":1982,"Ġdesign":1983,"esell":1984,"Ġproject":1985,"jor":1986,"agen":1987,"ismus":1988,"Ġset":1989,"welt":1990,"Ġtoo":1991,"Ġjetzt":1992,"Ã¤h":1993,"Ġinst":1994,"ĠMÃ¶glichkeit":1995,"ving":1996,"Ġcann":1997,"Ã¤ÃŁ":1998,"Ġproducts":1999,"ĠAm":2000,"Ġservice":2001,"Ġet":2002,"aher":2003,"ron":2004,"ĠgrÃ¶ÃŁ":2005,"Ġeing":2006,"ĠStand":2007,"ica":2008,"Ġenvironment":2009,"omen":2010,"ĠAut":2011,"ĠThem":2012,"ĠFinanz":2013,"Ġfl":2014,"itiz":2015,"Ġrespons":2016,"hÃ¤lt":2017,"ination":2018,"cr":2019,"Ġcannot":2020,"Ġfac":2021,"Ġcertain":2022,"ĠRahmen":2023,"nisse":2024,"llt":2025,"zus":2026,"curity":2027,"come":2028,"mar":2029,"ren":2030,"Ġdata":2031,"Ġgeht":2032,"Ġgeb":2033,"tend":2034,"other":2035,"Ġprev":2036,"Ã¶l":2037,"aterial":2038,"Ġschon":2039,"Ġeinfach":2040,"Ġmir":2041,"ĠMaÃŁnahmen":2042,"lease":2043,"olution":2044,"ĠLage":2045,"okrat":2046,"Ġfollow":2047,"Ġredu":2048,"Ġfra":2049,"Ġbro":2050,"ately":2051,"Ġcase":2052,"chie":2053,"Ġbin":2054,"operation":2055,"ĠTra":2056,"Ġindivid":2057,"20":2058,"los":2059,"iving":2060,"Ġneg":2061,"co":2062,"Ġint":2063,"Ġoffers":2064,"ĠZiel":2065,"Ġeinige":2066,"olid":2067,"ars":2068,"ĠdafÃ¼r":2069,"klÃ¤r":2070,"Ġregard":2071,"Ġput":2072,"ĠVerein":2073,"Ġeas":2074,"tain":2075,"red":2076,"orn":2077,"EN":2078,"abei":2079,"Ġquestion":2080,"Ġimpro":2081,"ĠInformationen":2082,"ĠRechts":2083,"raph":2084,"affen":2085,"Ġseit":2086,"ĠMed":2087,"Ġvoll":2088,"Ġ&":2089,"ential":2090,"Ã¤tz":2091,"ĠGemein":2092,"inal":2093,"That":2094,"ccess":2095,"Ġart":2096,"Ġter":2097,"iber":2098,"Ġje":2099,"ervice":2100,"ually":2101,"eich":2102,"Ġintegr":2103,"isierung":2104,"ĠHerrn":2105,"ergy":2106,"ilit":2107,"ified":2108,"folg":2109,"ather":2110,"Ġfinancial":2111,"Ġcity":2112,"ĠGen":2113,"imes":2114,"Ġreas":2115,"Ġimple":2116,"Ġchange":2117,"ĠDem":2118,"ahn":2119,"Ġrepr":2120,"Ġposit":2121,"ĠMan":2122,"Ġduring":2123,"grund":2124,"Ġ[[":2125,"allen":2126,"ĠStadt":2127,"ichten":2128,"Ġrev":2129,"ĠAussch":2130,"utes":2131,"Ġcitiz":2132,"Ġihren":2133,"Ã¼h":2134,"anden":2135,"ĠzurÃ¼ck":2136,"Ġactiv":2137,"Ã¼nd":2138,"Ġfar":2139,"lex":2140,"Ġprom":2141,"Ġproblem":2142,"Ġinvest":2143,"Ġday":2144,"ove":2145,"ucht":2146,"ĠInternet":2147,"Ġfol":2148,"Ġsaid":2149,"Ġdeut":2150,"Ġallem":2151,"cing":2152,"inen":2153,"Ġnun":2154,"ichter":2155,"amm":2156,"Ġglobal":2157,"Ġlarge":2158,"uchen":2159,"Ġachie":2160,"Ġmeans":2161,"Ġstat":2162,"Ġissue":2163,"Ã¤m":2164,"ĠPol":2165,"ĠJahre":2166,"Ġproposal":2167,"Ġsaf":2168,"aum":2169,"bsite":2170,"Ġkl":2171,"Ġexample":2172,"iele":2173,"Re":2174,"so":2175,"ily":2176,"tt":2177,"Ġask":2178,"scheid":2179,"lossen":2180,"Ġmeine":2181,"reib":2182,"ĠRuss":2183,"isl":2184,"Ġquality":2185,"nov":2186,"Ġzusammen":2187,"ways":2188,"Ġapplic":2189,"Ġmajor":2190,"Ġcost":2191,"ĠAmer":2192,"besondere":2193,"Ġmember":2194,"Ġ2009":2195,"Ġmodern":2196,"halts":2197,"Ġfamil":2198,"heiten":2199,"Ġgef":2200,"Ġentsp":2201,"Ġmeet":2202,"illion":2203,"punkt":2204,"Ġsince":2205,"udget":2206,"Ġbesch":2207,"Ġpresent":2208,"gress":2209,"Ġsituation":2210,"Ġstrateg":2211,"ĠTran":2212,"Ġdebate":2213,"Ġbesonder":2214,"Ġrooms":2215,"iend":2216,"Ġnecess":2217,"unter":2218,"ites":2219,"Ġ0":2220,"ether":2221,"But":2222,"Ġwollen":2223,"ized":2224,"ĠverfÃ¼":2225,"Ġsicher":2226,"Ġunseren":2227,"amer":2228,"aupt":2229,"fÃ¼hrt":2230,"ĠCommissioner":2231,"antwort":2232,"ule":2233,"ash":2234,"pre":2235,"org":2236,"oten":2237,"aat":2238,"Ã¡":2239,"Ġtechnolog":2240,"Ġeinge":2241,"ilities":2242,"leist":2243,"fts":2244,"Ġchild":2245,"tellen":2246,"ktionen":2247,"Ġamend":2248,"Ġcommon":2249,"blems":2250,"ĠwÃ¼rde":2251,"eschÃ¤ft":2252,"Ġeng":2253,"angen":2254,"Ġeach":2255,"haf":2256,"Ġadop":2257,"ĠZimmer":2258,"kunft":2259,"Des":2260,"Pro":2261,"Ġche":2262,"etzen":2263,"Ġincluding":2264,"Ġpass":2265,"licht":2266,"ird":2267,"oren":2268,"ĠKommissar":2269,"ĠPal":2270,"fass":2271,"ĠÃĸ":2272,"Ġgar":2273,"omat":2274,"ode":2275,"Ġcompet":2276,"Ġpower":2277,"ĠCommittee":2278,"ache":2279,"oh":2280,"ĠKin":2281,"immung":2282,"reit":2283,"Ġcitizens":2284,"ĠParlaments":2285,"Ġcolle":2286,"Ġref":2287,"cip":2288,"ĠArbeits":2289,"vention":2290,"ĠEnerg":2291,"ĠGew":2292,"ĠwÃ¤hrend":2293,"Nach":2294,"Ġstehen":2295,"ĠPolitik":2296,"por":2297,"bed":2298,"ĠGesch":2299,"genommen":2300,"Ġetwas":2301,"ieder":2302,"opp":2303,"Ġthree":2304,"aurant":2305,"ablish":2306,"Ġstay":2307,"Ġsagen":2308,"Ġfound":2309,"Ġallow":2310,"ining":2311,"gew":2312,"ipp":2313,"Ġareas":2314,"ĠEng":2315,"Ġcult":2316,"Ġobject":2317,"Ġrespect":2318,"orth":2319,"gangen":2320,"Ġnext":2321,"Ġmeasures":2322,"ains":2323,"ell":2324,"Ġdoch":2325,"ĠVorschlag":2326,"ï¿":2327,"ï¿½":2328,"Ġstud":2329,"Ġsozial":2330,"ĠWir":2331,"ĠBest":2332,"ĠForm":2333,"ĠWor":2334,"Ġgive":2335,"uge":2336,"zw":2337,"Ġorganis":2338,"zept":2339,"Ġfew":2340,"ands":2341,"Ġ/":2342,"ugen":2343,"ordnung":2344,"However":2345,"Ġdemoc":2346,"Ġauthor":2347,"Ġrece":2348,"Ġbr":2349,"Ġensure":2350,"linie":2351,"ĠBild":2352,"Ġ30":2353,"Ġresult":2354,"Ġdiscuss":2355,"Ġkomm":2356,"ling":2357,"asch":2358,"Ġ%":2359,"rache":2360,"ught":2361,"Ġfurther":2362,"Ã¼rlich":2363,"Ġerm":2364,"Ġhistor":2365,"Ġprovide":2366,"Ġenergy":2367,"Ġpres":2368,"Ġthank":2369,"ĠEuro":2370,"schaften":2371,"Ġtun":2372,"Ġwissen":2373,"ĠPh":2374,"iff":2375,"Ġtaken":2376,"Ġinsbesondere":2377,"Ġsuccess":2378,"Ġerst":2379,"Ġbuild":2380,"falls":2381,"Ġfil":2382,"unde":2383,"ĠBo":2384,"ĠUr":2385,"Ġagreement":2386,"Ġmus":2387,"Ġcal":2388,"gleich":2389,"Ġerhalten":2390,"Ġcontrol":2391,"ĠLÃ¤nder":2392,"anken":2393,"stellung":2394,"Ġkom":2395,"Ġaddition":2396,"stÃ¼tzung":2397,"iate":2398,"Ġdra":2399,"wirt":2400,"ser":2401,"schl":2402,"gre":2403,"Ġeinmal":2404,"itor":2405,"agt":2406,"indet":2407,"Ġwaren":2408,"ek":2409,"ĠLÃ¶s":2410,"ziel":2411,"Ġgrow":2412,"Ġemploy":2413,"Our":2414,"ĠÃ¶ffent":2415,"Ġdet":2416,"lungs":2417,"With":2418,"pecial":2419,"Ġpay":2420,"ases":2421,"ĠVerfÃ¼":2422,"ĠauÃŁer":2423,"Ġposition":2424,"Ġestablish":2425,"ĠFall":2426,"ilfe":2427,"cken":2428,"legt":2429,"Ġread":2430,"itÃ¤ten":2431,"19":2432,"tschaft":2433,"Ġabs":2434,"Ġkommen":2435,"chnolog":2436,"gang":2437,"uff":2438,"ditions":2439,"igten":2440,"Ġlaw":2441,"ĠProblem":2442,"Ġvo":2443,"ohn":2444,"Ġbeim":2445,"Ġcome":2446,"ross":2447,"ules":2448,"Ġlink":2449,"ĠDeut":2450,"Ġdu":2451,"Ġopport":2452,"arte":2453,"Ġpop":2454,"jekt":2455,"ĠÃĦnderungs":2456,"Ġinde":2457,"arn":2458,"Ġsk":2459,"ĠKunden":2460,"mm":2461,"Ġersten":2462,"Ġimp":2463,"Ġproblems":2464,"Ġshall":2465,"ĠMarkt":2466,"ements":2467,"aren":2468,"bo":2469,"ums":2470,"Ġverw":2471,"Ġnecessary":2472,"uten":2473,"Ġcompany":2474,"ĠGo":2475,"igkeiten":2476,"Ġdid":2477,"ĠItal":2478,"ĠÐ":2479,"Eine":2480,"rop":2481,"Ġschw":2482,"ĠZusammenarbeit":2483,"arten":2484,"AT":2485,"Ġel":2486,"Ġterr":2487,"ĠGroup":2488,"fre":2489,"utzen":2490,"Ġlassen":2491,"Ġprincip":2492,"politik":2493,"Auf":2494,"unic":2495,"esser":2496,"pend":2497,"ĠAll":2498,"Ġbegr":2499,"ott":2500,"Ġkey":2501,"umen":2502,"ĠUnterstÃ¼tzung":2503,"ĠQual":2504,"Ġdrei":2505,"AN":2506,"Ġgiven":2507,"ises":2508,"lemen":2509,"Ġlegisl":2510,"ĠgroÃŁ":2511,"Ġbudget":2512,"ĠSh":2513,"FÃ¼r":2514,"fung":2515,"ĠNamen":2516,"Ġsecurity":2517,"Ġpract":2518,"ĠÃ¤":2519,"bau":2520,"elf":2521,"ĠGer":2522,"Ġgeben":2523,"Ġinvol":2524,"fang":2525,"med":2526,"Ġem":2527,"Ġ|":2528,"esellschaft":2529,"Ġhealth":2530,"ichts":2531,"Ġwirk":2532,"glichen":2533,"Ġhope":2534,"Ã¶rder":2535,"ĠÂ":2536,"ctive":2537,"To":2538,"IN":2539,"ising":2540,"Ġwhy":2541,"Ġhowever":2542,"lungen":2543,"Ġlead":2544,"Ġentwick":2545,"He":2546,"ĠRes":2547,"Ġsecond":2548,"orgen":2549,"Ġchar":2550,"asse":2551,"ĠZug":2552,"burg":2553,"bewer":2554,"joy":2555,"Ġverl":2556,"ĠSchw":2557,"iety":2558,"iter":2559,"ĠProble":2560,"ively":2561,"isation":2562,"ĠMus":2563,"Ġwhile":2564,"ĠUmwelt":2565,"wards":2566,"Ġ25":2567,"fte":2568,"ared":2569,"Ġcooperation":2570,"urz":2571,"Ġbesteht":2572,"Ġret":2573,"gether":2574,"ĠBl":2575,"nell":2576,"ĠSpiel":2577,"Ġwirtschaft":2578,"ave":2579,"Ġbl":2580,"ES":2581,"ĠRecht":2582,"ĠMill":2583,"spro":2584,"Ġir":2585,"fÃ¼hrung":2586,"ĠStra":2587,"ĠChina":2588,"Ġlocated":2589,"Sch":2590,"von":2591,"Ġander":2592,"Ġwish":2593,"Ġstart":2594,"Ġgra":2595,"arch":2596,"Ġlife":2597,"Ġprotection":2598,"ĠRo":2599,"Ġimplement":2600,"schied":2601,"Ġtradition":2602,"ĠDienst":2603,"ury":2604,"Ġrefer":2605,"Ġalways":2606,"altung":2607,"ĠLÃ¤ndern":2608,"Ġ14":2609,"ĠfÃ¼hren":2610,"Ġneeds":2611,"Ġcomplete":2612,"wendung":2613,"En":2614,"text":2615,"Ġsteht":2616,"Ġwrit":2617,"Ġsehen":2618,"Ġseinen":2619,"erb":2620,"ĠX":2621,"zieh":2622,"ried":2623,"earch":2624,"Ġvote":2625,"Ġinform":2626,"ĠMein":2627,"ald":2628,"kon":2629,"lect":2630,"ĠGeschÃ¤":2631,"ique":2632,"ogen":2633,"ĠTag":2634,"Ġstatt":2635,"Ġcomb":2636,"Ġbeh":2637,"hÃ¤ng":2638,"ppe":2639,"Ġsens":2640,"ĠDeb":2641,"Ġ11":2642,"Ã¶t":2643,"Ġdiff":2644,"Ġakt":2645,"cell":2646,"Wie":2647,"tion":2648,"ĠwÃ¤re":2649,"Ġbetter":2650,"kre":2651,"ĠIch":2652,"Ã¤tze":2653,"stellen":2654,"ĠSystem":2655,"ca":2656,"ĠFragen":2657,"by":2658,"Ġmult":2659,"ivil":2660,"dress":2661,"ĠVol":2662,"ĠUnited":2663,"ettbewer":2664,"ichterst":2665,"Ġdabei":2666,"Ġtre":2667,"zess":2668,"Ġ16":2669,"Ã¤d":2670,"Ġaction":2671,"ĠBeit":2672,"alle":2673,"schein":2674,"Ġinterest":2675,"gaben":2676,"ches":2677,"At":2678,"ĠHouse":2679,"Ġaccount":2680,"Se":2681,"ĠKollegen":2682,"ialog":2683,"Ġglaub":2684,"ĠAt":2685,"iation":2686,"ĠgehÃ¶r":2687,"zÃ¼":2688,"Ġnet":2689,"ĠTr":2690,"Ġmen":2691,"ĠhÃ¶":2692,"ĠRest":2693,"Ġnor":2694,"ĠLebens":2695,"Ġlegal":2696,"bereich":2697,"Ã¤mp":2698,"Ġfiel":2699,"Ġusing":2700,"Ġletzten":2701,"uft":2702,"iste":2703,"cher":2704,"Ġfav":2705,"rechte":2706,"Ġworden":2707,"sequ":2708,"Ġcho":2709,"ĠRegierung":2710,"ĠmuÃŁ":2711,"less":2712,"enten":2713,"ikan":2714,"ĠRed":2715,"Ġdefin":2716,"iod":2717,"ierungs":2718,"ĠPort":2719,"ĠDes":2720,"obil":2721,"rÃ¤n":2722,"Ġble":2723,"Ġmov":2724,"ĠSw":2725,"ĠEnergie":2726,"undheit":2727,"schrif":2728,"Ġconsum":2729,"gehen":2730,"Ġsing":2731,"of":2732,"ĠAd":2733,"clus":2734,"ingungen":2735,"Ġreach":2736,"ĠBedeut":2737,"ĠCommunity":2738,"Ġ2010":2739,"Ġ2008":2740,"Ġ17":2741,"Ġbased":2742,"Ġaround":2743,"ĠKr":2744,"Ġconne":2745,"Ġtransport":2746,"Ã¶lk":2747,"ĠgroÃŁen":2748,"Fra":2749,"iges":2750,"gabe":2751,"abil":2752,"Ġderen":2753,"ĠVerfÃ¼gung":2754,"gestellt":2755,"ĠgroÃŁe":2756,"ĠSpe":2757,"Ġwelche":2758,"markt":2759,"Ġterms":2760,"Ġworking":2761,"genden":2762,"Ġcurrent":2763,"30":2764,"ify":2765,"Ġadd":2766,"Ġ50":2767,"Ġmet":2768,"ĠBedeutung":2769,"ĠEntscheid":2770,"ĠUSA":2771,"ervor":2772,"Ġinner":2773,"ged":2774,"asser":2775,"Ġstru":2776,"ĠSeite":2777,"Ġproduction":2778,"Ġshort":2779,"Ġbecome":2780,"lev":2781,"blick":2782,"ĠKom":2783,"Ġwhether":2784,"racht":2785,"uments":2786,"ĠQu":2787,"pporte":2788,"Ġless":2789,"offe":2790,"Ġparticularly":2791,"ĠErgeb":2792,"Ġnon":2793,"Ġcrit":2794,"ĠBel":2795,"Ġcentre":2796,"hof":2797,"Ġlim":2798,"Ġindividual":2799,"Ġextre":2800,"ĠDas":2801,"eder":2802,"Ġtogether":2803,"Ġdef":2804,"Ġdifficult":2805,"Ġbel":2806,"Ġho":2807,"ĠRegion":2808,"Ġvisit":2809,"Ġanother":2810,"load":2811,"ĠRom":2812,"Ġnear":2813,"Ã¼nst":2814,"ferenz":2815,"Ġorig":2816,"Ġstate":2817,"uter":2818,"Ġdist":2819,"Ġresearch":2820,"Ġtrade":2821,"druck":2822,"Ġwater":2823,"Ġzahl":2824,"osition":2825,"Ġclos":2826,"igent":2827,"Ġrep":2828,"Ġhim":2829,"ĠSchutz":2830,"ustrie":2831,"anies":2832,"Ġcare":2833,"Ġear":2834,"immen":2835,"kauf":2836,"Ġchildren":2837,"Ġbene":2838,"ĠFamil":2839,"pecially":2840,"ĠSk":2841,"Ġbeach":2842,"room":2843,"Ġsl":2844,"Ġnotwend":2845,"bene":2846,"Ġcontrib":2847,"ĠCl":2848,"Ġwhole":2849,"astr":2850,"Ġexist":2851,"tellung":2852,"Ð¾":2853,"Ġissues":2854,"ĠVertrag":2855,"Ġtour":2856,"ots":2857,"Ġjeder":2858,"ners":2859,"Ġbieten":2860,"ty":2861,"Ġhervor":2862,"Ġlocal":2863,"akes":2864,"ĠRegel":2865,"50":2866,"trÃ¤ge":2867,"iar":2868,"Ġconditions":2869,"Ġdavon":2870,"entrum":2871,"arante":2872,"ON":2873,"ckt":2874,"leit":2875,"ĠThema":2876,"Ġspecific":2877,"Ġricht":2878,"Ġ100":2879,"Ġreason":2880,"ames":2881,"ĠdarÃ¼ber":2882,"Ġfriend":2883,"atte":2884,"Ġentfern":2885,"Ã¼t":2886,"iew":2887,"Ġerforder":2888,"ĠLa":2889,"Ġenjoy":2890,"ĠBesch":2891,"Ġkm":2892,"bt":2893,"ultur":2894,"Ġcall":2895,"orts":2896,"hang":2897,"Ġeben":2898,"ording":2899,"vest":2900,"Ġsubject":2901,"Ġaff":2902,"Ġshow":2903,"Ġstellen":2904,"Ġbew":2905,"ĠgegenÃ¼ber":2906,"ĠWirtschafts":2907,"hÃ¶":2908,"Ġbook":2909,"rieden":2910,"Ġann":2911,"adies":2912,"kungen":2913,"xim":2914,"Bei":2915,"Ġaddress":2916,"Ġdaher":2917,"ody":2918,"Ġsystems":2919,"Ġalles":2920,"Ġrole":2921,"ĠKinder":2922,"ika":2923,"Ġ2007":2924,"ĠUN":2925,"ton":2926,"Ġtax":2927,"Ġvarious":2928,"ikel":2929,"ours":2930,"ennt":2931,"Ġschnell":2932,"ĠWeise":2933,"What":2934,"ufen":2935,"ategor":2936,"Ġbrauch":2937,"Ġrapporte":2938,"ength":2939,"Ġeigenen":2940,"row":2941,"Ġrun":2942,"ĠProbleme":2943,"When":2944,"Ġexperience":2945,"fÃ¤h":2946,"Ġwomen":2947,"ĠMal":2948,"ĠService":2949,"Ġgesam":2950,"ails":2951,"Ġ24":2952,"ĠTur":2953,"wirtschaft":2954,"gemein":2955,"Ġpage":2956,"Ġorgan":2957,"Ġcompanies":2958,"Und":2959,"ĠBeispiel":2960,"Ġsowohl":2961,"Ġindustry":2962,"Ġstep":2963,"isches":2964,"ĠBerichterst":2965,"Ġsector":2966,"Ġold":2967,"isions":2968,"sk":2969,"Ã³":2970,"Ġur":2971,"Ġpolitischen":2972,"ÃŃ":2973,"Ġbasis":2974,"schutz":2975,"ĠGÃ¤":2976,"Ġguarante":2977,"ĠHaushalts":2978,"Ġaim":2979,"ĠnÃ¤ch":2980,"Ġbefindet":2981,"Ġweitere":2982,"ĠInternational":2983,"sen":2984,"roll":2985,"aster":2986,"Ġbenef":2987,"Ne":2988,"rodu":2989,"esehen":2990,"ĠWahl":2991,"ĠWeg":2992,"ĠMrs":2993,"ĠkÃ¶nnte":2994,"They":2995,"Ġocc":2996,"Ġpat":2997,"ĠFrauen":2998,"oney":2999,"Ġdort":3000,"itiative":3001,"Ġerreichen":3002,"neten":3003,"thing":3004,"Ġbeaut":3005,"Ġcomfort":3006,"Ġprofession":3007,"Ġpack":3008,"Ġhatte":3009,"Ġmeiner":3010,"Ġreally":3011,"ĠIhrer":3012,"irm":3013,"ĠEUR":3014,"ĠAir":3015,"Aus":3016,"chan":3017,"Ġdi":3018,"Ġdeal":3019,"Ġmatter":3020,"Ġwirklich":3021,"ĠnatÃ¼rlich":3022,"ĠBus":3023,"AR":3024,"Ġcommit":3025,"ĠSan":3026,"geord":3027,"lock":3028,"ino":3029,"Ġsever":3030,"ai":3031,"reaty":3032,"ĠGu":3033,"ĠGerman":3034,"Ġarbeit":3035,"Was":3036,"Ġcol":3037,"Ġtyp":3038,"Ġthird":3039,"Ġbesonders":3040,"Ġinnov":3041,"ritte":3042,"inter":3043,"ably":3044,"Ġprior":3045,"ĠZahl":3046,"gende":3047,"Ġbar":3048,"ĠFahr":3049,"ĠFol":3050,"Ġespecially":3051,"bild":3052,"Ġmonth":3053,"Ġbreak":3054,"ĠBen":3055,"ĠZukunft":3056,"ived":3057,"ĠAusschuss":3058,"ober":3059,"Ġihnen":3060,"Ġmembers":3061,"Ġgovernment":3062,"ances":3063,"Ġperiod":3064,"Ġdone":3065,"amt":3066,"Ġstaff":3067,"Ġclose":3068,"Ġgent":3069,"Ġverschiedenen":3070,"Ġdoc":3071,"ĠStaaten":3072,"ĠunterstÃ¼tzen":3073,"ĠLin":3074,"ĠGeschÃ¤fts":3075,"cellent":3076,"Ġproced":3077,"ean":3078,"til":3079,"ĠStud":3080,"ifiz":3081,"ization":3082,"reg":3083,"ĠEnde":3084,"ĠKl":3085,"Ġmot":3086,"ĠDer":3087,"uktur":3088,"Ġshe":3089,"ety":3090,"finden":3091,"Ġentfernt":3092,"Ġfood":3093,"Ã¼nft":3094,"ograph":3095,"dings":3096,"ides":3097,"Ġhoch":3098,"zuf":3099,".(":3100,"ĠFun":3101,"treten":3102,"Ġinnerhalb":3103,"ival":3104,"Ġ13":3105,"Ġtop":3106,"ething":3107,"ĠMark":3108,"werk":3109,"IT":3110,"ican":3111,"spl":3112,"ĠHaupt":3113,"ĠForsch":3114,"Ġnegot":3115,"Ġpersonal":3116,"Ġcreate":3117,"Ġfeat":3118,"ĠSeiten":3119,"Ġvielen":3120,"Ġteil":3121,"ĠProdukt":3122,"app":3123,"Ġturn":3124,"Ġprivate":3125,"ĠFort":3126,"kung":3127,"These":3128,"neh":3129,"Ġlocation":3130,"raum":3131,"ĠSituation":3132,"Ġsite":3133,"Ġperform":3134,"Ġinstit":3135,"ĠRolle":3136,"Ġrepresent":3137,"asing":3138,"Ġple":3139,"duc":3140,"Ġapproach":3141,"icient":3142,"\",":3143,"Ġpress":3144,"Ġsum":3145,"ences":3146,"ichtet":3147,"Ġgener":3148,"Ġbetr":3149,"Ġenter":3150,"Ġzwar":3151,"Ġprop":3152,"erien":3153,"scheiden":3154,"ec":3155,"Ġsoc":3156,"indung":3157,"Ġreform":3158,"\".":3159,"weisen":3160,"Ġevent":3161,"oment":3162,"ension":3163,"Ġwelt":3164,"Ġinternationalen":3165,"uc":3166,"fast":3167,"Ġamong":3168,"ĠDeutsch":3169,"ĠProgramm":3170,"Ġjob":3171,"Ġsingle":3172,"Ġpoin":3173,"ĠWettbewer":3174,"imate":3175,"Ġitself":3176,"Ġdecision":3177,"zip":3178,"ordin":3179,"Ġlo":3180,"Ã¼d":3181,"Ġsomething":3182,"ults":3183,"iol":3184,"wh":3185,"Ġstar":3186,"Ġbestimm":3187,"Ġlangu":3188,"11":3189,"Ġseveral":3190,"ĠmÃ¶chten":3191,"Ã¼hr":3192,"olf":3193,"lands":3194,"Ġstruct":3195,"oor":3196,"ktor":3197,"ativen":3198,"Ġdoub":3199,"Ġgeneral":3200,"ift":3201,"ĠPark":3202,"Ġresour":3203,"eign":3204,"Ġlist":3205,"Ġfavour":3206,"uth":3207,"Ġmaterial":3208,"uellen":3209,"Ġinstall":3210,"ĠFest":3211,"ittle":3212,"ministr":3213,"ians":3214,"Um":3215,"onds":3216,"isis":3217,"ĠRichtlinie":3218,"tember":3219,"Ġtown":3220,"Ġaufge":3221,"atch":3222,"Ġdirekt":3223,"Ã¤nde":3224,"Ġmaking":3225,"'t":3226,"Ġhinaus":3227,"Ġcontinue":3228,"ĠdÃ¼r":3229,"Ġprogramme":3230,"IS":3231,"mos":3232,"rael":3233,"mework":3234,"And":3235,"Ġresolution":3236,"ĠWoch":3237,"ĠVerbrauch":3238,"wÃ¤r":3239,"ĠDisk":3240,"Ġleast":3241,"Ġenc":3242,"ĠIhren":3243,"ification":3244,"ĠTerr":3245,"ĠGru":3246,"ane":3247,"ĠAfr":3248,"Ġautomat":3249,"Ġaccept":3250,"Ġgentlemen":3251,"Ġfollowing":3252,"yl":3253,"Ġintrodu":3254,"cel":3255,"Ver":3256,"sprache":3257,"Ġmillion":3258,"go":3259,"iations":3260,"wÃ¤":3261,"ĠNutz":3262,"Auch":3263,"Ġprogress":3264,"Als":3265,"ĠEl":3266,"Ġserious":3267,"Ġaway":3268,"ĠSoftware":3269,"Ġpeace":3270,"ĠStrateg":3271,"Da":3272,"Ġrelations":3273,"ĠTour":3274,"Ġgoing":3275,"ĠLie":3276,"Ġexcellent":3277,"Ġkind":3278,"Ġoften":3279,"Ġlet":3280,"ĠKÃ¼":3281,"Aber":3282,"nehmer":3283,"Ġopin":3284,"ĠComp":3285,"Ġgl":3286,"Ġhome":3287,"Ġtext":3288,"hens":3289,"bei":3290,"Ġmanagement":3291,"atives":3292,"ifen":3293,"rim":3294,"Ġ:":3295,"CH":3296,"miss":3297,"Ġsup":3298,"ĠGermany":3299,"Ġerste":3300,"Ġname":3301,"Ġunderstand":3302,"Ġfamily":3303,"Ġkonn":3304,"Ġmar":3305,"Ġparticip":3306,"ĠAbst":3307,"Ġtro":3308,"Ġoffen":3309,"Ġrules":3310,"Ġdirective":3311,"iere":3312,"auer":3313,"ĠNot":3314,"let":3315,"ĠeuropÃ¤ische":3316,"Ġans":3317,"ĠWer":3318,"aps":3319,"gricult":3320,"fehl":3321,"Ġcrisis":3322,"strument":3323,"iken":3324,"Ġapart":3325,"Ðµ":3326,"ĠGegen":3327,"orm":3328,"Ġrapporteur":3329,"ĠRÃ¼ck":3330,"antrag":3331,"Ġcontact":3332,"unds":3333,"oto":3334,"Ġregul":3335,"Ġanal":3336,"produ":3337,"ĠEs":3338,"ĠHotels":3339,"Ġ2000":3340,"icle":3341,"Ġsett":3342,"ierungen":3343,"ĠUhr":3344,"ĠChr":3345,"ksam":3346,"though":3347,"ype":3348,"12":3349,"ĠMeinung":3350,"fect":3351,"icial":3352,"weg":3353,"Ġmach":3354,"Ġfeel":3355,"Ġmoney":3356,"Ġforward":3357,"Hier":3358,"Ġtowards":3359,"Ġsoftware":3360,"Ġexpress":3361,"Ġonce":3362,"Ġstark":3363,"leistungen":3364,"Ġinc":3365,"the":3366,"ĠNew":3367,"Ġprice":3368,"Ġeinzel":3369,"Ġrange":3370,"Ġklar":3371,"thers":3372,"Ġline":3373,"ully":3374,"achst":3375,"Ġwelcome":3376,"Ġextrem":3377,"pekt":3378,"ony":3379,"Ġonline":3380,"Ġfast":3381,"Ġetc":3382,"ĠGesundheit":3383,"etzung":3384,"Ġthings":3385,"stÃ¼ck":3386,"Ġabsol":3387,"Ġlittle":3388,"ĠWind":3389,"ĠKre":3390,"prÃ¼":3391,"ĠBerlin":3392,"Ġrecog":3393,"Ġdest":3394,"zogen":3395,"airs":3396,"teilung":3397,"Ġbal":3398,"Ġinstitutions":3399,"ĠZusammenhang":3400,"voll":3401,"Ð°":3402,"ference":3403,"ĠhÃ¤t":3404,"weis":3405,"Ġmention":3406,"Ġcommunic":3407,"adam":3408,"Ġident":3409,"uÃŁen":3410,"Ġpost":3411,"Ġzus":3412,"itÃ¤ts":3413,"Ġant":3414,"ifft":3415,"Ġuntil":3416,"DE":3417,"esten":3418,"ĠOn":3419,"ĠAbgeord":3420,"Ġsitu":3421,"wand":3422,"istic":3423,"Ġbeiden":3424,"Ġmilit":3425,"Ġunserem":3426,"AS":3427,"haus":3428,"lik":3429,"ĠFisch":3430,"Ab":3431,"ij":3432,"outh":3433,"Ġkommt":3434,"enzen":3435,"Ġstre":3436,"aden":3437,"ĠRep":3438,"ĠWorld":3439,"Ġdays":3440,"ĠUnivers":3441,"asst":3442,"ĠTransp":3443,"Ġwalk":3444,"ww":3445,"Ġoptim":3446,"yr":3447,"Ġcustomers":3448,"ennen":3449,"ĠDire":3450,"gÃ¤n":3451,"ured":3452,"bet":3453,"Ġfinanz":3454,"atten":3455,"vent":3456,"iesen":3457,"Ġaid":3458,"Ġstrong":3459,"ume":3460,"ĠTreaty":3461,"OR":3462,"zimmer":3463,"Ġess":3464,"Ġentsprechen":3465,"Ġplan":3466,"ison":3467,"ĠPartner":3468,"anges":3469,"lÃ¤ge":3470,"ĠGÃ¤ste":3471,"Ġincrease":3472,"lean":3473,"tract":3474,"ĠHilfe":3475,"ĠMet":3476,"ieten":3477,"idence":3478,"ĠEmp":3479,"ĠFrank":3480,"Ġagree":3481,"ĠEntschlieÃŁ":3482,"ommend":3483,"Ġbestehen":3484,"Ġopportunity":3485,"leicht":3486,"Ġ198":3487,"Ã¤chst":3488,"ĠPersonen":3489,"fassung":3490,"ĠJan":3491,"Ġweltweit":3492,"ĠKomm":3493,"Ġrather":3494,"na":3495,"eu":3496,"Ġkeep":3497,"ĠSpan":3498,"idency":3499,"rech":3500,"Ġgrowth":3501,"Ġfunction":3502,"Ġactivities":3503,"ĠZwe":3504,"ĠBerichterstatter":3505,"half":3506,"ĠInvest":3507,"Ġmind":3508,"ocus":3509,"ĠBank":3510,"Ġhard":3511,"liches":3512,"Ġve":3513,"crip":3514,"ĠVerantwort":3515,"Ġquite":3516,"stra":3517,"edom":3518,"ĠGra":3519,"Ã¤uf":3520,"weil":3521,"ĠOp":3522,"Ġstellt":3523,"ielen":3524,"Ġbringen":3525,"mÃ¤ÃŁ":3526,"Ġ2006":3527,"ĠTechnolog":3528,"ĠLÃ¶sung":3529,"Ġbzw":3530,"ĠSchluss":3531,"Ġcheck":3532,"met":3533,"side":3534,"baren":3535,"ĠNov":3536,"Ġseem":3537,"Ġja":3538,"lieÃŁen":3539,"Ġil":3540,"Ġpositive":3541,"ĠUms":3542,"ĠArtikel":3543,"Ġprovided":3544,"ĠPrÃ¤sidentin":3545,"annten":3546,"ĠstÃ¤r":3547,"ĠKlim":3548,"ĠbegrÃ¼":3549,"ender":3550,"ĠKo":3551,"Ġtry":3552,"Ġresources":3553,"Ġelect":3554,"ana":3555,"ply":3556,"Ġbig":3557,"Ġtas":3558,"ĠSu":3559,"ĠLeben":3560,"ĠDies":3561,"Ġsw":3562,"Ġpartners":3563,"ĠfÃ¼hr":3564,"Ã¤ren":3565,"Ġsug":3566,"Ġweniger":3567,"uell":3568,"Ġdaran":3569,"Ġmean":3570,"Ġdev":3571,"Ġtreat":3572,"ĠIt":3573,"Ġindem":3574,"Ġmight":3575,"rolle":3576,"eits":3577,"Ġbehalf":3578,"Ġideal":3579,"forderungen":3580,"ĠDemokrat":3581,"erecht":3582,"ĠFil":3583,"ined":3584,"Ġgilt":3585,"Ġland":3586,"Ġfully":3587,"reiche":3588,"Ġport":3589,"Ġetwa":3590,"ĠNational":3591,"Ġclass":3592,"apan":3593,"ideo":3594,"Ã¼cksicht":3595,"ĠgewÃ¤hr":3596,"Ġqual":3597,"ĠMehr":3598,"ĠOrganis":3599,"ĠKultur":3600,"Ã¤mlich":3601,"hnt":3602,"amb":3603,"Le":3604,"mosph":3605,"Ġjeden":3606,"Ġgesagt":3607,"frage":3608,"Ġinclude":3609,"Ġfour":3610,"abhÃ¤ng":3611,"Â®":3612,"zeitig":3613,"ona":3614,"ĠNatur":3615,"wohl":3616,"ĠnÃ¤mlich":3617,"Ġlab":3618,"ĠMinister":3619,"amental":3620,"Ġsignific":3621,"iful":3622,"ĠCent":3623,"uh":3624,"legenheit":3625,"Ġyet":3626,"Ġumf":3627,"onger":3628,"letz":3629,"stadt":3630,"Ġbitte":3631,"Ã¤hlen":3632,"Ã¼hren":3633,"ĠJul":3634,"Ġgute":3635,"ĠDurch":3636,"ĠSep":3637,"Ġvalue":3638,"ĠpersÃ¶n":3639,"itions":3640,"Ġpark":3641,"einander":3642,"Ġmag":3643,"fert":3644,"komm":3645,"Ġhaving":3646,"Ġladies":3647,"Ġpur":3648,"sh":3649,"Ġtechnology":3650,"ĠIm":3651,"ception":3652,"prochen":3653,"Ġentscheiden":3654,"Ġsogar":3655,"OM":3656,"setzung":3657,"Ġgenau":3658,"ratic":3659,"Ġfield":3660,"telle":3661,"ĠRates":3662,"Ã¤chlich":3663,"bon":3664,"Ġproposals":3665,"ĠSozial":3666,"Ġbor":3667,"hunder":3668,"ĠMembers":3669,"ales":3670,"recht":3671,"ops":3672,"wendet":3673,"Am":3674,"ager":3675,"Ġamendments":3676,"ĠState":3677,"vÃ¶lk":3678,"Ġgerade":3679,"Ġkurz":3680,"Ġalong":3681,"Ġeduc":3682,"self":3683,"Ġu":3684,"ĠSer":3685,"ĠOrt":3686,"ĠCar":3687,"ĠProdukte":3688,"tragen":3689,"illa":3690,"Ġremain":3691,"Ġerfolg":3692,"ĠErfahr":3693,"Ġsolution":3694,"Ġframework":3695,"Ġtimes":3696,"arf":3697,"Ġleft":3698,"roffen":3699,"Ġtem":3700,"Ġnehmen":3701,"ĠEuropas":3702,"Ġbekannt":3703,"armon":3704,"Ġlog":3705,"Ġkosten":3706,"fully":3707,"lei":3708,"iten":3709,"Ġsafety":3710,"ĠGeld":3711,"Ġminutes":3712,"plan":3713,"ativ":3714,"Ġarch":3715,"sere":3716,"ĠChar":3717,"Ġrecommend":3718,"Ġerwar":3719,"verb":3720,"Ġcosts":3721,"racy":3722,"Ġlight":3723,"Ġabove":3724,"Ġspeak":3725,"Ġeconomy":3726,"inge":3727,"ĠProjekt":3728,"Ġeasy":3729,"oph":3730,"stant":3731,"iberal":3732,"Ġihn":3733,"anc":3734,"most":3735,"Ġothers":3736,"Ġadopted":3737,"ĠAustr":3738,"anst":3739,"Ġtaking":3740,"Ġnie":3741,"ĠGrÃ¼n":3742,"ĠKosten":3743,"ingen":3744,"Ġessential":3745,"ĠPunkt":3746,"alten":3747,"lement":3748,"ĠJahres":3749,"ĠSeptember":3750,"Ġpolitische":3751,"ledge":3752,"Ġunterschied":3753,"Ġebenfalls":3754,"Ġweek":3755,"ĠPreis":3756,"Ġmeisten":3757,"Ġstrength":3758,"ethod":3759,"Ġihm":3760,"ĠText":3761,"Ġrecht":3762,"Ġflo":3763,"handlungen":3764,"Ġgemacht":3765,"wahl":3766,"ĠFraktion":3767,"Ġcreat":3768,"Ġpa":3769,"Ġseinem":3770,"ĠAss":3771,"Ġmakes":3772,"ĠTÃ¼r":3773,"ĠÃ¼":3774,"ĠBas":3775,"unst":3776,"za":3777,"AL":3778,"Ġviol":3779,"ĠZugang":3780,"Ġcontent":3781,"ators":3782,"Ġentire":3783,"Ġled":3784,"Ġcharac":3785,"Ġopinion":3786,"Ġdessen":3787,"Ġtool":3788,"Ġbesser":3789,"ĠAnge":3790,"ĠBezug":3791,"Ġverbunden":3792,"Ġbank":3793,"Man":3794,"Ġcalled":3795,"iers":3796,"Ġgehen":3797,"Ġverst":3798,"ports":3799,"Ġdarf":3800,"ysteme":3801,"ĠSc":3802,"Ġflex":3803,"Ġbath":3804,"ĠSta":3805,"Ġagricult":3806,"Ġreturn":3807,"Ġanges":3808,"achten":3809,"iben":3810,"bare":3811,"Ġconstru":3812,"atis":3813,"Ġnever":3814,"nete":3815,"Ġlegislation":3816,"Ġwebsite":3817,"reen":3818,"ĠunterstÃ¼tzt":3819,"Ġfocus":3820,"Ġwesent":3821,"aurants":3822,"ĠWirtschaft":3823,"ĠGar":3824,"reicht":3825,"tels":3826,"Ġapplication":3827,"ĠAnd":3828,"word":3829,"Ġterm":3830,"igital":3831,"Ð¸":3832,"iled":3833,"gebung":3834,"Ġak":3835,"Ġresults":3836,"igr":3837,"ested":3838,"Ġwahr":3839,"Ġ21":3840,"Dieses":3841,"ĠZust":3842,"ĠRechte":3843,"Ġsure":3844,"Ġbuilding":3845,"Europ":3846,"ĠInstitution":3847,"aged":3848,"Ã¼nf":3849,"Ġpoints":3850,"sweise":3851,"Ġprovides":3852,"Ġdarin":3853,"Alle":3854,"Ġdeliver":3855,"Deshalb":3856,"Ġfreedom":3857,"aussch":3858,"Ġprojects":3859,"vernment":3860,"arian":3861,"liament":3862,"Ġattention":3863,"ĠPe":3864,"ĠKap":3865,"Ġdue":3866,"Ġbeginn":3867,"Ġfair":3868,"Ġpolicies":3869,"Ġprogramm":3870,"benso":3871,"Ġ40":3872,"Ġconcerned":3873,"ric":3874,"erst":3875,"ĠKomp":3876,"uz":3877,"ĠVerkehr":3878,"Ġheart":3879,"Ġpot":3880,"Ġren":3881,"Ġstandard":3882,"Ã¼l":3883,"Ġcover":3884,"ĠWeb":3885,"ĠEntwicklungs":3886,"oting":3887,"irc":3888,"Ġresponsibility":3889,"Ġglaube":3890,"ĠÃ¶ffentlichen":3891,"ĠIsrael":3892,"Ġpast":3893,"Ġrisk":3894,"Ġsimply":3895,"Ġbeautiful":3896,"ufact":3897,"EL":3898,"ĠdÃ¼rfen":3899,"Ġeinigen":3900,"iner":3901,"âĤ":3902,"now":3903,"Ġderzeit":3904,"Ġappropr":3905,"Ġrela":3906,"Ġmass":3907,"âĤ¬":3908,"Ġnichts":3909,"mitted":3910,"Ġquestions":3911,"reiben":3912,"ished":3913,"ĠDeutschland":3914,"Ġperfect":3915,"Ġschaffen":3916,"berg":3917,"Ġgroups":3918,"Ġteam":3919,"Ġimportance":3920,"Ġyoung":3921,"zentr":3922,"ĠGemeinschaft":3923,"Ġtotal":3924,"Ġdom":3925,"Ã¨":3926,"ients":3927,"wÃ¼r":3928,"ĠFrei":3929,"ĠAntw":3930,"ĠMillionen":3931,"ding":3932,"Ġeffective":3933,"hing":3934,"Ġmoder":3935,"Ġbit":3936,"bour":3937,"Ġsollen":3938,"schlieÃŁlich":3939,"Ã¤he":3940,"Ġsociety":3941,"Ġabge":3942,"ustain":3943,"ĠBuch":3944,"ampf":3945,"ĠWebsite":3946,"afen":3947,"ceed":3948,"Dar":3949,"Ġ2005":3950,"Ġcontext":3951,"ĠRei":3952,"Ġihrem":3953,"Ġhead":3954,"EC":3955,"Ġbrauchen":3956,"ada":3957,"ĠQualitÃ¤t":3958,"Ġknown":3959,"Ġadministr":3960,"ĠBeschÃ¤ft":3961,"Ġkeinen":3962,"Ġnationalen":3963,"ĠFlug":3964,"Ġgreater":3965,"Ġholid":3966,"Ġsea":3967,"zustellen":3968,"gesehen":3969,"wÃ¤rt":3970,"Ġenvironmental":3971,"Ġcontinu":3972,"Ġhandelt":3973,"ĠJanu":3974,"Ġstrategy":3975,"spolitik":3976,"tlich":3977,"ĠPat":3978,"arbeiten":3979,"Ġmethod":3980,"ĠAussprache":3981,"unkte":3982,"ĠWasser":3983,"aler":3984,"iqu":3985,"ĠApp":3986,"verkehr":3987,"utzt":3988,"uelle":3989,"ĠMÃ¤r":3990,"Ã¤us":3991,"istan":3992,"ĠzusÃ¤tz":3993,"Ġversion":3994,"Ġverbess":3995,"ĠVerbraucher":3996,"onnen":3997,"ĠSa":3998,"Ġnatural":3999,"Ġstandards":4000,"Hotel":4001,"mat":4002,"ĠKolleg":4003,"ex":4004,"pflicht":4005,"ĠTV":4006,"leben":4007,"emp":4008,"ĠAngeb":4009,"Ġroad":4010,"itive":4011,"Ġprinciple":4012,"ÑĤ":4013,"Ġweiterhin":4014,"rieg":4015,"Ã¤ter":4016,"ziehen":4017,"Ġtable":4018,"unÃ¤chst":4019,"Ġarr":4020,"''":4021,"Ġattra":4022,"ĠHÃ¶":4023,"Ġverste":4024,"unehmen":4025,"Ġna":4026,"Ġrad":4027,"Ġtalk":4028,"ĠJahrhunder":4029,"ĠFir":4030,"Ġmiss":4031,"OS":4032,"Ġwords":4033,"ha":4034,"eutet":4035,"Ġbetrifft":4036,"Ġversch":4037,"hib":4038,"ringen":4039,"ette":4040,"ĠEbene":4041,"Ġsend":4042,"Ġincreasing":4043,"haltung":4044,"Ġchallen":4045,"Ġinstitution":4046,"Ġrequired":4047,"ning":4048,"frastr":4049,"ller":4050,"After":4051,"Ġlea":4052,"acy":4053,"ĠMo":4054,"Ġcentral":4055,"ĠSitz":4056,"Fin":4057,"Ġviews":4058,"unities":4059,"ĠFortsch":4060,"Ġheraus":4061,"ĠPriv":4062,"rank":4063,"bereit":4064,"Ġsignificant":4065,"Ġhouse":4066,"urf":4067,"ĠII":4068,"zeichnet":4069,"ided":4070,"Ġmanufact":4071,"wach":4072,"Ġwenig":4073,"rach":4074,"ĠerklÃ¤r":4075,"ulture":4076,"han":4077,"isiert":4078,"Ġmoment":4079,"staat":4080,"Ġreserv":4081,"useum":4082,"ĠThis":4083,"Ġ2004":4084,"Ġbedeutet":4085,"Ġtraining":4086,"Ġsei":4087,"Ġdeutlich":4088,"Ġclearly":4089,"ĠÃĦnderungsan":4090,"Unsere":4091,"ĠFrÃ¼h":4092,"ĠbenÃ¶t":4093,"stoff":4094,"Ġmacht":4095,"onen":4096,"Ġauthorities":4097,"ĠNo":4098,"Ġdeshalb":4099,"term":4100,"ĠVerw":4101,"Ġmeeting":4102,"Ġsolche":4103,"ari":4104,"ĠMeer":4105,"Ġunver":4106,"Ġquick":4107,"Ġmusic":4108,"ĠAbstimmung":4109,"Ġinfl":4110,"ban":4111,"ĠGroÃŁ":4112,"ĠGl":4113,"Ġbesten":4114,"fil":4115,"Ã¤nger":4116,"60":4117,"cal":4118,"Ġdon":4119,"ĠPra":4120,"ispielsweise":4121,"lÃ¤ss":4122,"vo":4123,"spruch":4124,"icro":4125,"Ġdemand":4126,"Ġrelax":4127,"Ġrecent":4128,"ĠTre":4129,"Ġcla":4130,"Ġuser":4131,"atal":4132,"anze":4133,"Ġkomple":4134,"Ġaufgrund":4135,"ĠLeist":4136,"Ġpub":4137,"genda":4138,"Ġinteress":4139,"Ġnetwork":4140,"schluss":4141,"yle":4142,"Ġcapital":4143,"ritten":4144,"Ġlearn":4145,"Ġbreakfast":4146,"iting":4147,"Ġextra":4148,"Ġachieve":4149,"alitÃ¤t":4150,"ĠBem":4151,"ĠwÃ¼rden":4152,"zÃ¼glich":4153,"mals":4154,"ziehungen":4155,"Ġlar":4156,"ĠSal":4157,"ĠNor":4158,"Ġfa":4159,"Ġaspect":4160,"Ġnight":4161,"aging":4162,"Ġwichtige":4163,"Ġsour":4164,"Ã¤sent":4165,"Ġshare":4166,"erous":4167,"fall":4168,"Ġtechnical":4169,"ĠGesetz":4170,"pril":4171,"ĠGesellschaft":4172,"Ġoft":4173,"Pr":4174,"cent":4175,"heb":4176,"Ġmat":4177,"US":4178,"Ġdistrib":4179,"gesetzt":4180,"AP":4181,"uche":4182,"Ġpages":4183,"Ġaccording":4184,"Ġfundamental":4185,"Ġvia":4186,"Ġsele":4187,"ief":4188,"AD":4189,"ĠChrist":4190,"Ġclean":4191,"Ġnature":4192,"ork":4193,"Ġappear":4194,"Ġinternal":4195,"hÃ¶rden":4196,"ri":4197,"ones":4198,"Ġlonger":4199,"gelegt":4200,"ĠDok":4201,"Ġdirectly":4202,"jen":4203,"heim":4204,"ĠKlima":4205,"platz":4206,"ĠOb":4207,"Ġside":4208,"Ġfacilities":4209,"Ġmonths":4210,"Ġfindet":4211,"Ġthough":4212,"Ġprec":4213,"ĠUmsetzung":4214,"change":4215,"Ġfish":4216,"wohn":4217,"Ġverein":4218,"Ġemployment":4219,"ĠnÃ¤chsten":4220,"Ġproposed":4221,"Ġenough":4222,"Ġobl":4223,"Ġimm":4224,"Ġsolutions":4225,"ĠMenschenrechte":4226,"Ġresponsible":4227,"Ã¶rderung":4228,"ption":4229,"elves":4230,"ĠBevÃ¶lk":4231,"unch":4232,"13":4233,"ĠFar":4234,"ĠSchul":4235,"Ð½":4236,"Ġern":4237,"ĠKunst":4238,"ĠMitarbeit":4239,"ĠgewÃ¤hrle":4240,"ĠWohn":4241,"kÃ¤mp":4242,"Dieser":4243,"Ġcultural":4244,"ĠAnsicht":4245,"Ġhistory":4246,"IC":4247,"Ġvorgesch":4248,"elbst":4249,"Ġerne":4250,"Ġinterests":4251,"ĠIde":4252,"gency":4253,"Ġsubs":4254,"Ġguests":4255,"ĠRichtung":4256,"Ġtest":4257,"Ġrequirements":4258,"ube":4259,"Ġnutzen":4260,"ĠBetrie":4261,"Ġvol":4262,"ĠHerren":4263,"Ġcharacter":4264,"Ġcurrently":4265,"Ar":4266,"Ġlange":4267,"ffe":4268,"Ġbetre":4269,"Ġprevent":4270,"Ġmaintain":4271,"Ge":4272,"ĠProt":4273,"ĠDemokratie":4274,"Ġvier":4275,"Ġcivil":4276,"frist":4277,"ĠDesign":4278,"ood":4279,"umente":4280,"Ġregions":4281,"Ġevents":4282,"lieÃŁlich":4283,"ither":4284,"ĠNovember":4285,"Ġassist":4286,"gent":4287,"ĠNÃ¤he":4288,"Ġterror":4289,"uk":4290,"ĠIndustrie":4291,"ables":4292,"One":4293,"istischen":4294,"Ġmount":4295,"Ġthems":4296,"Ġallerdings":4297,"15":4298,"Ġinvolved":4299,"gru":4300,"Ġthemselves":4301,"drÃ¼ck":4302,"Ġsustain":4303,"ĠJu":4304,"mitt":4305,"verstÃ¤nd":4306,"Ġparties":4307,"ele":4308,"Ġ23":4309,"Ġapply":4310,"Ġilleg":4311,"Ġsy":4312,"Ġanim":4313,"Ġweb":4314,"ellen":4315,"ĠVerantwortung":4316,"stehen":4317,"ĠIra":4318,"Ġrecogn":4319,"Ġbil":4320,"Ġneeded":4321,"wirkungen":4322,"ĠBro":4323,"Ġzie":4324,"lauf":4325,"ĠBÃ¼":4326,"dam":4327,"has":4328,"Ġlive":4329,"Ġcompetition":4330,"esented":4331,"Ġhappen":4332,"ĠBedingungen":4333,"llig":4334,"ĠJapan":4335,"Ġforeign":4336,"Ġhoffe":4337,"val":4338,"ĠInsel":4339,"richtung":4340,"ĠWindows":4341,"Ġvoted":4342,"Ġextremely":4343,"Ġgegeben":4344,"ĠWachst":4345,"Ġgemeinsamen":4346,"Ġforce":4347,"Ġimplementation":4348,"folgt":4349,"teile":4350,"ĠAnwendung":4351,"ĠEntscheidung":4352,"Ġrequest":4353,"ĠStruktur":4354,"ench":4355,"ĠCas":4356,"Ġnotwendig":4357,"mbH":4358,"Ġdemocracy":4359,"Ġstation":4360,"cke":4361,"iellen":4362,"ĠWert":4363,"Ġefforts":4364,"estern":4365,"Ġcentury":4366,"ĠGebiet":4367,"Ġguarantee":4368,"aper":4369,"gu":4370,"Ġbeispielsweise":4371,"Ġupon":4372,"haft":4373,"bank":4374,"rup":4375,"Ġfight":4376,"ta":4377,"ĠCo":4378,"ĠBesuch":4379,"ommod":4380,"Ġcamp":4381,"Ġlanguage":4382,"Ġjeweil":4383,"Ġitem":4384,"Ã¼rz":4385,"ired":4386,"ĠZiele":4387,"ĠBrit":4388,"ĠRaum":4389,"gliche":4390,"Ġkont":4391,"Ġago":4392,"Ch":4393,"ynam":4394,"ĠFehl":4395,"enken":4396,"peten":4397,"Ġdank":4398,"ĠgehÃ¶rt":4399,"Ġbedeut":4400,"Ã¼ssel":4401,"Ġwohl":4402,"ĠApril":4403,"ĠInteresse":4404,"linien":4405,"ĠAG":4406,"Ġchanges":4407,"obile":4408,"Ġkleinen":4409,"Ex":4410,"Ġcaus":4411,"ienen":4412,"ublik":4413,"Ġvielleicht":4414,"ĠVorschlÃ¤ge":4415,"ano":4416,"Ġsozialen":4417,"Ġprep":4418,"inzip":4419,"ĠHa":4420,"ragen":4421,"trie":4422,"ĠKons":4423,"ĠBenutz":4424,"ĠBau":4425,"Ġ)":4426,"Ġdisk":4427,"lied":4428,"ĠGmbH":4429,"Ġcharge":4430,"ĠStat":4431,"Ġerziel":4432,"Ġlow":4433,"Ġexpect":4434,"Ġdemokrat":4435,"key":4436,"Ġcirc":4437,"Ġenthalten":4438,"Ġverwendet":4439,"Ġsepar":4440,"Ġdeveloped":4441,"atory":4442,"ĠGrundlage":4443,"Ġcontain":4444,"Ġwind":4445,"Ġplease":4446,"vert":4447,"ĠDruck":4448,"isher":4449,"ĠPf":4450,"igur":4451,"Ġsprechen":4452,"ĠParte":4453,"ĠermÃ¶glich":4454,"grif":4455,"ĠTages":4456,"ĠIhrem":4457,"igungs":4458,"Ġbevor":4459,"bel":4460,"Ġcorre":4461,"Ġfarm":4462,"Ġzust":4463,"Ġregulation":4464,"-,":4465,"amous":4466,"schn":4467,"ĠKar":4468,"jekte":4469,"Ġneu":4470,"Ġprotect":4471,"ims":4472,"sichtlich":4473,"Ġsoon":4474,"deut":4475,"onstr":4476,"Ġlot":4477,"wÃ¼rd":4478,"ĠVerfahren":4479,"ĠErfolg":4480,"ĠWort":4481,"ĠTats":4482,"ĠCan":4483,"ĠReihe":4484,"Ġerreicht":4485,"ker":4486,"ĠÃ¶":4487,"chs":4488,"Ġcomfortable":4489,"ĠAuÃŁen":4490,"ama":4491,"teilt":4492,"handlung":4493,"Ġ2003":4494,"uct":4495,"Ġcases":4496,"tended":4497,"Ġmess":4498,"TO":4499,"Ġpool":4500,"andid":4501,"ĠEinsatz":4502,"Ġnegotiations":4503,"play":4504,"Ġmaxim":4505,"crib":4506,"nehm":4507,"ffice":4508,"ĠGeschichte":4509,"ĠNord":4510,"Ġwerde":4511,"ense":4512,"ips":4513,"ĠParis":4514,"ĠMusik":4515,"ĠberÃ¼cksicht":4516,"immungen":4517,"Ġsituated":4518,"Ġcomes":4519,"Ġhalten":4520,"Ġ22":4521,"Ġnam":4522,"Ġtarge":4523,"ĠAuss":4524,"Ġeither":4525,"bl":4526,"Ġmarkets":4527,"Ġsafe":4528,"Ġprevious":4529,"ipped":4530,"geln":4531,"ĠMÃ¶glichkeiten":4532,"dle":4533,"ĠerfÃ¼":4534,"Ġ197":4535,"urt":4536,"ĠStre":4537,"Ã¤tzen":4538,"Ġrestaurant":4539,"teilen":4540,"arbeitung":4541,"Ġeinges":4542,"merksam":4543,"Ġregional":4544,"ĠKrit":4545,"ilder":4546,"eiter":4547,"itionen":4548,"prise":4549,"RO":4550,"ĠFrieden":4551,"lling":4552,"Ġdeveloping":4553,"hend":4554,"ini":4555,"ĠDate":4556,"ĠDebatte":4557,"ĠHeraus":4558,"orge":4559,"gern":4560,"inner":4561,"ĠDamen":4562,"ĠNetz":4563,"best":4564,"ump":4565,"ĠCour":4566,"ĠÃ¼bern":4567,"Ġminim":4568,"Ġeverything":4569,"Ġindic":4570,"stall":4571,"ĠTele":4572,"auen":4573,"Ġcreated":4574,"zeigt":4575,"Ġausgest":4576,"ĠJun":4577,"abel":4578,"Ġfinal":4579,"Ġsurround":4580,"onn":4581,"ĠWh":4582,"ĠSoc":4583,"ĠRestaurant":4584,"Ġhos":4585,"date":4586,"ĠBlick":4587,"ĠGleich":4588,"istet":4589,"ĠWar":4590,"Ġarbeiten":4591,"Ġunique":4592,"Ġimprove":4593,"ging":4594,"Vor":4595,"ĠfÃ¼nf":4596,"Ġstates":4597,"Ġamb":4598,"attet":4599,"Frau":4600,"erseits":4601,"ĠHinblick":4602,"ĠhÃ¶ch":4603,"ĠkÃ¶nnten":4604,"ĠIr":4605,"ĠPresidency":4606,"ĠCont":4607,"Ġlater":4608,"Ġvorgeschlagen":4609,"Ġprices":4610,"Ġverschiedene":4611,"mark":4612,"rieben":4613,"schriften":4614,"ĠErweit":4615,"Ġmer":4616,"Te":4617,"Ġeducation":4618,"anten":4619,"Ġschwier":4620,"Ġaccommod":4621,"Ġpict":4622,"iable":4623,"unik":4624,"ĠAug":4625,"ĠArbeitspl":4626,"mut":4627,"Ġimmed":4628,"Ġtrue":4629,"IP":4630,"int":4631,"Ġkonkre":4632,"Ġadditional":4633,"ĠâĤ¬":4634,"ĠSchwe":4635,"ichen":4636,"Ġaltern":4637,"ĠEur":4638,"Ġalmost":4639,"ĠSol":4640,"Ġexpl":4641,"Ġ60":4642,"haps":4643,"Ob":4644,"Ġincluded":4645,"ka":4646,"Ġdemocratic":4647,"ulate":4648,"Ġgemeinsame":4649,"Ġmonitor":4650,"eless":4651,"ipment":4652,"Ġliving":4653,"Ġthus":4654,"ĠSteuer":4655,"ĠverfÃ¼gt":4656,"Ġque":4657,"ĠFrance":4658,"chnik":4659,"ĠPer":4660,"Ġcut":4661,"Ġanalys":4662,"Ġbleiben":4663,"Durch":4664,"ĠAktiv":4665,"Ġstor":4666,"igte":4667,"orted":4668,"ĠErklÃ¤r":4669,"Ġfort":4670,"Ġactually":4671,"Ġcontract":4672,"ĠMot":4673,"sprÃ¤sident":4674,"ĠEinz":4675,"ĠermÃ¶glicht":4676,"ĠRussia":4677,"Ġclimate":4678,"ibr":4679,"Ġidea":4680,"ÑĢ":4681,"ĠInstitutionen":4682,"ĠSouth":4683,"ĠMinuten":4684,"Ġseen":4685,"ommer":4686,"pendent":4687,"iÃŁt":4688,"ĠAuswirkungen":4689,"rechts":4690,"Ġdocument":4691,"Ġtravel":4692,"kra":4693,"ĠDiskuss":4694,"ĠFrench":4695,"ester":4696,"Ġwide":4697,"ingt":4698,"wegen":4699,"gegen":4700,"ielle":4701,"ikt":4702,"vin":4703,"lack":4704,"bahn":4705,"ĠWieder":4706,"Ġjoin":4707,"Ġencour":4708,"Ġprogram":4709,"ental":4710,"Ġlack":4711,"Ñģ":4712,"Ġakzept":4713,"orf":4714,"Ġreceive":4715,"Ġhatten":4716,"atsÃ¤chlich":4717,"Ġfile":4718,"laden":4719,"jenigen":4720,"Ġhold":4721,"ires":4722,"ĠvollstÃ¤nd":4723,"mail":4724,"ios":4725,"Ġknowledge":4726,"ĠKraft":4727,"ĠMont":4728,"ilar":4729,"ĠProzess":4730,"ĠâĢĺ":4731,"Ġtype":4732,"ĠAff":4733,"cies":4734,"ĠDr":4735,"ĠRechn":4736,"ĠMay":4737,"barkeit":4738,"Ġzeigt":4739,"ĠStrategie":4740,"Ġappropriate":4741,"Ġdialog":4742,"ĠViel":4743,"rachten":4744,"Ġerforderlich":4745,"Ġfunds":4746,"hinder":4747,"Ġwirtschaftlichen":4748,"Ġvill":4749,"ĠPlatz":4750,"Ġbisher":4751,"Ġschein":4752,"Ġofficial":4753,"ĠfÃ¼hrt":4754,"Ġheld":4755,"des":4756,"usst":4757,"frei":4758,"Ġenl":4759,"ogra":4760,"ĠAusdruck":4761,"ĠDienstleistungen":4762,"Ġprocedure":4763,"Ġeuro":4764,"ĠWissen":4765,"ĠForschung":4766,"ĠLis":4767,"setzen":4768,"ĠSicherheits":4769,"ĠTrans":4770,"Ġallgemein":4771,"Ġhapp":4772,"Ġgesamten":4773,"ternal":4774,"Ġoutside":4775,"ĠLandes":4776,"Ġassoc":4777,"adurch":4778,"ĠMod":4779,"Ã¤hlt":4780,"ĠRegionen":4781,"folgen":4782,"ĠIntegr":4783,"auber":4784,"ĠEC":4785,"ĠAbgeordneten":4786,"este":4787,"Please":4788,"iance":4789,"Ġthing":4790,"ĠerwÃ¤":4791,"ctors":4792,"ĠHoch":4793,"anced":4794,"feld":4795,"Ġangeb":4796,"ĠPlan":4797,"Ġdesigned":4798,"Ġschool":4799,"Ð¾Ð":4800,"Ġworkers":4801,"Ġeinzelnen":4802,"ĠErgebnis":4803,"Ġebenso":4804,"lle":4805,"ams":4806,"Ġdarum":4807,"Ġsuggest":4808,"atisf":4809,"Ġpropert":4810,"Daher":4811,"ĠKir":4812,"ĠZus":4813,"Ġfunktion":4814,"Ġrate":4815,"oper":4816,"ĠSub":4817,"18":4818,"fragen":4819,"ĠWebs":4820,"stead":4821,"Ġmajority":4822,"Ġfeatures":4823,"ĠSport":4824,"Ã¶glichen":4825,"ieÃŁen":4826,"Ġprofessional":4827,"Ġdanken":4828,"Ġfamous":4829,"cure":4830,"iews":4831,"ĠVertre":4832,"Pl":4833,"fs":4834,"Ġrelev":4835,"ĠspÃ¤ter":4836,"Ġentwickelt":4837,"ĠKolleginnen":4838,"clud":4839,"Ġhon":4840,"Von":4841,"ondon":4842,"fel":4843,"cep":4844,"Ġthroughout":4845,"ĠDank":4846,"jÃ¤hr":4847,"ET":4848,"ĠSchritt":4849,"Ġearly":4850,"Ġcommunication":4851,"otos":4852,"ush":4853,"Ġdraw":4854,"Ġdenke":4855,"iens":4856,"Ġfive":4857,"Ġanswer":4858,"Ã¤nden":4859,"va":4860,"Ġcop":4861,"Ġlooking":4862,"Ġangenommen":4863,"igration":4864,"ĠÃĦnderungsantrag":4865,"ĠBinnen":4866,"Ġexclus":4867,"uÃŁerdem":4868,"lÃ¤ndern":4869,"mitteln":4870,"isieren":4871,"ox":4872,"orre":4873,"ĠTatsache":4874,"ĠÃĸff":4875,"oid":4876,"Ġimpact":4877,"Ġcustomer":4878,"ĠFunktion":4879,"indest":4880,"ound":4881,"verfahren":4882,"Ã¤sst":4883,"Ġbetra":4884,"Ġbehand":4885,"ĠFamilien":4886,"Ã¤ndert":4887,"Ġemphas":4888,"Ġspace":4889,"Ġtransl":4890,"ĠHers":4891,"Ġdownload":4892,"Ġtakes":4893,"Ġhours":4894,"Ġdoing":4895,"From":4896,"fÃ¤higkeit":4897,"Ġworks":4898,"ĠPortug":4899,"Ġacross":4900,"ĠKle":4901,"Ġpotential":4902,"kÃ¤mpfung":4903,"imme":4904,"Ġwider":4905,"ĠIran":4906,"Ġstrengthen":4907,"ĠArch":4908,"ĠBereichen":4909,"Ġnormal":4910,"arbeitet":4911,"Ġenable":4912,"Ġjedem":4913,"Ġinternationale":4914,"Ġcertainly":4915,"Ã¼lt":4916,"Ġlinks":4917,"Ġ000":4918,"schlag":4919,"ĠVerhandlungen":4920,"Ġever":4921,"ĠÃĦnderungsantrÃ¤ge":4922,"pression":4923,"Ġunivers":4924,"Ġdate":4925,"Ġconsequ":4926,"Ġparts":4927,"Ġproper":4928,"ĠFrÃ¼hstÃ¼ck":4929,".,":4930,"ĠMitglieder":4931,"Ġ27":4932,"rad":4933,"ĠGemeinschafts":4934,"ĠweiÃŁ":4935,"ĠAmerican":4936,"AC":4937,"Ã¤che":4938,"ĠhÃ¤tte":4939,"Ġsolid":4940,"AM":4941,"Ġkonnte":4942,"Ġgemeinsam":4943,"liegen":4944,"Ġaud":4945,"Zu":4946,"ielt":4947,"kn":4948,"Ġbefinden":4949,"Ġcolleag":4950,"ĠÃ¤uÃŁer":4951,"kr":4952,"ĠRis":4953,"uren":4954,"ĠVereinigten":4955,"zif":4956,"ĠWÃ¤hr":4957,"Ġusers":4958,"Ġguest":4959,"onom":4960,"Ġvorh":4961,"ĠWest":4962,"Ġsetzen":4963,"ĠVersion":4964,"Ġtraditional":4965,"Ã¶sen":4966,"ĠRad":4967,"ara":4968,"Ġinvestment":4969,"ille":4970,"ĠStaats":4971,"Ġgleichzeitig":4972,"Ġtook":4973,"Ġneues":4974,"Ġmechan":4975,"Ã¤llen":4976,"ĠFund":4977,"ĠPosition":4978,"Ġweiteren":4979,"bru":4980,"Ġrecord":4981,"hab":4982,"17":4983,"Ġoriginal":4984,"ko":4985,"ĠAntwort":4986,"Ġdivers":4987,"ĠBeziehungen":4988,"chsel":4989,"bildung":4990,"stre":4991,"ĠerhÃ¶":4992,"Ġumfassen":4993,"Ġca":4994,"Ġexisting":4995,"Ġconcerns":4996,"ĠLuft":4997,"ĠDialog":4998,"Ġeth":4999,"erei":5000,"ĠBevÃ¶lkerung":5001,"Ġamount":5002,"Ġresol":5003,"zer":5004,"Ġcomplex":5005,"ĠHandels":5006,"Ġeigent":5007,"Ã¼gen":5008,"Ġhinter":5009,"cen":5010,"ĠZentrum":5011,"ias":5012,"Sh":5013,"Ġprogrammes":5014,"ĠheiÃŁt":5015,"Ġpublish":5016,"ĠGeneral":5017,"teid":5018,"Ġconnection":5019,"uted":5020,"hung":5021,"oking":5022,"kei":5023,"Ġcross":5024,"Ã¤ss":5025,"ĠNorth":5026,"Ġzuf":5027,"halte":5028,"ava":5029,"griff":5030,"Ġlat":5031,"Ġsearch":5032,"ĠWerk":5033,"alter":5034,"Ġrelig":5035,"ĠProf":5036,"Ġ2002":5037,"ĠAbkommen":5038,"Ġ80":5039,"Ġneben":5040,"Ġmentioned":5041,"sehen":5042,"oms":5043,"Ġconcerning":5044,"lÃ¤nder":5045,"Ġmodel":5046,"lang":5047,"ande":5048,"ĠInteressen":5049,"ĠFÃ¼hr":5050,"fortun":5051,"ball":5052,"Unser":5053,"ĠLondon":5054,"Ġprim":5055,"Ġtele":5056,"Ġalthough":5057,"Ġparliament":5058,"Ġjede":5059,"Ġwriting":5060,"Ġreasons":5061,"Ġhelfen":5062,".\"":5063,"Ġlux":5064,"gl":5065,"Ġabsolute":5066,"Unter":5067,"ĠAugust":5068,"ĠBre":5069,"ĠvÃ¶":5070,"ĠProgramme":5071,"ĠProz":5072,"affung":5073,"Ġaktiv":5074,"Ġdemonstr":5075,"ĠKÃ¶n":5076,"ĠCourt":5077,"ĠKos":5078,"aly":5079,"Ġcard":5080,"richtungen":5081,"ĠBeitrag":5082,"ĠHos":5083,"Ġdecisions":5084,"ole":5085,"Ġleading":5086,"face":5087,"Book":5088,"Ġaware":5089,"Doch":5090,"hlen":5091,"Ġcompletely":5092,"ID":5093,"ĠPak":5094,"ĠVertra":5095,"ĠAnt":5096,"ED":5097,"My":5098,"ayer":5099,"ature":5100,"Ġbuilt":5101,"ipl":5102,"Ġrelated":5103,"Ġnothing":5104,"range":5105,"ĠgegenwÃ¤rt":5106,"ĠTÃ¼rkei":5107,"temp":5108,"Ġjoint":5109,"Ġgame":5110,"Ġgelten":5111,"Ġbeit":5112,"esserung":5113,"ĠHandel":5114,"esh":5115,"Ġextens":5116,"Ġgestellt":5117,"ĠFÃ¶rderung":5118,"aring":5119,"ĠSchlussel":5120,"ĠKontrolle":5121,"ĠVerpflicht":5122,"Ġcommunity":5123,"zÃ¶s":5124,"ĠGovernment":5125,"Ġ2001":5126,"Ġhalf":5127,"Gen":5128,"ĠAufgabe":5129,"Ġempf":5130,"arity":5131,"ĠMil":5132,"Ġrund":5133,"ĠSÃ¼d":5134,"Ġintens":5135,"Ġwichtigen":5136,"iddle":5137,"Ã¼sse":5138,"Ġconflic":5139,"formen":5140,"Ġfriendly":5141,"Ġkleine":5142,"ĠNicht":5143,"Ġmeinen":5144,"ĠFlugh":5145,"tes":5146,"Ġunseres":5147,"Ġbasic":5148,"amera":5149,"Ġenlarge":5150,"Ġassess":5151,"more":5152,"Ġcommittee":5153,"SE":5154,"ĠListe":5155,"Ġprakt":5156,"una":5157,"ĠTerror":5158,"orten":5159,"ĠThemen":5160,"odell":5161,"Ġculture":5162,"Ġpractice":5163,"ological":5164,"Ġfront":5165,"ĠBeg":5166,"Ġholiday":5167,"quis":5168,"Ġpopulation":5169,"uffer":5170,"fÃ¼hren":5171,"ĠStabil":5172,"ĠVerbindung":5173,"Ġmilitary":5174,"Ġagreements":5175,"Ġincludes":5176,"Ġschwer":5177,"14":5178,"ĠWettbewerbs":5179,"ĠFuÃŁ":5180,"Ġdigital":5181,"grat":5182,"lies":5183,"ahren":5184,"Ġinternet":5185,"More":5186,"Ġverd":5187,"Ġspr":5188,"Mail":5189,"ĠErweiterung":5190,"spe":5191,"alien":5192,"ĠPC":5193,"ĠKampf":5194,"....":5195,"itable":5196,"fluss":5197,"Ġconsult":5198,"inden":5199,"termin":5200,"gangenen":5201,"Ġbecom":5202,"wie":5203,"Ġgab":5204,"Ġliegen":5205,"Ġmedia":5206,"olz":5207,"ĠCD":5208,"Ġallows":5209,"Ġoblig":5210,"Ġgestimmt":5211,"ĠDec":5212,"nissen":5213,"ĠEnglish":5214,"Ġspezie":5215,"ĠJust":5216,"Ġerinn":5217,"ĠCor":5218,"statt":5219,"bedingungen":5220,"Ġcommer":5221,"ills":5222,"ying":5223,"Ġjedes":5224,"ĠAusschusses":5225,"lant":5226,"Ġadvant":5227,"Ġobjectives":5228,"zunehmen":5229,"gn":5230,"ĠAmerica":5231,"First":5232,"Seit":5233,"Ġbleibt":5234,"Ġconclus":5235,"Ġbody":5236,"licken":5237,"ending":5238,"zeugen":5239,"Ġchoice":5240,"Con":5241,"Ġerr":5242,"Ġ-,":5243,"Ġbekommen":5244,"By":5245,"agn":5246,"Ġwa":5247,"iterran":5248,"itness":5249,"Ġreceived":5250,"Ġwegen":5251,"ĠTurkey":5252,"Ġjobs":5253,"Ã¤lle":5254,"ĠwÃ¼n":5255,"Ġvalues":5256,"enk":5257,"Ġsimple":5258,"ĠVerordnung":5259,"iated":5260,"annte":5261,"ovo":5262,"rachen":5263,"Ġemer":5264,"ĠMor":5265,"ery":5266,"Ġtransfer":5267,"Ġorigin":5268,"aul":5269,"amit":5270,"De":5271,"ĠEntschlieÃŁung":5272,"rab":5273,"vement":5274,"struments":5275,"ason":5276,"Ġsatisf":5277,"Ġfail":5278,"Ġnahe":5279,"ĠSy":5280,"Ġwarm":5281,"Ġestablished":5282,"ĠOnline":5283,"ĠKonferenz":5284,"Ġ$":5285,"ĠReform":5286,"Ġbess":5287,"Ġpoor":5288,"Ġangem":5289,"ĠVolk":5290,"ĠBarcel":5291,"Ġapplications":5292,"uck":5293,"ih":5294,"Ġplann":5295,"oo":5296,"Ġcomputer":5297,"Ġequipment":5298,"ĠNutzung":5299,"mbol":5300,"ourn":5301,"geschlossen":5302,"Ã¶rdern":5303,"minister":5304,"Ġrichtig":5305,"ĠStrand":5306,"Ġregarding":5307,"Ġperformance":5308,"Ġcapac":5309,"Ġpackage":5310,"Ã³n":5311,"Ġsag":5312,"Ġmove":5313,"ĠBehÃ¶rden":5314,"ĠInform":5315,"Ġcenter":5316,"pite":5317,"ikanischen":5318,"Ġharmon":5319,"Ġlok":5320,"abon":5321,"len":5322,"Ã¶st":5323,"pass":5324,"Ġwunder":5325,"Ġ1999":5326,"ĠEinzel":5327,"Do":5328,"ennung":5329,"Ġgerne":5330,"Ġjud":5331,"ĠLisbon":5332,"Ġwichtigsten":5333,"Ġattack":5334,"Ġdurchge":5335,"vious":5336,"Ġerlaub":5337,"16":5338,"Ġiniti":5339,"Ġverantwort":5340,"pected":5341,"Ġagricultural":5342,"Ġpleas":5343,"atic":5344,"Ġfiles":5345,"Ġpurch":5346,"Ġimage":5347,"sitz":5348,"erve":5349,"ĠAugen":5350,"essour":5351,"uclear":5352,"Ġbroad":5353,"ĠFebru":5354,"ĠunabhÃ¤ng":5355,"Ġsun":5356,"Ġobjective":5357,"ĠLiss":5358,"Ġquickly":5359,"omb":5360,"ĠFern":5361,"osen":5362,"icles":5363,"Ġcredit":5364,"die":5365,"inne":5366,"Ġmehrere":5367,"Ġhinsichtlich":5368,"ĠAufent":5369,"ĠVolks":5370,"ĠKrise":5371,"Ġreports":5372,"Ġcru":5373,"Ġstop":5374,"erc":5375,"Ġface":5376,"Ġherr":5377,"osed":5378,"Ġgoods":5379,"Ġkeyword":5380,"Ġbelow":5381,"Ġsound":5382,"Ġwonder":5383,"ĠForder":5384,"gesamt":5385,"Sp":5386,"ĠNotwend":5387,"imension":5388,"ĠAffairs":5389,"ros":5390,"seit":5391,"Ã¶hn":5392,"Ġganzen":5393,"Ġganze":5394,"gef":5395,"ĠMitarbeiter":5396,"Ġfran":5397,"stellungen":5398,"emb":5399,"Ġeinger":5400,"Ġindustrial":5401,"Ġnachhalt":5402,"ĠIS":5403,"ĠVerbesserung":5404,"wide":5405,"Ġparty":5406,"hem":5407,"undes":5408,"ĠKop":5409,"Ġwobei":5410,"chter":5411,"ften":5412,"Ġself":5413,"Ġsouth":5414,"ĠReise":5415,"ĠGruppe":5416,"ĠermÃ¶glichen":5417,"Ġleaders":5418,"Ġexperien":5419,"ernen":5420,"Ãľber":5421,"brigen":5422,"Ġbenefit":5423,"ps":5424,".-":5425,"ĠUrlaub":5426,"mann":5427,"Ġnote":5428,"Ġtrotz":5429,"Ġtreatment":5430,"Ġsense":5431,"Ġhuge":5432,"ĠLissabon":5433,"Ġpopular":5434,"ĠenthÃ¤lt":5435,"40":5436,"aving":5437,"Ġachieved":5438,"teller":5439,"ĠAuswahl":5440,"AuÃŁerdem":5441,"otion":5442,"ĠschÃ¶n":5443,"ĠWochen":5444,"lam":5445,"Ġcode":5446,"Ġseems":5447,"Ġcontains":5448,"lassen":5449,"entwick":5450,"Ġoption":5451,"itect":5452,"Ġinitiative":5453,"einer":5454,"Ġindeed":5455,"schlieÃŁend":5456,"erweise":5457,"Ġpassen":5458,"dom":5459,"iveness":5460,"sterreich":5461,"Ġgarant":5462,"lla":5463,"opping":5464,"wander":5465,"Ġrail":5466,"Ġbeein":5467,"Ber":5468,"ĠIT":5469,"Ġzeigen":5470,"Ġleben":5471,"Ġrecently":5472,"ĠBinnenmarkt":5473,"utt":5474,"Ã¤um":5475,"ĠVeranst":5476,"eden":5477,"ĠOber":5478,"ĠPass":5479,"Ġgrund":5480,"ĠSchaffung":5481,"mÃ¶glichkeit":5482,"istische":5483,"Ġill":5484,"ĠWachstum":5485,"ĠGelegenheit":5486,"Let":5487,"ĠWill":5488,"Ġlos":5489,"Ġspac":5490,"Ġcorrect":5491,"Ġengine":5492,"Ġcarry":5493,"RE":5494,"mor":5495,"Ġvict":5496,"ĠDokument":5497,"Ġdouble":5498,"Bes":5499,"ĠFrankreich":5500,"put":5501,"Ġcongrat":5502,"VD":5503,"ĠEast":5504,"Ġveh":5505,"Ġbeginning":5506,"âĢĵ":5507,"ĠUkra":5508,"ĠLux":5509,"kennen":5510,"fon":5511,"Ġdialogue":5512,"Since":5513,"ienste":5514,"Ġhighly":5515,"itel":5516,"oppel":5517,"rig":5518,"Ġruh":5519,"stens":5520,"lass":5521,"Ġlevels":5522,"ania":5523,"jahr":5524,"Ġseries":5525,"fonds":5526,"Ġspielen":5527,"Ġoil":5528,"ĠfrÃ¼":5529,"Ġfloor":5530,"ĠGebÃ¤":5531,"haupt":5532,"pid":5533,"Ġpresented":5534,"Ġefficient":5535,"wertungen":5536,"cer":5537,"ĠBad":5538,"such":5539,"ĠSant":5540,"Zum":5541,"Ġheut":5542,"will":5543,"ÃŁt":5544,"ĠPrior":5545,"Ġeveryone":5546,"ĠHome":5547,"Ġnice":5548,"ĠMacht":5549,"ĠCity":5550,"Ġscient":5551,"stances":5552,"Ġequipped":5553,"ĠvÃ¶llig":5554,"Ġgovernments":5555,"Ġsuccessful":5556,"nern":5557,"ĠGree":5558,"Ġgarden":5559,"Madam":5560,"Ġintegration":5561,"icien":5562,"Ã¤tigkeit":5563,"vorschriften":5564,"tliche":5565,"umb":5566,"onse":5567,"ley":5568,"Ġactive":5569,"Ġverbessern":5570,"utter":5571,"Ġcomprom":5572,"Ġclick":5573,"lace":5574,"ĠVerwendung":5575,"ĠNotwendigkeit":5576,"fortunately":5577,"inks":5578,"Ġexchange":5579,"Ġeinzig":5580,"fordert":5581,"PE":5582,"Ġred":5583,"ffiz":5584,"Ġkulture":5585,"Ġincreased":5586,"ĠlÃ¤sst":5587,"OL":5588,"IM":5589,"ĠFach":5590,"Ġ!":5591,"Ġgrundlegen":5592,"ering":5593,"ĠAngebot":5594,"Ġ+":5595,"mehr":5596,"Ġcarried":5597,"organis":5598,"Ġpain":5599,"anzen":5600,"ĠErgebnisse":5601,"Ġfurn":5602,"Finally":5603,"ĠBef":5604,"Ġwhose":5605,"Ġfrei":5606,"isted":5607,"Ġstage":5608,"Ġconsumers":5609,"ape":5610,"aufen":5611,"Ad":5612,"abor":5613,"just":5614,"ĠGewalt":5615,"ĠClub":5616,"Ã¶rper":5617,"Ġprinciples":5618,"Ġtw":5619,"iko":5620,"schw":5621,"Ġage":5622,"lier":5623,"Ã¼tzen":5624,"ĠTage":5625,"Ġblock":5626,"ĠBarcelona":5627,"Ġagreed":5628,"IL":5629,"atell":5630,"Ġhigher":5631,"Ġguten":5632,"Ġsex":5633,"ĠManagement":5634,"ĠgefÃ¤hr":5635,"Ġsoziale":5636,"ĠSup":5637,"ĠAmster":5638,"Ġeigene":5639,"action":5640,"Ġdre":5641,"ĠgroÃŁer":5642,"Ġverwenden":5643,"imming":5644,"hoben":5645,"ĠDis":5646,"ĠWoche":5647,"pose":5648,"ĠverfÃ¼gen":5649,"Ġsent":5650,"ĠAnzahl":5651,"Ġdang":5652,"ĠImm":5653,"25":5654,"ĠKÃ¶nig":5655,"Ġstra":5656,"oz":5657,"Ġreviews":5658,"ĠKern":5659,"ĠZe":5660,"Ġamendment":5661,"ĠApart":5662,"Ġoffice":5663,"Ġbathroom":5664,"Ġcoll":5665,"wise":5666,"Ġdirection":5667,"Ġrat":5668,"Ġprofit":5669,"ends":5670,"ja":5671,"anner":5672,"Ġverg":5673,"Ġasked":5674,"ĠZeitpunkt":5675,"ĠhÃ¤uf":5676,"icherung":5677,"buch":5678,"ĠServ":5679,"unt":5680,"Ġsubsid":5681,"Ġexc":5682,"loyment":5683,"Ġmal":5684,"aschinen":5685,"Ġcommercial":5686,"Ġchoose":5687,"Ġsupply":5688,".)":5689,"Ġseek":5690,"ĠJune":5691,"Ġcommitment":5692,"Ġtraff":5693,"griffen":5694,"Ġsimilar":5695,"Ġmeinem":5696,"ĠverfÃ¼g":5697,"Ġsix":5698,"ĠfÃ¶rdern":5699,"ĠMaterial":5700,"ĠTeam":5701,"apt":5702,"usion":5703,"Ġobtain":5704,"atast":5705,"ĠschÃ¶":5706,"Ġdiskut":5707,"xis":5708,"ico":5709,"Ġanzu":5710,"Ġperhaps":5711,"bie":5712,"ĠkÃ¼nft":5713,"Ġtell":5714,"ĠLiefer":5715,"Ġgesamte":5716,"verstÃ¤ndlich":5717,"ĠzunÃ¤chst":5718,"Ġshows":5719,"iles":5720,"Ġrates":5721,"ĠMy":5722,"ĠChin":5723,"Ġinfluen":5724,"Ġmatters":5725,"ĠProduktion":5726,"scht":5727,"Ġaspects":5728,"Ġavoid":5729,"Ġnews":5730,"Ġobs":5731,"ĠgehÃ¶ren":5732,"iglich":5733,"ĠLÃ¶sungen":5734,"Ġstress":5735,"Ġadded":5736,"Ġshown":5737,"Ġatmosph":5738,"Ġ500":5739,"Ã¤ngt":5740,"Ġgleichen":5741,"Ġnuclear":5742,"klus":5743,"ĠSocial":5744,"ufficient":5745,"Ġbi":5746,"Ġrein":5747,"Ġinnovative":5748,"hes":5749,"standen":5750,"Ġformer":5751,"ĠTat":5752,"Ġpromote":5753,"Ġdynam":5754,"fÃ¤lt":5755,"ba":5756,"Ã¤st":5757,"ĠJugend":5758,"ĠYou":5759,"ĠMiss":5760,"Ġconsidered":5761,"Ġcame":5762,"pflich":5763,"Ġvorhanden":5764,"alu":5765,"ĠtatsÃ¤chlich":5766,"ĠBerg":5767,"Ġpan":5768,"Ġthanks":5769,"ĠBeschÃ¤ftigung":5770,"greifen":5771,"ency":5772,"cks":5773,"Ġ28":5774,"ĠVoraus":5775,"Ġspeed":5776,"Ã¤ndig":5777,"Ġgelegen":5778,"irit":5779,"ĠBud":5780,"Ġsorgen":5781,"fahrt":5782,"ehr":5783,"ĠHigh":5784,"inger":5785,"Ġeffects":5786,"ĠMÃ¤n":5787,"ĠIntegration":5788,"Ġhotels":5789,"akter":5790,"Ġlik":5791,"ĠKrieg":5792,"ĠverÃ¶ffent":5793,"Ġlatest":5794,"essourcen":5795,"ĠCentral":5796,"Ġpossibility":5797,"ĠAnfang":5798,"artige":5799,"lÃ¶s":5800,"Ġopportunities":5801,"ĠMaÃŁ":5802,"Ġeindeut":5803,"Ã¶ffnet":5804,"24":5805,"ĠStandard":5806,"ĠverstÃ¤r":5807,"ĠLeit":5808,"ĠgefÃ¼hrt":5809,"ki":5810,"ously":5811,"ĠHerzen":5812,"Ġmaterials":5813,"ierenden":5814,"ĠTod":5815,"ĠInitiative":5816,"li":5817,"ored":5818,"cript":5819,"owers":5820,"ĠMehrheit":5821,"Ġbehind":5822,"ĠDu":5823,"astic":5824,"ausch":5825,"ĠErfahrung":5826,"Ġprot":5827,"where":5828,"ĠBalk":5829,"ology":5830,"Ġcondition":5831,"Ġdepend":5832,"otes":5833,"zub":5834,"Ã¤cht":5835,"Ġerk":5836,"ilen":5837,"Ro":5838,"Ġentwickeln":5839,"ausschuss":5840,"Ġernst":5841,"ĠStellung":5842,"Ġsofort":5843,"ĠYork":5844,"icy":5845,"Here":5846,"ĠWein":5847,"Denn":5848,"Ġdraft":5849,"okoll":5850,"ĠPan":5851,"Ġphys":5852,"Ġaf":5853,"ĠSee":5854,"Ġresponse":5855,"ĠÃĦnderungen":5856,"arent":5857,"Ġsetting":5858,"Ġreached":5859,"ĠSolid":5860,"Ġproviding":5861,"itting":5862,"Ã¼hm":5863,"Ġcreation":5864,"Ġreview":5865,"bre":5866,"Ġeasily":5867,"ĠgrÃ¶ÃŁten":5868,"ĠPersonal":5869,"ĠRegierungen":5870,"ĠÃ¤uÃŁerst":5871,"Ġaccommodation":5872,"Ġverstehen":5873,"Ġexternal":5874,"ĠNieder":5875,"ĠBeschl":5876,"altungs":5877,"gene":5878,"Ġleicht":5879,"Thank":5880,"Ġatmosphere":5881,"unsch":5882,"ĠEinfÃ¼hrung":5883,"ĠRepublic":5884,"Ġsummer":5885,"99":5886,"Ġprepared":5887,"ĠPost":5888,"ĠProgram":5889,"Ġrelevant":5890,"ĠOrganisation":5891,"Ġdeath":5892,"iction":5893,"zeugt":5894,"Is":5895,"Ġreduce":5896,"riften":5897,"ĠEigen":5898,"ĠRu":5899,"No":5900,"ĠHam":5901,"Ġsize":5902,"Ġhoff":5903,"arily":5904,"rid":5905,"ĠRussland":5906,"Ġcriter":5907,"Ġsomit":5908,"ĠLeg":5909,"Ġexhib":5910,"ĠLes":5911,"Ġdeta":5912,"Ġschle":5913,"Ġ90":5914,"Ġdring":5915,"idel":5916,"Ġsustainable":5917,"kraft":5918,"ĠgewÃ¤hrleisten":5919,"heben":5920,"leb":5921,"Ġlediglich":5922,"ĠJuni":5923,"Ġpressure":5924,"entlich":5925,"Ġdecided":5926,"Ġhohen":5927,"uel":5928,"uffet":5929,"ĠInnov":5930,"ĠLauf":5931,"Ġgeschlossen":5932,"rechend":5933,"ĠÃł":5934,"ĠRel":5935,"ĠGlobal":5936,"ney":5937,"Ġprepar":5938,"ĠDez":5939,"istics":5940,"rec":5941,"Ġverpflich":5942,"quare":5943,"Ġcondu":5944,"Ġcapacity":5945,"Ġelekt":5946,"ĠRatsprÃ¤sident":5947,"ummer":5948,"ĠMac":5949,"ĠUmgebung":5950,"Ġgebracht":5951,"ĠSelbst":5952,"uern":5953,"DarÃ¼ber":5954,"ĠImp":5955,"Ġterra":5956,"Ġcoming":5957,"ĠKonfl":5958,"Ġbeteil":5959,"ĠConvention":5960,"Ġprob":5961,"ounts":5962,"Ġsubmitted":5963,"Ġerfolgreich":5964,"Ġactions":5965,"ibilities":5966,"stellt":5967,"Ġstyle":5968,"ierter":5969,"ĠSpain":5970,"ĠBra":5971,"Ġvideo":5972,"ĠGolf":5973,"Ġwirtschaftliche":5974,"Ġgives":5975,"estens":5976,"Ġplaces":5977,"Ġanderer":5978,"Ã©s":5979,"Ġdetails":5980,"ĠHÃ¶he":5981,"Ġneigh":5982,"Ġconcept":5983,"ĠMadam":5984,"itzen":5985,"ĠAgr":5986,"Ġten":5987,"ĠAmsterdam":5988,"creen":5989,"Ġregular":5990,"Ġremains":5991,"Ġsites":5992,"ĠVereinbar":5993,"volle":5994,"Ġarchitect":5995,"Ġgross":5996,"Ġvern":5997,"ĠMag":5998,"Ġ196":5999,"Ġdep":6000,"Ġ70":6001,"ulgar":6002,"iately":6003,"Ġproperty":6004,"ĠAkt":6005,"Ġemploye":6006,"ĠAktion":6007,"ĠSprache":6008,"ĠHo":6009,"sy":6010,"ĠFamilie":6011,"maÃŁnahmen":6012,"ĠBusiness":6013,"Ġenlargement":6014,"ĠStandpunkt":6015,"kommens":6016,"Ġsuffer":6017,"Ġbestimmte":6018,"Wer":6019,"23":6020,"Ġcause":6021,"Ġclosed":6022,"ĠLat":6023,"industrie":6024,"Ġpriority":6025,"ilos":6026,"rehens":6027,"ĠErachten":6028,"PL":6029,"Ġregistr":6030,"resp":6031,"ĠMai":6032,"roat":6033,"ĠErachtens":6034,"Ġerschein":6035,"Ġmeines":6036,"Damit":6037,"Ġausgestattet":6038,"oder":6039,"ĠInformations":6040,"Ġzweite":6041,"ĠSicht":6042,"ĠKommunik":6043,"ĠKomprom":6044,"iture":6045,"rimin":6046,"Some":6047,"Ġdisplay":6048,"Ġbalance":6049,"zeuge":6050,"ĠItaly":6051,"Ġleave":6052,"ĠBekÃ¤mpfung":6053,"Now":6054,"ĠLog":6055,"ĠWettbewerb":6056,"Ġfal":6057,"Ġisland":6058,"adem":6059,"Ġannoun":6060,"Ġtrain":6061,"eting":6062,"iente":6063,"Ġbestimmten":6064,"rief":6065,"Ġ=":6066,"ĠDinge":6067,"lav":6068,"ĠWahr":6069,"ĠNet":6070,"emin":6071,"ala":6072,"ĠKommissarin":6073,"ĠVertrags":6074,"ĠTransport":6075,"ĠAud":6076,"Therefore":6077,"ĠRot":6078,"Ġzahlreiche":6079,"Ġamer":6080,"ziehung":6081,"Ġfunding":6082,"Ġregister":6083,"Ġpartner":6084,"Ġune":6085,"ĠAmend":6086,"mented":6087,"Ġconsumer":6088,"Ġdescrib":6089,"Ġobwohl":6090,"Ġlimited":6091,"Ã¼ndet":6092,"Ġvorgesehen":6093,"Ġ300":6094,"Further":6095,"ĠFerien":6096,"ĠParty":6097,"ĠAspe":6098,"son":6099,"Ġassistance":6100,"ato":6101,"Ġut":6102,"Ġmovement":6103,"ĠDebian":6104,"ĠWTO":6105,"Ġdecl":6106,"setzungen":6107,"ugs":6108,"ĠFreiheit":6109,"Ġforms":6110,"Ġarg":6111,"Ġneuer":6112,"ĠKosovo":6113,"ĠStad":6114,"terne":6115,"ieg":6116,"atastrop":6117,"Ġdiscover":6118,"Par":6119,"sprÃ¼n":6120,"ĠerhÃ¤lt":6121,"Ġelse":6122,"legenheiten":6123,"iterranean":6124,"ĠPers":6125,"Ġtragen":6126,"velopment":6127,"Ġhighl":6128,"ĠAfrica":6129,"Ġscheint":6130,"system":6131,"selves":6132,"ĠVerkehrs":6133,"Ġtransparen":6134,"Ġsport":6135,"Ġwoll":6136,"schnitt":6137,"uert":6138,"Ġsupported":6139,"ctober":6140,"ĠHinter":6141,"ategories":6142,"Ġground":6143,"Ġ''":6144,"itzer":6145,"ĠÃ¤hn":6146,"ĠMuseum":6147,"ĠArticle":6148,"Ġbrought":6149,"mÃ¤ÃŁig":6150,"Ġsagte":6151,"Ġentde":6152,"ĠÃľberein":6153,"ader":6154,"ĠEing":6155,"ĠMich":6156,"ĠChe":6157,"ĠCol":6158,"ghan":6159,"Ġgreen":6160,"mission":6161,"ĠAktivitÃ¤ten":6162,"wertung":6163,"iciency":6164,"cle":6165,"Ġregulations":6166,"rang":6167,"Ġvorlie":6168,"Ġnorth":6169,"Ġindependent":6170,"'.":6171,"Ġrule":6172,"ĠInstrument":6173,"Ġerweit":6174,"ĠauÃŁerdem":6175,"ĠFortschritte":6176,"Ġallein":6177,"Ġgewor":6178,"Ġ26":6179,"Ġvirt":6180,"Ġfoot":6181,"Ġversuchen":6182,"ĠGed":6183,"stitute":6184,"ournal":6185,"ĠKontakt":6186,"elten":6187,"ĠFed":6188,"gesellschaft":6189,"ĠDar":6190,"ĠFehler":6191,"Ġhor":6192,"ĠDecember":6193,"ĠBritish":6194,"hindern":6195,"Ġeffe":6196,"NG":6197,"Ġlimit":6198,"reibung":6199,"Ġsolchen":6200,"ĠbestÃ¤t":6201,"etimes":6202,"stein":6203,"geber":6204,"Ġcreating":6205,"Ġquiet":6206,"Ġwww":6207,"ĠUkraine":6208,"ĠSpa":6209,"ĠBestimmungen":6210,"Fraktion":6211,"ĠTo":6212,"Ġunterst":6213,"Ġpleased":6214,"Ġeffiz":6215,"Ġdadurch":6216,"ĠMad":6217,"Ġconstruction":6218,"Ġerster":6219,"Ġfig":6220,"Ġord":6221,"Ġpurpose":6222,"Ġx":6223,"ĠAdr":6224,"Ġrestaurants":6225,"Ġvariety":6226,"aw":6227,"ĠGefahr":6228,"ĠgemÃ¤ÃŁ":6229,"uis":6230,"Ġregel":6231,"Ġzweiten":6232,"ehen":6233,"bert":6234,"ĠRev":6235,"ĠItalien":6236,"ĠStelle":6237,"Ġlic":6238,"Ġrepe":6239,"ĠÃĸffent":6240,"Ã¼tzt":6241,"Ġdiscussion":6242,"Ġapartment":6243,"page":6244,"Ġeinzige":6245,"ĠMedien":6246,"Ġfriends":6247,"ĠfranzÃ¶s":6248,"ĠVis":6249,"ĠWohl":6250,"anischen":6251,"Ġmobile":6252,"Ġhohe":6253,"Ġinsgesamt":6254,"Ġfix":6255,"Ġexpla":6256,"Pres":6257,"merksamkeit":6258,"dra":6259,"Ġhy":6260,"Ġmessage":6261,"Ġdeep":6262,"Ġcontr":6263,"ĠWestern":6264,"Ġbecame":6265,"Ġerheb":6266,"ĠInstall":6267,"Ġaufgenommen":6268,"Ġproduced":6269,"ategorien":6270,"Ġlargest":6271,"Ġbillion":6272,"ĠStunden":6273,"ags":6274,"ĠIN":6275,"ĠMarch":6276,"Ġinstead":6277,"Ġsus":6278,"Ġwid":6279,"mÃ¶glichkeiten":6280,"Ġexec":6281,"Ġfisher":6282,"tent":6283,"unternehmen":6284,"âĢ¦":6285,"ĠItalian":6286,"ĠOkt":6287,"**":6288,"ĠFolgen":6289,"endes":6290,"Ġrenov":6291,"isters":6292,"gy":6293,"ero":6294,"ena":6295,"Ġvergangenen":6296,"Ġthous":6297,"igungen":6298,"Ġrelationship":6299,"FR":6300,"ĠAufmerksamkeit":6301,"ĠPunkte":6302,"Ġairport":6303,"isp":6304,"Ġstudy":6305,"Ġstability":6306,"Ġconference":6307,"ĠJahrhundert":6308,"Ġchem":6309,"ĠMicro":6310,"Ġways":6311,"Ġalten":6312,"ĠschlieÃŁlich":6313,"Or":6314,"Ġobvious":6315,"arenz":6316,"Ġhost":6317,"Ġregards":6318,"Ġaccord":6319,"Ġinteresting":6320,"ĠSil":6321,"ĠUnterk":6322,"bus":6323,"Ã¼rf":6324,"Ġeffort":6325,"bewertungen":6326,"Booking":6327,"ĠDezember":6328,"aft":6329,"ĠUnd":6330,"lare":6331,"ritts":6332,"legung":6333,"Ġboard":6334,"Ġmeasure":6335,"besch":6336,"yond":6337,"ĠErklÃ¤rung":6338,"Ġsteps":6339,"kont":6340,"rÃ¤fte":6341,"coming":6342,"ĠPreise":6343,"ĠeinschlieÃŁlich":6344,"Ġstarted":6345,"porate":6346,"Ġallowed":6347,"ĠEntscheidungen":6348,"Ġdetermin":6349,"80":6350,"ĠÃ¤ndern":6351,"Ġfishing":6352,"Ġprocedures":6353,"Ġactivity":6354,"conomic":6355,"Ġrich":6356,"ĠgenieÃŁen":6357,"falt":6358,"ST":6359,"ades":6360,"ĠPrivat":6361,"Ġ1998":6362,"Ġtask":6363,"ĠjÃ¼n":6364,"ĠStaat":6365,"Ġproduce":6366,"Ġmedium":6367,"Ã¤gt":6368,"Ġvertreten":6369,"Ġhous":6370,"ĠBildung":6371,"Ġinstrument":6372,"WÃ¤hrend":6373,"ĠAf":6374,"etary":6375,"Ġdiv":6376,"ĠBenutzer":6377,"ronic":6378,"Ġstatus":6379,"EP":6380,"angt":6381,"Ġkonzentr":6382,"anlage":6383,"Ġkeiner":6384,"ĠBerichts":6385,"ĠAnforderungen":6386,"Ġhervorra":6387,"Ġoperation":6388,"ĠKing":6389,"prises":6390,"altet":6391,"Ġpurs":6392,"Ġaccep":6393,"Ġlegislative":6394,"zone":6395,"ĠRights":6396,"Ġsource":6397,"Ġcompromise":6398,"Ġfall":6399,"ĠBasis":6400,"see":6401,"Ġliberal":6402,"no":6403,"Ġmorgen":6404,"Ġcontribution":6405,"bor":6406,"ĠKÃ¼che":6407,"Ġprovisions":6408,"Ġdut":6409,"Ġrelation":6410,"Ġdamage":6411,"overty":6412,"sicherheit":6413,"ĠÃĸffentlichkeit":6414,"ĠtÃ¤":6415,"Ġbetroffen":6416,"Ġmor":6417,"ĠDi":6418,"Ġexact":6419,"soft":6420,"ĠAlt":6421,"âĢľ,":6422,"ground":6423,"lÃ¤nd":6424,"ĠbeschÃ¤ft":6425,"ĠCons":6426,"ĠGÃ¤stebewertungen":6427,"ĠDiskussion":6428,"itude":6429,"Ġdisp":6430,"ĠSchweiz":6431,"annen":6432,"ĠVorschriften":6433,"ĠFilm":6434,"ibil":6435,"ĠServer":6436,"polit":6437,"ued":6438,"Ġsan":6439,"ĠDom":6440,"ĠOctober":6441,"Ġwritten":6442,"Ġinstruments":6443,"wendungen":6444,"ivity":6445,"Bitte":6446,"President":6447,"Ġword":6448,"ĠAbend":6449,"glied":6450,"Ġlabour":6451,"kosten":6452,"Ġvillage":6453,"ĠZeich":6454,"Ġdise":6455,"Ġleisten":6456,"Ġforder":6457,"ĠGruppen":6458,"lines":6459,"ĠGrenzen":6460,"ĠBereiche":6461,"Ġcompon":6462,"Ġappe":6463,"ĠUnternehmens":6464,"ĠGip":6465,"ĠStÃ¤d":6466,"Ġerwarten":6467,"enntnis":6468,"Ġfehl":6469,"itial":6470,"ienten":6471,"Ġkonnten":6472,"ugg":6473,"ĠOper":6474,"Ġgiving":6475,"ĠErzeug":6476,"dienst":6477,"Ġeingesetzt":6478,"Ã¼hungen":6479,"Ġdistance":6480,"ĠhÃ¤ufig":6481,"ĠÃ¼berw":6482,"Ġkit":6483,"cker":6484,"EM":6485,"ford":6486,"ĠPap":6487,"Tod":6488,"Ġourselves":6489,"oker":6490,"Ġleider":6491,"Ġeigentlich":6492,"idge":6493,"Ġgain":6494,"Ġcriteria":6495,"ĠLandwirtschaft":6496,"Ġhistorical":6497,"Ġloss":6498,"iminal":6499,"ĠOpt":6500,"ĠFlughafen":6501,"ĠArbeitnehmer":6502,"rats":6503,"ira":6504,"Ġconven":6505,"ilfen":6506,"ifik":6507,"ĠAnsatz":6508,"Ġgot":6509,"Ġminor":6510,"UR":6511,"ĠHar":6512,"Ġwenige":6513,"ĠBundes":6514,"Ġdocuments":6515,"wesen":6516,"Ġgenommen":6517,"works":6518,"ĠWider":6519,"ĠGesundheits":6520,"Ġklein":6521,"Ġgeworden":6522,"ĠTer":6523,"Ġprefer":6524,"ĠPrÃ¤sidenten":6525,"ĠMÃ¤rz":6526,"lekt":6527,"Office":6528,"Ġpen":6529,"Ġstatement":6530,"ateral":6531,"ĠNationen":6532,"Ġviolence":6533,"Ġevalu":6534,"Reg":6535,"freund":6536,"Ġmountain":6537,"ĠJanuary":6538,"Ġdat":6539,"Ġverm":6540,"ĠKan":6541,"Ġcomprehens":6542,"Ġeleg":6543,"ĠdurchgefÃ¼hrt":6544,"ĠSpanish":6545,"Ġwon":6546,"ĠPrÃ¼":6547,"ĠStÃ¤r":6548,"ĠSystems":6549,"cret":6550,"Ġlaunch":6551,"iete":6552,"ĠOktober":6553,"ĠTransparenz":6554,"Ġstructure":6555,"Ġfinally":6556,"ĠSite":6557,"Ġbase":6558,"Ġfirm":6559,"Ġbenefits":6560,"Ġinterpre":6561,"unk":6562,"Ġgran":6563,"forderung":6564,"Ã±":6565,"Ġzentr":6566,"...\"":6567,"Ġfell":6568,"orgt":6569,"Ġtypes":6570,"here":6571,"ya":6572,"ĠOrgan":6573,"Ġunmittel":6574,"lichkeiten":6575,"Ġdepart":6576,"orgung":6577,"ĠEre":6578,"ĠPrinzip":6579,"Ġmem":6580,"ĠberÃ¼hm":6581,"ograf":6582,"ĠbenÃ¶tigen":6583,"Ġnied":6584,"ĠSinne":6585,"Ġbrit":6586,"Ġfilm":6587,"head":6588,"ĠTagesordnung":6589,"ierende":6590,"ought":6591,"Ġpath":6592,"ocated":6593,"Of":6594,"ĠCamp":6595,"teuer":6596,"terprise":6597,"Ġimmediately":6598,"Ġsuchen":6599,"letzt":6600,"Second":6601,"Ġsection":6602,"Ġaktuellen":6603,"ĠDon":6604,"Ġworth":6605,"Ġconstant":6606,"Ġedit":6607,"Ġwest":6608,"OT":6609,"ĠGrÃ¼nden":6610,"ĠhÃ¶her":6611,"Ġbra":6612,"Ġwine":6613,"ĠCom":6614,"Ġelements":6615,"Ġhighest":6616,"zwe":6617,"Ġihres":6618,"ĠeuropÃ¤ischer":6619,"Ġdistribution":6620,"Ġangesichts":6621,"!!":6622,"drÃ¼cklich":6623,"wind":6624,"eks":6625,"ĠBelg":6626,"Ġobserv":6627,"Ġ29":6628,"Ġthreat":6629,"Ġtransparency":6630,"ĠAuftrag":6631,"ĠBilder":6632,"frastruct":6633,"Ġfreund":6634,"Ġgas":6635,"fordern":6636,"enew":6637,"Ġwichtiger":6638,"Ġkannst":6639,"cription":6640,"anted":6641,"Ġperfe":6642,"ĠTex":6643,"urance":6644,"Ġgrat":6645,"Ġlower":6646,"leitet":6647,"Ġkennen":6648,"Ġemployees":6649,"ĠSchwier":6650,"ĠInn":6651,"ĠInvestitionen":6652,"ĠSommer":6653,"pen":6654,"Ġgefunden":6655,"zeichnung":6656,"Ġsuper":6657,"ĠHung":6658,"Ġintegrated":6659,"ĠGemeins":6660,"Ġweder":6661,"house":6662,"yer":6663,"ieht":6664,"Ġuseful":6665,"ĠSl":6666,"ĠbezÃ¼glich":6667,"Ġequal":6668,"Ġcy":6669,"Ġstock":6670,"ĠEmpfehl":6671,"stag":6672,"ĠMetho":6673,"Tra":6674,"Ġult":6675,"Ġgele":6676,"zusch":6677,"aign":6678,"uls":6679,"ĠVerÃ¤nder":6680,"Ġagenda":6681,"Ġgre":6682,"Ġnumerous":6683,"ĠAuffassung":6684,"Ġalternative":6685,"ĠVorsitz":6686,"Ġgeschaffen":6687,"orning":6688,"Ġaffect":6689,"Ġlate":6690,"Ġvorge":6691,"ĠJuli":6692,"Ġreading":6693,"ĠursprÃ¼n":6694,"ĠRede":6695,"ĠMart":6696,"Ġzeit":6697,"Ġapplied":6698,"ĠDevelopment":6699,"ammlung":6700,"Ġparking":6701,"Ġchallenges":6702,"ĠEd":6703,"Ġelections":6704,"Ã¤ngen":6705,"erner":6706,"ĠDemoc":6707,"mosphÃ¤re":6708,"ĠPortugal":6709,"ĠSache":6710,"Ġhalte":6711,"view":6712,"Ġreality":6713,"Ġemb":6714,"Ġdrive":6715,"ĠUntersuch":6716,"Ġmis":6717,"Ġhelpful":6718,"ĠIndustr":6719,"--":6720,"ĠAufenthalt":6721,"lose":6722,"iker":6723,"Ġsonst":6724,"rÃ¼":6725,"ĠFirma":6726,"ral":6727,"bezogen":6728,"Ġconsist":6729,"ĠServices":6730,"ĠNr":6731,"Ġcoast":6732,"ĠProjekte":6733,"ĠStar":6734,"Ã¼cken":6735,"Ã¤te":6736,"Ġapartments":6737,"ĠCentre":6738,"Ġprocesses":6739,"Ġpoverty":6740,"ĠIraq":6741,"wortern":6742,"Ġpayment":6743,"Zur":6744,"Ġround":6745,"ĠUniversity":6746,"Ã¼nde":6747,"Ġtools":6748,"front":6749,"zehn":6750,"ĠKur":6751,"Ġconsequences":6752,"Ġemiss":6753,"Ġeher":6754,"Ġdaily":6755,"ĠLinux":6756,"98":6757,"Wel":6758,"achtung":6759,"Ġski":6760,"ĠÃ¼brigen":6761,"legation":6762,"ĠTro":6763,"afe":6764,"ĠPrÃ¤sidentschaft":6765,"Ġunemp":6766,"Ġteach":6767,"ĠLebensmittel":6768,"PS":6769,"ĠAfghan":6770,"ĠComputer":6771,"Ġsaying":6772,"mÃ¶":6773,"Ġerneut":6774,"Ġhom":6775,"Ġsieht":6776,"phone":6777,"Ġoffering":6778,"ĠInnen":6779,"ĠbegrÃ¼ÃŁe":6780,"Ġoccas":6781,"Ġcrucial":6782,"Ġdiejenigen":6783,"ĠJuly":6784,"Ġsolidarity":6785,"Ġtreffen":6786,"II":6787,"Ġbem":6788,"Ġmut":6789,"ĠÃ¼berprÃ¼":6790,"Ġbringt":6791,"ola":6792,"Ġtim":6793,"Ġanalysis":6794,"ownload":6795,"zufÃ¼hren":6796,"sprozess":6797,"Ġbeyond":6798,"richten":6799,"park":6800,"ilosoph":6801,"ĠRegeln":6802,"Ġbad":6803,"Ã¼nstler":6804,"Ġentsprechenden":6805,"aktion":6806,"Ġlegit":6807,"Ġperman":6808,"engen":6809,"ĠBulgar":6810,"Ġign":6811,"ĠEreign":6812,"izin":6813,"ogle":6814,"sprÃ¼":6815,"Ġphot":6816,"Ġziehen":6817,"Ġdistr":6818,"Ġundert":6819,"Ã¶ren":6820,"Ġpersons":6821,"ĠSum":6822,"Ġpaid":6823,"ĠSolidar":6824,"Ã§":6825,"ĠEm":6826,"ares":6827,"Ġplant":6828,"folge":6829,"Ġbeitragen":6830,"ione":6831,"Today":6832,"gelt":6833,"Ġwissenschaft":6834,"Ġkrit":6835,"ye":6836,"Ġerfahren":6837,"ĠÃ¶ffentliche":6838,"ded":6839,"Ġhumanit":6840,"Ġoffered":6841,"ĠBeteil":6842,"ĠGal":6843,"eg":6844,"ĠKoh":6845,"Ġcolleagues":6846,"Ġconflict":6847,"ĠCap":6848,"ĠCO":6849,"Ġspirit":6850,"Ġthought":6851,"Ġgoes":6852,"spricht":6853,"Ġpal":6854,"Ġ1997":6855,"ĠStraÃŁen":6856,"scheinlich":6857,"ĠEnts":6858,"ĠSchlusselwortern":6859,"ĠBahn":6860,"ĠÃĦnderung":6861,"ĠMann":6862,"ĠMobil":6863,"ĠJava":6864,"Ġhinzu":6865,"ĠGott":6866,"ĠAufgaben":6867,"Ġpractical":6868,"spiel":6869,"ĠJanuar":6870,"Ġillegal":6871,"ĠFÃ¤llen":6872,"Ġentsprechend":6873,"back":6874,"ĠDVD":6875,"Ġhappy":6876,"ufe":6877,"iment":6878,"ĠCost":6879,"ĠZw":6880,"ienz":6881,"ĠBemÃ¼hungen":6882,"Ġlangfrist":6883,"Ġ35":6884,"Ġlas":6885,"ĠDan":6886,"Ġvergessen":6887,"losen":6888,"ĠFlor":6889,"Also":6890,"Ġsufficient":6891,"Ġideas":6892,"vors":6893,"ĠGast":6894,"Ġmitt":6895,"Ġvan":6896,"Ġzehn":6897,"ĠLinie":6898,"Ġkur":6899,"wser":6900,"schlieÃŁen":6901,"ĠMonaten":6902,"IA":6903,"ĠBedÃ¼rf":6904,"leistung":6905,"ĠAgrar":6906,"ĠfrÃ¼her":6907,"othe":6908,"ĠArmut":6909,"Ġrequires":6910,"ĠUp":6911,"Qu":6912,"Ġverhindern":6913,"fÃ¼hl":6914,"iability":6915,"ĠMediterranean":6916,"ĠFolge":6917,"Dabei":6918,"Ġhar":6919,"obby":6920,"iveau":6921,"wart":6922,"Ġhil":6923,"Ġforces":6924,"Ġexception":6925,"Ã¼rger":6926,"cement":6927,"angeb":6928,"Ġkil":6929,"Ð»":6930,"fo":6931,"zy":6932,"Ġinfrastruct":6933,"Ġausgezeich":6934,"ĠNachbar":6935,"Jed":6936,"ĠBÃ¼rgern":6937,"Ġgenannten":6938,"sych":6939,"vere":6940,"Ã¼cht":6941,"Ġgetan":6942,"Ġunbe":6943,"Ġweak":6944,"ĠTerm":6945,"SS":6946,"based":6947,"ocol":6948,"atÃ¼rlich":6949,"anging":6950,"Ġorganisations":6951,"estic":6952,"strumente":6953,"ĠVertreter":6954,"{{":6955,"ĠRepublik":6956,"ĠSitzung":6957,"Ġspee":6958,"hold":6959,"DF":6960,"Ġbehandelt":6961,"ĠhÃ¤tten":6962,"Ġminimum":6963,"ĠWunsch":6964,"Ġpie":6965,"Ġweeks":6966,"Ġdoubt":6967,"Ġadvantage":6968,"urb":6969,"Ġtomor":6970,"Ġ31":6971,"Ãł":6972,"tellten":6973,"Ġfrequ":6974,"cape":6975,"Ġban":6976,"ĠRessourcen":6977,"ais":6978,"Ġerfolgt":6979,"craft":6980,"Ġcongratulate":6981,"Ġtomorrow":6982,"ĠDet":6983,"ĠVÃ¶lk":6984,"ĠDritt":6985,"Ġvorher":6986,"ĠprÃ¤sent":6987,"Ġmodified":6988,"ifel":6989,"irl":6990,"ĠjÃ¼ng":6991,"Ġhistoric":6992,"Ġanderem":6993,"ĠKredit":6994,"ĠOst":6995,"Ã¶ÃŁe":6996,"Ġwaste":6997,"ĠTagen":6998,"Ġimplemented":6999,"ĠMos":7000,"programm":7001,"ret":7002,"Ġhear":7003,"Ġpartnership":7004,"22":7005,"Ġsecure":7006,"Every":7007,"ordination":7008,"Ġsales":7009,"ĠDirective":7010,"Ġnimmt":7011,"Ġshopping":7012,"Ġclients":7013,"Ġrelating":7014,"ĠBehandlung":7015,"ĠTa":7016,"Ã¼ge":7017,"Ġrenew":7018,"ischem":7019,"Ġlines":7020,"gewiesen":7021,"Ġreference":7022,"vis":7023,"ibe":7024,"ĠSpezial":7025,"Ġstarting":7026,"esellschaften":7027,"03":7028,"ĠAuto":7029,"Ġpublished":7030,"icit":7031,"Ġreich":7032,"Ġbedroom":7033,"Ġpaar":7034,"Ġmonitoring":7035,"Ġschl":7036,"Ġversucht":7037,"45":7038,"Ġrestr":7039,"Ġmorning":7040,"ĠBeginn":7041,"ĠGas":7042,"wÃ¼n":7043,"Ã¤nge":7044,"Ġbesondere":7045,"Ġsyn":7046,"ĠRestaurants":7047,"Ġsimpl":7048,"Ġol":7049,"Ġgrowing":7050,"Ġlives":7051,"ĠAnstr":7052,"aint":7053,"Ġcaused":7054,"ĠPalest":7055,"Zweit":7056,"Ġcomprehensive":7057,"ĠDo":7058,"):":7059,"ĠVerl":7060,"icken":7061,"Ġreduction":7062,"Ġefficiency":7063,"Ġmaximum":7064,"ula":7065,"Ġoperating":7066,"frastruktur":7067,"ĠKor":7068,"ĠVen":7069,"Ġcircum":7070,"pective":7071,"Ġjen":7072,"Ġwr":7073,"Ġausreich":7074,"oon":7075,"schreit":7076,"Ġusw":7077,"zt":7078,"Ġfordern":7079,"ĠBÃ¼rgerinnen":7080,"Ġready":7081,"rem":7082,"ĠSign":7083,"ategie":7084,"Ġmachine":7085,"theless":7086,"CO":7087,"bin":7088,"ĠTechnologie":7089,"stitutional":7090,"Ġaccordance":7091,"ĠAtmosphÃ¤re":7092,"Ġmeaning":7093,"hafte":7094,"zielle":7095,"App":7096,"ĠWinter":7097,"ĠDiese":7098,"Ġserver":7099,"During":7100,"schÃ¶":7101,"Ġselect":7102,"ĠNeu":7103,"nungen":7104,"Ġful":7105,"Ġcampaign":7106,"Many":7107,"ĠmÃ¼":7108,"ĠGerichts":7109,"Ġanti":7110,"Ġrecon":7111,"Å¡":7112,"ungsver":7113,"Although":7114,"ĠBetrieb":7115,"gruppe":7116,"ĠÃ¼berhaupt":7117,"Ġgewesen":7118,"Ġsechs":7119,"ĠGebÃ¤ude":7120,"Ġunbed":7121,"pack":7122,"Ġsports":7123,"Ph":7124,"ĠFinanzierung":7125,"Nur":7126,"Ġoptions":7127,"ĠVal":7128,"Furthermore":7129,"Ġinitial":7130,"ulated":7131,"altungen":7132,"Ġstreet":7133,"Ġanything":7134,"ĠErfahrungen":7135,"ius":7136,"ĠerfÃ¼llen":7137,"Ã´":7138,"pool":7139,"book":7140,"ichert":7141,"ado":7142,"Ġded":7143,"standing":7144,"schriftlich":7145,"ĠerklÃ¤rt":7146,"cia":7147,"Ġfolgen":7148,"Ġurg":7149,"Ġbeant":7150,"Ġzahlreichen":7151,"ĠZentral":7152,"ĠMult":7153,"Ġsometimes":7154,"Ġwarum":7155,"LA":7156,"Ġbegin":7157,"ĠberÃ¼cksichtigt":7158,"ĠBot":7159,"ĠNacht":7160,"ĠVergangen":7161,"ÂŃ":7162,"ĠMinder":7163,"ĠVilla":7164,"Ġrapid":7165,"mus":7166,"itch":7167,"Ġko":7168,"Ġtechnologies":7169,"ĠOpen":7170,"ĠForschungs":7171,"Ġborder":7172,"Ġplayers":7173,"Ġcritic":7174,"Ġmensch":7175,"ĠgrÃ¶ÃŁer":7176,"atform":7177,"ĠProtokoll":7178,"ĠsÃ¤m":7179,"Ġoffiz":7180,"Ġpictures":7181,"ĠgÃ¼nst":7182,"Ġextent":7183,"Ġbetreff":7184,"Ġgerecht":7185,"Ġcharm":7186,"asten":7187,"Ġadvert":7188,"Ġprobably":7189,"Ġchance":7190,"Ġones":7191,"Ġlanguages":7192,"ĠWerte":7193,"Ġbegan":7194,"Ġterrorism":7195,"alyse":7196,"}}":7197,"flÃ¤che":7198,"Ġswimming":7199,"Ġexport":7200,"Ġremov":7201,"Ġfarmers":7202,"Ġstimmen":7203,"board":7204,"Ġworldwide":7205,"Str":7206,"ĠAustria":7207,"Ġrichtige":7208,"ĠVerteid":7209,"Acc":7210,"ĠVergangenheit":7211,"Ġstaat":7212,"hotel":7213,"Ġuner":7214,"trÃ¤gen":7215,"ĠAspekte":7216,"Ġeingeb":7217,"ĠPraxis":7218,"',":7219,"utive":7220,"Ġsav":7221,"ichern":7222,"ĠBa":7223,"itation":7224,"Ġmethods":7225,"Ġcounter":7226,"SP":7227,"iell":7228,"Ġwelches":7229,"ĠCenter":7230,"Ġdecor":7231,"ĠSecurity":7232,"IV":7233,"wa":7234,"Ġjeweiligen":7235,"Ġbur":7236,"Ġinterested":7237,"legten":7238,"ĠOl":7239,"Ġvoting":7240,"ĠgrÃ¶ÃŁte":7241,"Ã¤llt":7242,"Ġchallenge":7243,"ifically":7244,"ĠInhalt":7245,"ffizienz":7246,"Ġverpflichtet":7247,"ĠKe":7248,"Ġemail":7249,"Ġlands":7250,"ĠFÃ¤h":7251,"grenz":7252,"Ġtransparent":7253,"Ġsectors":7254,"oke":7255,"itten":7256,"iding":7257,"Ġrespond":7258,"ĠIniti":7259,"Ġeinheit":7260,"Ġstets":7261,"Ġtourist":7262,"ĠTerrorismus":7263,"ĠErd":7264,"Ġadopt":7265,"Ġsal":7266,"izes":7267,"izing":7268,"Ġcast":7269,"ktive":7270,"97":7271,"Ġconcentr":7272,"ĠConference":7273,"Ġseines":7274,"Ġmotor":7275,"ĠWeit":7276,"ĠMenschenrechts":7277,"Ġhistorischen":7278,"sam":7279,"Ġscientific":7280,"Ġwanted":7281,"Ġsymbol":7282,"ĠVideo":7283,"Ġarrange":7284,"Ġbill":7285,"ĠRats":7286,"Ã¤chen":7287,"Ġehem":7288,"ĠReal":7289,"wenden":7290,"reland":7291,"igation":7292,"vollen":7293,"Ġbald":7294,"ĠwÃ¤hlen":7295,"Ġcandid":7296,"zeiten":7297,"Ġvalid":7298,"Ġbein":7299,"ĠGrand":7300,"Ġwach":7301,"Ġcert":7302,"Ġles":7303,"ĠAgent":7304,"ĠauÃŁerhalb":7305,"nungs":7306,"Ġgames":7307,"ĠMc":7308,"ĠStock":7309,"Ġaccepted":7310,"enze":7311,"Ġselection":7312,"Ġrelease":7313,"ĠTradition":7314,"ĠBeruf":7315,"ĠTest":7316,"ĠAk":7317,"Ġexerc":7318,"karte":7319,"ĠSchritte":7320,"rÃ¤nkt":7321,"ĠbetrÃ¤":7322,"ichtlich":7323,"Ġbusinesses":7324,"sc":7325,"Ġrele":7326,"Ġapprec":7327,"Ġmodernen":7328,"ĠbefÃ¼r":7329,"ĠAnfrage":7330,"abkommen":7331,"ĠTier":7332,"ĠAirport":7333,"ĠOpfer":7334,"ĠGef":7335,"figur":7336,"Ġine":7337,"ĠGreen":7338,"bas":7339,"fence":7340,"Ġverantwortlich":7341,"ĠHel":7342,"Ġzumindest":7343,"poses":7344,"losigkeit":7345,"inary":7346,"Ġpowers":7347,"âĦ":7348,"Ġdespite":7349,"meer":7350,"fÃ¼r":7351,"tempt":7352,"Ġupd":7353,"âĢĿ.":7354,"Ġfolgt":7355,"Ġblo":7356,"Ġkam":7357,"ĠRechtsvorschriften":7358,"ĠZivil":7359,"iant":7360,"ĠCal":7361,"ĠtÃ¤t":7362,"ĠTH":7363,"Ġgemein":7364,"furt":7365,"Ġfine":7366,"Ġlay":7367,"kom":7368,"Ġvisitors":7369,"Ġwalking":7370,"ĠSpanien":7371,"ĠAngelegenheit":7372,"enh":7373,"zul":7374,"Ġinfluence":7375,"Ġverab":7376,"ĠvollstÃ¤ndig":7377,"Ġgenu":7378,"Ġexpert":7379,"Ġheutigen":7380,"verage":7381,"ĠMer":7382,"Ġlies":7383,"Ġgenug":7384,"ĠDat":7385,"ĠschÃ¼tzen":7386,"Ġenorm":7387,"Ã¤mpfen":7388,"Ġimages":7389,"Ġverkauf":7390,"Ġremember":7391,"Ġtrying":7392,"Ġraised":7393,"wel":7394,"erdings":7395,"atalog":7396,"ĠWell":7397,"Zweitens":7398,"Meine":7399,"Ġglo":7400,"ĠpersÃ¶nlichen":7401,"imb":7402,"umm":7403,"Ġseparate":7404,"Ġlost":7405,"Ġcompetit":7406,"ATO":7407,"Ġcoup":7408,"ĠMass":7409,"ĠGel":7410,"raten":7411,"Ġabsolutely":7412,"ĠAngelegenheiten":7413,"Ġris":7414,"barer":7415,"affe":7416,"Ġfant":7417,"ĠBerat":7418,"ĠHerausforderungen":7419,"akte":7420,"Ġreflect":7421,"ĠWenn":7422,"ĠstÃ¤rker":7423,"Ġelegant":7424,"ĠGet":7425,"ĠWaren":7426,"ĠSchwierigkeiten":7427,"ĠGarten":7428,"tritt":7429,"MS":7430,"ĠMand":7431,"Ġtechnischen":7432,"Ġkomp":7433,"Ġsubstant":7434,"konom":7435,"erkennung":7436,"ĠParteien":7437,"ids":7438,"ĠFirmen":7439,"Ġcohes":7440,"Ġheav":7441,"Ġfolgenden":7442,"imed":7443,"anda":7444,"ML":7445,"ĠChance":7446,"Ġerinnern":7447,"ĠKn":7448,"Ġanders":7449,"ĠprÃ¼":7450,"werte":7451,"ĠausschlieÃŁlich":7452,"ĠVergleich":7453,"Ġdemands":7454,"quem":7455,"Ġbessere":7456,"âĦ¢":7457,"ologie":7458,"tag":7459,"Ġdeutschen":7460,"ĠRegierungs":7461,"handel":7462,"hÃ¤ltnis":7463,"sÃ¤tze":7464,"ĠDoppel":7465,"gesetz":7466,"ĠAnnahme":7467,"icket":7468,"ĠHy":7469,"last":7470,"Ġzuk":7471,"ĠPet":7472,"zusetzen":7473,"NatÃ¼rlich":7474,"ĠHinsicht":7475,"Ġborders":7476,"ĠId":7477,"ĠExper":7478,"Ġimpl":7479,"Ġerlaubt":7480,"tere":7481,"ĠEinwander":7482,"Ġaffe":7483,"Ġunten":7484,"Ġspezif":7485,"Ġclub":7486,"Ġangemessen":7487,"ĠEigent":7488,"Ġ1996":7489,"Ġinsp":7490,"Ġsil":7491,"IF":7492,"ĠEntschlieÃŁungs":7493,"Ġhonour":7494,"Ġnamely":7495,"star":7496,"chtet":7497,"ĠâĢĶ":7498,"Ġerwartet":7499,"Ġmanufactur":7500,"Ġfields":7501,"ĠVertrauen":7502,"Ġslow":7503,"ION":7504,"Ġinnovation":7505,"Ġlisten":7506,"Ġanerk":7507,"Â´":7508,"amin":7509,"ĠChinese":7510,"gehend":7511,"Ġchanged":7512,"Even":7513,"Ġvital":7514,"attle":7515,"âĢŀ":7516,"Ġstrategic":7517,"gÃ¼lt":7518,"abr":7519,"Ġgek":7520,"Ġgetroffen":7521,"70":7522,"Ġverurs":7523,"zulegen":7524,"lemente":7525,"Ġ).":7526,"ĠEss":7527,"reise":7528,"ĠIhres":7529,"hilfe":7530,"ĠjÃ¤hr":7531,"Ġoverall":7532,"//":7533,"ruption":7534,"bit":7535,"Ã¶rt":7536,"krise":7537,"ae":7538,"ĠHal":7539,"ĠUK":7540,"Ġmenu":7541,"Ġannual":7542,"uly":7543,"ĠÃ¼bernehmen":7544,"Ġallgemeinen":7545,"Ġkitchen":7546,"EG":7547,"unge":7548,"Ġitalien":7549,"ĠzukÃ¼nft":7550,"Ġrepresentatives":7551,"uses":7552,"ĠTor":7553,"Ġcalls":7554,"ĠProzent":7555,"Ġfire":7556,"indungen":7557,"Ã¤tzlich":7558,"Ġproceed":7559,"ĠÂ»":7560,"ighted":7561,"iarden":7562,"ĠGespr":7563,"rogen":7564,"engungen":7565,"Ġseason":7566,"ĠEnd":7567,"Heute":7568,"ĠEinrichtung":7569,"Ġgesetz":7570,"ĠIreland":7571,"Ġworked":7572,"aters":7573,"Ġinitiatives":7574,"Ġgesehen":7575,"asc":7576,"ollar":7577,"ĠGran":7578,"itts":7579,"Ġyourself":7580,"ĠModell":7581,"Ġprivaten":7582,"Ġtrip":7583,"Tro":7584,"ziert":7585,"used":7586,"Ġwiederhol":7587,"ĠKapital":7588,"pport":7589,"sprechen":7590,"ĠOrd":7591,"aries":7592,"Ġwrong":7593,"Ġprocessing":7594,"Ġplayer":7595,"gruppen":7596,"ĠSm":7597,"Ġintended":7598,"vorsitz":7599,"ĠHuman":7600,"Ġbitten":7601,"hers":7602,"Ġnegative":7603,"ĠGeneration":7604,"ĠbegrÃ¼ÃŁen":7605,"Ġheard":7606,"Ġexpressed":7607,"immern":7608,"While":7609,"Secondly":7610,"ulations":7611,"ĠProduktions":7612,"ĠMicrosoft":7613,"Ġoffens":7614,"isely":7615,"mand":7616,"Ġevening":7617,"ĠSpieler":7618,"di":7619,"Ġdarstellt":7620,"Â²":7621,"Ġbeginnen":7622,"acc":7623,"ĠPH":7624,"Ġehemal":7625,"lymp":7626,"Ġvertra":7627,"ĠLiberal":7628,"ĠIslam":7629,"Ġtrack":7630,"Ġaccession":7631,"Ġangeboten":7632,"inens":7633,"Ġzudem":7634,"ĠMess":7635,"Ġplans":7636,"eignet":7637,"ĠArbeitsplÃ¤tze":7638,"Ġaward":7639,"umin":7640,"Ã¶rdert":7641,"Ġsetzt":7642,"ĠVerfassung":7643,"Ġoccup":7644,"QL":7645,"Ġbanks":7646,"Gleich":7647,"Ġcommitted":7648,"ĠBal":7649,"auern":7650,"European":7651,"ĠnatÃ¼r":7652,"Ġendlich":7653,"ĠVerwaltung":7654,"Ġautomatisch":7655,"ĠRussian":7656,"AG":7657,"Inde":7658,"Ġability":7659,"Ġcities":7660,"Ġcell":7661,"Ġbir":7662,"iÃ³n":7663,"hood":7664,"Ġangene":7665,"Ġflexible":7666,"Ġeindeutig":7667,"ildet":7668,"Ġbestimmt":7669,"nel":7670,"stoffe":7671,"ĠlÃ¤nd":7672,"Ġdipl":7673,"ystemen":7674,"ras":7675,"ĠSen":7676,"Ġtalking":7677,"zeichen":7678,"Ġrestrict":7679,"Ġtraffic":7680,"ruit":7681,"Ġfalls":7682,"Ġlove":7683,"Ġletzte":7684,"ĠSÃ¼":7685,"ĠTem":7686,"gere":7687,"ifizierung":7688,"Ġgoal":7689,"Ġtarget":7690,"Ġentgegen":7691,"ĠJohn":7692,"ĠSolidaritÃ¤t":7693,"Ġfresh":7694,"Ġdeine":7695,"ĠPrÃ¤":7696,"ĠEinfluss":7697,"set":7698,"TV":7699,"90":7700,"ĠHause":7701,"ories":7702,"ĠSonder":7703,"Ġplaced":7704,"Ġphoto":7705,"Ġdatab":7706,"cluded":7707,"wes":7708,"Ġsinn":7709,"Ġalone":7710,"ustausch":7711,"ĠBerichterstatterin":7712,"Ġtal":7713,"Not":7714,"Ġrunning":7715,"ĠAgre":7716,"ĠPrem":7717,"Ġrom":7718,"Ġdringend":7719,"zlich":7720,"Ġmainly":7721,"ĠFalle":7722,"Ġspect":7723,"bringen":7724,"Ġjem":7725,"ĠbemÃ¼":7726,"Ġhot":7727,"ĠAmendment":7728,"Ġbeide":7729,"ĠKonzept":7730,"Ġfamilies":7731,"idelines":7732,"etten":7733,"ĠlÃ¤nger":7734,"ĠKrank":7735,"Ġautom":7736,"wan":7737,"ĠGene":7738,"Ġplanning":7739,"ĠÃĸsterreich":7740,"Ġterrace":7741,"Ġelement":7742,"Ġcohesion":7743,"ĠAmb":7744,"Ġbrand":7745,"Ġfear":7746,"ĠAntrag":7747,"ĠAfghanistan":7748,"ĠEind":7749,"grams":7750,"96":7751,"ĠSwiss":7752,"agraph":7753,"Ġbege":7754,"Ġtit":7755,"Ġverme":7756,"ples":7757,"bum":7758,"Ġopening":7759,"Ġimproved":7760,"Ġremind":7761,"ĠHostels":7762,"gebiet":7763,"ĠDel":7764,"ĠHeim":7765,"Ġjustice":7766,"Ġapproved":7767,"Ġethn":7768,"CD":7769,"ĠFreiz":7770,"Ġanc":7771,"Ġ195":7772,"ĠZustimmung":7773,"ores":7774,"Ġkaum":7775,"Ã¼b":7776,"ĠAnstrengungen":7777,"gers":7778,"ibly":7779,"kaufs":7780,"Moreover":7781,"ĠTal":7782,"ĠVerpflichtungen":7783,"Ġconfirm":7784,"ĠgrÃ¶ÃŁere":7785,"ils":7786,"Ġreforms":7787,"Ġreag":7788,"Ġincreasingly":7789,"ĠAusschuÃŁ":7790,"Ġbuy":7791,"Ġwhom":7792,"ĠNATO":7793,"Ġstudents":7794,"ĠGold":7795,"ĠTÃ¤tigkeit":7796,"Ġconclusion":7797,"ĠLeute":7798,"ĠVerhalten":7799,"do":7800,"Ġcurrency":7801,"Ġcomments":7802,"Ġaffected":7803,"Ġattempt":7804,"Ġfeature":7805,"ĠKompromiss":7806,"Ðº":7807,"Ġbenutzt":7808,"Ġdecide":7809,"Ġgenannt":7810,"Ġirgend":7811,"ĠMÃ¼n":7812,"Ġumfang":7813,"Ġadministrative":7814,"itory":7815,"rieb":7816,"Ġcircumstances":7817,"Ã¼ckt":7818,"zeigen":7819,"Ġgenutzt":7820,"bourg":7821,"Ġtot":7822,"quate":7823,"Ġlaws":7824,"Ġkomfort":7825,"Ġbilden":7826,"Ġunbedingt":7827,"Ġsuitable":7828,"mel":7829,"ifying":7830,"Ġregime":7831,"ĠzusÃ¤tzliche":7832,"Ġcollection":7833,"ĠMitte":7834,"ĠOrganisationen":7835,"Ġinn":7836,"ĠCy":7837,"Ġprovision":7838,"aria":7839,"Ġbezahl":7840,"Ġemissions":7841,"ĠGesamt":7842,"anach":7843,"ĠVoll":7844,"ĠAusgang":7845,"ĠAnerkennung":7846,"aschine":7847,"Ġtouch":7848,"aste":7849,"Ġeingehen":7850,"Ġreduced":7851,"Ġautomatically":7852,"itzt":7853,"Ã¤ndigen":7854,"sta":7855,"Ġbelieb":7856,"ĠNations":7857,"Ġcele":7858,"ĠRoma":7859,"Ġbox":7860,"Lassen":7861,"Ġ150":7862,"ĠIdee":7863,"Â»":7864,"Ġdelivery":7865,"ita":7866,"Ġpriorities":7867,"Ġphone":7868,"Ġmoderne":7869,"ĠÃ¼berzeugt":7870,"Ġentspricht":7871,"angs":7872,"ĠJe":7873,"Den":7874,"Kon":7875,"ĠBade":7876,"Ġmill":7877,"Ġoben":7878,"enty":7879,"ĠPla":7880,"ĠGeorg":7881,"endence":7882,"ĠGod":7883,"Ġentstehen":7884,"Ġvorgelegt":7885,"how":7886,"ĠSam":7887,"Ġfeed":7888,"Ġentschieden":7889,"Ġpo":7890,"Ġcontribute":7891,"bÃ¼":7892,"ĠselbstverstÃ¤ndlich":7893,"Ġerkennen":7894,"ĠTher":7895,"Ġconfidence":7896,"Ġadministration":7897,"Ġunemployment":7898,"ses":7899,"fun":7900,"ĠSlo":7901,"lichung":7902,"ago":7903,"alled":7904,"ĠÃľberwach":7905,"La":7906,"Ġstabil":7907,"Ġstructural":7908,"Ġintell":7909,"ĠkÃ¼rz":7910,"ĠÂ«":7911,"Ġcos":7912,"Ġsupports":7913,"Ġgere":7914,"Ġextend":7915,"Ġextensive":7916,"ĠAc":7917,"laufen":7918,"igran":7919,"ĠAC":7920,"Ġgegr":7921,"reiber":7922,"ĠAng":7923,"ray":7924,"ĠFree":7925,"Ġsays":7926,"Ġgesetzt":7927,"Ġinfrastructure":7928,"brit":7929,"Ġensuring":7930,"Ġersch":7931,"Ġunterb":7932,"ĠFlex":7933,"ĠGoogle":7934,"âĢĿ,":7935,"ocation":7936,"Ġhol":7937,"elte":7938,"ĠQualitÃ¤ts":7939,"struktur":7940,"ĠPublic":7941,"ĠNews":7942,"ĠWissenschaft":7943,"ael":7944,"zech":7945,"ĠHoff":7946,"Neben":7947,"ĠKauf":7948,"ĠmilitÃ¤r":7949,"ĠberÃ¼cksichtigen":7950,"Ġzufrieden":7951,"Ġcoordin":7952,"Ġelektron":7953,"verlÃ¤ss":7954,"iano":7955,"endet":7956,"ĠWahlen":7957,"Ġce":7958,"Ġrise":7959,"Ġauszu":7960,"Ġparticipation":7961,"Ġunterschiedlichen":7962,"fÃ¤lle":7963,"ĠDub":7964,"âĢľ.":7965,"Ġwesentlich":7966,"26":7967,"://":7968,"artigen":7969,"ĠÃĸl":7970,"ING":7971,"Ġscope":7972,"ĠVereinbarung":7973,"Ġencourage":7974,"ĠMex":7975,"ĠDurchfÃ¼hrung":7976,"Ġpowerful":7977,"ĠSchwer":7978,"Ã¤her":7979,"Ġvictims":7980,"Ġanz":7981,"time":7982,"folger":7983,"ĠCop":7984,"mon":7985,"PT":7986,"Ġmanner":7987,"izenz":7988,"Ġspecifically":7989,"ĠBur":7990,"Ã¤stinens":7991,"isc":7992,"aming":7993,"entwicklung":7994,"Ġmedic":7995,"iums":7996,"Ġplayed":7997,"rel":7998,"lying":7999,"Ġmid":8000,"ĠDa":8001,"Ġcrime":8002,"Ġangegeben":8003,"ĠKriterien":8004,"letter":8005,"haften":8006,"Ġspeziell":8007,"Ġfellow":8008,"Ġcas":8009,"omet":8010,"Ġvoraus":8011,"ideos":8012,"daten":8013,"ĠOsten":8014,"Ġaktuelle":8015,"ĠGrie":8016,"ĠLang":8017,"Ġgezeigt":8018,"Ġmittel":8019,"Allerdings":8020,"Ġelectronic":8021,"het":8022,"esearch":8023,"IG":8024,"ĠLicht":8025,"ampag":8026,"Ġbewusst":8027,"Ġmindestens":8028,"ĠBoden":8029,"IR":8030,"Ã¼ndung":8031,"benen":8032,"Ġmehreren":8033,"Ġtabled":8034,"ĠHolz":8035,"ongs":8036,"Ġpurposes":8037,"Ġed":8038,"zentrum":8039,"Ã¡n":8040,"ĠGlaub":8041,"azz":8042,"ĠAlle":8043,"gewÃ¶hn":8044,"Viele":8045,"inian":8046,"Ġintroduced":8047,"Ñĥ":8048,"Ã¤den":8049,"ĠErk":8050,"Ġherunter":8051,"Ġdemokratischen":8052,"Ġagriculture":8053,"iler":8054,"Ġhochwert":8055,"ĠKÃ¶rper":8056,"Ġdanke":8057,"ĠverfÃ¼gbar":8058,"fiz":8059,"laus":8060,"Ġ1990":8061,"Ġerreich":8062,"afft":8063,"Ġblack":8064,"wirken":8065,"arus":8066,"Ġhund":8067,"odies":8068,"Ġchurch":8069,"Ġquant":8070,"ĠWaffen":8071,"Ġnachdem":8072,"Ġplus":8073,"Ġrepla":8074,"orea":8075,"Ġentsprechende":8076,"Ġhinweisen":8077,"ĠAusbildung":8078,"Ġeffectively":8079,"ĠCosta":8080,"aktiv":8081,"Ġgetting":8082,"anlagen":8083,"ĠAbschluss":8084,"Ġlarger":8085,"ĠBestand":8086,"Ġsources":8087,"rÃ¤ge":8088,"Ġvorsch":8089,"Ġdetailed":8090,"Ġwonderful":8091,"ĠKommunikation":8092,"Your":8093,"Ġanimals":8094,"ĠnÃ¶t":8095,"Ġglauben":8096,"ĠGarant":8097,"Ġship":8098,"Ġserved":8099,"Ġharm":8100,"ĠAnspruch":8101,"Ġaimed":8102,"Ġplatform":8103,"zeichnen":8104,"Ġscreen":8105,"ĠPartei":8106,"chtung":8107,"Ġreferred":8108,"Ġcompetitive":8109,"Ġusually":8110,"Ġbeschlossen":8111,"Ġfert":8112,"ĠArchite":8113,"amber":8114,"lÃ¼ck":8115,"Ġ\"...":8116,"ickets":8117,"Ġfunctions":8118,"ĠHaft":8119,"Ġclient":8120,"Ġnationale":8121,"Ġsummit":8122,"Ġgesprochen":8123,"ĠerwÃ¤hnt":8124,"Ġeuch":8125,"mack":8126,"schuld":8127,"Ã¶m":8128,"ĠStabilitÃ¤t":8129,"Ġec":8130,"Ġdedic":8131,"ĠVorteile":8132,"Ġglobalen":8133,"tert":8134,"ĠWÃ¤hrung":8135,"ĠGest":8136,"ĠMitteilung":8137,"Ġmm":8138,"ĠBran":8139,"Ġwert":8140,"Ġmotion":8141,"Ġexactly":8142,"esents":8143,"Ġpleasant":8144,"Ġserve":8145,"Ġrural":8146,"Ġangesprochen":8147,"Ġwhite":8148,"idential":8149,"Ġinstallation":8150,"Ġsort":8151,"avi":8152,"ĠBon":8153,"atik":8154,"Ġzentral":8155,"ault":8156,"Ġbesonderen":8157,"ĠAgreement":8158,"fu":8159,"sm":8160,"Einige":8161,"ingu":8162,"ĠAutom":8163,"Ġkontroll":8164,"Ġinstitutional":8165,"Ġrisks":8166,"ĠSea":8167,"Ġpoll":8168,"Ġprotected":8169,"War":8170,"Ġprem":8171,"spunkt":8172,"ĠSprachen":8173,"Ġoccur":8174,"Ġprecisely":8175,"itzerland":8176,"called":8177,"Ġsitting":8178,"Ġdead":8179,"Ġakzeptieren":8180,"27":8181,"zieht":8182,"udem":8183,"Ġchann":8184,"Ġcompeten":8185,"Ġ45":8186,"Ġsicherzustellen":8187,"iertel":8188,"bad":8189,"Ġreception":8190,"oted":8191,"Ġluxur":8192,"atoren":8193,"atively":8194,"Â°":8195,"Per":8196,"Ġeinzus":8197,"Ġstated":8198,"Ġbecoming":8199,"ounge":8200,"uts":8201,"Ġvac":8202,"law":8203,"Ġeingerichtet":8204,"Ġpolice":8205,"Ġfacilit":8206,"stieg":8207,"fahrens":8208,"gree":8209,"Ġotherwise":8210,"ibilitÃ¤t":8211,"Ġ2020":8212,"ĠSchaden":8213,"ologischen":8214,"ĠIrak":8215,"ĠZeichen":8216,"Ġcamera":8217,"ĠKoordin":8218,"ĠIP":8219,"Ġgeeignet":8220,"ĠDen":8221,"ĠHintergrund":8222,"Ġmand":8223,"ĠEnterprise":8224,"Ġrepresents":8225,"Ġdiscussed":8226,"Ġwants":8227,"ĠWik":8228,"ĠInhalte":8229,"weder":8230,"ĠDre":8231,"Ġbudgetary":8232,"rip":8233,"uber":8234,"Ġtemper":8235,"ĠVerwaltungs":8236,"ĠEinsch":8237,"ĠAltern":8238,"ield":8239,"wegung":8240,".âĢľ":8241,"unkten":8242,"Ġdevelopments":8243,"Ġbestehenden":8244,"agegen":8245,"Ġwahrscheinlich":8246,"quality":8247,"fÃ¼hrer":8248,"Ġdiscussions":8249,"ĠMensch":8250,"35":8251,"hy":8252,"Ġverz":8253,"'ll":8254,"ĠReformen":8255,"ĠEas":8256,"Ġzug":8257,"ĠNahr":8258,"Ġlikely":8259,"ĠElekt":8260,"IE":8261,"ĠBoard":8262,"idents":8263,"Ġerzielt":8264,"Ġehr":8265,"ĠFischerei":8266,"Wann":8267,"ĠSchlaf":8268,"Ġarm":8269,"try":8270,"Ġ;":8271,"Ġmix":8272,"Ġbenutzen":8273,"jected":8274,"ĠTab":8275,"Ġconvin":8276,"Nun":8277,"enhagen":8278,"ĠSektor":8279,"Dem":8280,"ĠAsia":8281,"Ġspacious":8282,"ĠHomepage":8283,"ĠMiddle":8284,"Ġconver":8285,"ĠArab":8286,"Ġprograms":8287,"Ġ*":8288,"ĠLab":8289,"ĠAusgaben":8290,"Ġdomin":8291,"01":8292,"Ġthousands":8293,"Spe":8294,"ĠMio":8295,"Indeed":8296,"Bet":8297,"jo":8298,"ĠIdent":8299,"ga":8300,"Ġauth":8301,"Obwohl":8302,"ĠPolicy":8303,"obilien":8304,"Ġmanaged":8305,"uit":8306,"Ġwatch":8307,"Ġforget":8308,"ĠErn":8309,"ĠEt":8310,"Ġsold":8311,"uisine":8312,"Ġremark":8313,"ĠBesucher":8314,"Ġfreuen":8315,"ima":8316,"Ġexpens":8317,"Ġfestgelegt":8318,"amente":8319,"Ġrechts":8320,"ĠHaltung":8321,"wasser":8322,"ĠmÃ¶glicherweise":8323,"ĠKonflikt":8324,"ĠKarte":8325,"ĠAssoc":8326,"ĠBemerk":8327,"Ġexpand":8328,"ĠHaushalt":8329,"Ġausgew":8330,"Ġassessment":8331,"ente":8332,"Ġzuletzt":8333,"achtet":8334,"Ġcovered":8335,"Ã¼ste":8336,"Äį":8337,"ĠCzech":8338,"ida":8339,"Ins":8340,"Ġentry":8341,"schiede":8342,"Ġmetres":8343,"ĠAufnahme":8344,"Ġcritical":8345,"Ġumgesetzt":8346,"ĠFrankfurt":8347,"Ġcorresp":8348,"Ġnotwendigen":8349,"ĠSpr":8350,"Ġexpected":8351,"Ġjene":8352,"ĠKind":8353,"categories":8354,"mas":8355,"ĠgeÃ¤ndert":8356,"Ġguidelines":8357,"ĠKenntnis":8358,"ĠprÃ¼fen":8359,"ads":8360,"Ġprovider":8361,"ĠLiber":8362,"Ġselected":8363,"Ġspend":8364,"Ġfinanziellen":8365,"Ġfollowed":8366,"Ġanderes":8367,"Ġhoffen":8368,"Ġwood":8369,"Ġactual":8370,"mod":8371,"ĠMilliarden":8372,"ensions":8373,"Ġinside":8374,"Only":8375,"iat":8376,"ĠFot":8377,"ĠBeitritts":8378,"cause":8379,"ĠAgenda":8380,"ĠEst":8381,"ĠRegional":8382,"ĠAL":8383,"werke":8384,"Ġearlier":8385,"ĠerfÃ¼llt":8386,"Ġclosely":8387,"ĠRoman":8388,"rum":8389,"ĠSand":8390,"Ġradio":8391,"Ġdienen":8392,"Ġintroduction":8393,"asts":8394,"Ġschrif":8395,"icks":8396,"posed":8397,"Ġwinter":8398,"Ġdebt":8399,"ĠSing":8400,"ĠUnterkategorien":8401,"ureau":8402,"Ġweap":8403,"Ġergreifen":8404,"Ġmedical":8405,"ĠIf":8406,"ĠSalz":8407,"Ġbequem":8408,"ĠSchengen":8409,"ĠFakt":8410,"Ã¤user":8411,"Ġpaper":8412,"Ġfreien":8413,"DP":8414,"Ġcentr":8415,"Ġlisted":8416,"bu":8417,"ĠAcc":8418,"Ġbuildings":8419,"inu":8420,"ĠWel":8421,"ĠAN":8422,"Ġvotes":8423,"ĠDol":8424,"Ġunters":8425,"ĠDav":8426,"Ġenterprises":8427,"ĠOlymp":8428,"ĠWettbewerbsfÃ¤higkeit":8429,"ĠSerb":8430,"ulieren":8431,"ĠAnpass":8432,"Ġ1995":8433,"Ġimpress":8434,"prÃ¤sident":8435,"Ġbeziehen":8436,"Ġjederzeit":8437,"Ġspread":8438,"Ġscen":8439,"ĠGriechen":8440,"ura":8441,"ĠRichtlinien":8442,"gal":8443,"kap":8444,"ĠFÃ¼r":8445,"werten":8446,"ĠStraÃŁe":8447,"ĠVorbereit":8448,"ham":8449,"ĠCast":8450,"either":8451,"ĠCode":8452,"Ġnetworks":8453,"ĠTechnologien":8454,"ailing":8455,"ulierung":8456,"Mein":8457,"ĠlÃ¶sen":8458,"Ġdisapp":8459,"Ġvermeiden":8460,"denken":8461,"levision":8462,"ĠwÃ¼nschen":8463,"chnologie":8464,"Ġschwierig":8465,"ĠSchlÃ¼ssel":8466,"ĠMonate":8467,"ĠHow":8468,"ĠFunktionen":8469,"britann":8470,"ĠCard":8471,"Ġtrust":8472,"ĠProdukten":8473,"gets":8474,"ĠLuxem":8475,"Soll":8476,"Ġelectric":8477,"ĠGeh":8478,"ĠPlay":8479,"Ġimproving":8480,"ishing":8481,"ĠAnn":8482,"iques":8483,"Ġcolor":8484,"ĠFischere":8485,"Ġfahren":8486,"Ġade":8487,"ĠPaul":8488,"Ġausger":8489,"Ġlinked":8490,"Ġterritor":8491,"onym":8492,"Ġgraph":8493,"Trotz":8494,"Ġbraucht":8495,"Ġeinzu":8496,"ĠBew":8497,"Ġoperations":8498,"ĠTurk":8499,"Ġgleiche":8500,"Ġopened":8501,"ĠCr":8502,"uropa":8503,"vements":8504,"Ġsupporting":8505,"Ġries":8506,"Ġexplo":8507,"jekten":8508,"ĠMotor":8509,"ĠsÃ¼d":8510,"ĠKomfort":8511,"Ġunderstanding":8512,"Ġimmigration":8513,"reiten":8514,"Ġspeech":8515,"scher":8516,"ĠUmst":8517,"nach":8518,"Intern":8519,"ĠHaup":8520,"ĠStellen":8521,"ĠKindern":8522,"inc":8523,"aves":8524,"ÃĦ":8525,"Ġmarketing":8526,"rahmen":8527,"ĠArten":8528,"Ġged":8529,"freiheit":8530,"wirk":8531,"ĠÃ©":8532,"ennis":8533,"TA":8534,"Ġverbessert":8535,"Ġtelephone":8536,"Ġexclusive":8537,"Ġnah":8538,"Ġmultip":8539,"Ġcomment":8540,"Ihre":8541,"ĠVielfalt":8542,"Ġstattfinden":8543,"etze":8544,"ĠKy":8545,"ĠIM":8546,"Ġconsiderable":8547,"Ġdegree":8548,"Mar":8549,"ĠWellness":8550,"Ġfrag":8551,"Ġkostenlos":8552,"aser":8553,"ĠDownload":8554,"ĠIndia":8555,"ĠHerz":8556,"Ġwent":8557,"Ġuses":8558,"Ġcompens":8559,"Ġfallen":8560,"Ġbeds":8561,"SchlieÃŁlich":8562,"gencies":8563,"ĠLink":8564,"Ġ?":8565,"ktiven":8566,"Ġmap":8567,"ĠInfrastruktur":8568,"ĠInnovation":8569,"roh":8570,"ĠSon":8571,"Ġsicherlich":8572,"ĠMeter":8573,"Ġmultil":8574,"Ġtempor":8575,"Ġhands":8576,"folgend":8577,"gment":8578,"Ġaccomp":8579,"Ġsubstantial":8580,"ĠBi":8581,"Ġlesen":8582,"ĠDateien":8583,"cers":8584,"crete":8585,"Ġentit":8586,"union":8587,"ora":8588,"mÃ¶glich":8589,"clude":8590,"ometer":8591,"leisch":8592,"bruch":8593,"olden":8594,"Ġcompar":8595,"Mitglied":8596,"akfast":8597,"ĠEv":8598,"ĠSchiff":8599,"Ġmil":8600,"IB":8601,"istence":8602,"konferenz":8603,"ĠZweck":8604,"Ġempfehl":8605,"igem":8606,"Dann":8607,"Ġabst":8608,"Ġacqu":8609,"istrib":8610,"ĠMenge":8611,"ĠgemÃ¼t":8612,"Viel":8613,"Ġpresence":8614,"ĠStil":8615,"Ġtourism":8616,"lad":8617,"Ġshower":8618,"Ġdestro":8619,"Ġgave":8620,"ĠEinrichtungen":8621,"Ġabzu":8622,"ĠGrundsatz":8623,"Ġdarunter":8624,"Ġgelangen":8625,"2000":8626,"Ġsave":8627,"can":8628,"Ġeffizient":8629,"Ġproperly":8630,"prÃ¼fung":8631,"Ġcuisine":8632,"Ġjeweils":8633,"ĠgewÃ¼n":8634,"Ġcomponents":8635,"Ġgern":8636,"Ġplaying":8637,"EU":8638,"ĠHil":8639,"ĠWege":8640,"ĠSuche":8641,"ĠFrem":8642,"ussels":8643,"ADS":8644,"28":8645,"Ġerzielen":8646,"ĠFebruary":8647,"Ġbrief":8648,"leitung":8649,"Ġangezeigt":8650,"ĠStimme":8651,"ĠBu":8652,"ĠForderung":8653,"ĠStandards":8654,"Fl":8655,"itors":8656,"punkte":8657,"uting":8658,"Ġdelay":8659,"Ġpurchase":8660,"Ġbott":8661,"ikanische":8662,"Ġitems":8663,"Ġentweder":8664,"Ġging":8665,"Ġfisheries":8666,"Ġphotograph":8667,"Ger":8668,"gemeine":8669,"sper":8670,"ĠVereinten":8671,"ĠHier":8672,"Ġanimal":8673,"Its":8674,"Ġduty":8675,"Ġconvenient":8676,"Ġdoor":8677,"prechen":8678,"Ġ400":8679,"Ġfounded":8680,"Ġexperts":8681,"Just":8682,"chmal":8683,"Ġpicture":8684,"ported":8685,"zieren":8686,"ĠStart":8687,"Ġcoordination":8688,"Falls":8689,"ĠerhÃ¶hen":8690,"maÃŁ":8691,"band":8692,"inder":8693,"Ã¼tze":8694,"Ġentirely":8695,"RA":8696,"gebaut":8697,"ĠÃ¼bernachten":8698,"ĠausdrÃ¼cklich":8699,"preis":8700,"ĠergÃ¤n":8701,"21":8702,"itter":8703,"Ġplants":8704,"wohner":8705,"Ġsole":8706,"ĠMilit":8707,"stelle":8708,"itze":8709,"ĠCharakter":8710,"Ġincor":8711,"ĠOffice":8712,"Ġtypical":8713,"Ġformat":8714,"Ġauthority":8715,"Ġunc":8716,"Ġstrict":8717,"Ġrefuge":8718,"ĠwÃ¤ren":8719,"schul":8720,"ĠTar":8721,"Ġgekommen":8722,"ĠstÃ¤rk":8723,"Ġcompetitiveness":8724,"Ġmobil":8725,"Ġpresidency":8726,"ĠKlein":8727,"ĠSinn":8728,"ĠStation":8729,"Ġdramat":8730,"Ġuntern":8731,"Ġteilweise":8732,"Ġgenerally":8733,"ĠRa":8734,"ĠSwitzerland":8735,"Ġgrenz":8736,"Ġbesuchen":8737,"Ġwilling":8738,"Ġdifficulties":8739,"Ġsho":8740,"Ġtack":8741,"Ġdealing":8742,"ĠStreet":8743,"Ġelim":8744,"Ġtechnische":8745,"ĠTelefon":8746,"tempor":8747,"sport":8748,"Ġwelcher":8749,"ĠBeih":8750,"club":8751,"Ġcoffe":8752,"Ġsagt":8753,"ĠTun":8754,"rÃ¤ft":8755,"ĠstÃ¤ndig":8756,"AbschlieÃŁend":8757,"Dazu":8758,"Ã¼nen":8759,"Ãĥ":8760,"Ġkommenden":8761,"schlossen":8762,"Ġstimme":8763,"Ġcombat":8764,"Ġhosp":8765,"Ġinterpret":8766,"Ġkomplett":8767,"ĠStatus":8768,"Ġwollte":8769,"Ġbetonen":8770,"Ġpermanent":8771,"ĠKlimawand":8772,"Ġkomplex":8773,"Ġdispos":8774,"vey":8775,"ĠInstallation":8776,"Ġchines":8777,"Ġcriminal":8778,"Ġconstit":8779,"plÃ¤tze":8780,"ym":8781,"Ġnieder":8782,"ĠThere":8783,"ĠPlen":8784,"ĠVÃ¶lker":8785,"erstellen":8786,"Ġerstellt":8787,"Ġpsych":8788,"ĠLehr":8789,"Ġrelate":8790,"gewicht":8791,"Europe":8792,"ĠDatei":8793,"Ã¼nden":8794,"Ġverur":8795,"ĠEntwurf":8796,"etter":8797,"Ġzuvor":8798,"Ġdetail":8799,"Ġrecognis":8800,"ĠNetzwerk":8801,"Ġorganisation":8802,"According":8803,"ĠAp":8804,"Ã¼cke":8805,"ĠGreece":8806,"ĠBereit":8807,"ĠSim":8808,"ĠAbs":8809,"Ġsuc":8810,"Ġshops":8811,"mÃ¤r":8812,"Ġklare":8813,"Ġinformieren":8814,"Res":8815,"overy":8816,"oman":8817,"ossible":8818,"fÃ¼ll":8819,"ishes":8820,"Ġpeaceful":8821,"Ġfunktioniert":8822,"Ġhandeln":8823,"Ġvehicles":8824,"Ġalte":8825,"fachen":8826,"ĠArg":8827,"Ġfacing":8828,"ĠprÃ¤":8829,"MU":8830,"ĠOff":8831,"Ġmoral":8832,"ĠBÃ¼ro":8833,"Ġlernen":8834,"ĠWie":8835,"Ġthinking":8836,"Ġcalc":8837,"Erstens":8838,"EA":8839,"ries":8840,"ĠPrag":8841,"Ġmachines":8842,"aken":8843,"ĠInstrumente":8844,"Ġsand":8845,"Ġdarstellen":8846,"ameter":8847,"opol":8848,"Ġparagraph":8849,"ĠExp":8850,"Ġ194":8851,"umn":8852,"Ġspeaking":8853,"ĠISO":8854,"Ġfragen":8855,"Ġmeetings":8856,"Ġpercent":8857,"Ġresort":8858,"Ġadjust":8859,"ĠLeistungen":8860,"Ġober":8861,"Ġflexibility":8862,"ĠInitiativen":8863,"rich":8864,"henswÃ¼rd":8865,"Ġresist":8866,"portion":8867,"ĠBelarus":8868,"Ġaverage":8869,"Ġapplies":8870,"Ġconsideration":8871,"pper":8872,"ĠZeitraum":8873,"ĠBrussels":8874,"Ġsauber":8875,"Ġtrave":8876,"pliz":8877,"ĠArbeiten":8878,"ĠGroÃŁbritann":8879,"tete":8880,"ova":8881,"ĠVerÃ¤nderungen":8882,"year":8883,"inding":8884,"Ġdistrict":8885,"ĠDienste":8886,"ĠGlÃ¼ck":8887,"Ġbecomes":8888,"Any":8889,"Ġbear":8890,"Ġnumbers":8891,"ĠWebseite":8892,"Ġincome":8893,"Ġruss":8894,"like":8895,"ĠWien":8896,"schech":8897,"Ġhour":8898,"ĠAbgeordnete":8899,"bew":8900,"haben":8901,"ĠBerichte":8902,"erman":8903,"Ġgefordert":8904,"allel":8905,"las":8906,"Ġdagegen":8907,"ĠWirk":8908,"schung":8909,"ĠBil":8910,"iking":8911,"ĠBush":8912,"Ġtold":8913,"ĠWass":8914,"ĠBegriff":8915,"ĠLib":8916,"ashion":8917,"Ġopposition":8918,"ĠTeile":8919,"Ġfixed":8920,"cts":8921,"ĠEngagement":8922,"ĠSach":8923,"Ġpractices":8924,"Ġdurchaus":8925,"Ġschem":8926,"ĠHeil":8927,"Ġkonkrete":8928,"CC":8929,"Ġdro":8930,"ĠBanken":8931,"Ġverring":8932,"Ġwenigen":8933,"Ġdomestic":8934,"Ġsorg":8935,"Ġpromotion":8936,"ĠFebruar":8937,"ĠKol":8938,"ĠSysteme":8939,"ĠZeiten":8940,"ĠBos":8941,"hnung":8942,"hrase":8943,"ĠstÃ¤rken":8944,"embly":8945,"2010":8946,"ĠGipfel":8947,"Ġsucceed":8948,"33":8949,"Ġinstru":8950,"ĠVerstÃ¤nd":8951,"Ġsle":8952,"Ã¶ffnen":8953,"ĠNah":8954,"aker":8955,"Ġunternehmen":8956,"ĠPack":8957,"ĠAbsatz":8958,"Ġerleben":8959,"Ġjur":8960,"lern":8961,"ĠMitgliedstaat":8962,"ĠÃľ":8963,"Ġgradu":8964,"Ġbodies":8965,"ĠEisen":8966,"Nicht":8967,"Ġorient":8968,"ĠMadrid":8969,"Why":8970,"yes":8971,"ranken":8972,"Ġcontra":8973,"ĠFonds":8974,"ĠÃľbergang":8975,"Ist":8976,"LE":8977,"illing":8978,"iro":8979,"Ġvolle":8980,"hÃ¶rde":8981,"Selbst":8982,"Ġaims":8983,"ĠgewÃ¤hrleistet":8984,"leistungs":8985,"Ġhimself":8986,"iÃŁen":8987,"ĠMaschinen":8988,"qualitÃ¤t":8989,"SC":8990,"reifen":8991,"Ġ--":8992,"sb":8993,"ĠProte":8994,"Ġeingesch":8995,"ĠBay":8996,"erehr":8997,"www":8998,"Ġpropose":8999,"ĠApartments":9000,");":9001,"Ġwirks":9002,"Ġmyself":9003,"Ġlif":9004,"SL":9005,"ĠHerstellung":9006,"Ġlokalen":9007,"ĠBand":9008,"free":9009,"Ġdefined":9010,"ĠGuest":9011,"ĠHauses":9012,"Each":9013,"fÃ¼hrten":9014,"Ġsuperv":9015,"ĠGebieten":9016,"dis":9017,"ĠName":9018,"waren":9019,"ĠBarro":9020,"Ġestablishment":9021,"tte":9022,"cknow":9023,"Ġabsolut":9024,"ĠerklÃ¤ren":9025,"esterday":9026,"ĠverÃ¶ffentlicht":9027,"Ġrent":9028,"Ġsignal":9029,"Ġeasier":9030,"Ð²":9031,"ĠGrenz":9032,"Ġpolitics":9033,"Ġfreue":9034,"Ġmiddle":9035,"cting":9036,"ĠtrÃ¤gt":9037,"isierten":9038,"ĠAnteil":9039,"isms":9040,"bericht":9041,"Ġclaim":9042,"Ġliebe":9043,"iche":9044,"Ġfit":9045,"ĠEinigung":9046,"Ġadvanced":9047,"ĠPhil":9048,"ĠRisiko":9049,"ĠhÃ¤lt":9050,"ĠPoland":9051,"ĠPakistan":9052,"Ġhinzuf":9053,"ĠKÃ¶nigreich":9054,"uba":9055,"wagen":9056,"worten":9057,"Ã¤umen":9058,"ĠEconomic":9059,"ĠAngaben":9060,"Ġdatabase":9061,"Ġ32":9062,"Ã©e":9063,"Ġerfolgen":9064,"Ġclar":9065,"Ġsigned":9066,"Then":9067,"schrift":9068,"ĠbenÃ¶tigt":9069,"utin":9070,"Ġfinanzielle":9071,"Ġpromoting":9072,"known":9073,"ĠfrÃ¼h":9074,"Ġpros":9075,"Ġfailure":9076,"Ġinformed":9077,"ĠHerausforderung":9078,"ris":9079,"ĠWorte":9080,"ĠKritik":9081,"kle":9082,"Ġfinancing":9083,"accept":9084,"ĠRegelung":9085,"Ã¶der":9086,"Ġparliamentary":9087,"ibet":9088,"ĠRein":9089,"Art":9090,"Ġzul":9091,"ĠSchn":9092,"oyal":9093,"ando":9094,"Ġacknow":9095,"Ġverwende":9096,"Ġseriously":9097,"Ġexperienced":9098,"Ġerscheint":9099,"Ġglob":9100,"Last":9101,"Ġancient":9102,"Ġhtt":9103,"Ġgering":9104,"ĠStellungnahme":9105,"ĠRatsvorsitz":9106,"Will":9107,"lÃ¤gen":9108,"making":9109,"Ñı":9110,"04":9111,"wogen":9112,"Ġvoice":9113,"da":9114,"Ġmulti":9115,"ĠnÃ¤chste":9116,"Ġanyone":9117,"Ġdennoch":9118,"ĠVersuch":9119,"ĠRechnung":9120,"ĠKal":9121,"ĠWander":9122,"Ġtranslation":9123,"pendence":9124,"Ġgeograph":9125,"Ġcoffee":9126,"ĠmÃ¶glichst":9127,"qual":9128,"lÃ¶sung":9129,"2001":9130,"Ġlength":9131,"]],":9132,"ĠPrioritÃ¤ten":9133,"box":9134,"Ġdangerous":9135,"erse":9136,"fa":9137,"Ġkonzentrieren":9138,"05":9139,"Ġhop":9140,"Ġberu":9141,"deck":9142,"lisch":9143,"ĠEinhaltung":9144,"Unfortunately":9145,"Ġrech":9146,"ĠTool":9147,"flanzen":9148,"Ġpositions":9149,"DA":9150,"Ã¼g":9151,"Ġimag":9152,"Ġestate":9153,"ĠKingdom":9154,"icians":9155,"Ġstructures":9156,"Ġklass":9157,"Dank":9158,"ĠKil":9159,"Ġcooper":9160,"Ġgegenseit":9161,"ĠZweifel":9162,"ĠForderungen":9163,"ĠVill":9164,"ĠProv":9165,"ĠTechnik":9166,"95":9167,"Ġdifferences":9168,"ĠSehenswÃ¼rd":9169,"ĠÅ":9170,"zeption":9171,"ĠResearch":9172,"Ġconnected":9173,"Ġdifference":9174,"Ġmodels":9175,"Ġerstellen":9176,"Ġorganiz":9177,"Ġassociated":9178,"ĠVien":9179,"Ġcelebr":9180,"Ġsty":9181,"ĠNI":9182,"Ġstudies":9183,"eig":9184,"Ġklicken":9185,"Ġconcrete":9186,"ĠAtlant":9187,"ĠHafen":9188,"ĠÃ¼bertragen":9189,"einen":9190,"Ġstable":9191,"Ġdefence":9192,"Ġzerst":9193,"arta":9194,"ungsk":9195,"ibrary":9196,"ENT":9197,"arter":9198,"Click":9199,"Ġappears":9200,"Ġfle":9201,"ĠGN":9202,"Ġwithdra":9203,"gas":9204,"llos":9205,"Ġinstance":9206,"ibel":9207,"ĠMoment":9208,"ĠKirche":9209,"ĠGewÃ¤hr":9210,"peratur":9211,"ĠFormen":9212,"ĠSP":9213,"Ġoppos":9214,"ĠPower":9215,"Ġhouses":9216,"Ġwelcom":9217,"She":9218,"zig":9219,"ĠSonnen":9220,"Ġverfolgen":9221,"Ġunterschiedliche":9222,"ĠFlÃ¼cht":9223,"Ġhappened":9224,"Ġunge":9225,"Ġtut":9226,"Ġ2011":9227,"Part":9228,"Ġneighbour":9229,"Ġunto":9230,"Ġimplementing":9231,"ĠSM":9232,"verkehrs":9233,"Ġcombination":9234,"Ġsafegu":9235,"ua":9236,"ĠpersÃ¶nlich":9237,"ĠAg":9238,"Ġdrink":9239,"ĠBrÃ¼ssel":9240,"greif":9241,"Ġnennen":9242,"umÃ¤n":9243,"ĠAspekt":9244,"Ġbeaches":9245,"ifiziert":9246,"ĠAnalyse":9247,"Ġadoption":9248,"Nachfolgend":9249,"zwischen":9250,"Ð¼":9251,"ĠAssociation":9252,"ĠTitel":9253,"Ġhumanitarian":9254,"ĠSekt":9255,"Ġnatur":9256,"ĠMittelmeer":9257,"yright":9258,"ĠGeist":9259,"LAN":9260,"Ġnames":9261,"ĠAsyl":9262,"Ġamerikanischen":9263,"ĠGemeinsamen":9264,"door":9265,"Ġcarefully":9266,"Zudem":9267,"person":9268,"Ġaccur":9269,"ĠendgÃ¼lt":9270,"Ġapproxim":9271,"ĠFore":9272,"ĠWeiter":9273,"Ġcourses":9274,"Ġarticle":9275,"ĠEntschlieÃŁungsantrag":9276,"ategory":9277,"Ġunaccept":9278,"Ġumfasst":9279,"Ġgeleistet":9280,"Ġcondem":9281,"Ġlegen":9282,"Ġspielt":9283,"Ġbetrachtet":9284,"ĠLesung":9285,"Ġpet":9286,"Ġcollabor":9287,"Ġbooking":9288,"zz":9289,"Ġmanage":9290,"licherweise":9291,"Ġimpossible":9292,"Chr":9293,"Ã¼ter":9294,"tenance":9295,"Ġexhibition":9296,"rÃ¤ume":9297,"Ġstatements":9298,"body":9299,"ĠFound":9300,"ĠHealth":9301,"leiten":9302,"ĠgegrÃ¼ndet":9303,"iffer":9304,"ĠForum":9305,"Ġproducers":9306,"Ġverlassen":9307,"Ġagencies":9308,"aby":9309,"abhÃ¤ngigkeit":9310,"zeugung":9311,"rollen":9312,"liefer":9313,"Ġimmediate":9314,"ĠtÃ¤glich":9315,"Ġspent":9316,"ista":9317,"olo":9318,"raucher":9319,"Ġreducing":9320,"ĠLeistung":9321,"stattung":9322,"estaurant":9323,"Ġdenken":9324,"Ġdiskutieren":9325,"ĠMechan":9326,"Ġpositiv":9327,"Ġarrival":9328,"Ġtelevision":9329,"ibli":9330,"Ġverloren":9331,"%.":9332,"arischen":9333,"Ġindire":9334,"Ġausges":9335,"ĠTerrasse":9336,"Ãº":9337,"ading":9338,"Ġevidence":9339,"ĠMount":9340,"ĠschÃ¶nen":9341,"Ġunan":9342,"Ġadapt":9343,"Ġtruly":9344,"ĠAufbau":9345,"Ġcalling":9346,"Ġattractive":9347,"Ġleader":9348,"Ġarchitecture":9349,"Ser":9350,"ĠEnvironment":9351,"hindert":9352,"Innen":9353,"orient":9354,"Ġguarantees":9355,"Ġreasonable":9356,"stimmung":9357,"ĠPHP":9358,".âĢĿ":9359,"Date":9360,"ĠSanta":9361,"Bar":9362,"Ġfulfil":9363,"regel":9364,"ĠJahrhunderts":9365,"Ġannounced":9366,"road":9367,"lÃ¤uf":9368,"Ġrecognition":9369,"ĠFen":9370,"Ġcred":9371,"Leider":9372,"ĠunabhÃ¤ngig":9373,"Ġdescribed":9374,"Ġbehaup":9375,"haber":9376,"sized":9377,"eing":9378,"ruf":9379,"iegel":9380,"Ġerforderlichen":9381,"kÃ¼nd":9382,"Ġhttp":9383,"ido":9384,"ointed":9385,"Ã¤lter":9386,"Ġhair":9387,"ema":9388,"Ġshared":9389,"Ġfeststellen":9390,"ĠDorf":9391,"ohlen":9392,"ny":9393,"organisation":9394,"ĠKatastrop":9395,"Ġbegrenz":9396,"Ġau":9397,"Ġzweit":9398,"ĠPaket":9399,"lager":9400,"Ã¤rm":9401,"Ġcompla":9402,"rimination":9403,"ĠBlack":9404,"Ġsatell":9405,"ĠKenn":9406,"Because":9407,"Ġgenuine":9408,"Ġerleich":9409,"kor":9410,"ĠVerfass":9411,"ĠhÃ¶ren":9412,"Ġreleased":9413,"ĠCasino":9414,"wissen":9415,"preise":9416,"ador":9417,"Ġexcess":9418,"Ġbackground":9419,"Ġabgeschlossen":9420,"Ġcharged":9421,"karten":9422,"meld":9423,"Ġalt":9424,"active":9425,"Ðĵ":9426,"Ġterritory":9427,"Ġgarantiert":9428,"Ġadvance":9429,"Ġahead":9430,"ĠVielzahl":9431,"UN":9432,"ĠTexte":9433,"Ġmist":9434,"ugos":9435,"okraten":9436,"Ġdiscrimination":9437,"Ã¤ck":9438,"ĠMesse":9439,"ĠStÃ¤rkung":9440,"Ġentertain":9441,"Ġavailability":9442,"ĠWÃ¤hrungs":9443,"Ġarbeitet":9444,"ĠJustice":9445,"ĠIdeen":9446,"Ġenth":9447,"Ġimprovement":9448,"ĠFernse":9449,"hle":9450,"ĠHarmon":9451,"ĠKompeten":9452,"oring":9453,"reten":9454,"Ġeiniger":9455,"iendly":9456,"ĠZugrif":9457,"wurf":9458,"atisch":9459,"Ġforest":9460,"Ġpossibilities":9461,"Ġmonetary":9462,"Ġtaste":9463,"Ġcards":9464,"Ġbemer":9465,"ĠSehenswÃ¼rdigkeiten":9466,"ĠSorge":9467,"Ġwishes":9468,"02":9469,"Ġtrag":9470,"temporary":9471,"Ġkulturellen":9472,"rÃ¤nken":9473,"Gu":9474,"ĠAv":9475,"irus":9476,"ĠIrish":9477,"ĠÃ¼berprÃ¼fen":9478,"Ã¤ten":9479,"nam":9480,"Ġwin":9481,"Ġmembership":9482,"75":9483,"Script":9484,"itious":9485,"posit":9486,"sprogramm":9487,"ĠEine":9488,"condition":9489,"ĠPa":9490,"auftrag":9491,"Ġhingewiesen":9492,"Ġrelaxing":9493,"100":9494,"eto":9495,"ĠStein":9496,"ĠReserv":9497,"jÃ¤hrigen":9498,"ologische":9499,"Ġunacceptable":9500,"iscal":9501,"Ġowners":9502,"with":9503,"Ġnearby":9504,"Ġcontinued":9505,"grade":9506,"Ġconsumption":9507,"ensus":9508,"ĠKommissions":9509,"Ġspl":9510,"ĠAnwendungen":9511,"Ġisol":9512,"icking":9513,"Ġtasks":9514,"ĠRuhe":9515,"ĠtÃ¤tig":9516,"gypt":9517,"34":9518,"ĠStrom":9519,"Never":9520,"Ġunz":9521,"Ġdesire":9522,"Ġmiteinander":9523,"Ġstell":9524,"Ġskills":9525,"Ġglass":9526,"Ġparticipate":9527,"rance":9528,"Ġausreichend":9529,"weist":9530,"ĠEntwicklungen":9531,"ĠArbeitslosigkeit":9532,"gestimmt":9533,"Ġow":9534,"istisch":9535,"Ġcur":9536,"Ġintroduce":9537,"Ġbezeichnet":9538,"ĠCre":9539,"Ġcontinues":9540,"Ġfigures":9541,"comm":9542,"36":9543,"Ġtrading":9544,"Ġuna":9545,"Ġcars":9546,"Ġrichtigen":9547,"Ġdelic":9548,"Ġsn":9549,"Ġcombined":9550,"Ġgreatest":9551,"haltet":9552,"ĠSaint":9553,"Ġeffektiv":9554,"ĠÃľberwachung":9555,"Ġoccasion":9556,"formationen":9557,"ÃŃa":9558,"32":9559,"Ġgeneration":9560,"aration":9561,"ĠUmfang":9562,"ĠAussicht":9563,"ĠPolize":9564,"System":9565,"Produ":9566,"Ġhaup":9567,"ĠBedarf":9568,"Ġexpend":9569,"bieter":9570,"ĠNahrungs":9571,"fÃ¼hrungen":9572,"Ġstrongly":9573,"ĠHol":9574,"ĠLam":9575,"Once":9576,"bere":9577,"Ġcompleted":9578,"Gr":9579,"ĠWand":9580,"ĠvernÃ¼nft":9581,"Ġattach":9582,"Ġexcept":9583,"Ġallowing":9584,"km":9585,"ĠHersteller":9586,"ĠDemocrats":9587,"Can":9588,"ĠGroÃŁbritannien":9589,"Ġprofitieren":9590,"ĠWald":9591,"Bahn":9592,"Ġweiterer":9593,"sequent":9594,"Ġdevices":9595,"Ġconv":9596,"ĠHamburg":9597,"krieg":9598,"schlÃ¤ge":9599,"Ġraise":9600,"ireless":9601,"Ġsurrounding":9602,"New":9603,"Ġunless":9604,"Ġunfortunately":9605,"Ġpackages":9606,"Ġentitled":9607,"ĠSaf":9608,"Ġzahlen":9609,"Ã¶ss":9610,"ĠeingefÃ¼hrt":9611,"assung":9612,"partner":9613,"Ġtransition":9614,"ĠTourismus":9615,"ĠBedÃ¼rfnisse":9616,"utch":9617,"ilst":9618,"government":9619,"Ġmission":9620,"38":9621,"uble":9622,"Ġgewinnen":9623,"ĠProblemen":9624,"ylum":9625,"Ġbeauty":9626,"Ġattractions":9627,"ĠElement":9628,"chnet":9629,"Ã¶se":9630,"Ġaufmerksam":9631,"leihen":9632,"Ġreligious":9633,"Ġenables":9634,"ĠHeimat":9635,"chem":9636,"Ġsale":9637,"ĠKonz":9638,"Ġpure":9639,"Ġkonstru":9640,"ĠEngland":9641,"ĠVerletz":9642,"'re":9643,"Ġsquare":9644,"Ġeconomies":9645,"Ġregistered":9646,"Ġerf":9647,"Ġburden":9648,"Ġriver":9649,"cont":9650,"ĠPatienten":9651,"Ġmeters":9652,"Ġgeschehen":9653,"ĠFoundation":9654,"ĠNutzen":9655,"gesichts":9656,"stands":9657,"ĠBeitritt":9658,"ĠÃ¼berall":9659,"Ġregionalen":9660,"Ġvul":9661,"ĠTechn":9662,"ĠZustÃ¤nd":9663,"Ġappeal":9664,"Ġborn":9665,"ĠWÃ¼n":9666,"Vers":9667,"ĠRechnungs":9668,"ĠKÃ¼nstler":9669,"ĠGeschÃ¤ftsordnung":9670,"ĠAchtung":9671,"Ġbeginnt":9672,"ikal":9673,"Ġvert":9674,"Ġmicro":9675,"Jetzt":9676,"Sub":9677,"Ġdanach":9678,"windigkeit":9679,"Most":9680,"Ġfruit":9681,"Ġinsurance":9682,"ĠFreund":9683,"Ġcloser":9684,"riminierung":9685,"Her":9686,"Ġsurface":9687,"andidaten":9688,"ĠRand":9689,"ĠAfrican":9690,"viel":9691,"Fe":9692,"Ġrelativ":9693,"Ġeinsetzen":9694,"Ġvorliegenden":9695,"Ġurban":9696,"Ġdedicated":9697,"Ã¼rk":9698,"allery":9699,"Ġentstanden":9700,"Ġspezielle":9701,"Ġwindow":9702,"ĠSuch":9703,"ĠFestival":9704,"hÃ¶ren":9705,"brauch":9706,"Ġrefle":9707,"ĠsÃ¤mtliche":9708,"bieten":9709,"ĠÃ¼b":9710,"ĠunterstÃ¼tze":9711,"ĠVerpflichtung":9712,"rÃ¼st":9713,"igned":9714,"Ġexercise":9715,"ĠNether":9716,"Ġcommand":9717,"ĠAllgemein":9718,"ĠImmobilien":9719,"anische":9720,"ĠEffe":9721,"tzeit":9722,"onia":9723,"omas":9724,"Ġ1994":9725,"rate":9726,"ĠbestÃ¤tigt":9727,"Ġliter":9728,"Ġbesitzt":9729,"ĠTurkish":9730,"ĠKurs":9731,"version":9732,"Cont":9733,"TE":9734,"Ġkeinerlei":9735,"real":9736,"Ġunion":9737,"ĠRome":9738,"ĠgegenwÃ¤rtig":9739,"Ġholidays":9740,"Ġ75":9741,"ĠVerteidigung":9742,"Ġasylum":9743,"Ġverfolgt":9744,"ĠVersch":9745,"ĠAfrika":9746,"Ġkons":9747,"glieder":9748,"pa":9749,"plex":9750,"rochen":9751,"ĠFÃ¼hrung":9752,"Ġenormous":9753,"Other":9754,"ĠTop":9755,"ĠgrenzÃ¼ber":9756,"Ġfolgende":9757,"ĠJustiz":9758,"Ġeinst":9759,"ĠGerichtshof":9760,"technik":9761,"linge":9762,"Ġindividuals":9763,"Ġearth":9764,"ĠfranzÃ¶sischen":9765,"atever":9766,"afr":9767,"sektor":9768,"ĠChanc":9769,"Up":9770,"iam":9771,"ĠWall":9772,"ausschusses":9773,"Ġperspective":9774,"Ġsides":9775,"log":9776,"steht":9777,"Ġromant":9778,"ĠFinn":9779,"Ġnorm":9780,"ĠDrogen":9781,"ĠAnlagen":9782,"Ġniedr":9783,"Ġverehr":9784,"ĠPolen":9785,"Ġbeteiligt":9786,"Dennoch":9787,"Ġforced":9788,"Ġclaims":9789,"Ġzentrale":9790,"ĠAK":9791,"ĠZur":9792,"ĠMel":9793,"Ġpolitischer":9794,"Ġtotally":9795,"ĠAnw":9796,"Ġvollkommen":9797,"ĠDollar":9798,"ĠLandwir":9799,"ĠRooms":9800,"ĠElemente":9801,"Ã£":9802,"Ġgestalten":9803,"isierte":9804,"ĠÃ¶k":9805,"ĠGlobalisierung":9806,"Ġadvertising":9807,"Ġnotice":9808,"ĠAusfl":9809,"ĠnÃ¼tz":9810,"Ġvision":9811,"Ġreservation":9812,"Ġmeant":9813,"ĠEuropÃ¤er":9814,"Ġstim":9815,"ĠPrioritÃ¤t":9816,"ĠWi":9817,"Ġkept":9818,"Parliament":9819,"Ġrailway":9820,"Ãĸ":9821,"ague":9822,"hÃ¶hung":9823,"Ġreliable":9824,"ĠPartnerschaft":9825,"aktionen":9826,"Ġinstalled":9827,"Ġoffensichtlich":9828,"ĠFortschritt":9829,"Ġhaupts":9830,"ĠÃ¤uÃŁ":9831,"ĠAltstadt":9832,"Ind":9833,"ĠgrÃ¶ÃŁeren":9834,"Firstly":9835,"Ġestablishing":9836,"Ġbutton":9837,"ĠPoker":9838,"ĠgroÃŁes":9839,"imit":9840,"ĠChristian":9841,"64":9842,"Ġeinver":9843,"ĠWorten":9844,"zep":9845,"ĠColle":9846,"Ġlearning":9847,"Ġgranted":9848,"mÃ¶gen":9849,"Ġdiss":9850,"ĠBern":9851,"systeme":9852,"gegeben":9853,"werb":9854,"istik":9855,"Ġconfir":9856,"Ġeinfache":9857,"Ġluxury":9858,"Ġstory":9859,"ĠOrig":9860,"Ġergeben":9861,"ĠTeilnehmer":9862,"ĠMuse":9863,"Ġcourt":9864,"Ġshop":9865,"2009":9866,"Ġfailed":9867,"Fi":9868,"ĠTrade":9869,"Ġcra":9870,"ĠPrime":9871,"Ġcompared":9872,"Ġconvinced":9873,"pal":9874,"Ġpara":9875,"ĠEuropeans":9876,"ĠBut":9877,"hlt":9878,"olge":9879,"Ġqualit":9880,"Ġempfehlen":9881,"Ġstorage":9882,"ĠgegenwÃ¤rtigen":9883,"Pe":9884,"ĠVerst":9885,"upp":9886,"Ġgrant":9887,"Ġgeeig":9888,"Ġgarantieren":9889,"Ġurgent":9890,"Ġreprodu":9891,"Ġdevice":9892,"Ġhighlight":9893,"Ġextended":9894,"Ġmemory":9895,"ĠVienna":9896,"ĠStadtz":9897,"ĠGrunde":9898,"Ġstands":9899,"eller":9900,"Ġspending":9901,"Ġwarten":9902,"Ġdauer":9903,"ĠgeschÃ¼tzt":9904,"Ġbiggest":9905,"Ġmountains":9906,"attform":9907,"ĠhÃ¶chste":9908,"ĠRegelungen":9909,"Ġforth":9910,"Ġsolcher":9911,"Ġgenet":9912,"ergie":9913,"Ġbuffet":9914,"ĠMP":9915,"Ġseven":9916,"xts":9917,"erma":9918,"ĠEADS":9919,"reisen":9920,"Ġscience":9921,"Ġconclusions":9922,"Ġgutes":9923,"Ġverbundenen":9924,"itage":9925,"uchten":9926,"500":9927,"Ġsession":9928,"Ġpassed":9929,"Ġbeige":9930,"Ġgrunds":9931,"Ġelimin":9932,"Ġmagn":9933,"zust":9934,"ĠMaÃŁe":9935,"Ġinternationaler":9936,"ipping":9937,"teten":9938,"Ġprison":9939,"Ġveget":9940,"reu":9941,"Ġumfassende":9942,"ram":9943,"ĠTisch":9944,"Ġpor":9945,"athed":9946,"onial":9947,"asil":9948,"ĠUSB":9949,"ĠRegulation":9950,"ĠzusÃ¤tzlich":9951,"Ġhum":9952,"Ġchair":9953,"ĠAlex":9954,"ĠBewertung":9955,"29":9956,"Ġcontrols":9957,"Os":9958,"Ġtief":9959,"ĠBeteiligung":9960,"Ġru":9961,"Ġgolf":9962,"ĠkÃ¼":9963,"ĠVo":9964,"ĠFoto":9965,"holung":9966,"ĠHall":9967,"Ġunable":9968,"ĠIrland":9969,"ĠMeeres":9970,"Ġbeinhaltet":9971,"Ġformal":9972,"ĠSchif":9973,"enkt":9974,"ĠMutter":9975,"hebung":9976,"reis":9977,"Ġcontrary":9978,"reibt":9979,"ĠIns":9980,"ĠNetherlands":9981,"Ġenfor":9982,"Ġ36":9983,"Ġcorporate":9984,"prinzip":9985,"Ġfactors":9986,"ĠFederal":9987,"Ġfinance":9988,"Ġmoving":9989,"ĠBarroso":9990,"Ġadvice":9991,"det":9992,"Com":9993,"ammer":9994,"Ġaufzu":9995,"Ġmotiv":9996,"Ã¤fen":9997,"ĠEindruck":9998,"==":9999,"ilot":10000,"iode":10001,"Ġrob":10002,"alia":10003,"Ġwesentlichen":10004,"ĠMik":10005,"Warum":10006,"oram":10007,"ancial":10008,"ĠlÃ¤":10009,"Ġ),":10010,"Ġliber":10011,"Ġcore":10012,"Ġsogen":10013,"Ġdisease":10014,"verein":10015,"Ġtried":10016,"Ġunit":10017,"ĠLake":10018,"heits":10019,"Sterne":10020,"Ihr":10021,"ĠLeistungs":10022,"SQL":10023,"Ġdefinition":10024,"Ġdimension":10025,"ĠFel":10026,"istor":10027,"ĠausfÃ¼hr":10028,"actions":10029,"Ġdrawn":10030,"Ġlegitim":10031,"Ġperfectly":10032,"Such":10033,"aket":10034,"lÃ¤gt":10035,"Ġlaid":10036,"ĠPPE":10037,"Ġleb":10038,"ĠmÃ¼s":10039,"ĠHard":10040,"iertes":10041,"Ġweapons":10042,"igrants":10043,"Ġdefend":10044,"Ġscale":10045,"Ġearn":10046,"ĠDigital":10047,"Ġpour":10048,"Ġexpression":10049,"Ġartists":10050,"ĠDefin":10051,"ĠUrs":10052,"straÃŁe":10053,"Ġintervention":10054,"setzt":10055,"Ġmaintenance":10056,"ĠBeach":10057,"Ġsaw":10058,"Ġmode":10059,"Ġchosen":10060,"Ġcommitments":10061,"ancy":10062,"Ġdestroy":10063,"Ġguide":10064,"ĠGriechenland":10065,"Ġdiplomat":10066,"ĠMun":10067,"ĠGebrauch":10068,"reck":10069,"stÃ¤t":10070,"Ãľ":10071,"Ġunf":10072,"ington":10073,"worfen":10074,"lÃ¼ckwÃ¼n":10075,"Ġ00":10076,"utzer":10077,"gibt":10078,"Ã¼gel":10079,"Hin":10080,"Ent":10081,"fallen":10082,"ĠPDF":10083,"Ġspa":10084,"Me":10085,"iced":10086,"Ġteilnehmen":10087,"ÑĮ":10088,"enntnisse":10089,"ĠMÃ¤rkte":10090,"Ġcondemn":10091,"Ġenor":10092,"Ġfreie":10093,"leun":10094,"Â«":10095,"iefer":10096,"ĠVertrie":10097,"ĠMedia":10098,"ĠHT":10099,"ĠHaut":10100,"Ġsteigen":10101,"Ã¤ufer":10102,"Ã¤lfte":10103,"ĠPeople":10104,"ĠTodes":10105,"Ġcandidate":10106,"Mehr":10107,"Ġneither":10108,"idung":10109,"Ġinvestig":10110,"Ġjour":10111,"ĠGrÃ¶ÃŁe":10112,"itar":10113,"DR":10114,"vorschlag":10115,"ĠUniversitÃ¤t":10116,"ĠwunderschÃ¶":10117,"Adr":10118,"ĠMindest":10119,"ĠEastern":10120,"Ġrightly":10121,"ĠGrÃ¼nde":10122,"Ġsem":10123,"ĠFotos":10124,"Ġhonourable":10125,"Ġkorre":10126,"ĠbeglÃ¼ckwÃ¼n":10127,"ibliothe":10128,"mittelt":10129,"ĠPalace":10130,"Ġmatch":10131,"rans":10132,"Ġbetrachten":10133,"Ġinterface":10134,"ĠMÃ¼":10135,"wechsel":10136,"ĠGegensatz":10137,"Ġerh":10138,"bring":10139,")(":10140,"Ġagency":10141,"ĠMonat":10142,"Ġobligations":10143,"nehmern":10144,"ĠVermitt":10145,"aub":10146,"Ñĭ":10147,"Ġoutcome":10148,"Ġkos":10149,"ĠVerz":10150,"Ġachieving":10151,"ĠStÃ¤dte":10152,"apers":10153,"bald":10154,"08":10155,"ĠGreek":10156,"ĠConstitution":10157,"Ġdefinit":10158,"inning":10159,"ĠAustrian":10160,"Ã¥":10161,"Ġchemical":10162,"Ġbalcon":10163,"ternen":10164,"ĠLizenz":10165,"jet":10166,"Ġï¿½":10167,"omin":10168,"Ġsecret":10169,"EW":10170,"ĠWechsel":10171,"Ġambitious":10172,"ĠUnabhÃ¤ngigkeit":10173,"Ġspeziellen":10174,"ĠInstitute":10175,"ichtete":10176,"Ġcolour":10177,"umer":10178,"alty":10179,"Ġdient":10180,"Ġsched":10181,"Ġroute":10182,"ĠIC":10183,"sequently":10184,"urm":10185,"ĠDus":10186,"ĠPresse":10187,"aschen":10188,"Ġoutstanding":10189,"ĠBudget":10190,"Ġlangen":10191,"look":10192,"Ġobviously":10193,"versorgung":10194,"ĠNutzer":10195,"ĠAber":10196,"Ġrock":10197,"uzz":10198,"Ġsam":10199,"Ġsituations":10200,"uters":10201,"Ġgelungen":10202,"ĠVerstÃ¤ndnis":10203,"iov":10204,"ĠMond":10205,"Ġconstantly":10206,"ĠKohÃ¤s":10207,"ĠLive":10208,"ario":10209,"asters":10210,"ĠBeschÃ¤ftigungs":10211,"Ġweight":10212,"wortet":10213,"Ġfestge":10214,"Ġelection":10215,"Ġphotos":10216,"Ġanaly":10217,"Ġcolleague":10218,"ĠerhÃ¶ht":10219,"Ġep":10220,"fÃ¤hig":10221,"governmental":10222,"ickt":10223,"ĠNav":10224,"Ġflight":10225,"ĠAktionen":10226,"Ġfiscal":10227,"klang":10228,"ĠLatin":10229,"Ġorganised":10230,"Ġlimits":10231,"orial":10232,"Ġdaraus":10233,"Ġupdate":10234,"endum":10235,"Ġpatent":10236,"ĠTrek":10237,"ĠThey":10238,"Fre":10239,"Ġtitle":10240,"Ġsensitive":10241,"ĠControl":10242,"ĠErklÃ¤rungen":10243,"ĠEreignisse":10244,"Ġerfre":10245,"Ġsell":10246,"Ġcontinuing":10247,"Ġcorrespond":10248,"Ġdistin":10249,"ĠFitness":10250,"Ġminute":10251,"Ġpayments":10252,"Ġbritischen":10253,"Br":10254,"Ġsomeone":10255,"Ġsurrounded":10256,"Ġdur":10257,"abilities":10258,"ĠECU":10259,"utzung":10260,"onenten":10261,"Ġvergleich":10262,"Angesichts":10263,"Ġvehicle":10264,"ela":10265,"ĠGre":10266,"Ġelected":10267,"39":10268,"Ġcompat":10269,"Ġstarke":10270,"ĠSchÃ¶n":10271,"Ġequality":10272,"ĠgeÃ¶ffnet":10273,"Meiner":10274,"isure":10275,"elbe":10276,"ĠZwischen":10277,"ĠSÃ¤":10278,"ĠErde":10279,"Ġinformiert":10280,"Ġumwelt":10281,"Klicken":10282,"UT":10283,"management":10284,"AB":10285,"Ġyesterday":10286,"ĠschÃ¶ne":10287,"Ġrevolution":10288,"Ġasking":10289,"fest":10290,"Ġbenach":10291,"NL":10292,"ĠSÃ¼den":10293,"PC":10294,"Ġsuccessfully":10295,"knÃ¼":10296,"ĠMarken":10297,"ifications":10298,"Ġlauf":10299,"Ġstore":10300,"ĠMitteln":10301,"reitung":10302,"ĠAnlage":10303,"ĠCH":10304,"Ġgoals":10305,"era":10306,"Ġreject":10307,"ĠnÃ¤her":10308,"Ġcontents":10309,"ĠAusland":10310,"Ġwealth":10311,"ĠUnterkunft":10312,"Ġbound":10313,"Ġaccessible":10314,"ĠMarket":10315,"ĠBahnhof":10316,"ĠForeign":10317,"ĠRealitÃ¤t":10318,"ĠResort":10319,"Ġprivile":10320,"Ben":10321,"oret":10322,"auso":10323,"Ġorganization":10324,"ipe":10325,"ĠKarten":10326,"atures":10327,"ĠNiveau":10328,"gefÃ¤hr":10329,"ĠCompany":10330,"arth":10331,"Ġcheap":10332,"ĠWirkung":10333,"ĠFraktionen":10334,"Ġcategory":10335,"ismen":10336,"ĠEmpfehlungen":10337,"ĠSummit":10338,"Ġexpenditure":10339,"erry":10340,"Ġsurv":10341,"lament":10342,"ĠCam":10343,"reitet":10344,"Ġexklus":10345,"ask":10346,"ĠKopf":10347,"ĠAgency":10348,"ktivitÃ¤t":10349,"Ġrecommendations":10350,"Ġmassive":10351,"Nevertheless":10352,"09":10353,"Weit":10354,"tellect":10355,"enswert":10356,"Ġaircraft":10357,"ĠBeschluss":10358,"ĠFlexibilitÃ¤t":10359,"nd":10360,"ĠIndien":10361,"kurr":10362,"ĠBotschaft":10363,"ĠTHE":10364,"Ġrace":10365,"Ġguter":10366,"ategorie":10367,"Ã¤hren":10368,"ĠsorgfÃ¤lt":10369,"EO":10370,"Ġphilosoph":10371,"Ġspecies":10372,"Ġeinverstanden":10373,"ĠÃ¼berein":10374,"apter":10375,"Ã¢":10376,"ĠRos":10377,"Ġrig":10378,"Ġallgemeine":10379,"Ġindependence":10380,"Ġmittl":10381,"Ġrasch":10382,"Ġphysical":10383,"ĠProgramms":10384,"ĠHoffnung":10385,"ĠhauptsÃ¤chlich":10386,"ĠArchitektur":10387,"ĠDimension":10388,"Ġbalanced":10389,"ansion":10390,"Ġeinsch":10391,"Ġlabor":10392,"handels":10393,"ĠID":10394,"ĠBetriebs":10395,"Ġgehalten":10396,"ĠCroat":10397,"ĠReich":10398,"ĠAgentur":10399,"Gleichzeitig":10400,"imal":10401,"Ġgrie":10402,"Ġbeachten":10403,"Ġ48":10404,"Ġsatellite":10405,"Another":10406,"Ġtreten":10407,"Ġacts":10408,"Ander":10409,"Ġgeschieht":10410,"lichem":10411,"Ġmerely":10412,"abl":10413,"unehm":10414,"ĠStudien":10415,"Sim":10416,"Ġnar":10417,"Ġideale":10418,"Gem":10419,"ĠFront":10420,"Ġtargets":10421,"gbarkeit":10422,"ĠdÃ©":10423,"Ġpun":10424,"ĠPo":10425,"eind":10426,"obility":10427,"Ġfestgestellt":10428,"wers":10429,"Ġintention":10430,"ĠauÃŁerord":10431,"Ġniemand":10432,"Ġfurnished":10433,"Ġhoh":10434,"cast":10435,"Ġconsists":10436,"ĠGebiete":10437,"Ġmanchmal":10438,"ĠFarben":10439,"ĠtÃ¼rk":10440,"Ġlake":10441,"otten":10442,"ĠOut":10443,"ĠmÃ¶glichen":10444,"ĠEmiss":10445,"ĠDatenschutz":10446,"ĠWiederauf":10447,"ĠLiberalisierung":10448,"ky":10449,"ĠMichael":10450,"Ġreve":10451,"Ġmittels":10452,"Ġeinzigen":10453,"Ġcontained":10454,"ĠVoraussetzungen":10455,"Ġherzlich":10456,"ĠZahlen":10457,"ĠLo":10458,"abled":10459,"ĠFeld":10460,"Ġcommunities":10461,"ĠBeihilfen":10462,"ĠFert":10463,"Ġchanging":10464,"Ġkaufen":10465,"Ġcontemporary":10466,"Ġpreserv":10467,"ĠGegenteil":10468,"bindung":10469,"ĠLinks":10470,"Ã¼nfte":10471,"Ġapproximately":10472,"06":10473,"bett":10474,"ĠjÃ¼ngsten":10475,"Ġunternommen":10476,"ĠGesetzgebung":10477,"rupt":10478,"Ġjungen":10479,"cap":10480,"ĠauslÃ¤nd":10481,"Ġspricht":10482,"Ġdynamic":10483,"ĠArbeitsmarkt":10484,"ĠKooperation":10485,"Ġlandscape":10486,"Ġdete":10487,"Ġsage":10488,"Ġwaiting":10489,"Ġgebe":10490,"wendungs":10491,"ĠStudio":10492,"wachst":10493,"Ġsobald":10494,"ĠWhite":10495,"ĠLord":10496,"Ġputting":10497,"Ġvorgeschlagenen":10498,"bÃ¼rger":10499,"ĠPool":10500,"ĠDay":10501,"verse":10502,"Over":10503,"Ġprevention":10504,"zil":10505,"ĠSyn":10506,"ĠRisiken":10507,"kan":10508,"ĠGrundrechte":10509,"Ġparticipants":10510,"Ġdisposal":10511,"Ġther":10512,"Ġgrounds":10513,"lege":10514,"ĠVe":10515,"ĠOption":10516,"ĠUl":10517,"Ġsmaller":10518,"ĠPalestinian":10519,"Ġ(\"":10520,"ĠVan":10521,"Ġmechanism":10522,"Comp":10523,"Ġsubmit":10524,"Wo":10525,"ĠMail":10526,"odurch":10527,"ĠGarden":10528,"Ġbars":10529,"Ġschneller":10530,"Ġprospect":10531,"ĠRob":10532,"Ġbringing":10533,"Ġerfordert":10534,"ĠVorteil":10535,"ĠÃ¼bernommen":10536,"ĠKontroll":10537,"ĠAls":10538,"annung":10539,"2008":10540,"Ġswe":10541,"istungs":10542,"Ġglad":10543,"37":10544,"ĠErwart":10545,"Ġpointed":10546,"Ġnationaler":10547,"Ġleads":10548,"()":10549,"Ġslight":10550,"ĠMilitÃ¤r":10551,"ĠVerkauf":10552,"Ã¤hlten":10553,"Ġfraud":10554,"Ġguaranteed":10555,"ĠRelig":10556,"Ġquot":10557,"Ġgewiss":10558,"ĠIII":10559,"Ġresulting":10560,"Ġplanned":10561,"ĠBill":10562,"Ġconvention":10563,"Ġselten":10564,"inent":10565,"vereign":10566,"Ġwebs":10567,"Ġdamals":10568,"Ġcool":10569,"Ġcount":10570,"Ġpred":10571,"Ġteilen":10572,"Ġsovereign":10573,"Ġblog":10574,"asen":10575,"ĠpersÃ¶nliche":10576,"ĠAns":10577,"artet":10578,"ĠSquare":10579,"ĠabhÃ¤ng":10580,"ulating":10581,"ĠLag":10582,"Ġfactor":10583,"ĠZoll":10584,"ĠAlban":10585,"Ġwrite":10586,"hel":10587,"ĠRegistr":10588,"Ġresponsibilities":10589,"wiesen":10590,"rÃ¤nkungen":10591,"Ġzunehm":10592,"ĠMain":10593,"splan":10594,"ĠSchm":10595,"Ġdig":10596,"oster":10597,"Ġseeking":10598,"ĠregelmÃ¤ÃŁig":10599,"TP":10600,"ĠGaz":10601,"ĠgewÃ¼nsch":10602,"Ġwachs":10603,"endung":10604,"Ġvieler":10605,"Ġoperate":10606,"ĠMarketing":10607,"Ġpill":10608,"ĠAlliance":10609,"Ġcauses":10610,"ĠMitgliedern":10611,"Ġcapable":10612,"Ġzugleich":10613,"Ġstrengthening":10614,"kunden":10615,"akete":10616,"wegs":10617,"Ġacceptable":10618,"Ġanbieten":10619,"Ġbetroffenen":10620,"rittens":10621,"ĠMitglieds":10622,"rist":10623,"ĠGreat":10624,"Ġwodurch":10625,"Ġberecht":10626,"Ġnav":10627,"Ġandererseits":10628,"Ġbeob":10629,"Ġconclude":10630,"vely":10631,"Ġpleasure":10632,"going":10633,"Ġnachhaltige":10634,"ints":10635,"ermaÃŁen":10636,"ausende":10637,"Ġmedizin":10638,"ĠManager":10639,"ĠFriedens":10640,"utr":10641,"ress":10642,"ĠAct":10643,"ĠHauptstadt":10644,"ventions":10645,"krat":10646,"ieb":10647,"rea":10648,"Ġretain":10649,"ques":10650,"Ġbrings":10651,"ĠPhase":10652,"cco":10653,"Ġpraktisch":10654,"Ġung":10655,"arium":10656,"istenz":10657,"Ġexamples":10658,"ĠzÃ¤hlen":10659,"Ġfashion":10660,"Ġgramm":10661,"omit":10662,"iene":10663,"Ġmanufacturing":10664,"Ġregistration":10665,"Ġvorschlagen":10666,"ĠBeob":10667,"iot":10668,"His":10669,"Ġid":10670,"richtlinie":10671,"Ġvalu":10672,"Vielen":10673,"weiten":10674,"ifellos":10675,"Ġgemeinschaft":10676,"Ġunderg":10677,"ssystem":10678,"ĠDeutsche":10679,"gin":10680,"ĠBla":10681,"Ġverk":10682,"Ġrecovery":10683,"Ġletter":10684,"ĠAuch":10685,"ĠNiederl":10686,"ĠBestandteil":10687,"Yet":10688,"Ã¤ume":10689,"ĠMÃ¤nner":10690,"ĠGesam":10691,"Ġidentity":10692,"ĠMEP":10693,"Ġenh":10694,"cling":10695,"Ġband":10696,"Ġtoler":10697,"Ġlov":10698,"ĠIsland":10699,"Ġschn":10700,"ĠPrÃ¼fung":10701,"Ġassum":10702,"Ġspaces":10703,"sph":10704,"Ġnearly":10705,"ĠFire":10706,"Ġexplain":10707,"SV":10708,"ĠFischer":10709,"ĠbeschÃ¤ftigt":10710,"ĠTeilnahme":10711,"Ġassociation":10712,"gesellschaften":10713,"Ġsafeguard":10714,"Ġzunehmend":10715,"Ġsurpr":10716,"Ġargument":10717,"ĠSlow":10718,"\")":10719,"rant":10720,"liance":10721,"Ġweg":10722,"Ġtherm":10723,"ĠMartin":10724,"ablen":10725,"Ġerneuer":10726,"Ġsichern":10727,"Ġzone":10728,"ĠErhÃ¶hung":10729,"ierend":10730,"Ġdecades":10731,"Ġechte":10732,"ĠTouristen":10733,"Ġfuel":10734,"ĠHÃ¤lfte":10735,"ĠSprach":10736,"Ġwichtigste":10737,"Ġkleiner":10738,"ĠTreffen":10739,"El":10740,"mlich":10741,"Inter":10742,"ĠJac":10743,"iquid":10744,"Ġacht":10745,"ĠChamber":10746,"ĠLandschaft":10747,"ĠKoordinierung":10748,"Sm":10749,"ĠJournal":10750,"ource":10751,"Ġgovernance":10752,"Ġtraditionellen":10753,"Ġadequate":10754,"Ġmultiple":10755,"Ġirgende":10756,"ĠRules":10757,"ĠÃľberprÃ¼fung":10758,"ĠExperten":10759,"Ġincorpor":10760,"ĠGefÃ¼hl":10761,"Ġproportion":10762,"Ġsieben":10763,"ĠgewÃ¤hlt":10764,"zwungen":10765,"Ġpassword":10766,"Ġ1992":10767,"Ġsiehe":10768,"eshalb":10769,"Ġsteel":10770,"Ġwithdraw":10771,"lebt":10772,"Go":10773,"Ġrequested":10774,"warz":10775,"ĠKomb":10776,"ĠEffizienz":10777,"gestellten":10778,"Ġtrend":10779,"ĠPolitiker":10780,"Ã£o":10781,"Ġprint":10782,"Sol":10783,"Ġconsensus":10784,"ĠPflicht":10785,"Ġnations":10786,"ĠAkte":10787,"ĠApparte":10788,"Ġsouthern":10789,"Ġregret":10790,"place":10791,"Ġsets":10792,"zur":10793,"ktop":10794,"Ġattacks":10795,"ĠGedanken":10796,"Ġpatients":10797,"ĠWerb":10798,"organisationen":10799,"ĠBei":10800,"ĠEN":10801,"station":10802,"Ġthereby":10803,"Ġtruth":10804,"Ġbesseren":10805,"ĠSuper":10806,"ĠLaufe":10807,"sprÃ¼che":10808,"Ġdiscussing":10809,"Ġoptimal":10810,"Ġvulner":10811,"Ġdivid":10812,"Ġversions":10813,"ĠInternationalen":10814,"iring":10815,"issens":10816,"ĠAnpassung":10817,"Ġliability":10818,"Ġattend":10819,"odes":10820,"Ġaddressed":10821,"Ãª":10822,"Ġdriving":10823,"Ġtesting":10824,"ĠCypr":10825,"Ġhergestellt":10826,"selben":10827,"ĠNichtraucher":10828,"Ġseitens":10829,"sprach":10830,"ĠFax":10831,"Ã¼ben":10832,"Ġindustries":10833,"Ġelegan":10834,"legte":10835,"Ġconsolid":10836,"ocal":10837,"Ġkinds":10838,"Ġprimary":10839,"otenzial":10840,"Ġlau":10841,"ĠAbsicht":10842,"Ġrepresentative":10843,"ĠNorden":10844,"sid":10845,"ĠOS":10846,"Ġprimarily":10847,"MA":10848,"Ġexplan":10849,"Ġdeutsche":10850,"ĠfÃ¤llt":10851,"Ġweiteres":10852,"ĠPublik":10853,"ĠJo":10854,"ĠgrenzÃ¼berschreit":10855,"ĠST":10856,"aces":10857,"ĠOrdnung":10858,"ĠZimmern":10859,"Ġsec":10860,"ahrt":10861,"Ġcopy":10862,"ĠPeter":10863,"lichten":10864,"ĠTeilen":10865,"Ġpreviously":10866,"Ġinhab":10867,"ror":10868,"ĠSupport":10869,"ĠVorbereitung":10870,"Ġrespekt":10871,"position":10872,"Ġdiskutiert":10873,"ĠKaffe":10874,"ĠKorea":10875,"ĠSchne":10876,"Ġafford":10877,"gÃ¤nglich":10878,"ĠStreit":10879,"ĠAusnahme":10880,"ĠSyr":10881,"pielt":10882,"Ġschools":10883,"ĠvielfÃ¤lt":10884,"krÃ¤fte":10885,"ĠRiver":10886,"Ð´":10887,"produktion":10888,"ĠEinkaufs":10889,"ĠKlimaanlage":10890,"Ġreinfor":10891,"Ġtalks":10892,"ktions":10893,"ĠÐ¿":10894,"Ġmaster":10895,"ĠkÃ¼rzlich":10896,"Ġ250":10897,"phrase":10898,"Ġdisch":10899,"ĠGent":10900,"AV":10901,"ĠMethode":10902,"annes":10903,"Ġexpensive":10904,"Ã¤ger":10905,"ampagne":10906,"enture":10907,"Ġbegann":10908,"Ġjemand":10909,"Thus":10910,"Ġphase":10911,"ĠJavaScript":10912,"Ġjunge":10913,"Ġremove":10914,"ĠDiskriminierung":10915,"Ġblue":10916,"Ġmail":10917,"Ġaktual":10918,"ĠAR":10919,"iling":10920,"Ġkontext":10921,"Med":10922,"icon":10923,"ĠMethoden":10924,"ĠTyp":10925,"]].":10926,"ĠInseln":10927,"ĠRoyal":10928,"Ġevaluation":10929,"Ġverteid":10930,"Ġfinde":10931,"lesen":10932,"Room":10933,"Ġauthent":10934,"zeÃŁ":10935,"bereiche":10936,"Ġta":10937,"Ġconduct":10938,"ĠBosn":10939,"ĠJoh":10940,"ĠBlog":10941,"nahm":10942,"Christ":10943,"Ġreagieren":10944,"Ã¤dt":10945,"gro":10946,"iegen":10947,"iest":10948,"Ġorders":10949,"ĠCharter":10950,"Ġap":10951,"2003":10952,"ĠModern":10953,"Europa":10954,"Che":10955,"entscheid":10956,"ĠDutch":10957,"Ġglobale":10958,"down":10959,"ĠMerk":10960,"lebnis":10961,"Jeder":10962,"Ġwillkommen":10963,"Ġturned":10964,"Ġeight":10965,"ĠStadtzentrum":10966,"Ġakzeptiert":10967,"Ġfif":10968,"Ġeinzelne":10969,"Ġlag":10970,"Ste":10971,"ĠWillen":10972,"ĠSchool":10973,"gramms":10974,"border":10975,"Ġdemokratische":10976,"ĠVeranstaltungen":10977,"Ġbio":10978,"atlant":10979,"ady":10980,"Ġdealt":10981,"Ġdetermined":10982,"tellectual":10983,"ĠBan":10984,"zahlung":10985,"ĠGÃ¤sten":10986,"Ġaudio":10987,"Wor":10988,"enter":10989,"ĠlÃ¤ndlichen":10990,"Ġjournal":10991,"iern":10992,"Ġzunehmen":10993,"ahnen":10994,"ĠChem":10995,"aks":10996,"kund":10997,"Ġnamed":10998,"ĠAngriff":10999,"Ġflow":11000,"Ġdelivered":11001,"Ġsinnvoll":11002,"iser":11003,"mittag":11004,"Ġfried":11005,"Ġdiesbe":11006,"Ġcapt":11007,"Ġwaters":11008,"Ġnation":11009,"Cl":11010,"Ġbehandeln":11011,"Ġmutual":11012,"igern":11013,"ĠZuf":11014,"strategie":11015,"Ġbooks":11016,"cor":11017,"metho":11018,"48":11019,"ĠMaria":11020,"ĠPic":11021,"ĠVerhÃ¤ltnis":11022,"Ġcorner":11023,"kret":11024,"verw":11025,"Ġopposite":11026,"2006":11027,"fÃ¼gt":11028,"Ġangeht":11029,"Ġanerkannt":11030,"Ġbere":11031,"Ġmel":11032,"Ġbetont":11033,"Sehr":11034,"ĠgenÃ¼":11035,"ĠEltern":11036,"Ġbran":11037,"Ġextreme":11038,"ciliation":11039,"Ġamongst":11040,"ĠFirst":11041,"Ġcook":11042,"Ġprepare":11043,"ĠverstÃ¤rkt":11044,"fangen":11045,"ĠberÃ¼hmten":11046,"ÅĤ":11047,"cluding":11048,"sein":11049,"ungsverfahren":11050,"Ġpositiven":11051,"Are":11052,"Ġnochmals":11053,"ĠFÃ¤higkeit":11054,"tten":11055,"ĠHor":11056,"Ġdoll":11057,"Ġdiversity":11058,"fers":11059,"Ġvorbe":11060,"ĠBol":11061,"Ġmechanisms":11062,"kurs":11063,"Ġbon":11064,"ĠProvin":11065,"ĠBerÃ¼cksicht":11066,"ĠFormular":11067,"unsten":11068,"ĠMat":11069,"31":11070,"Ġbewegen":11071,"ĠSweden":11072,"ĠRevolution":11073,"ĠFreizeit":11074,"Ġunanim":11075,"Ġbegonnen":11076,"ĠReaktion":11077,"Ġonto":11078,"Ġgriech":11079,"ĠDublin":11080,"Ġdritten":11081,"ĠEinklang":11082,"Ġtechnological":11083,"uttle":11084,"Ġsnow":11085,"ĠAnliegen":11086,"Ġinvestments":11087,"Ġbelong":11088,"stat":11089,"eds":11090,"BS":11091,"ĠBildungs":11092,"Ġdry":11093,"Ġterritorial":11094,"ĠAutor":11095,"Ġqualified":11096,"griffe":11097,"Ġgespe":11098,"uy":11099,"Those":11100,"uminium":11101,"Ġsicherstellen":11102,"ĠfÃ¼hrenden":11103,"Ġwall":11104,"Ġaccounts":11105,"Ġimper":11106,"ĠâĢ¦":11107,"ouver":11108,"Ġmanufacturers":11109,"Ġthre":11110,"Ġvielmehr":11111,"ĠUmstÃ¤nden":11112,"dete":11113,"Ġfeeling":11114,"oÃŁ":11115,"ĠDach":11116,"Ġurge":11117,"iry":11118,"mo":11119,"Ġumgeben":11120,"EF":11121,"Ġconsultation":11122,"absicht":11123,"ĠspÃ¤t":11124,"ĠZustand":11125,"Ġdiverse":11126,"Ġpension":11127,"Ġultim":11128,"Ġleiden":11129,"2002":11130,"Ġrepeated":11131,"ĠGlas":11132,"spart":11133,"Ġgesellschaft":11134,"sec":11135,"opt":11136,"Ġparallel":11137,"grundlage":11138,"Ġexceed":11139,"ĠTiere":11140,"ĠValle":11141,"bereitet":11142,"Ġleadership":11143,"Ġgrand":11144,"ĠRoh":11145,"iana":11146,"Ġmoved":11147,"ĠBerÃ¼cksichtigung":11148,"ĠStunde":11149,"ĠVerÃ¶ffent":11150,"Ġskin":11151,"Ġbureau":11152,"ĠPin":11153,"ĠData":11154,"Ġverlieren":11155,"Ġcharming":11156,"iary":11157,"jection":11158,"ĠMinderheiten":11159,"ĠZahlungs":11160,"Ġnoise":11161,"klÃ¤rung":11162,"âĢĶ":11163,"stoffen":11164,"Ġeye":11165,"Ġattemp":11166,"ĠÃľbern":11167,"icherungs":11168,"Ġmarked":11169,"Ġfand":11170,"essor":11171,"ĠAlter":11172,"Member":11173,"gence":11174,"ĠFÃ¤lle":11175,"ĠMinutes":11176,"Ġattitude":11177,"Ġehemaligen":11178,"folgerungen":11179,"akers":11180,"venue":11181,"ĠRepr":11182,"ĠProdi":11183,"gg":11184,"ĠÃ¼berzeugen":11185,"ĠChamp":11186,"Ġbarr":11187,"ĠGraf":11188,"Ġschlecht":11189,".)(":11190,"ĠRomania":11191,"Ġmeist":11192,"meister":11193,"folio":11194,"ĠzuverlÃ¤ss":11195,"ĠFluss":11196,"Ġzustimmen":11197,"Ġ..":11198,"ĠKlimawandel":11199,"Ġspot":11200,"Ġrejected":11201,"ĠJahrzehn":11202,"Ġberuf":11203,"Ġergriffen":11204,"Ġderzeitigen":11205,"Ġexistence":11206,"ĠBack":11207,"TER":11208,"Ġimprovements":11209,"Ġruns":11210,"ĠEth":11211,"fertigt":11212,"uj":11213,"Ġhall":11214,"kehren":11215,"Ġbedarf":11216,"termine":11217,"car":11218,"Ġwhe":11219,"Ġknows":11220,"ĠKong":11221,"ĠJose":11222,"ieties":11223,"ĠUnterschiede":11224,"orgnis":11225,"Ġinten":11226,"ĠOF":11227,"Ġcompliance":11228,"Ġ>":11229,"uries":11230,"Ġhelping":11231,"zahlt":11232,"Ġreply":11233,"imin":11234,"igerung":11235,"Ġexperiences":11236,"ĠStÃ¼ck":11237,"izont":11238,"struction":11239,"ĠFlÃ¤":11240,"anger":11241,"Ġvorgenommen":11242,"ĠGrenze":11243,"Ġstarken":11244,"ĠWachstums":11245,"07":11246,"Ġdestru":11247,"Ġheavy":11248,"ĠVerfÃ¼gbarkeit":11249,"Ġbefassen":11250,"Ġsignificantly":11251,"Ġillustr":11252,"nes":11253,"atically":11254,"jÃ¤hrige":11255,"ĠRumÃ¤n":11256,"ĠschlieÃŁen":11257,"berecht":11258,"DS":11259,"ito":11260,"Ġshape":11261,"Ġgewisse":11262,"Ġ800":11263,"igence":11264,"ĠFenster":11265,"Ġ#":11266,"Ġseien":11267,"ĠEinwanderung":11268,"ĠBM":11269,"Ġlock":11270,"Ġdele":11271,"Ġwiederum":11272,"Ġfordert":11273,"ĠTai":11274,"ĠChurch":11275,"ĠSonn":11276,"ĠFreude":11277,"Programm":11278,"Ġblood":11279,"ĠKombination":11280,"ĠDienstleistungs":11281,"mechan":11282,"wood":11283,"ĠVision":11284,"Ġstone":11285,"Ġstreets":11286,"Ġwait":11287,"Ġrequests":11288,"uropÃ¤ischen":11289,"ĠnÃ¶tig":11290,"oples":11291,"ĠSchÃ¤den":11292,"Ã¶p":11293,"ĠPatent":11294,"Ġtransform":11295,"ĠDiskussionen":11296,"lechter":11297,"ĠRef":11298,"sichts":11299,"ĠCustom":11300,"Ġleisure":11301,"gebracht":11302,"Ġdah":11303,"ikte":11304,"kunfts":11305,"Ġcompetence":11306,"49":11307,"grÃ¶ÃŁ":11308,"Ġarms":11309,"ĠHandeln":11310,"Ã¨s":11311,"Us":11312,"Ġfed":11313,"ĠNik":11314,"Ġabgele":11315,"Ġrecommended":11316,"onte":11317,"Ġpermit":11318,"itime":11319,"Ġbildet":11320,"Ġunterschiedlich":11321,"Ġkonkreten":11322,"orough":11323,"Ġbetreffen":11324,"tehen":11325,"akten":11326,"ĠPrÃ¤s":11327,"Ġstraight":11328,"owned":11329,"ĠPerspekt":11330,"Ġprivacy":11331,"ĠAutob":11332,"erungs":11333,"Ġlaunched":11334,"Ġpolitisch":11335,"ĠRoom":11336,"Ġexpertise":11337,"Ġlaut":11338,"ÑģÑĤ":11339,"Ġtreated":11340,"Ġlandwirtschaft":11341,"zed":11342,"geht":11343,"Ġspeakers":11344,"Ġbirth":11345,"ispiele":11346,"ĠVerbesser":11347,"Ġwelchen":11348,"ĠKunde":11349,"Where":11350,"abilitÃ¤t":11351,"fÃ¼llung":11352,"iating":11353,"ikas":11354,"ĠPrakt":11355,"Ġbinding":11356,"ĠErwach":11357,"new":11358,"Ġconsistent":11359,"Ġbedrooms":11360,"Ġobligation":11361,"Ġpiece":11362,"ĠlÃ¤uft":11363,"Located":11364,"Ġdir":11365,"Ġcm":11366,"Ġgeehr":11367,"Ġdrugs":11368,"pped":11369,"Ġrot":11370,"Ġswitch":11371,"Very":11372,"schaffen":11373,"lause":11374,"rift":11375,"Ġexpectations":11376,"istribution":11377,"Ġfelt":11378,"ĠGesetze":11379,"Ġconfigur":11380,"Ġpresentation":11381,"Ġrecognise":11382,"Ġcompensation":11383,"ĠBalt":11384,"heber":11385,"Nachdem":11386,"Ġfir":11387,"ĠUntersuchung":11388,"oni":11389,"ĠPflanzen":11390,"Ġkeines":11391,"ĠExpress":11392,"Ġwebsites":11393,"stÃ¤nde":11394,"Ġdestination":11395,"ettbewerbs":11396,"SA":11397,"Ġsanctions":11398,"Ġunits":11399,"entwurf":11400,"Ġsubsidiar":11401,"ĠAdresse":11402,"Ġspok":11403,"Ġparad":11404,"Ġ1993":11405,"zubauen":11406,"Ġ1980":11407,"ĠSwed":11408,"ĠLast":11409,"vak":11410,"ĠFreunde":11411,"Ã¤hrt":11412,"geiz":11413,"ĠStrukturfonds":11414,"ivate":11415,"ĠTheater":11416,"fare":11417,"Ġsleep":11418,"Ġengag":11419,"Ġemphasis":11420,"68":11421,"Rooms":11422,"Ġfurniture":11423,"zÃ¼g":11424,"handlungs":11425,"Ġflat":11426,"ĠGrundsÃ¤tze":11427,"ĠRotary":11428,"Ġdishes":11429,"Ġlose":11430,"Ġumfass":11431,"Ġwirksam":11432,"ĠSpiele":11433,"uds":11434,"beziehung":11435,"Ġbasiert":11436,"Ġrepresented":11437,"vol":11438,"ruppen":11439,"ĠFlash":11440,"teen":11441,"ĠVia":11442,"Ġvess":11443,"Ġoutput":11444,"Ġcomply":11445,"Ġentlang":11446,"Ġgenauso":11447,"Ġextension":11448,"Ġdefault":11449,"sparte":11450,"ĠOne":11451,"Ġkompliz":11452,"ĠAllgemeinen":11453,"ti":11454,"ameras":11455,"GB":11456,"ĠEigenschaften":11457,"ĠSun":11458,"iform":11459,"Beim":11460,"Ġsprach":11461,"Ġresolve":11462,"alys":11463,"ĠKyoto":11464,"ĠLu":11465,"Ġsubstances":11466,"Ġverlangen":11467,"Ġapplicable":11468,"Ġbrowser":11469,"ĠBreakfast":11470,"Besch":11471,"stance":11472,"Ġsights":11473,"ĠKollege":11474,"ĠabhÃ¤ngig":11475,"Ġexists":11476,"Ġkor":11477,"atre":11478,"Ġgestern":11479,"Ġrelatively":11480,",\"":11481,"Ġbeiz":11482,"Ġstations":11483,"ichteten":11484,"Zimmer":11485,"ĠWesten":11486,"Ġcomplic":11487,"Ġdict":11488,"kop":11489,"ati":11490,"Ġbezieht":11491,"formance":11492,"Dr":11493,"Ġwild":11494,"Ġproud":11495,"Ġtrees":11496,"Both":11497,"ischung":11498,"estion":11499,"ĠOld":11500,"ĠAngebote":11501,"Ġtrial":11502,"ĠStraf":11503,"bahnhof":11504,"Ġfantastic":11505,"Ġdeiner":11506,"grad":11507,"ĠMenÃ¼":11508,"Ġolder":11509,"âĢ¢":11510,"ĠLaw":11511,"uste":11512,"ĠOur":11513,"Ġzeich":11514,"ZunÃ¤chst":11515,"Ġ600":11516,"hop":11517,"Ġdog":11518,"ĠLÃ¶":11519,"ĠSatell":11520,"Ġoperators":11521,"irk":11522,"Ġentered":11523,"Ġtaxes":11524,"ĠZul":11525,"ochen":11526,"ucher":11527,"ĠArgent":11528,"Ġwichtiges":11529,"Ġkeeping":11530,"zza":11531,"dass":11532,"Ġhelps":11533,"abling":11534,"theit":11535,"what":11536,"aj":11537,"ĠHerk":11538,"ossen":11539,"Ġtrotzdem":11540,"ĠSignal":11541,"Ġrefugees":11542,"okument":11543,"rote":11544,"Ġreicht":11545,"Ġapproval":11546,"Ġindividuell":11547,"Ġerror":11548,"Ġvast":11549,"spar":11550,"Ġrare":11551,"Ġappreciate":11552,"rechten":11553,"Ġadj":11554,"ĠKranken":11555,"Ġumfassenden":11556,"ĠMaÃŁnahme":11557,"ĠLos":11558,"Ġspezial":11559,"Ġobjects":11560,"otte":11561,"ĠEnergy":11562,"ifall":11563,"ĠEnglisch":11564,"Ġlatter":11565,"Ġalter":11566,"Ġarticles":11567,"Ġaktuell":11568,"Ġgeist":11569,"tragung":11570,"Ġliefern":11571,"ĠDatenbank":11572,"Ġemphasise":11573,"ĠMÃ¼nchen":11574,"stitut":11575,"Ġtests":11576,"ĠGewinn":11577,"ĠLeitlinien":11578,"ĠBio":11579,"Bis":11580,"Ġgepr":11581,"Ġadvantages":11582,"service":11583,"Ġcentres":11584,"netz":11585,"ani":11586,"ĠfÃ¼hrte":11587,"ĠDokumente":11588,"Ġdischarge":11589,"schule":11590,"Ġregionale":11591,"Ġhoher":11592,"win":11593,"Ġsenden":11594,"ĠClass":11595,"Ġaffairs":11596,"Ġcold":11597,"ĠUnterschied":11598,"Ġziemlich":11599,"acher":11600,"Ġwhatever":11601,"Ġengineering":11602,"Ġitalienischen":11603,"ĠKreat":11604,"ĠDefinition":11605,"ĠAntworten":11606,"Apart":11607,"ĠKÃ¼ste":11608,"Ġfavor":11609,"ĠOriginal":11610,"antly":11611,"Ġarrangements":11612,"ĠSchwerpunkt":11613,"urger":11614,"ĠBÃ¶r":11615,"Ġbekannten":11616,"Ġwhilst":11617,"obe":11618,"ĠBewegung":11619,"Ġwenden":11620,"hard":11621,"ilding":11622,"ĠDetails":11623,"iÃ¨":11624,"usal":11625,"Ġobst":11626,"Ġestim":11627,"ĠEgypt":11628,"ichtig":11629,"Ġdelegation":11630,"ĠSchulden":11631,"ĠSchloss":11632,"Ġtemperature":11633,"lÃ¤ne":11634,"ĠBedenken":11635,"ĠQue":11636,"Ġrespective":11637,"Service":11638,"Ġcovers":11639,"Ã¤tzung":11640,"Ġunmittelbar":11641,"ĠAustausch":11642,"Ġye":11643,"Ġplug":11644,"ĠVerbrechen":11645,"Ġhelped":11646,"Ġod":11647,"Ġmini":11648,"code":11649,"region":11650,"Ġhappens":11651,"ĠPremier":11652,"ev":11653,"Ġdinner":11654,"Ġentre":11655,"ĠauÃŁergewÃ¶hn":11656,"oÃŁen":11657,"ĠJack":11658,"Ġtexts":11659,"weite":11660,"Ġ37":11661,"fit":11662,"ĠWahrheit":11663,"ĠSud":11664,"Star":11665,"Ġentertainment":11666,"Ebenso":11667,"Ġadap":11668,"Ġreligi":11669,"Ġverf":11670,"Ġfinding":11671,"Ġinvolving":11672,"fÃ¤":11673,"ĠmaÃŁ":11674,"OP":11675,"ĠOs":11676,"ĠerhÃ¤ltlich":11677,"ĠDrit":11678,"ĠMinisters":11679,"Ġsuffering":11680,"maschinen":11681,"Ġpersonally":11682,"ĠBrazil":11683,"politischen":11684,"Ġpeoples":11685,"Ġhistorische":11686,"ĠFremden":11687,"inations":11688,"behÃ¶rden":11689,"reds":11690,"Ġfoll":11691,"flug":11692,"prech":11693,",âĢĿ":11694,"ĠPaper":11695,"ĠObama":11696,"ĠSD":11697,"Ġpoliticians":11698,"Ġangep":11699,"ĠBesitz":11700,"ĠZugriff":11701,"ĠMunich":11702,"ĠUser":11703,"Ġdisaster":11704,"ĠhÃ¶here":11705,"ĠZusatz":11706,"uchte":11707,"ĠWith":11708,"Ġinf":11709,"Ġcloth":11710,"Ġdanger":11711,"ĠAmts":11712,"Ġexclusively":11713,"Ġnaturally":11714,"TS":11715,"Ġthorough":11716,"unktions":11717,"Ġfalsch":11718,"wareness":11719,"Ġreichen":11720,"ĠBerufs":11721,"UM":11722,"Ġerweitert":11723,"Thanks":11724,"Despite":11725,"ĠSanktionen":11726,"tellte":11727,"spruchs":11728,"Ġvaluable":11729,"Ġtours":11730,"amerika":11731,"trÃ¤cht":11732,"Ġentspannen":11733,"Ġbeschrieben":11734,"Ġkommun":11735,"Ġdiseases":11736,"ey":11737,"ĠHong":11738,"vec":11739,"Ġ120":11740,"Ġscrip":11741,"Find":11742,"Restaurant":11743,"ĠKonsequ":11744,"quellen":11745,"Ġengl":11746,"Ġspectac":11747,"ĠWin":11748,"ĠStrategien":11749,"ĠVertrÃ¤ge":11750,"Ġzuge":11751,"ĠbetrÃ¤gt":11752,"Ġrecognised":11753,"ĠJes":11754,"Ġeur":11755,"ĠSchule":11756,"ĠBeweis":11757,"gelassen":11758,"ĠRich":11759,"ĠLou":11760,"ĠInde":11761,"ĠGut":11762,"Ġgather":11763,"ĠerÃ¶ffnet":11764,"Ġspring":11765,"Ġmuseum":11766,"Ġintend":11767,"Ġweather":11768,"ĠTibet":11769,"rÃ¼stung":11770,"Weitere":11771,"ĠgÃ¼lt":11772,"fÃ¤llen":11773,"Ã¤ndige":11774,"ĠzusÃ¤tzlichen":11775,"Ġbreat":11776,"ĠUmweltschutz":11777,"Ġweltweiten":11778,"ĠShe":11779,"ĠPlaza":11780,"izz":11781,"ĠStrategy":11782,"ĠLandwirte":11783,"Ġopposed":11784,"Seine":11785,"pol":11786,"ĠkÃ¼nftig":11787,"à¸":11788,"isory":11789,"ufÃ¼hren":11790,"kommt":11791,"inos":11792,"Ġstrugg":11793,"urd":11794,"Ġsoft":11795,"neter":11796,"ĠGesicht":11797,"Ġjourney":11798,"Ġthreaten":11799,"ruct":11800,"Ġerscheinen":11801,"Ġmobility":11802,"ulted":11803,"class":11804,"flÃ¤chen":11805,"Ġentdecken":11806,"pers":11807,"Ġutil":11808,"Ġkoordin":11809,"Ġintellectual":11810,"Ġconfirmed":11811,"west":11812,"ĠDelegation":11813,"tran":11814,"Ġfirstly":11815,"Ġfill":11816,"Ġpick":11817,"ĠGM":11818,"Ã¼ren":11819,"Ġgrundlegenden":11820,"ĠPlayer":11821,"ĠFahrzeug":11822,"ĠTechnology":11823,"ĠRub":11824,"uden":11825,"achte":11826,"Ġoutdoor":11827,"Ġconserv":11828,"ĠHoll":11829,"ĠEG":11830,"Ġerb":11831,"zin":11832,"Ġhostels":11833,"ĠverÃ¤ndert":11834,"essene":11835,"Ġkurzem":11836,"ĠNachfrage":11837,"ĠHerkun":11838,"Ġsolve":11839,"ĠFinancial":11840,"ĠAmerika":11841,"ĠzugÃ¤nglich":11842,"Ġgirl":11843,"ĠPop":11844,"Ġresidence":11845,"idden":11846,"Ġschwierigen":11847,"reuung":11848,"Ġrepeat":11849,"Ġrenewable":11850,"ĠMach":11851,"ĠSound":11852,"ĠBestell":11853,"Ġinteressiert":11854,"ĠJean":11855,"Ã©r":11856,"TR":11857,"Je":11858,"not":11859,"ĠRock":11860,"ĠArm":11861,"Ġobtained":11862,"Ġfigure":11863,"chron":11864,"ĠPress":11865,"onders":11866,"ĠErwartungen":11867,"ĠgefÃ¶rdert":11868,"trieben":11869,"Lin":11870,"uens":11871,"ancing":11872,"Note":11873,"Ġdans":11874,"oler":11875,"ĠgeprÃ¼":11876,"ĠErwÃ¤":11877,"Ġfamiliar":11878,"Ġvoller":11879,"hi":11880,"ichtbar":11881,"ikes":11882,"Ġsofern":11883,"ĠBerichterstat":11884,"ĠWork":11885,"ĠMaterialien":11886,"Ġmillions":11887,"ĠUngleich":11888,"Aufgrund":11889,"ĠschÃ¶nsten":11890,"55":11891,"Ã©n":11892,"Ġfaced":11893,"Ġexceptional":11894,"ĠWirklichkeit":11895,"inken":11896,"Ġcombating":11897,"far":11898,"Ġwesentliche":11899,"ĠMittelpunkt":11900,"ventionen":11901,"ĠSuite":11902,"Ã¤ndler":11903,"deten":11904,"ĠAtom":11905,"stes":11906,"Ġ1000":11907,"col":11908,"Ġlaufen":11909,"Ġbesitzen":11910,"ĠBaum":11911,"Ġexem":11912,"bauen":11913,"Ġbedeuten":11914,"Ġdiscovered":11915,"Ġpassengers":11916,"CS":11917,"Ã¶ger":11918,"Ġoffices":11919,"azine":11920,"Ġeigenes":11921,"ugnisse":11922,"agon":11923,"Ġinvolvement":11924,"ĠlÃ¤ng":11925,"Ġchain":11926,"ĠjÃ¤hrlich":11927,"hme":11928,"ĠÃ¶ffnen":11929,"iva":11930,"Ġdetermine":11931,"Ġaccom":11932,"alta":11933,"Ġdirectives":11934,"Ġlooks":11935,"ĠSwedish":11936,"Å¾":11937,"Ġlargely":11938,"Ġdirekte":11939,"Ġkulturelle":11940,"Ġhilft":11941,"Vom":11942,"ĠHindern":11943,"andon":11944,"actory":11945,"ĠStudie":11946,"Ġ38":11947,"ĠUmgang":11948,"ml":11949,"ĠauÃŁen":11950,"Ġzweifellos":11951,"Ġgeschrieben":11952,"ĠTit":11953,"ĠHeiz":11954,"Ġniemals":11955,"stehenden":11956,"Mod":11957,"Ġpush":11958,"Ġeinerseits":11959,"Aut":11960,"Ġobstac":11961,"ĠNachrichten":11962,"ĠEssen":11963,"Ġcreative":11964,"ĠAmbiente":11965,"Vert":11966,"ĠAngel":11967,"Ġweshalb":11968,"ĠEisenbahn":11969,"dessen":11970,"ĠEmpfehlung":11971,"Ġserves":11972,"aal":11973,"anks":11974,"ĠAgrarpolitik":11975,"Ġhervorragende":11976,"Ġbureauc":11977,"liefert":11978,"handelt":11979,"gendes":11980,"bek":11981,"ĠdurchzufÃ¼hren":11982,"Ġprotecting":11983,"ĠBadezimmer":11984,"Ġenthus":11985,"ĠMorgen":11986,"rÃ¤ften":11987,"Ġcouple":11988,"Ġimpressive":11989,"Ġeyes":11990,"lles":11991,"ecutive":11992,"ĠEntwicklungslÃ¤ndern":11993,"lieben":11994,"abwe":11995,"ĠWas":11996,"ĠMonte":11997,"ĠRadio":11998,"ĠnatÃ¼rlichen":11999,"ĠStudenten":12000,"Ġausgezeichnete":12001,"Ġtreaty":12002,"astronom":12003,"ĠMaster":12004,"Ġkombin":12005,"Ġinzwischen":12006,"ĠMassen":12007,"Ġleaving":12008,"Ġamounts":12009,"gesundheit":12010,"ĠBeratung":12011,"Mill":12012,"Ġzuerst":12013,"Ġconstructive":12014,"weisung":12015,"Ġremoved":12016,"Ġofficials":12017,"ĠKandidaten":12018,"icip":12019,"ĠEntsp":12020,"legungen":12021,"dire":12022,"Stand":12023,"umping":12024,"wei":12025,"OW":12026,"ĠKrie":12027,"finanz":12028,"Ġneuesten":12029,"Ã¶rung":12030,"Ġequally":12031,"ede":12032,"ĠKategorie":12033,"ĠErinner":12034,"Ġcriticism":12035,"itÃ¤re":12036,"ĠDirector":12037,"ĠWÃ¼r":12038,"Ġincreases":12039,"Bericht":12040,"ingesch":12041,"Third":12042,"Ġstrategies":12043,"ĠbemÃ¼ht":12044,"Ġreden":12045,"ĠProced":12046,"Ġstattf":12047,"ĠSkype":12048,"ĠFerienwohn":12049,"Ġhappening":12050,"Ġtemporary":12051,"Ġnewly":12052,"Ġautomatic":12053,"Fr":12054,"Ġcommunications":12055,"Ġorganizations":12056,"institution":12057,"tedly":12058,"Enjoy":12059,"Ġcontributions":12060,"ĠKarl":12061,"steuer":12062,"Ġincent":12063,"reb":12064,"ĠTon":12065,"ĠDavid":12066,"ĠÃľbersetzung":12067,"Ġdoesn":12068,"ĠOpp":12069,"gemeinschaft":12070,"ĠKomment":12071,"Ġspanischen":12072,"Ġbetreffenden":12073,"anen":12074,"Ġ{{":12075,"Ġstake":12076,"Ġausgezeichneten":12077,"looking":12078,"Ġruhigen":12079,"ĠDiv":12080,"Ġhospit":12081,"mes":12082,"Ġreserve":12083,"ĠEinstellung":12084,"Ġinteressant":12085,"ĠAdministr":12086,"ĠVeranstaltung":12087,"adow":12088,"Ġpreparation":12089,"Ġlicense":12090,"Ġmandate":12091,"ĠVerk":12092,"gemÃ¤ÃŁ":12093,"verletz":12094,"light":12095,"Ġgepl":12096,"apest":12097,"%,":12098,"ĠverÃ¤ndern":12099,"Ġlovely":12100,"pÃ¤ck":12101,"Ġhandling":12102,"ĠVoraussetzung":12103,"ĠbetrÃ¤cht":12104,"47":12105,"Ġgetr":12106,"ĠursprÃ¼nglichen":12107,"Adresse":12108,"Ġhit":12109,"Ġunderm":12110,"ĠBor":12111,"Ã¤hlte":12112,"freie":12113,"einrichtungen":12114,"Ġladen":12115,"Ġimpression":12116,"Ġrequirement":12117,"Ġgelegt":12118,"Ġoffenen":12119,"Ġhealthy":12120,"Ġinstalliert":12121,"ĠPapier":12122,"Ġcancel":12123,"Ġqualifiz":12124,"Ġremaining":12125,"ĠPrivate":12126,"Ġrestrictions":12127,"ĠfÃ¼hlen":12128,"Ġboat":12129,"Ġawareness":12130,"rd":12131,"Ja":12132,"systems":12133,"ĠÃľberzeugung":12134,"ĠGrad":12135,"Welche":12136,"andal":12137,"istry":12138,"ĠFarb":12139,"ĠFer":12140,"holders":12141,"Ġgrundlegende":12142,"Ġschreiben":12143,"Ġacquis":12144,"entions":12145,"Ġcontracts":12146,"Vielleicht":12147,"Ġmenschlichen":12148,"Ġrichten":12149,"ĠNormen":12150,"Ġvolume":12151,"Ġliberalisation":12152,"wachstum":12153,"Ġessen":12154,"Ġcer":12155,"Ġeinfachen":12156,"Ġgewalt":12157,"ĠMut":12158,"ĠVerbesserungen":12159,"ĠÃ¤lter":12160,"Ġgene":12161,"Ġissued":12162,"ĠÐ²":12163,"Ġcharges":12164,"[[":12165,"hrt":12166,"Ġprohib":12167,"ĠInc":12168,"ĠFranc":12169,"grenzung":12170,"ĠEP":12171,"Ġdebates":12172,"bil":12173,"Ġaufzunehmen":12174,"Ġfighting":12175,"Ġenhan":12176,"Ġdecis":12177,"Ġcharacteristics":12178,"ĠBauern":12179,"ĠTemperatur":12180,"ĠMuslim":12181,"Ġremote":12182,"hmigung":12183,"Ġkommer":12184,"ĠBritain":12185,"holen":12186,"Ġcollective":12187,"Ġbalcony":12188,"Ġmur":12189,"ĠMeinungs":12190,"Ġrapporteurs":12191,"stood":12192,"eler":12193,"Ġabroad":12194,"Ġuniversal":12195,"ĠGNU":12196,"Ġcontroll":12197,"Ġsorgt":12198,"ubl":12199,"Ġpresident":12200,"ĠprÃ¤sentiert":12201,"ĠKnow":12202,"Ġmusste":12203,"ĠKÃ¼sten":12204,"Ġentscheidend":12205,"wirkung":12206,"Ġtrifft":12207,"meldung":12208,"ashington":12209,"Ġdining":12210,"Ġanwes":12211,"Ġphen":12212,"Ġfunktionieren":12213,"Ġprove":12214,"reichung":12215,"Ġopinions":12216,"ĠNahen":12217,"-/":12218,"Ġdetaill":12219,"Ġreturned":12220,"unicip":12221,"Ġinhabit":12222,"Ġstimmt":12223,"ffect":12224,"Ġachten":12225,"Ġsurroundings":12226,"mÃ¤rkte":12227,"Ġfasc":12228,"schirm":12229,"nischen":12230,"Ġdich":12231,"behÃ¶rde":12232,"Ġabol":12233,"ipel":12234,"Ġextraordin":12235,"2005":12236,"'ve":12237,"Ġresolutions":12238,"Ġfaith":12239,"ĠLuxembourg":12240,"Ġ1989":12241,"ĠNahrungsmittel":12242,"rohung":12243,"Ġcoher":12244,"Ġoperational":12245,"Ġabgelehnt":12246,"Ġalbum":12247,"Ġgezogen":12248,"Ġmaintained":12249,"Ġsexual":12250,"Ġniedrig":12251,"ĠStahl":12252,"ĠhÃ¶chsten":12253,"Ġcreates":12254,"Ġpattern":12255,"Ġsla":12256,"Ġsuite":12257,"Ġvous":12258,"Nor":12259,"Ġlobby":12260,"ĠTom":12261,"Ġberaten":12262,"angebot":12263,"Get":12264,"ĠLas":12265,"Ġcommun":12266,"Ġidentify":12267,"Ġdepends":12268,"Ġsi":12269,"ĠKapaz":12270,"Ġignor":12271,"ĠschlieÃŁ":12272,"ĠSafety":12273,"Bo":12274,"uite":12275,"isierungs":12276,"Ġcry":12277,"ĠAz":12278,"Ġumzusetzen":12279,"gÃ¤nge":12280,"ĠEp":12281,"Ġausgesprochen":12282,"td":12283,"ĠTagung":12284,"ĠkÃ¼nftigen":12285,"ĠMySQL":12286,"Ġstarten":12287,"Ġorganisiert":12288,"loyed":12289,"gut":12290,"Ġmessages":12291,"Ġcab":12292,"ĠStrukturen":12293,"inational":12294,"ittees":12295,"Ã¤umt":12296,"Ġrecommendation":12297,"ĠMÃ¶":12298,"ĠHostelsclub":12299,"material":12300,"reffen":12301,"General":12302,"ĠÃľbereinstimmung":12303,"Ġwalls":12304,"Ġrenovated":12305,"Ġfee":12306,"Ġbreite":12307,"ĠGarantie":12308,"Ġ1991":12309,"Ġprecise":12310,"ĠDauer":12311,"Ġdecorated":12312,"macht":12313,"Ġdritte":12314,"ĠStabilitÃ¤ts":12315,"ĠHarmonisierung":12316,"ĠSund":12317,"Ġvolunt":12318,"oria":12319,"ĠGDP":12320,"Ġtraditions":12321,"Ġverschiedener":12322,"ĠSchweden":12323,"ĠAirbus":12324,"Ġclassic":12325,"Ġriesigen":12326,"86":12327,"Ġgratulieren":12328,"zellen":12329,"ĠTy":12330,"ateful":12331,"fined":12332,"Ġverursacht":12333,"Gro":12334,"ĠRund":12335,"Ġerlauben":12336,"Ġinspir":12337,"ĠNon":12338,"ĠWÃ¤hl":12339,"arma":12340,"Entw":12341,"ĠUNO":12342,"Ġgold":12343,"Ġgets":12344,"Ġveran":12345,"ĠVerfahrens":12346,"forschung":12347,"Ġkurze":12348,"tÃ¤us":12349,"ĠVir":12350,"garn":12351,"gÃ¤":12352,"ĠbekÃ¤mpfen":12353,"AF":12354,"Ġgewonnen":12355,"lastung":12356,"ĠPia":12357,"ĠBurg":12358,"grenzen":12359,"Ġschnelle":12360,"table":12361,"Ġsoweit":12362,"Ġbattle":12363,"ĠÃ¼bernimmt":12364,"ĠTermin":12365,"Ġcatalog":12366,"krit":12367,"Ġsin":12368,"ĠArmen":12369,"Ġausgewogen":12370,"modell":12371,"Ġausgeschlossen":12372,"Ġgebaut":12373,"Comm":12374,"Ġanstatt":12375,"deb":12376,"Ġdark":12377,"Ġinvolve":12378,"ĠPunkten":12379,"ĠNG":12380,"Under":12381,"ĠTim":12382,"ighten":12383,"ĠFestlegung":12384,"Ġappoint":12385,"Ġgender":12386,"Follow":12387,"Ġyouth":12388,"Ġverlangt":12389,"center":12390,"ĠAction":12391,"ĠMangel":12392,"rufen":12393,"inuier":12394,"Ġconflicts":12395,"zne":12396,"Â¤":12397,"cles":12398,"Ġsauna":12399,"Ġowner":12400,"aling":12401,"ypern":12402,"Ġfacilitate":12403,"vant":12404,"ĠzÃ¤hlt":12405,"Ġirre":12406,"Ġproperties":12407,"Ġleistungs":12408,"ĠRefer":12409,"ĠgelÃ¶st":12410,"Ġperfekt":12411,"ĠSov":12412,"ĠTown":12413,"Ġlegend":12414,"ziplin":12415,"Ġbeseit":12416,"igu":12417,"ĠWeiÃŁ":12418,"Ġartist":12419,"ĠKrisen":12420,"Ġgone":12421,"Ã¤tigung":12422,"ĠKonsens":12423,"Ġregularly":12424,"Ġwitness":12425,"ĠProcedure":12426,"ĠEngine":12427,"Ġschafft":12428,"Ġdrawing":12429,"ĠAngst":12430,"ĠUSD":12431,"Ġbuchen":12432,"ĠMall":12433,"ĠSecret":12434,"Ġuneingesch":12435,"Ġbezug":12436,"uliert":12437,"ĠCa":12438,"ĠBox":12439,"Ġlautet":12440,"erechtigkeit":12441,"ĠÃĦnderungsantrÃ¤gen":12442,"ĠanschlieÃŁen":12443,"Ġreported":12444,"ĠAusstattung":12445,"cohol":12446,"Ġangesehen":12447,"Ġsmo":12448,"Ġauftreten":12449,"ĠKommun":12450,"Ġhardware":12451,"mitten":12452,"ĠmÃ¶gliche":12453,"ĠHohen":12454,"Ġfordere":12455,"ĠDrittlÃ¤ndern":12456,"ĠZustÃ¤ndigkeit":12457,"ĠArme":12458,"Ġannehmen":12459,"ĠDra":12460,"Ġconducted":12461,"Ġwettbewerbs":12462,"ĠSteuern":12463,"Ġaftern":12464,"ĠAnfragen":12465,"Ġcustoms":12466,"Ġvacation":12467,"ĠPuert":12468,"azier":12469,"ĠSens":12470,"ĠVorschlÃ¤gen":12471,"ĠGestaltung":12472,"Ġalarm":12473,"ĠGeschÃ¤ft":12474,"Ġeinzigartige":12475,"liste":12476,"Ġaufgefordert":12477,"Ġaccompan":12478,"Ġcable":12479,"Ġschne":12480,"Ã¤hrung":12481,"BC":12482,"Ġabgesch":12483,"ĠGeschmack":12484,"ĠAlternative":12485,"water":12486,"Ġwissenschaftlichen":12487,"ĠÎ":12488,"acion":12489,"ĠGerÃ¤te":12490,"ĠKrankheiten":12491,"Ġmeat":12492,"Ġtransportation":12493,"ĠThese":12494,"Ġreserves":12495,"onymous":12496,"44":12497,"tele":12498,"decken":12499,"Ġconsc":12500,"Ġperformed":12501,"Ġintensiv":12502,"ĠGegend":12503,"ĠBulgaria":12504,"Ġparliaments":12505,"Ġhundreds":12506,"67":12507,"ĠerÃ¶r":12508,"Ġhervorheben":12509,"Ġload":12510,"Ġzugunsten":12511,"Ġrecip":12512,"ĠBestellung":12513,"Commission":12514,"ĠTschech":12515,"Ġsupposed":12516,"ĠShow":12517,"uster":12518,"ci":12519,"point":12520,"Ġparents":12521,"Ġzentralen":12522,"iny":12523,"Ġeast":12524,"izer":12525,"ĠCaf":12526,"ĠInternets":12527,"asche":12528,"iday":12529,"uese":12530,"berge":12531,"ĠAbschnitt":12532,"Ġtopic":12533,"Ġnorthern":12534,"Ġsehe":12535,"Ġphenomen":12536,"ĠMaastr":12537,"Ġintensive":12538,"ĠWare":12539,"ĠverstÃ¤nd":12540,"ĠStandort":12541,"Ġsomewhat":12542,"standards":12543,"Ġvereinbar":12544,"ĠPlanung":12545,"Ġinterior":12546,"Ġworse":12547,"lÃ¤ut":12548,"Ġdefine":12549,"Ġerheblich":12550,"Ġcareer":12551,"arr":12552,"Ġmetal":12553,"ĠBehinder":12554,"essions":12555,"ĠdurchfÃ¼hren":12556,"ĠJapanese":12557,"Ġiron":12558,"ĠFarbe":12559,"Ġbeabsicht":12560,"Ġeinig":12561,"andt":12562,"aller":12563,"ĠAth":12564,"fÃ¼hrte":12565,"ĠBalkan":12566,"eta":12567,"ĠKurz":12568,"ĠAktien":12569,"igsten":12570,"Ġbekomm":12571,"lieb":12572,"udes":12573,"ĠList":12574,"ĠMEPs":12575,"Ġcontrast":12576,"Ġdates":12577,"istern":12578,"Ġzut":12579,"Ġholding":12580,"Ġseeing":12581,"Ġregulatory":12582,"Ġfollows":12583,"Ġavec":12584,"Ġverstanden":12585,"orca":12586,"ĠzustÃ¤ndigen":12587,"Ġdisplayed":12588,"Ġkurzen":12589,"ĠbeglÃ¼ckwÃ¼nschen":12590,"Ġamaz":12591,"Ġterrorist":12592,"ĠVater":12593,"Ġ95":12594,"ĠKilometer":12595,"Ġabandon":12596,"iox":12597,"ringerung":12598,"ĠPolizei":12599,"Ġmitten":12600,"ĠAusfÃ¼hrungen":12601,"Ġ900":12602,"65":12603,"osis":12604,"ĠExport":12605,"Ġjoined":12606,"ĠRegierungskonferenz":12607,"Ġvisa":12608,"ĠCroatia":12609,"Ferner":12610,"wald":12611,"ĠprÃ¤z":12612,"ĠFÃ¤higkeiten":12613,"Zus":12614,"oli":12615,"ĠExecutive":12616,"Ġunfor":12617,"ĠRegime":12618,"ĠerwÃ¤hn":12619,"organ":12620,"Ġcollect":12621,"ĠBlut":12622,"ĠfrÃ¼heren":12623,"Ġzufolge":12624,"Ġnachhaltigen":12625,"ĠIst":12626,"ĠAlp":12627,"banken":12628,"Ġparlament":12629,"Ġupdated":12630,"stanz":12631,"estr":12632,"ĠUmfeld":12633,"ĠzurÃ¼ckge":12634,"Ġfrequently":12635,"ĠMS":12636,"kur":12637,"Ġconnections":12638,"aled":12639,"ĠMir":12640,"ivals":12641,"ĠCanada":12642,"ĠRatsprÃ¤sidentschaft":12643,"Ġtowns":12644,"ĠAusgangspunkt":12645,"ĠBSE":12646,"ĠMarina":12647,"Ġschwed":12648,"Ġultimately":12649,"Ġfaster":12650,"Ġcontinent":12651,"Ġislands":12652,"Ġnoted":12653,"Ġtechniques":12654,"CHT":12655,"Ġverbringen":12656,"ĠbestÃ¤tigen":12657,"Ġought":12658,"unning":12659,"ĠLim":12660,"ĠGeorge":12661,"Ġanswers":12662,"ĠBy":12663,"ĠAnwendungs":12664,"schiedet":12665,"Ġlabel":12666,"Ġkontinuier":12667,"Ġfather":12668,"ĠungefÃ¤hr":12669,"Ã¤ltigen":12670,"Ġminority":12671,"ef":12672,"Ġsodass":12673,"ĠArbeitsplÃ¤tzen":12674,"Ġehrgeiz":12675,"ĠPolish":12676,"ĠMusic":12677,"ĠAusfÃ¼hrung":12678,"ĠKontext":12679,"Ġverabschiedet":12680,"Ġdeals":12681,"Ġstylish":12682,"care":12683,"beauftrag":12684,"ĠZentralbank":12685,"schÃ¤d":12686,"ĠHimm":12687,"aine":12688,"Ġbud":12689,"lared":12690,"kreis":12691,"igend":12692,"ĠBeispiele":12693,"Ġnotwendige":12694,"ĠGleichgewicht":12695,"Ġunent":12696,"Ġderart":12697,"wechs":12698,"Ġorganized":12699,"ĠGU":12700,"uers":12701,"iera":12702,"Ġmother":12703,"ĠRobert":12704,"ĠSauna":12705,"ĠUrspr":12706,"ĠCyprus":12707,"ĠGeheim":12708,"Ġsettings":12709,"lÃ¤sslich":12710,"ĠApartment":12711,"ifies":12712,"Ġworry":12713,"ĠAnti":12714,"Ġemergency":12715,"Ġtrib":12716,"Ġ65":12717,"ĠStraÃŁ":12718,"ĠEntwicklungslÃ¤nder":12719,"ĠCheck":12720,"passen":12721,"ĠReisen":12722,"Ġdemanding":12723,"iessen":12724,"ĠAward":12725,"minuten":12726,"ĠSat":12727,"ĠHilfs":12728,"Ġausgestatte":12729,"ĠTemp":12730,"ĠÃľbereinkommen":12731,"Pal":12732,"zeichnis":12733,"bart":12734,"well":12735,"ĠHans":12736,"Ã¶ÃŁen":12737,"iftung":12738,"Ġdrop":12739,"Ġreact":12740,"ĠSur":12741,"ĠReport":12742,"ĠMonetary":12743,"orama":12744,"ĠSchatten":12745,"ĠHalb":12746,"fuhr":12747,"Men":12748,"ĠTel":12749,"Ġgewissen":12750,"ĠWashington":12751,"ausend":12752,"Ġgrateful":12753,"Ġethnic":12754,"minute":12755,"ĠPlenum":12756,"nor":12757,"Ġderartige":12758,"Ġdrug":12759,"related":12760,"ĠAutomobil":12761,"ĠRegen":12762,"wing":12763,"Ġheat":12764,"Ġbehavi":12765,"Ġhostel":12766,"Ġbezahlen":12767,"ĠDusche":12768,"ties":12769,"Ġanspruchs":12770,"Ġamt":12771,"ĠÃ¶ffentlich":12772,"usted":12773,"ĠKroat":12774,"Ġelectricity":12775,"stud":12776,"ĠLiebe":12777,"otive":12778,"Ġermut":12779,"Ġinteressante":12780,"ĠEis":12781,"Ġcastle":12782,"ĠSonne":12783,"Like":12784,"Ġentschlossen":12785,"Ġinvite":12786,"Ġdivided":12787,"ĠLife":12788,"ounter":12789,"ĠTime":12790,"Ġmigration":12791,"ĠWild":12792,"ĠEinheit":12793,"Ġproduziert":12794,"ĠArbeitsplatz":12795,"Ġheritage":12796,"gÃ¼nst":12797,"ĠbeschrÃ¤nkt":12798,"Ġtail":12799,"Ġvisual":12800,"ibliothek":12801,"aciÃ³n":12802,"Ġdriver":12803,"Ġentwickelten":12804,"ĠAusstellung":12805,"Ġdelighted":12806,"ĠPrinzipien":12807,"Ġproducing":12808,"Ġseat":12809,"Ġquarter":12810,"Ġexpansion":12811,"Ġstatistics":12812,"ĠRedner":12813,"Ġster":12814,"Ġwindows":12815,"Ã¼ler":12816,"Ġmultinational":12817,"zÃ¼ge":12818,"ĠVermÃ¶gen":12819,"Ġcourage":12820,"Ġarrive":12821,"cean":12822,"ĠVerd":12823,"Ġvorange":12824,"Ġverhindert":12825,"ĠBrasil":12826,"Amer":12827,"Two":12828,"Ġverleihen":12829,"ĠGewicht":12830,"schm":12831,"ĠAusgabe":12832,"Software":12833,"ĠVerringerung":12834,"ĠBuchung":12835,"ĠhÃ¤ngt":12836,"ĠErholung":12837,"Ġsuites":12838,"Ġtourists":12839,"ĠKMU":12840,"Ġwelfare":12841,"Ġwidely":12842,"ĠExpl":12843,"Ġmagnific":12844,"Ġentrance":12845,"Ġrelaxation":12846,"ĠÃ¶sterreich":12847,"Ġchannels":12848,"160":12849,"Ġwines":12850,"Ġausgezeichnet":12851,"ikaner":12852,"das":12853,"ĠPartnern":12854,"Ġentdeck":12855,"ĠunmÃ¶glich":12856,"Ġausgesetzt":12857,"Ġinvestors":12858,"Ã®":12859,"ĠNap":12860,"Ġserviert":12861,"Drittens":12862,"arat":12863,"ĠmÃ¼nd":12864,"ĠNice":12865,"ĠWebsites":12866,"Ġfreiwill":12867,"ĠgeprÃ¼ft":12868,"Rat":12869,"ĠWil":12870,"tendlich":12871,"Ġpollution":12872,"pg":12873,"Ġtats":12874,"ĠEinbeziehung":12875,"ĠIndones":12876,"Ġprotocol":12877,"ĠSO":12878,"ĠgeÃ¤":12879,"Ġvisible":12880,"gor":12881,"Ġ55":12882,"ĠDeutschen":12883,"Ġrefr":12884,"aya":12885,"Ġinvolves":12886,"ieben":12887,"ĠFreiheiten":12888,"Ġvalley":12889,"ĠLate":12890,"Ġproof":12891,"Ġjetz":12892,"ĠPrÃ¼f":12893,"Ġlibrary":12894,"rovers":12895,"Ġaufnehmen":12896,"Ã¶rd":12897,"Ġstring":12898,"Ġdirekten":12899,"Ġlocations":12900,"apy":12901,"Ġprotest":12902,"ergeb":12903,"ĠBeziehung":12904,"Ġcontacts":12905,"Ġbottom":12906,"sidiar":12907,"ĠSpeicher":12908,"rett":12909,"Ġgeboten":12910,"Ã½":12911,"Ġentsteht":12912,"kontrolle":12913,"icans":12914,"ĠAnbieter":12915,"nerg":12916,"Ġdeclaration":12917,"ĠRumÃ¤nien":12918,"88":12919,"ROM":12920,"erkennen":12921,"Ġwelchem":12922,"Ġstarts":12923,"Ġsubsidies":12924,"Ġinhabitants":12925,"ĠBlock":12926,"ĠSchlafzimmer":12927,"imedia":12928,"Ġmaintaining":12929,"ĠGovern":12930,"Ġkurzfrist":12931,"Ġcash":12932,"ĠMold":12933,"Ġoral":12934,"etzten":12935,"ĠFaktoren":12936,"ete":12937,"Ġticket":12938,"cons":12939,"Ġflights":12940,"Ġsymp":12941,"izza":12942,"Ġkontakt":12943,"ĠTrag":12944,"Ġbestimmen":12945,"Ġpieces":12946,"ĠProp":12947,"Ġinterv":12948,"TatsÃ¤chlich":12949,"ĠProblems":12950,"Ġvisiting":12951,"fÃ¤nger":12952,"Ġexplore":12953,"Ġexciting":12954,"iented":12955,"Ġsupplement":12956,"ĠKohÃ¤sion":12957,"Ġtie":12958,"Ġabgestimmt":12959,"ĠYear":12960,"Ġpresents":12961,"Ġerreichbar":12962,"diction":12963,"Ġsac":12964,"Ġ34":12965,"Ġball":12966,"iga":12967,"Ġgeboren":12968,"etr":12969,"Ġpassiert":12970,"Ġafternoon":12971,"ĠkÃ¤mpfen":12972,"ĠErsatz":12973,"Ġverschw":12974,"Ġbeeindruck":12975,"Ġindicated":12976,"Ġwollten":12977,"Ġcollaboration":12978,"UNG":12979,"Ġstars":12980,"isses":12981,"ochter":12982,"Ġstaatlichen":12983,"LT":12984,"ĠViertel":12985,"Ã¤tigkeiten":12986,"Ġunderstood":12987,"hÃ¶rigen":12988,"Ġproved":12989,"Ġfocused":12990,"kohol":12991,"Well":12992,"Ohne":12993,"icer":12994,"ĠEarth":12995,"Ġbilateral":12996,"Ġantw":12997,"Ġstored":12998,"ĠUpdate":12999,"ĠVorbe":13000,"Ġcorresponding":13001,"Ġdemonstrate":13002,"ibar":13003,"ĠCongress":13004,"Ġcareful":13005,"Ġshowing":13006,"ruh":13007,"level":13008,"Ġsigns":13009,"ĠVorschlags":13010,"Ġdemonstrated":13011,"dro":13012,"Ġvisited":13013,"maschine":13014,"rak":13015,"aux":13016,"ietnam":13017,"Ġmitge":13018,"Ġgeltenden":13019,"Ġgardens":13020,"ulf":13021,"agers":13022,"ĠFÃ¼hrer":13023,"ĠHaftung":13024,"Ġnewsp":13025,"Ġcosy":13026,"national":13027,"ĠEdition":13028,"Ġdepartment":13029,"Bus":13030,"life":13031,"Ñĩ":13032,"Ġvoc":13033,"Ġspoken":13034,"ĠInf":13035,"ĠVerbot":13036,"Ġgezwungen":13037,"Ġerleichtern":13038,"ĠvollstÃ¤ndige":13039,"ĠPortuguese":13040,"ups":13041,"wÃ¼rdigkeit":13042,"ĠtatsÃ¤ch":13043,"ĠFunds":13044,"ĠsorgfÃ¤ltig":13045,"ĠNeben":13046,"ĠgerÃ¤um":13047,"ĠGerichte":13048,"TH":13049,"Ġlegt":13050,"Ġdrivers":13051,"ĠDirekt":13052,"Ġking":13053,"ĠJer":13054,"Ġhervorge":13055,"werks":13056,"ĠFramework":13057,"undert":13058,"scheidet":13059,"ĠHof":13060,"Ġmostly":13061,"ĠGeschÃ¤fte":13062,"mÃ¤ÃŁigen":13063,"Ġdepending":13064,"Ġferner":13065,"aching":13066,"Ġstopp":13067,"ausschuÃŁ":13068,"BM":13069,"Ġtrop":13070,"Ã©es":13071,"Ġdefiniert":13072,"ĠGentoo":13073,"Ġawa":13074,"ography":13075,"Ġaccident":13076,"ĠÃĦr":13077,"ĠBemerkungen":13078,"ĠausgefÃ¼hrt":13079,"Ġcutting":13080,"Ġwann":13081,"ĠAqu":13082,"Ġrub":13083,"vertre":13084,"Ġwestlichen":13085,"Ġinput":13086,"Ġven":13087,"langen":13088,"ĠWÃ¼nsche":13089,"ĠTax":13090,"Ġfitness":13091,"ĠFrÃ¼":13092,"ĠbegrÃ¼ÃŁt":13093,"ĠBook":13094,"ĠProjekten":13095,"ĠKrÃ¤fte":13096,"Ġaccompanied":13097,"Ġcommission":13098,"Ġpreis":13099,"Ġplanet":13100,"hÃ¤user":13101,"Ġnine":13102,"ĠLager":13103,"Ġworksh":13104,"ĠStruct":13105,"ĠhÃ¶heren":13106,"ĠhinzufÃ¼gen":13107,"ĠFÃ¶rder":13108,"etzte":13109,"ĠCook":13110,"Ġlebens":13111,"ĠGesetzes":13112,"weile":13113,"ĠPRO":13114,"Ġcategories":13115,"mÃ¤ÃŁige":13116,"Ġkostet":13117,"Ġordnungs":13118,"ĠZypern":13119,"ĠSchuld":13120,"ĠBaltic":13121,"onien":13122,"Ġfacility":13123,"gerÃ¤te":13124,"ĠVideos":13125,"Ġfinished":13126,"ĠThat":13127,"Du":13128,"liers":13129,"arische":13130,"2004":13131,"Ġverehrte":13132,"Ġvorlegen":13133,"Ġpersonnel":13134,"ĠWolf":13135,"ĠBrenn":13136,"Ġinflation":13137,"ĠPact":13138,"ĠAnton":13139,"NS":13140,"ĠKompetenz":13141,"Ġechten":13142,"Ġtheme":13143,"rep":13144,"klass":13145,"produkte":13146,"ĠHD":13147,"Ġrestruct":13148,"Ġsolange":13149,"ĠFeuer":13150,"Ġdistingu":13151,"Ġsettlement":13152,"Ġprivat":13153,"Ġbeschleun":13154,"trans":13155,"Ġjegliche":13156,"ĠTaiwan":13157,"Ġcopyright":13158,"ammeln":13159,"ĠVereinbarungen":13160,"Ġchinesischen":13161,"schluÃŁ":13162,"ĠKreuz":13163,"66":13164,"Ġconcluded":13165,"ĠBeitrÃ¤ge":13166,"rent":13167,"ĠGemeinde":13168,"Ġpursu":13169,"ĠGrÃ¼ndung":13170,"Ġspezifischen":13171,"Ġverringern":13172,"Ġspectacular":13173,"ulen":13174,"Welcome":13175,"pping":13176,"ĠZentr":13177,"Ġ33":13178,"Ġsad":13179,"ativer":13180,"Ġcontrolled":13181,"ĠCopenhagen":13182,"Ġongoing":13183,"Ġeffectiveness":13184,"Ġangemessene":13185,"Ġdidn":13186,"Ġnahezu":13187,"ĠBudapest":13188,"Ġprosper":13189,"Ġindividuelle":13190,"Ġgespeichert":13191,"Ġfab":13192,"Mark":13193,"techn":13194,"ulin":13195,"Ġera":13196,"iences":13197,"holm":13198,"Ġerinnert":13199,"ĠbemÃ¼hen":13200,"hips":13201,"Ġexplicit":13202,"ĠAudio":13203,"Sow":13204,"iforn":13205,"Strategie":13206,"ĠLtd":13207,"Ġdream":13208,"ĠSemin":13209,"Ġcommittees":13210,"Port":13211,"Ġcarbon":13212,"ĠGipf":13213,"ifest":13214,"ughter":13215,"Ġbreit":13216,"ĠFleisch":13217,"teilungen":13218,"athol":13219,"Ġfertig":13220,"mens":13221,"ĠSpazier":13222,"Before":13223,"ĠÐ½":13224,"COM":13225,"ĠGesellschaften":13226,"Ġresistance":13227,"Ġlounge":13228,"Ġheutige":13229,"Ġnachzu":13230,"Stud":13231,"Ġreplaced":13232,"pap":13233,"flation":13234,"Ġbilater":13235,"Ġsmooth":13236,"Ġsah":13237,"immungs":13238,"Ġraw":13239,"Ġtermin":13240,"ĠBalkon":13241,"ĠZiffer":13242,"Ġplenty":13243,"ĠAndre":13244,"bro":13245,"ulpt":13246,"Ġprinting":13247,"Ġdocumentation":13248,"Ġtar":13249,"arters":13250,"Ġflag":13251,"Ġheating":13252,"bleme":13253,"cepts":13254,"ĠpalÃ¤stinens":13255,"usehen":13256,"Pol":13257,"ĠEinwohner":13258,"ameters":13259,"ĠEuropol":13260,"ĠAuÃŁenpolitik":13261,"Ġnights":13262,"ĠIV":13263,"ĠOrte":13264,"ĠAgricult":13265,"ĠWord":13266,"ĠVerbindungen":13267,"Ġcycle":13268,"ĠMode":13269,"ĠÃ¼brigens":13270,"Ġrational":13271,"chnung":13272,"Ġautonom":13273,"Ġcitizen":13274,"IDS":13275,"ĠPrague":13276,"ĠNic":13277,"ĠAsien":13278,"Ġminorities":13279,"ĠIdentitÃ¤t":13280,"usse":13281,"Ġbestehende":13282,"ĠMaastricht":13283,"ĠKamera":13284,"Ġconfer":13285,"Ã¡s":13286,"Ġoccasions":13287,"ĠProtection":13288,"ĠWC":13289,"apie":13290,"Ġeducational":13291,"liegt":13292,"Ġfoundation":13293,"Ġfilms":13294,"ĠProfession":13295,"ĠÃ¼berras":13296,"wirtschafts":13297,"ĠWerbung":13298,"fragt":13299,"ifizieren":13300,"Russ":13301,"Ġtrafficking":13302,"Ġfirms":13303,"ĠVorgehen":13304,"nitten":13305,"ĠRec":13306,"ĠNetwork":13307,"Ġawarded":13308,"ĠVerÃ¶ffentlichung":13309,"Ġbehaviour":13310,"herr":13311,"wege":13312,"Ġdefinitely":13313,"Vis":13314,"ĠKas":13315,"ignet":13316,"}})":13317,"BA":13318,"durch":13319,"Ġframe":13320,"orter":13321,"ĠKat":13322,"Verb":13323,"sieht":13324,"Instead":13325,"Ġtickets":13326,"ĠKonzer":13327,"Ġcrimes":13328,"Ġcorruption":13329,"ĠMexico":13330,"Ġconstitution":13331,"ĠOffen":13332,"Ġstreng":13333,"ĠSchweizer":13334,"teils":13335,"Ġimmigrants":13336,"schaffung":13337,"urlaub":13338,"ĠBetr":13339,"ĠNaz":13340,"beziehungen":13341,"Ġtackle":13342,"Ġfem":13343,"ĠAP":13344,"Ġletztlich":13345,"Ġspeaker":13346,"ĠMobilitÃ¤t":13347,"1999":13348,"Ġverdient":13349,"Ġpassenger":13350,"ĠSlovak":13351,"85":13352,"ĠPalÃ¤stinens":13353,"ĠWebseiten":13354,"kter":13355,"gerufen":13356,"Ġassume":13357,"Ġeingere":13358,"klusive":13359,"DER":13360,"ĠBÃ¶":13361,"Ġrapidly":13362,"Ġusual":13363,"Ġrecorded":13364,"Ġverbind":13365,"Ġ1970":13366,"ĠElect":13367,"ĠGames":13368,"ĠPartners":13369,"ĠgrundsÃ¤tzlich":13370,"Ġbehalten":13371,"Ġassets":13372,"ĠSubsidiar":13373,"ĠCamping":13374,"Ġberechtigt":13375,"bekÃ¤mpfung":13376,"ĠInvestitions":13377,"mung":13378,"Through":13379,"Ġovercome":13380,"ĠBoot":13381,"ĠGepÃ¤ck":13382,"demark":13383,"Ġgegebenen":13384,"ĠKommunikations":13385,"hÃ¤ngen":13386,"ĠIsraeli":13387,"Ġspiel":13388,"Ġneun":13389,"Ġplen":13390,"ĠFranz":13391,"Ġcompetent":13392,"Ġwoman":13393,"Dadurch":13394,"Ġprest":13395,"Ġadopting":13396,"emble":13397,"ĠMilch":13398,"agent":13399,"Ġrespected":13400,"ĠZwecke":13401,"ĠOR":13402,"ĠFormat":13403,"Ġoblige":13404,"Ä±":13405,"xy":13406,"Ġverurteilt":13407,"Ġimposed":13408,"ĠOptim":13409,"agg":13410,"Ġ2012":13411,"77":13412,"ĠChancen":13413,"Ġcompatible":13414,"ĠBars":13415,"Ġthr":13416,"Applause":13417,"Ġdesired":13418,"ĠgewÃ¤hrt":13419,"Ġmittler":13420,"ĠBIP":13421,"vertrag":13422,"kommunik":13423,"raf":13424,"ĠVerpack":13425,"ĠGesprÃ¤che":13426,"Ġconfiguration":13427,"oub":13428,"Ġdiscre":13429,"ĠTarif":13430,"ĠFernseh":13431,"ĠUngarn":13432,"ĠWegen":13433,"Ġcenturies":13434,"ĠVerbreitung":13435,"Ġforg":13436,"Ġverbinden":13437,"Ġeinfacher":13438,"ĠZielen":13439,"ĠMarktes":13440,"ultural":13441,"Ġroutes":13442,"ĠhÃ¶chst":13443,"oden":13444,"oche":13445,"ĠBesonder":13446,"Ġrechtlichen":13447,"Ġjenen":13448,"Ġuncertain":13449,"ĠBord":13450,"Ġscheme":13451,"ĠProvinz":13452,"Free":13453,"Ġproven":13454,"Ġnunmehr":13455,"Ġeinheitlichen":13456,"technolog":13457,"asy":13458,"ĠbeschÃ¤ftigen":13459,"Ġvorzu":13460,"Ġorganisieren":13461,"Ġmanufacturer":13462,"Ġdein":13463,"ĠPrin":13464,"useums":13465,"Ġreplace":13466,"Ġvirtual":13467,"itra":13468,"ĠLuf":13469,"Ġprofile":13470,"Ġtraditionelle":13471,"Ġseas":13472,"Ġtransactions":13473,"ĠPolitiken":13474,"Ġcontaining":13475,"Ġped":13476,"Take":13477,"nex":13478,"ĠSymbol":13479,"ĠAktual":13480,"ammt":13481,"Ġdestruction":13482,"Ġsending":13483,"Ġfacts":13484,"ĠSMEs":13485,"Bl":13486,"ĠAnschluss":13487,"Ġappointed":13488,"ĠFriday":13489,"ĠEnergien":13490,"comp":13491,"Ġersetzt":13492,"Ġgespielt":13493,"aun":13494,"Ġbeliebt":13495,"ĠFreit":13496,"Ġsubsidiarity":13497,"Ġjudicial":13498,"ockt":13499,"NA":13500,"Ã¼hrt":13501,"Ġsugar":13502,"Ġice":13503,"Ġarrived":13504,"Ġenjoyed":13505,"Ġcorrectly":13506,"Ġerweiter":13507,"Ġweekend":13508,"Ġlicens":13509,"ĠRent":13510,"ĠGefahren":13511,"Ġletzter":13512,"ĠArgument":13513,"Ġmaritime":13514,"Ġmilk":13515,"Ġisrael":13516,"rain":13517,"Ġpossibly":13518,"freien":13519,"Ġfunctioning":13520,"Ġcredibility":13521,"Ġstronger":13522,"Ġpopul":13523,"ÐµÐ½":13524,"ĠSpecial":13525,"glichkeit":13526,"2007":13527,"LO":13528,"ardo":13529,"ĠPreisen":13530,"Ã´tel":13531,"ĠWart":13532,"Ġtransatlant":13533,"ĠUR":13534,"EE":13535,"Ġsud":13536,"Ġvorstellen":13537,"Ã¶rter":13538,"zent":13539,"ĠUs":13540,"ĠBeam":13541,"Ġgallery":13542,"Beifall":13543,"ĠSorgen":13544,"alerie":13545,"Ġruhig":13546,"Ġberuht":13547,"zneimit":13548,"ĠTraining":13549,"iki":13550,"Ġvorhandenen":13551,"Ġconditioning":13552,"Jedes":13553,"Ġerfolgreiche":13554,"Ġrul":13555,"ĠMedik":13556,"Ġprofessionals":13557,"while":13558,"Ġforum":13559,"Their":13560,"Ġpartly":13561,"ĠWei":13562,"Ġminister":13563,"Phone":13564,"Cons":13565,"ĠDenk":13566,"ĠRezeption":13567,"ĠAnre":13568,"Ġshares":13569,"ĠMax":13570,"ĠTO":13571,"Ġentscheidende":13572,"ĠHostel":13573,"ĠNos":13574,"Ġgestaltet":13575,"Ġlabe":13576,"ĠiP":13577,"ĠAuthor":13578,"Ġchannel":13579,"Ġluxurious":13580,"Ġalcohol":13581,"ĠZert":13582,"bach":13583,"Ġtheoret":13584,"Sc":13585,"ĠMikro":13586,"Ġsit":13587,"Ġdeclared":13588,"Ġcourts":13589,"town":13590,"Ġcoal":13591,"Ġfuer":13592,"Ġinstallieren":13593,"Ġemerging":13594,"Ġsatisfied":13595,"ĠThomas":13596,"ĠSerie":13597,"ĠVerlust":13598,"ĠbekrÃ¤ft":13599,"dauer":13600,"mir":13601,"Ġindividuellen":13602,"Ġcertific":13603,"Ġdivision":13604,"ĠRoad":13605,"ĠauÃŁerordentlich":13606,"yside":13607,"Ġdiscip":13608,"Ġmanager":13609,"ĠdÃ¼rfte":13610,"ĠKomponenten":13611,"ained":13612,"Ã¼ne":13613,"ernel":13614,"ĠRespekt":13615,"ĠLegal":13616,"CP":13617,"wertet":13618,"ĠBesorgnis":13619,"Ġglobalisation":13620,"Ġstehenden":13621,"ĠLiter":13622,"ĠunverzÃ¼glich":13623,"Ġhorizont":13624,"ĠerlÃ¤ut":13625,"etheless":13626,"IK":13627,"ĠAbkommens":13628,"Ġlots":13629,"ĠRen":13630,"Ġconsent":13631,"China":13632,"Daten":13633,"gelÃ¶st":13634,"Ġdiagn":13635,"Ġflood":13636,"Ġdign":13637,"IX":13638,"Noch":13639,"Ġadults":13640,"Tr":13641,"ĠShop":13642,"Ġverwirk":13643,"ivalent":13644,"Commissioner":13645,"Ġtaxation":13646,"ĠBrowser":13647,"jan":13648,"ĠER":13649,"Ġconstitutional":13650,"ĠPage":13651,"cho":13652,"tein":13653,"ĠFreunden":13654,"WF":13655,"gess":13656,"Ġrental":13657,"ĠRechnungshof":13658,"Ġinj":13659,"Ġaussprechen":13660,"acks":13661,"ĠStÃ¤dten":13662,"ĠAusmaÃŁ":13663,"Ġreduzieren":13664,"Ġjener":13665,"Ġdied":13666,"Ġbritische":13667,"Ġmagnificent":13668,"waffen":13669,"behandlung":13670,"ĠWerke":13671,"luss":13672,"Ġsen":13673,"Ġmiles":13674,"Whether":13675,"Ġklaren":13676,"imbabwe":13677,"lehnung":13678,"ĠRechtsstaat":13679,"Ġfehlt":13680,"Ġattract":13681,"rown":13682,"Ġsuppliers":13683,"Ġbrut":13684,"Ġaddresses":13685,"ĠverstÃ¤rken":13686,"Ã¼ndete":13687,"ĠFac":13688,"ographic":13689,"Ġrechtzeit":13690,"Ġunfair":13691,"orie":13692,"uchs":13693,"ĠBetrag":13694,"ĠMem":13695,"unications":13696,"ju":13697,"ila":13698,"ziele":13699,"ĠFerr":13700,"marquis":13701,"ĠWerkzeug":13702,"ĠDefiz":13703,"Ġconsidering":13704,"Ġslightly":13705,"Ġexit":13706,"Ġdistributed":13707,"ĠursprÃ¼nglich":13708,"94":13709,"EX":13710,"Dire":13711,"ĠSektoren":13712,"Ġhundred":13713,"ĠBedien":13714,"ĠAD":13715,"uben":13716,"Ġkamen":13717,"athem":13718,"Ġangewand":13719,"ĠVerlauf":13720,"anke":13721,"gested":13722,"ĠEZ":13723,"teln":13724,"Ġzusammenarbeiten":13725,"Ġidentified":13726,"Ġencouraging":13727,"ildren":13728,"Ġeastern":13729,"ĠSki":13730,"ĠErzeugnisse":13731,"Ð·":13732,"ĠschlÃ¤gt":13733,"Ġbestimmter":13734,"Ġsuspend":13735,"ĠAbhÃ¤ng":13736,"ĠIndian":13737,"zut":13738,"ĠSozialdem":13739,"Ġangegebenen":13740,"rates":13741,"ieller":13742,"otic":13743,"ulich":13744,"estra":13745,"Ġproposes":13746,"ĠMitarbeitern":13747,"Ġpreparing":13748,"ĠZÃ¼r":13749,"Ġwiederholen":13750,"dienste":13751,"ĠPay":13752,"Ġsurf":13753,"Ġpoten":13754,"ĠPR":13755,"ĠVorstellung":13756,"Ġluxuri":13757,"ĠOpposition":13758,"Äĩ":13759,"Ġformed":13760,"Ġvari":13761,"ĠBalkans":13762,"ĠGaza":13763,"Ġinclusion":13764,"wirkt":13765,"ĠWohlstand":13766,"ĠSpaÃŁ":13767,"Ġplays":13768,"Ġverbesser":13769,"ĠBetracht":13770,"ĠGericht":13771,"ĠKriegs":13772,"Car":13773,"ĠgroÃŁzÃ¼g":13774,"ĠKapitel":13775,"ĠNorthern":13776,"Ġextraordinary":13777,"Ġverkaufen":13778,"regeln":13779,"ĠUntersuchungen":13780,"Ġeingereicht":13781,"Ġplenary":13782,"wÃ¤hlen":13783,"Ġbetreffend":13784,"udi":13785,"Ġsubstance":13786,"Ġproviders":13787,"ĠBek":13788,"prene":13789,"ĠMÃ¤nnern":13790,"erts":13791,"ĠAuge":13792,"unger":13793,"amo":13794,"ipt":13795,"anw":13796,"ĠFair":13797,"ĠDynam":13798,"Ġdeposit":13799,"ĠUSS":13800,"betrieb":13801,"ĠVietnam":13802,"zentren":13803,"ĠOptionen":13804,"informationen":13805,"ĠUrheber":13806,"Ġbright":13807,"Ġresolved":13808,"Ġarmy":13809,"gener":13810,"Ġunw":13811,"ĠNiger":13812,"stellungs":13813,"Ġmac":13814,"Perhaps":13815,"Don":13816,"rical":13817,"ĠTsch":13818,"Ġsuit":13819,"ĠSalzburg":13820,"Kann":13821,"zonen":13822,"ĠSche":13823,"ĠChair":13824,"ĠSar":13825,"idet":13826,"ursday":13827,"ĠVersand":13828,"ĠBelgium":13829,"Ġrussischen":13830,"ĠVict":13831,"ĠSoviet":13832,"ĠDev":13833,"Ġappeared":13834,"ĠÃ¤uÃŁern":13835,"TM":13836,"ĠKriminal":13837,"ĠProgrammen":13838,"ĠBrand":13839,"ĠTochter":13840,"ĠDipl":13841,"kehrt":13842,"bung":13843,"ĠCharta":13844,"ĠBemerkung":13845,"Ġamen":13846,"ĠJa":13847,"werken":13848,"Ġ2013":13849,"Ġerhielt":13850,"ĠKontrollen":13851,"ĠBereitstellung":13852,"ĠKaffee":13853,"ĠMoz":13854,"ĠMichel":13855,"ented":13856,"Ġarab":13857,"ĠQuark":13858,"ĠDetail":13859,"Ġsensible":13860,"ĠSchlussfolgerungen":13861,"spartner":13862,"Ġensures":13863,"Ġerfolgreichen":13864,"ĠKonsult":13865,"itim":13866,"Ġvorbereitet":13867,"Ġhonest":13868,"ziellen":13869,"ville":13870,"Ġempfangen":13871,"ademy":13872,"ĠKopenhagen":13873,"Ġthousand":13874,"Ġduties":13875,"site":13876,"Ġvieles":13877,"ÑĢÐ°":13878,"ĠHungary":13879,"dorf":13880,"ĠSatz":13881,"Ġvermitteln":13882,"Ġeveryday":13883,"Ġstil":13884,"ianz":13885,"programme":13886,"ĠMalta":13887,"ĠVern":13888,"ĠWesent":13889,"strafe":13890,"Ġerhebliche":13891,"schefs":13892,"Ġartistic":13893,"Ġactively":13894,"Press":13895,"ĠPlug":13896,"Ġdomain":13897,"Ġroads":13898,"Ġenhance":13899,"Best":13900,"Ġnutz":13901,"Ġnahm":13902,"Ġbeigetragen":13903,"iegelt":13904,"gÃ¤nger":13905,"Ġfunctional":13906,"ĠAKP":13907,"Ġconcepts":13908,"Ġcompos":13909,"Check":13910,"ingly":13911,"ĠLuc":13912,"ĠAlpen":13913,"Ġeventually":13914,"Ġsor":13915,"ĠHinweis":13916,"ĠIb":13917,"ĠGÃ¼ter":13918,"Ã¶konom":13919,"bereiten":13920,"istent":13921,"ami":13922,"ĠKais":13923,"ĠVerbraucherschutz":13924,"Ġtheory":13925,"ĠzurÃ¼ckzu":13926,"Ġmusical":13927,"Ġsolely":13928,"Ġpartial":13929,"ĠRechtsgrundlage":13930,"ĠAssembly":13931,"Ġelsewhere":13932,"ĠValley":13933,"Ġ700":13934,"Ġcomponent":13935,"ĠDonner":13936,"Ġassure":13937,"ĠDesk":13938,"Ġwestern":13939,
[...]
